<unk>	0
<s>	0
</s>	0
,	-2.58477
.	-2.97936
▁ᎠᎴ	-3.365
▁ᎾᏍᎩ	-3.79152
;	-3.89236
Ꮓ	-4.09442
▁ᎯᎠ	-4.43664
▁ᎨᏒ	-4.72992
▁	-4.81512
Ꭲ	-4.82607
▁ᎥᏝ	-5.15633
?	-5.20136
▁ᎨᏒᎢ	-5.20228
ᏰᏃ	-5.28125
Ꭹ	-5.28464
▁ᎨᏎᏍᏗ	-5.33752
▁ᎤᏁᎳᏅᎯ	-5.35273
▁Ꭴ	-5.43173
▁ᏃᎴ	-5.46208
▁Ꭰ	-5.56747
Ꮧ	-5.56752
▁ᏴᏫ	-5.58059
Ꮙ	-5.62312
”	-5.69302
Ꭿ	-5.70048
▁ᎩᎶ	-5.73049
▁ᎢᏳᏍᏗ	-5.81062
▁ᎾᏍᏉ	-5.81129
Ꭽ	-5.81275
▁Ꮎ	-5.83635
▁ᎾᎿ	-5.85381
▁ᎾᏍᎩᏯ	-5.86393
⁠	-5.86979
▁ᎠᏎᏃ	-5.88347
▁ᎠᏴ	-5.88863
▁ᏱᎩ	-5.93061
▁ᎢᎦ	-5.96036
▁ᎪᎱᏍᏗ	-5.9638
▁ᏥᎩ	-5.99204
-	-5.99475
▁ᏱᎰᏩ	-6.00372
▁ᏂᎦᏛ	-6.02784
▁ᏂᎯ	-6.03192
Ꮎ	-6.05549
▁ᎤᎬᏫᏳᎯ	-6.05706
▁ᏂᎨᏒᎾ	-6.05833
▁ᏥᏌ	-6.06557
Ᏹ	-6.09726
Ꮫ	-6.10943
ᏍᏗ	-6.13497
▁“	-6.13911
ᏍᎩᏂ	-6.17739
Ꮣ	-6.18757
▁ᎣᏍᏛ	-6.24431
▁Ꮷ	-6.24461
▁Ꮧ	-6.25066
▁ᎯᎠᏃ	-6.25494
▁ᎤᏪᏥ	-6.2976
▁ᎢᏳᏃ	-6.35333
▁ᎾᏍᎩᏃ	-6.38032
▁ᏧᏪᏥ	-6.3933
▁ᎦᎶᏁᏛ	-6.42926
▁Ꮵ	-6.43457
▁ᎠᏂ	-6.44655
▁ᏄᏪᏎᎢ	-6.44992
▁ᏞᏍᏗ	-6.4514
Ꭶ	-6.45238
▁ᎿᏉ	-6.46725
▁ᎡᎶᎯ	-6.47831
▁ᎨᏍᏗ	-6.51125
▁Ꮳ	-6.53625
▁ᎿᏉᏃ	-6.54161
▁ᎤᏲ	-6.5447
▁Ꮪ	-6.57534
Ꮕ	-6.58593
▁ᎦᏙ	-6.59298
▁ᎤᏛᏁ	-6.59845
!	-6.60272
▁ᎤᏣᏘ	-6.63695
▁ᎠᏍᎦᏯ	-6.64334
▁Ᏹ	-6.66108
Ꮒ	-6.66663
▁ᎠᏥᎸ	-6.66776
▁”	-6.69788
▁ᏫᎵᎻ	-6.72111
▁ᎾᎯᏳ	-6.73331
▁ᏂᎦᎥ	-6.74666
▁ᎬᏂᎨᏒ	-6.75522
▁ᎠᎹ	-6.76608
▁ᎦᎸᏉᏗᏳ	-6.77055
▁ᎬᏂᏳᏉ	-6.77995
▁ᏄᏍᏛ	-6.78101
▁ᎡᎯ	-6.79297
▁ᎦᎸᎳᏗ	-6.79654
▁ᎧᏃᎮᏛ	-6.80243
Ꮈ	-6.80358
▁ᎠᏁᎯ	-6.80887
▁ᎤᏩᏒ	-6.81396
▁ᎠᏰᎵ	-6.84313
Ꭸ	-6.84841
▁ᎠᏕᎸ	-6.8495
Ꮟ	-6.85356
▁ᎤᏤᎵ	-6.86885
▁ᎨᏎᎢ	-6.87122
Ꮅ	-6.87396
▁ᎠᏎ	-6.87746
▁ᎤᏂ	-6.89917
▁ᎢᏣ	-6.90458
▁ᏌᏉ	-6.90466
▁ᏰᎵ	-6.9083
▁ᎤᏤᎵᎦ	-6.90854
▁ᎢᏴᏛ	-6.92556
▁ᎪᎯ	-6.93047
ᏗᏱ	-6.94238
Ꮢ	-6.94491
Ᏻ	-6.95467
▁Ꮣ	-6.95617
▁ᎦᏙᎯ	-6.97131
Ꮄ	-6.97196
▁ᏔᎵ	-6.97373
▁ᎤᏍᏗ	-6.97586
▁ᎾᏂᎥ	-6.97671
▁Ꭲ	-6.98048
▁ᎣᏏᏳ	-6.98444
Ꮂ	-6.99429
Ꭰ	-6.99763
▁ᎤᏟ	-7.00282
▁Ꭿ	-7.01297
▁ᎢᏏᎵ	-7.02297
▁ᎣᏍᏓ	-7.02609
ᏍᎪ	-7.02965
▁[	-7.03265
]	-7.0403
▁ᏗᎧᎿᏩᏛᏍᏗ	-7.04203
▁Ꭶ	-7.05503
▁ᎠᏓᏅᏙ	-7.06943
▁ᎠᏂᏍᎦᏯ	-7.0795
▁ᎨᏎ	-7.10245
▁ᏔᎵᏁ	-7.12597
▁ᎢᏥᏈᏱ	-7.13306
ᏍᎩ	-7.14874
Ꭺ	-7.16175
▁ᎼᏏ	-7.16377
▁ᎬᏩ	-7.16609
▁ᎢᏳ	-7.17967
▁ᎢᎬᏱ	-7.20506
▁ᎨᏒᎩ	-7.20633
▁⁠	-7.21273
▁ᎡᎳᏗ	-7.21562
Ꭼ	-7.21569
▁ᏚᏳᎪᏛ	-7.22205
▁ᏩᎦ	-7.22252
▁ᏤᎦᏈ	-7.23205
▁Ᏻ	-7.23303
Ꮑ	-7.24723
▁ᎠᏫ	-7.24784
▁ᎤᏂᏣᏘ	-7.25747
ᎨᏍᏗ	-7.27592
▁ᎤᎾ	-7.27614
▁ᎡᏆᎭᎻ	-7.27752
▁ᎢᏳᎵᏍᏙᏗᏱ	-7.27828
ᏙᏗ	-7.28275
▁ᎦᏙᏃ	-7.28616
Ꮿ	-7.28642
:	-7.28723
Ꮝ	-7.28925
▁ᎢᏗᏢ	-7.29232
▁ᏏᏆ	-7.30646
▁ᏇᎵᏲ	-7.31212
▁ᎾᎥ	-7.31483
▁ᏲᎾ	-7.32805
▁Ꮻ	-7.32958
▁ᎠᎨᏴ	-7.33271
▁ᎬᏗ	-7.3457
▁ᏦᏩ	-7.35344
▁ᎠᏏ	-7.35981
▁ᏌᎳᏓ	-7.3646
▁ᏅᎩ	-7.36492
▁ᏦᎢ	-7.36727
▁Ꮽ	-7.38123
▁ᏄᏪᏒᎩ	-7.38732
▁ᏂᎦᏓ	-7.39158
▁ᏄᏪᏎᎴᎢ	-7.40221
Ꮃ	-7.40445
▁ᏅᏯ	-7.413
Ꮵ	-7.42768
▁ᏧᏓᎴᏅᏛ	-7.44113
▁ᎢᏥ	-7.44213
▁ᎦᎪ	-7.44558
▁ᎠᏓ	-7.44564
▁ᏐᏈᎵ	-7.44686
▁ᎦᏚ	-7.45373
▁ᏱᎨᏎᏍᏗ	-7.45411
▁ᏂᎪᎯᎸ	-7.47758
▁ᎤᏙᎯᏳᎯᏯ	-7.48837
▁ᏥᏌᏃ	-7.48962
▁Ꮿ	-7.49032
Ꮞ	-7.49117
▁Ꮒ	-7.50839
Ꭾ	-7.51027
ᏍᎬ	-7.52002
▁ᏂᏚᏪᏎᎴᎢ	-7.52048
▁ᏝᏍᎪ	-7.53795
▁ᎠᏂᏧᏏ	-7.54589
▁ᏣᎬᏫᏳᎯ	-7.55
▁ᎤᎬᏩᎵ	-7.55625
▁ᎠᏆ	-7.55743
▁ᏧᏤᎵ	-7.56082
▁ᎦᎵᏉᎩ	-7.56146
▁ᏓᎶᏂᎨ	-7.56161
▁Ꮔ	-7.56359
▁ᎬᏩᏍᏓᏩᏗᏙᎯ	-7.58237
▁ᏄᏪᏎᎸᎩ	-7.58348
▁ᎦᏓ	-7.58571
▁ᎡᏍᎦ	-7.58788
▁ᏂᎦᏗᏳ	-7.59574
▁ᎤᏙᏓ	-7.61691
▁ᎢᏧᎳᎭ	-7.61852
▁ᏰᎵᏉ	-7.62707
▁Ꭼ	-7.62955
▁Ꭸ	-7.63857
▁ᎣᏂ	-7.63967
Ꮨ	-7.64623
▁Ꮥ	-7.65766
▁ᏈᏓ	-7.66513
▁ᎪᏪᎵ	-7.67599
▁ᏚᏂ	-7.67885
▁ᏄᏪᏎᎴ	-7.67904
▁Ꮭ	-7.69124
▁ᎤᏤᏍᏙ	-7.69393
▁ᎢᏴ	-7.69947
▁ᎠᎩ	-7.70003
Ᏼ	-7.70526
▁ᎢᎩ	-7.70743
▁ᏣᏂ	-7.70801
▁ᏥᎷᏏᎵᎻ	-7.71636
▁ᎠᏧᏣ	-7.72396
▁ᏂᏚᏪᏎᎸᎩ	-7.72432
▁ᎦᏚᎲ	-7.72484
▁ᎠᏏᏉ	-7.7255
▁ᎬᏂ	-7.73009
▁Ꭱ	-7.73283
▁ᏅᏗᎦᎵᏍᏙᏗᎭ	-7.73956
▁ᎠᏂᎨᏴ	-7.74707
▁ᎤᏅᏒ	-7.75741
▁ᏱᎨᏎ	-7.76868
▁ᏉᎳ	-7.77808
▁ᏧᎾᏓᎴᏅᏛ	-7.77874
▁ᎡᏙᏓ	-7.77877
▁ᎢᏤ	-7.77986
▁ᎢᏯᏂᏛ	-7.78747
▁ᎬᏂᏛ	-7.78925
▁ᏍᎩ	-7.79669
▁ᏄᎬᏫᏳᏒ	-7.80303
▁ᏂᎬᎾᏛ	-7.80341
▁ᎢᎦᎢ	-7.81922
▁ᎾᏍᎩᏯᎢ	-7.82473
▁ᏣᎵ	-7.82813
▁ᏐᏉ	-7.82899
▁ᎠᏂᏔᎵ	-7.83345
▁ᎪᎯᏳᏗ	-7.83958
Ꮀ	-7.84014
Ꮲ	-7.84239
▁ᎯᏍᎩ	-7.85831
ᏍᎨᏍᏗ	-7.8598
▁ᎡᎳᏂ	-7.86165
▁ᎾᎥᏂ	-7.86173
ᏔᏅᎯ	-7.86183
▁ᏄᎵᏍᏔᏁᎢ	-7.86746
▁ᏑᎾᎴ	-7.86822
Ꭵ	-7.87066
▁ᎤᎵᏂᎩᏛ	-7.87128
▁Ꭷ	-7.87144
▁Ꮩ	-7.87706
▁ᎤᏓᎵᎢ	-7.88107
Ꮜ	-7.88182
▁ᎤᏙᎯᏳᎯ	-7.88232
ᎸᎯ	-7.88262
▁ᎤᏁᏨ	-7.88263
▁ᏥᎪ	-7.88475
▁ᎼᏏᏃ	-7.8869
▁ᎠᏣᏗ	-7.88932
▁Ꭽ	-7.88984
▁ᏗᎦᎳᏫᎢᏍᏗᏱ	-7.89254
ᎸᎩ	-7.90059
▁ᎢᎨᏎᏍᏗ	-7.9162
▁ᎢᎬᏱᏗᏢ	-7.91621
▁ᎤᏓᏙᎵᏍᏗ	-7.91625
▁ᏄᏂᏪᏎᎢ	-7.91668
ᎮᏍᏗ	-7.91795
▁ᏧᏂ	-7.92266
Ꮳ	-7.93162
▁ᎩᎦᎨ	-7.93324
▁ᎠᏯ	-7.93379
ᎴᎢ	-7.93709
Ꮸ	-7.95109
▁ᏧᎾ	-7.95136
▁ᏗᎦᎸᏫᏍᏓᏁᏗ	-7.95136
▁ᎩᎳ	-7.95163
▁ᏗᎧᎿᏩᏗᏙᎯ	-7.95384
▁ᎤᏛᏅ	-7.9569
ᏔᏅ	-7.95934
▁ᎠᎵᏍᏓᏴᏗ	-7.96122
▁ᏗᏣ	-7.96177
▁ᎢᏧᎳ	-7.97019
▁ᏌᏌ	-7.97321
Ꮻ	-7.98007
Ꮩ	-7.98018
Ꮥ	-7.9803
▁ᎡᏏᎩ	-7.98687
▁ᎤᏓ	-7.99002
▁ᎠᎾᎵᏅᏟ	-7.99274
▁ᎭᏫᏂ	-8.00076
▁ᏓᏆᎴᎳ	-8.00278
▁ᎰᎻ	-8.01312
▁ᎦᎶᎯᏍᏗᏱ	-8.01405
▁ᏅᏩᏓᎴ	-8.01814
▁ᎢᎾᎨ	-8.01883
▁ᎤᏩᏌ	-8.01911
▁ᏒᏃᏱ	-8.0231
▁ᎤᏥ	-8.02987
▁ᏍᎩᎾᎾ	-8.03284
▁ᏧᎬᏩᎶᏗ	-8.04401
▁ᎢᎬᏱᏱ	-8.04428
▁ᎬᏩᎦᏘᏯ	-8.05436
▁ᎤᏃᏕᎾ	-8.05439
▁ᏅᏙ	-8.0582
▁Ꭵ	-8.06019
▁ᏔᎳᏚ	-8.06503
▁ᎢᎸᎯᏳ	-8.0757
▁Ꭳ	-8.08005
▁ᎦᎸᎶᎢ	-8.08073
▁ᏚᏙᎥ	-8.0841
▁ᏱᎨᏎᎢ	-8.08655
ᏍᏛ	-8.08791
Ꮤ	-8.09302
▁ᎦᏲᏟ	-8.10753
▁ᎤᎾᏤᎵᎦ	-8.11191
ᏒᎢ	-8.11674
ᏍᎦ	-8.11792
▁ᏧᎾᏁᎶᏗ	-8.12003
▁ᎠᏏᏴᏫ	-8.12179
▁ᏚᎾ	-8.12328
ᏅᎯ	-8.12452
▁ᏥᏳ	-8.12577
▁ᏅᏩᏙᎯᏯᏛ	-8.13126
▁ᎦᏳᎳ	-8.13139
▁ᎣᎩ	-8.13336
ᏉᏍᎩᏂ	-8.13921
▁ᏄᎵᏍᏔᏅ	-8.14157
▁ᎢᏓᎵᏅᏟ	-8.14279
▁ᎤᏚᎩ	-8.14451
▁ᏗᎦ	-8.14661
▁Ꮹ	-8.15288
▁ᏱᎨᏒᎾ	-8.15441
ᏍᎩᏂᏃᏅ	-8.15699
ᏍᎪᎢ	-8.15795
▁ᎠᏰᎸ	-8.16422
▁ᎠᏆᏤᎵ	-8.16467
▁ᎤᏍᏆᏂᎪᏗ	-8.1659
ᏁᎢ	-8.17414
▁ᎦᏓᎭ	-8.18436
▁ᏓᏂ	-8.18448
▁ᎡᏆ	-8.18822
▁ᎢᎪᎯᏛ	-8.19036
▁ᎠᎬᏱ	-8.19067
ᏎᎢ	-8.20203
▁ᎭᏫᏂᏗᏢ	-8.20236
▁ᎠᏇᏥ	-8.2024
▁ᏧᏤᎵᎦ	-8.20719
▁ᎩᎳᏉ	-8.21091
▁ᏅᏓᏳᏓᎴᏅᎯ	-8.21466
▁ᏂᏨᏪᏎᎭ	-8.21479
▁ᎭᏢ	-8.21486
▁ᏄᏂᏪᏒᎩ	-8.21534
ᎸᎢ	-8.22487
▁ᎤᏇᏓᎵ	-8.22712
▁ᎤᎾᏓᏅᏘ	-8.2275
▁ᏐᎢ	-8.22889
▁Ꮫ	-8.23176
▁ᎢᏳᏩᏂᏌᏛ	-8.23981
▁ᎢᏳᏰᏃ	-8.24175
▁ᎢᏐ	-8.24271
▁ᎯᎳ	-8.24304
▁ᏠᎨᏏ	-8.25279
▁ᎤᏁᎳᎩ	-8.25281
▁ᏃᏗ	-8.25722
▁ᏄᏍᏗ	-8.26324
▁ᎢᏯᎦᏴᎵ	-8.26561
▁ᎤᏕᎵᏛ	-8.26584
▁ᏧᏙᎢᏛ	-8.26593
▁ᏄᏪᏒ	-8.26606
Ꮆ	-8.26937
▁ᎢᎦᏛ	-8.26951
▁ᎦᎵᏦᏛ	-8.27112
▁ᎠᏓᏁᎸ	-8.27272
ᏍᏗᏱ	-8.27557
▁ᏧᏍᏆᏴᏍᏗ	-8.27951
▁ᎤᏛᏛᏁ	-8.28327
ᎲᎢ	-8.28555
Ꮖ	-8.28632
▁ᏍᏉ	-8.28973
▁ᎢᏳᎵᏍᏙᏗ	-8.29019
▁ᏄᎵᏍᏔᏁ	-8.29125
▁ᏗᎪᏢᏔᏅᎯ	-8.29229
▁ᎠᏁᎲ	-8.29362
▁ᎢᎪᎯᏓ	-8.306
ᏒᎩ	-8.31041
▁ᎠᏁᎲᎢ	-8.31431
▁ᏄᏓᎴᏒ	-8.3212
ᏅᎩ	-8.32311
▁ᏦᎢᏁ	-8.32367
ᎪᎢ	-8.32913
▁Ꮶ	-8.33226
▁ᎠᏍᏓᏯ	-8.33355
▁ᎦᏁᎸ	-8.33372
▁ᎤᎾᏤᎵ	-8.34369
ᎨᎢ	-8.34603
▁ᎠᎾᏙᎴᎰᏍᎩ	-8.34731
▁Ꮟ	-8.35318
▁ᏃᏉ	-8.35954
▁ᎠᏍᎪᎯᏧᏈ	-8.36187
▁ᎩᎬ	-8.36199
▁ᏕᏥ	-8.3629
Ꮴ	-8.36327
▁ᏥᎨᏒ	-8.36374
▁ᎡᎳᏆᏗ	-8.37634
ᏙᏗᏱ	-8.3764
▁ᎠᏲᎱᎯᏍᏗ	-8.37641
▁ᏧᏅᏏᏓᏍᏗ	-8.37641
▁ᏄᎵᏍᏔᏅᎩ	-8.38234
▁ᏕᎦ	-8.38372
▁ᎠᎦᏴᎵᎨ	-8.38385
▁ᎤᏒ	-8.38514
▁ᏌᏩᏂ	-8.39077
▁ᎠᏂᏆᎵᏏ	-8.39077
ᎮᎢ	-8.3959
▁ᎧᏅᏂᏍᎩ	-8.40158
Ꮹ	-8.40344
▁ᎤᏂᏃᏕᎾ	-8.40578
▁ᎤᏃᎴ	-8.40683
▁ᏥᏳᎯ	-8.40685
▁ᎤᏁᎬ	-8.40761
▁ᎤᏒᎯ	-8.41197
▁ᎠᏍᎦᏂ	-8.4187
▁ᎡᏣ	-8.41936
ᎬᎢ	-8.42073
▁ᏄᏂᎬᏫᏳᏒ	-8.42089
▁ᏧᏕᏘᏴᏛ	-8.4209
▁ᎠᎺᏉᎯ	-8.42097
▁ᏗᏥ	-8.42564
▁ᎠᏍᎪᎵ	-8.43117
Ꮚ	-8.43482
▁ᎤᏂᎬᏫᏳᎯ	-8.43661
▁ᎨᏐᎢ	-8.44388
ᏍᎬᎢ	-8.44682
▁ᎡᏥ	-8.44821
▁ᎢᏯ	-8.45012
▁ᎢᎦᏤᎵ	-8.45066
▁ᎠᏙᎴᎰᏍᎩ	-8.45197
Ꮯ	-8.45231
▁ᏂᎬ	-8.45925
Ꭴ	-8.45983
Ꭷ	-8.46622
▁ᏗᏂᎧᎿᏩᏗᏙᎯ	-8.46772
▁ᎤᏬᏰᏂ	-8.46782
▁ᏣᏄᏏ	-8.46807
▁ᏅᏩᎾᏓᎴ	-8.47521
▁ᏂᎯᏍᎩᏂ	-8.47545
Ᏺ	-8.48205
▁ᎤᏓᏅᏘ	-8.48333
ᏍᏙᏗ	-8.48512
Ꮷ	-8.48818
▁ᎨᏐ	-8.49275
▁ᎾᎿᏂ	-8.50156
▁ᎠᏥ	-8.50251
ᎨᎶᎯ	-8.50677
▁ᎢᏗ	-8.5116
▁ᏑᏓᎵ	-8.513
▁ᏧᏂᏍᏆᏂᎪᏙᏗ	-8.51732
▁ᎥᎥ	-8.51752
▁ᏂᎬᏅ	-8.5201
▁ᏗᏂᏲᎵ	-8.52545
▁ᎢᏨ	-8.52559
▁ᎦᎸᎶ	-8.52624
▁ᎤᏙᎯᏳ	-8.52648
Ꭳ	-8.53186
▁ᎤᏴᏍᏗ	-8.53252
▁ᎠᏲᎵ	-8.53342
▁ᎡᏆᎻ	-8.53405
▁ᎤᎵᏂᎩᏗᏳ	-8.53424
Ᏸ	-8.53449
▁ᎡᏝᏪᎯ	-8.53549
ᏁᎸ	-8.54304
▁ᎠᎦᏴᎵᎨᎢ	-8.54316
▁ᏤᏥ	-8.5472
▁ᎦᎵᏦᏕ	-8.55114
▁ᎦᎾᏝᎢ	-8.55139
▁ᎪᎰᏍᏗ	-8.55154
▁ᎠᏂᏴᏫᏯ	-8.55155
▁ᎤᎵᏏᎩ	-8.55187
▁ᏨᏒ	-8.55295
▁ᎢᏨᏒ	-8.55337
▁ᎤᏅᏗ	-8.55994
▁ᎣᏓᎸ	-8.56074
▁ᏔᎵᏁᏃ	-8.56754
▁ᏗᏂᏲᏟ	-8.56865
▁ᎠᏓᎨᏳᏗ	-8.56909
▁ᎨᎵᎵ	-8.56948
Ꭱ	-8.57059
▁ᎦᎸᏉᏗ	-8.57138
▁ᎤᏁᎳᏅᎯᏃ	-8.57199
ᎦᎵ	-8.57425
▁ᏥᎨᏒᎩ	-8.5748
▁ᏥᎨᏎᎢ	-8.57561
ᎠᏁᎶᎯ	-8.57575
Ꮘ	-8.58315
)	-8.5865
▁ᎢᏯᎩᏳᏍᏈᏛ	-8.58655
▁ᎠᏍᎩᎾ	-8.58691
▁ᎤᏤᎵᎪᎯ	-8.58711
▁ᎪᎢ	-8.58762
▁ᎠᎩᎾ	-8.59289
▁ᎭᎾ	-8.59486
▁ᏄᏓᎴ	-8.59989
▁ᎠᏄᏬ	-8.60299
▁ᏗᏃᏪᎵᏍᎩ	-8.60468
▁ᎤᏅᏏᏓᏍᏗ	-8.60549
▁ᏕᏫ	-8.60563
▁ᎧᏁᏌᎢ	-8.60572
▁Ꮨ	-8.61293
▁ᎠᎾ	-8.61607
▁ᎩᏟ	-8.62335
▁ᎦᏰᎪᎩ	-8.62343
▁ᎦᏚᎲᎢ	-8.62467
▁ᎠᎦᏔᎲᎢ	-8.62821
▁ᎭᏂ	-8.6314
▁(	-8.64207
▁ᎧᏁᏍᎦ	-8.64207
▁ᎠᏂᏧᏣ	-8.64213
▁ᎤᎬᏫᏳᏌᏕᎩ	-8.64271
▁ᎠᏛ	-8.64525
Ꮭ	-8.64664
▁ᏫᏥ	-8.64866
▁ᏗᏆᏤᎵ	-8.65981
▁ᎴᏆᏂ	-8.6613
▁ᎠᏃᎯᏳᎲᏍᎩ	-8.66135
▁ᏥᏍᏕᏥ	-8.6614
▁ᎤᏣᏔᏅᎯ	-8.66149
▁ᎠᏰᎳᏍᏗ	-8.66172
▁ᏄᏍᏕᏍᏗ	-8.66251
▁ᎤᏛᎦᏅ	-8.66302
▁ᎢᎦᏓ	-8.67071
▁ᎤᏰᎸᏗ	-8.6721
▁ᏣᏤᎵ	-8.67789
ᏍᎨᎢ	-8.6793
▁ᎠᏂᏍᎩᎾ	-8.68097
▁ᏗᎦᏙᎵ	-8.68142
▁ᏔᎷᎩᏍᎩ	-8.68273
▁Ꮕ	-8.68778
▁ᎨᎳᏍᏗᏱ	-8.68867
ᏔᏅᎩ	-8.69295
ᏁᏗᏱ	-8.69632
▁Ꮁ	-8.69702
▁ᏕᏣ	-8.69857
▁ᎠᏌᎻᏓ	-8.70091
▁ᏗᎾᏓᏅᏟ	-8.70092
▁ᎨᏥᏅᏏᏛ	-8.701
▁ᎺᎵ	-8.70136
▁ᏅᏲᎯ	-8.70156
▁ᏧᏁᏥ	-8.70187
▁ᎠᏗᎾ	-8.70188
▁ᎠᏂᏏᏴᏫᎭ	-8.70191
▁ᎤᏲᎱᏒ	-8.70439
▁ᎢᎦᏛᏃ	-8.7072
▁ᏂᎦ	-8.70964
▁ᏱᎦ	-8.71184
▁ᎤᏰᎸᏛ	-8.71347
ᏍᏔᏅ	-8.71572
▁ᎠᎲ	-8.71602
ᏔᏁ	-8.71624
▁ᎤᎪᎲ	-8.71764
▁ᏗᏣᏤᎵ	-8.71983
▁Ᏼ	-8.72027
▁ᎢᎸᎯᏢ	-8.72132
▁ᎦᏩᏒᎩ	-8.72132
▁ᎢᏳᏕᏘᏴᏛ	-8.72142
▁ᏧᏂᏲᎱᏒᎯ	-8.72145
▁ᎤᏕᏁᎴᎢ	-8.7216
ᏍᏓ	-8.72221
▁ᎪᏢᏔᏅᎯ	-8.7225
▁ᎰᏩ	-8.72253
o	-8.72646
▁ᎠᎦᏙᎥᎯᏍᏗ	-8.7265
▁ᎠᏍᎪᎯ	-8.72659
ᏧᏈ	-8.72781
▁ᏥᎨᏎ	-8.73157
▁ᎠᏎᏉ	-8.73419
▁ᎦᏍᎩᎸ	-8.73425
▁ᎢᏳᏍᎩᏂ	-8.73425
▁ᎬᏅ	-8.73491
▁ᎤᏁ	-8.73646
▁Ꮀ	-8.74062
▁ᏅᏓᎬᏩᏓᎴᏅᏛ	-8.74216
▁ᏃᏯ	-8.74274
▁ᏣᏁᎳᏅᎯ	-8.74291
ᏍᎨ	-8.74367
▁Ꮸ	-8.7438
▁ᎤᏠᏱ	-8.74487
▁ᎢᏳᎾᏍᏗ	-8.74489
▁ᏂᎪᎯᎸᎢ	-8.74899
ᏗᎭ	-8.74927
ᏗᎦᎳᏫᎢᏍᏗᏱ	-8.7543
▁ᏓᏔᎴᏒ	-8.75517
▁ᎤᎾᏓᏡᎬ	-8.75597
▁ᎧᏁᎬ	-8.75599
ᎬᎾ	-8.76181
Ꮠ	-8.76312
▁ᏗᏓᏍᏚᏗᏱ	-8.76344
▁ᎭᏫᏯ	-8.76348
▁ᏥᎦᏔᎭ	-8.7654
ᏔᏁᎢ	-8.77054
▁ᎤᎷᏨ	-8.77327
▁ᏅᏗᎦᎵᏍᏙᏗᏍᎨ	-8.77476
▁ᏄᏪᏎ	-8.77487
ᎲᎩ	-8.7761
▁ᎨᏴ	-8.77932
ᎭᏩ	-8.78035
ᏅᎢ	-8.7806
▁ᏥᏚ	-8.78169
▁ᏔᏕᏲᎲᏍᎩ	-8.78517
▁ᏆᎴᏗ	-8.78525
▁ᏗᏤᏥ	-8.78544
▁ᎥᏣᏱ	-8.78552
▁ᎤᎾᏤᎵᎪᎯ	-8.78557
▁ᏧᏂᎸᏫᏍᏓᏁᎯ	-8.786
▁ᏓᎦ	-8.78865
▁ᏗᏂ	-8.78932
▁ᎤᏐᏅ	-8.78934
ᏎᏍᏗ	-8.79071
▁ᎤᎾᏛᎦᏅ	-8.79819
▁ᎢᎸᏍᎩ	-8.80131
▁ᏒᎦᏔ	-8.8074
▁ᏅᎦᏍᎪᎯ	-8.80741
▁ᎤᎵᎮᎵᏍᏗ	-8.80775
▁ᏅᏓᎦᎵᏍᏙᏗᏍᎬᎩ	-8.80801
▁ᎤᎴᏅᎮ	-8.80807
▁ᎤᏲᎢᏳ	-8.80878
▁ᎠᎳᏂ	-8.80879
▁ᎬᏘ	-8.809
▁ᏚᏬᎡᎢ	-8.8091
▁ᎡᎶᏛ	-8.80962
▁ᎠᏂᏯᏫᏍᎩ	-8.81209
▁ᏂᎯᏃ	-8.81848
▁ᎠᏂᏐᎢ	-8.81855
ᎲᎾ	-8.8193
▁ᎾᏍᎩᏍᎩᏂ	-8.81945
▁Ꮴ	-8.81979
▁ᎦᏁᎸᎢ	-8.82045
▁-	-8.82096
▁ᎦᎵᏦᏛᎢ	-8.82098
▁ᎤᏙ	-8.82119
▁ᎤᎧᏛ	-8.82239
▁ᎢᏯᏂ	-8.82413
▁ᎠᎹᏱ	-8.82435
▁ᎦᏍᎩᎶ	-8.82466
▁ᏗᎬ	-8.82507
▁ᏌᏉᏉ	-8.8267
▁ᏗᏅᏃᏛ	-8.82749
▁ᏥᏍᏆ	-8.82811
▁ᎡᎺᏅ	-8.83013
▁ᎬᏩᏚᏫᏛ	-8.83016
▁ᎩᎳᏈᏴ	-8.83025
▁ᎤᏣᎴᏍᏗ	-8.83031
▁ᎠᎬᏱᏣ	-8.83079
▁ᎣᎯᏍᏙᏗ	-8.83086
▁ᎭᏫᏂᏣ	-8.83093
▁ᏣᎳᎩ	-8.8311
▁ᎬᏔᏅᎯ	-8.8322
▁ᏂᏣ	-8.83771
▁ᎬᏂᎨ	-8.83776
▁ᎣᏂᏃ	-8.83837
ᎾᏍᎩ	-8.84173
▁ᎤᎾᏙᏓᏆᏍᎬ	-8.84516
▁ᏂᏚᏪᏎᎴ	-8.84563
▁ᎤᏙᎴᎰᏒ	-8.84821
▁ᎤᏓᏅᏙ	-8.84853
ᏁᎸᎯ	-8.84916
▁ᎴᏥᎵ	-8.85337
▁ᎠᏂᏲᏍᎩ	-8.85347
▁ᎠᏂᏣᎳᎩ	-8.85347
▁ᎦᎸᎳᏗᏢ	-8.85656
▁ᎠᎵ	-8.859
▁ᏗᎬᏩ	-8.86291
ᎴᏍᏗ	-8.86432
▁ᎠᎦ	-8.86744
ᎨᎳᏍᏗᏱ	-8.86781
▁ᏥᎨᏐ	-8.86929
▁ᏂᏥᎥ	-8.86944
▁ᏍᎩᏴ	-8.87173
▁ᎤᎵ	-8.87363
▁ᎤᏅ	-8.87464
▁ᏗᏄᏬ	-8.87527
▁ᏫᎾᏍᏛᎾ	-8.87718
▁ᎡᏉᏂ	-8.87736
▁ᏧᏒᎯᏛ	-8.87801
▁ᏎᎵ	-8.87854
▁ᎪᎩ	-8.87891
▁ᏤᎯ	-8.88191
▁ᏂᎦᏪᏍᎬ	-8.88844
▁ᎡᎭ	-8.88931
▁ᏚᏏᎳᏛ	-8.89245
▁ᏂᏚ	-8.89447
▁Ꮤ	-8.8974
Ꮇ	-8.89845
▁ᎤᏪᏘ	-8.90094
▁Ꭺ	-8.90094
▁ᎫᏩ	-8.901
▁ᏖᎸᎳᏗ	-8.90157
▁ᏃᏈᏏ	-8.90194
▁ᎠᏕᎳ	-8.90225
▁ᎾᏂᏪᏍᎨᎢ	-8.90246
▁ᎠᏆᏤᎵᎦ	-8.90503
▁ᎦᏚᏏ	-8.9061
ᏗᏍᎬ	-8.90969
ᏗᏍᎩ	-8.91585
▁ᏧᏗᏱ	-8.91592
▁ᎠᏋᏒ	-8.91659
Ꮋ	-8.91827
▁ᎢᎾᎨᎢ	-8.92097
▁ᏑᎾᎴᎢ	-8.92286
Ꮺ	-8.92394
▁ᎨᎾᏂ	-8.92446
▁Ꭻ	-8.92666
▁ᏭᏕᎵᎬ	-8.92667
▁ᎤᏏᏙᎵ	-8.92674
▁ᏂᎬᏩᏪᏎᎴᎢ	-8.92709
▁ᎢᏳᏟᎶᏛ	-8.92744
▁ᏕᎯ	-8.92848
▁ᎪᏱᏁᎢ	-8.92891
▁ᏱᏚ	-8.93321
▁ᏙᏱ	-8.93354
▁ᏤᏍᏗ	-8.93381
▁ᎠᏂᎦᏔᎲ	-8.94002
▁ᎤᎵᏏᎬ	-8.94398
▁ᎤᏁᏤ	-8.94532
ᏕᏍᏗ	-8.95003
ᏔᏂ	-8.95111
ᎯᏳ	-8.95113
Ꮔ	-8.95116
ᏛᎾ	-8.95164
▁ᏗᏨᏍᏙᏗ	-8.95228
▁ᎦᎶᏇ	-8.95229
▁ᏑᎾᏓᏡᎩ	-8.9523
▁ᎩᎦ	-8.9524
▁ᏃᏊ	-8.95245
ᏓᏁᏗ	-8.95281
▁ᎢᎾᏛ	-8.95372
▁ᏅᏗᎦᎵᏍᏙᏗᏍᎨᏍᏗ	-8.95498
▁ᎠᏴᏃ	-8.95499
▁ᏱᏓ	-8.95575
ᎬᎩ	-8.9564
▁ᎦᎵ	-8.95803
▁ᎦᎶᎯᏍᏗ	-8.96012
▁ᏥᎨᏐᎢ	-8.96086
ᏒᎾ	-8.96353
▁ᏗᎫᎪᏙᏗ	-8.96774
▁ᎤᏪᎵᏎ	-8.96937
▁ᏄᎾᏍᏛ	-8.97057
▁ᎡᎯᏍᏗ	-8.97059
▁ᎣᏥ	-8.97152
▁ᏡᎬ	-8.97162
▁ᎤᏁᏤᎴ	-8.97239
▁ᎤᎾᏓ	-8.97315
▁ᎣᎭᏁ	-8.9742
▁ᎨᏥ	-8.97585
▁ᎤᏁᎳᏅᎯᏍᎩᏂ	-8.97635
▁ᎣᎦ	-8.97721
▁ᏣᏥ	-8.9777
▁ᎬᏃᏛ	-8.97867
▁ᏗᎵᏍᏓᏴᏗᏱ	-8.97888
▁ᎠᏥᎸᏉᏗᏳ	-8.97941
▁ᎠᎰᎵ	-8.97949
▁ᎤᏁᎦ	-8.98015
▁ᏫᏚ	-8.98107
▁ᎤᎬᏫᏳ	-8.98807
▁ᎤᏩ	-8.99054
ᎯᎠ	-8.99108
▁ᎬᏂᏳᏉᏃ	-8.99278
▁ᎤᏍᎪᎸ	-8.99459
▁ᎡᎶ	-8.99728
▁ᏱᏣ	-8.9974
▁ᎤᏪᎷᏁ	-8.99744
▁ᏄᏛᏁᎴ	-8.99767
▁ᎤᏚᎵᏍᎬ	-8.99872
▁ᎠᏆᏓᏅᏙ	-9.00049
▁ᎤᏪ	-9.00378
▁ᏧᎾᏤᎵ	-9.00491
▁ᏧᏬᏰᏂ	-9.00559
▁ᏂᎦᏪᎭ	-9.00596
▁ᎥᏞᏍᏗ	-9.00601
▁ᏍᏓᏯ	-9.00656
▁ᎤᏂᎷᏤ	-9.00685
▁ᏣᏁᎭ	-9.00761
▁ᎠᏎᏉᏉ	-9.01035
▁ᏓᏳ	-9.01273
▁ᎨᏣ	-9.01473
▁ᎮᎾ	-9.01635
▁ᎢᏅ	-9.01727
▁ᎠᏰᎸᎢ	-9.02405
▁ᎠᏓᏅᏖᏍᎬ	-9.02516
▁ᎬᏩᏂ	-9.03085
▁ᎠᎵᏍᎪᎸᏙᏗ	-9.03133
ᏍᏘ	-9.03299
▁ᏗᎧᎸᎬ	-9.03333
▁ᏧᏆᎶᎦ	-9.03333
▁ᏦᎠᏍᎪᎯ	-9.03335
▁ᎩᎶᏍᎩᏂ	-9.03335
▁ᏄᎾ	-9.0335
▁ᎤᎩᎬ	-9.03361
▁ᏗᏂᎳᏫᎩ	-9.0337
▁ᏅᏃᎯ	-9.03463
▁ᏧᎾᏤᎵᎦ	-9.03508
▁ᎩᎦᎨᎢ	-9.04175
▁ᎤᏩᏒᏉ	-9.04238
▁ᏕᎤ	-9.04726
ᏁᏢᏔᏅᏛ	-9.04916
ᏒᎯ	-9.05335
▁ᏅᏗᎦᎵᏍᏙᏗᏍᎬ	-9.0541
▁ᎣᏏ	-9.0552
▁ᏓᎾ	-9.05628
▁ᎢᏣᎵᏍᏓᏁᏗ	-9.05926
▁ᏍᎩᎾ	-9.0605
ᎯᏍᏗ	-9.06181
▁ᏩᎭᏯ	-9.06191
▁ᏙᏱᏗᏢ	-9.06209
▁ᎤᏍᏆᏂᎩᏗ	-9.06495
Ꮪ	-9.06504
▁ᎡᎶᏗ	-9.06527
ᏗᏍᎨᏍᏗ	-9.06545
▁ᎤᏠᏱᏉ	-9.06699
ᎰᎢ	-9.06712
▁ᏧᏓ	-9.06859
▁ᎠᏙᎯ	-9.06932
▁ᎤᎦᏔ	-9.06952
▁ᏛᎦ	-9.07056
ᏙᎢᏳᏍᏗ	-9.07296
▁ᎬᎩ	-9.07498
▁ᎤᏣᏘᏂ	-9.08336
ᏛᎢ	-9.08681
▁ᎢᏳᎾᎵᏍᏓᏁᏗ	-9.0891
▁ᎢᏳᎾᏛᏁᏗ	-9.08933
▁ᎯᏍᎦᏍᎪᎯ	-9.09132
▁ᏂᏚᏳᎪᏛᎾ	-9.09133
▁ᏎᏓᏂ	-9.09133
▁ᏎᎷ	-9.09138
▁ᏣᏁᏢᏔᏅᎯ	-9.09161
▁ᏣᏙᏓ	-9.092
▁ᎤᏂᏙᏓ	-9.09221
ᎩᏍᏗ	-9.09228
▁ᏩᏍᏛ	-9.09237
▁ᏱᏥᎦᏔᎭ	-9.09259
▁ᎢᏤᎲ	-9.09317
▁ᏥᎻ	-9.09426
▁ᎠᏗᏔᏍᏗ	-9.09638
▁ᎶᏗ	-9.09797
▁ᎾᎥᏂᎨ	-9.09806
▁ᎤᎵᏍᏆᎸᏗ	-9.1043
▁ᏓᏥ	-9.10465
▁ᎠᏂᏅ	-9.10724
Ꮱ	-9.10946
▁ᎤᏐᏱ	-9.11137
▁ᎤᏬᏢ	-9.11159
ᏁᎴ	-9.11612
▁ᎨᎵ	-9.11964
▁ᎤᎵᏍᏓᏴᏗ	-9.12002
▁ᏱᎦᎵᏍᏙᏓ	-9.12162
▁ᎠᏥᏅᏏᏓᏍᏗ	-9.12168
▁ᎵᎠ	-9.12169
▁ᎤᎵᏍᏈᏗ	-9.1217
▁ᎢᏥᏍᎦᏯ	-9.12188
▁ᏚᎾᏙᎥ	-9.12232
--	-9.12232
▁ᎠᎦᏔᎲ	-9.12306
▁ᎤᎧᎵᏨᎯ	-9.12341
▁ᏧᏓᏏ	-9.12353
▁ᏎᎦ	-9.12402
▁ᎤᎾᏝᎢ	-9.12439
▁ᎪᎳ	-9.12548
Ꮦ	-9.128
▁ᎤᏍᎪᏍ	-9.12936
▁ᏂᏗ	-9.13078
▁ᎢᏤᎲᎢ	-9.13083
▁ᎦᏬᏂᏍᎬ	-9.13955
▁ᏄᏪᏎᎸ	-9.14275
▁ᎠᏴᏍᎩᏂ	-9.14388
▁ᎡᎲ	-9.14544
▁ᎡᎵ	-9.14678
▁ᎵᏇᎩ	-9.15287
▁ᎨᎻᎵ	-9.15287
▁ᎤᎦᎾᏍᏛ	-9.15295
▁ᏚᏅᏓᏒ	-9.15298
▁ᎠᏂᏴᏫ	-9.15305
▁ᎠᎨᏳᏣ	-9.15322
▁ᏏᏌ	-9.15372
▁ᎤᏲᎱᏎᎢ	-9.15377
▁ᏥᏄᏍᏗ	-9.15395
▁ᎬᏙᏗ	-9.15486
▁ᎦᏁᎦ	-9.15573
ᎸᎭ	-9.15581
▁ᎤᎷᏤ	-9.15612
▁ᎦᎸᎳᏗᏣ	-9.15664
Ꮼ	-9.15672
ᏙᎸᎢ	-9.16284
▁ᏅᏓ	-9.16313
Ꮏ	-9.1643
▁Ᏺ	-9.16532
▁ᎬᏅᎢ	-9.16625
▁ᏓᎩ	-9.17378
ᏁᏗ	-9.17978
▁ᎢᏯᏛᏁᏗ	-9.18297
▁ᏧᎸᏫᏍᏓᏁᎯ	-9.18513
▁ᏔᎴᎲᎦ	-9.18516
▁ᎠᏂᏳᏩᏁᎦ	-9.18521
▁ᏧᏓᏆᏙᎩ	-9.18523
▁ᏥᎪᏪᎳ	-9.18526
▁ᏓᏆᎴᎷ	-9.1853
▁ᎢᎬᏁᎸᎯ	-9.18549
▁ᎦᏚᎢᏣ	-9.18559
▁ᎢᎾᏓ	-9.18611
ᏁᎭ	-9.18784
Ꮗ	-9.18857
▁ᏭᎷᏤ	-9.1892
▁ᎤᏕᏯᏙᏗ	-9.18952
▁ᎢᏳᎵᏍᏓᏁᏗ	-9.19071
▁ᎠᏗᎭ	-9.19324
▁ᎦᏚᎢ	-9.19653
▁ᎤᎾᎵ	-9.20003
▁ᎤᎶᎩᎸ	-9.2038
ᏏᏴᏫᎭ	-9.20634
▁ᎤᏂᏍᎦᏅᏨ	-9.20684
ᏍᎪᎯ	-9.20832
▁ᎬᏗᏍᎬ	-9.20888
▁ᎤᏛᎦᏁ	-9.2102
▁ᏄᎵᏍᏔᏂᏙᎸ	-9.21043
▁ᎤᏂᏲ	-9.21346
▁ᏈᎵᎩ	-9.21719
▁ᎦᎷᏯᏍᏗ	-9.21846
▁ᏅᏓᎦᎵᏍᏔᏂ	-9.21847
▁ᏔᎳᏍᎪᎯ	-9.21848
▁ᎢᏣᎵᏅᏟ	-9.2185
▁ᏕᏧᎬ	-9.21854
▁ᎤᎾᏓᏤᎵᏛ	-9.21858
▁ᎦᏅᏍᏙᏗ	-9.21858
▁ᎠᏂᎨᏯ	-9.21858
▁ᎢᏥᏙᏓ	-9.21877
▁ᎯᏅᏏᏓᏍᏗ	-9.21878
▁ᏧᎾᏛᏐᏅᎯ	-9.21898
▁ᎢᏣᏛᏁᏗᏱ	-9.21932
▁ᏎᎦᏨ	-9.21997
ᏍᏔᏁᎢ	-9.22039
▁ᏍᎪᎯ	-9.2227
▁ᎦᎵᏉᎩᏁ	-9.22588
ᏛᎩ	-9.22794
▁ᎠᏂᏓ	-9.22872
ᎬᎿᎨ	-9.22881
▁ᏥᏓ	-9.22993
ᎯᏍᏗᏱ	-9.2353
▁ᎤᏂᎪᎲ	-9.23553
▁ᏂᎯᏰᏃ	-9.24107
ᎣᏍᏓ	-9.2447
▁ᎤᏛᎾ	-9.24999
ᏗᏍᎪ	-9.25284
▁ᏐᎣᏁᎳ	-9.25294
▁ᏓᎿᏩ	-9.25307
▁ᎤᎩᏨᏛ	-9.25311
▁ᎢᏯᏛᏁᎯ	-9.2532
▁ᏥᏂᎬᏅ	-9.25328
▁ᎢᏨᎨᏳᎢ	-9.25336
▁ᏂᎦᎵᏍᏗᎭ	-9.25349
▁ᎦᎸᏉᏙᏗ	-9.25372
▁ᎤᎴᏂᏙᎴᎢ	-9.25393
ᏙᎯ	-9.25612
▁ᏭᎶᏎᎢ	-9.25735
▁ᎢᏯᏍᏗ	-9.25779
▁ᎡᎮᎢ	-9.25819
▁ᎾᎯᏳᏉ	-9.26014
▁ᎤᎷᏨᎩ	-9.26105
▁ᎤᎪᎮ	-9.2611
▁ᎤᏪᏅᏎ	-9.2632
▁ᏂᎦᎥᏉ	-9.26761
▁ᎠᏓᏅᏓᏗᏍᏗ	-9.27035
ᎨᏳᎯᏳ	-9.2708
▁ᎤᏁᏤᎸ	-9.27395
▁ᏩᏯ	-9.27634
ᏍᎬᎾ	-9.27793
ᎠᏗᏔᏍᏗ	-9.27931
ᏗᎦᏅᏌᏗ	-9.27963
▁ᏗᎦᏚᎲ	-9.28048
▁ᏗᎨᏒ	-9.28341
▁ᎤᎵᏍᏆᏗᏍᏗ	-9.28619
▁ᏧᏂᎾᏫ	-9.28664
▁ᏂᎬᎾᏛᎢ	-9.28724
ᎧᏔᎮᎢ	-9.28768
▁ᎠᏂᏍᎦᎾ	-9.28784
▁ᎧᏃᎯᏰᎩ	-9.28875
▁ᎥᏓᎵ	-9.28882
▁ᏅᎬᏩᏪᏎᎸᎩ	-9.28894
▁ᎤᎾᏫ	-9.28907
▁ᎢᏥᎦᏔᎭ	-9.28924
▁ᏏᏓᏁᎸᎯ	-9.28974
▁ᎤᏟᎯᏳ	-9.29007
▁ᎠᏂᏃᎯᎵᏙᎯ	-9.29026
▁ᎠᏓᏁᎯ	-9.29034
▁ᎦᏛᎦ	-9.29218
▁ᎠᏤᎯ	-9.29246
▁ᏤᎭ	-9.2958
▁ᎢᎬᏩ	-9.29595
▁ᎪᏪᎸᎢ	-9.29725
▁ᎠᏂᎦᏔᎲᎢ	-9.30012
▁ᏧᏂᏍᏗ	-9.30278
▁ᏂᏓ	-9.30452
▁ᏧᏩ	-9.30701
▁ᎦᏓᏁ	-9.31078
▁ᏅᏩᏓᎴᏃ	-9.31163
▁ᎪᏪᎸ	-9.31317
ᏅᏒ	-9.31454
▁ᏴᏫᏉ	-9.31603
▁ᎤᎿ	-9.31703
▁ᎠᏯᏙ	-9.3172
▁ᎤᏕᏘᏴᏌᏗᏒ	-9.31728
▁ᎠᏂᏬᏂᏍᎬ	-9.31757
▁ᏄᏩᏁᎴ	-9.31764
▁ᎠᏍᏛ	-9.31806
▁ᏂᎦᎵᏍᏗᏍᎬ	-9.31868
▁ᎦᏄᎸ	-9.32231
▁ᎦᏙᎬ	-9.32281
▁ᎠᏠᏁᏗ	-9.3257
▁ᏗᏇᏥ	-9.3257
▁ᏅᏓᏳᎶᏒᎯ	-9.32577
▁ᎡᏉᎯᏳ	-9.3258
▁ᎠᎦᏘᏏᏗᏢ	-9.32593
▁ᎦᏬᏂᏍᎩ	-9.32597
▁ᏧᏳᎪᏗ	-9.32607
▁ᏗᏰᎸᎯ	-9.32612
▁ᏩᎶᏏ	-9.32629
▁ᎦᎷᏨᎭ	-9.32644
▁ᎤᏔᎳᏬᎯᏍᏗ	-9.32644
▁ᎾᏍᎩᏯᏉ	-9.32676
ᏅᎾ	-9.32747
▁ᎯᎪ	-9.32789
▁ᎠᏓᏫ	-9.32804
▁ᎠᎹᏟ	-9.32857
▁ᎠᏆᏛᏅ	-9.32858
▁ᎦᎸ	-9.33002
ᎲᎦ	-9.33129
▁ᏗᎾ	-9.33147
ᏁᎳ	-9.33234
ᏛᏁᏗ	-9.33515
▁ᏥᏣ	-9.34175
▁ᎨᎦ	-9.34282
ᎧᏂ	-9.34348
▁ᎠᎦᏗ	-9.34523
ᏕᎾ	-9.34546
▁ᎤᏁᏨᎩ	-9.34765
▁ᏄᏛᏁᎸ	-9.34865
---	-9.35256
▁ᎦᏙᎨ	-9.35348
▁ᏄᏍᏕ	-9.3544
▁ᏙᏛ	-9.35442
ᏍᏆ	-9.35454
▁ᏕᎤᏙᎥ	-9.35606
▁ᏓᏳᏓᎴᏅ	-9.35639
ᎨᏒ	-9.35805
▁ᎠᏆᏚᎵ	-9.35986
▁ᏧᎸᏫᏍᏓᏁᏗ	-9.36249
▁ᎠᎦᏴᎵ	-9.36333
▁ᏗᏏᏓᎵ	-9.36416
▁ᎣᏣᎵᏅᏟ	-9.36416
▁ᏤᎩᏏᏂ	-9.36417
▁ᎯᎸᎢᏴ	-9.36418
▁ᏆᏂᏆ	-9.36418
▁ᎢᏓᏓᏅᏟ	-9.36423
▁ᎨᏥᎸᏉᏗ	-9.36427
▁ᏗᎨᎦᏁᎶᏗ	-9.36427
▁ᎠᏈᎻᎴᎩ	-9.36435
▁ᏓᎦᎷᏥ	-9.36438
▁ᏗᎨᏫ	-9.36451
▁ᎤᎦᎵᏍᏗ	-9.36467
▁ᎠᏁᏙᎯ	-9.3649
▁ᎬᏩᏕᏁᎴᎢ	-9.36519
▁ᎾᎩᏪᏎᎸᎩ	-9.36525
▁ᏕᏣᏓᏅᏛᎢ	-9.36623
▁ᏦᏰᏂ	-9.36673
▁ᎤᏔᎾ	-9.36683
▁ᎢᎬ	-9.36719
▁ᎠᏂᎪᎢ	-9.36894
ᏱᎩ	-9.37017
▁ᏴᎩ	-9.3767
▁ᏗᎩ	-9.37955
ᎢᏳᏍᏗ	-9.37974
▁ᎣᏓᎸᎢ	-9.3821
▁ᏧᎬ	-9.38213
▁ᎦᏰ	-9.38215
▁ᎪᏪᎵᎯ	-9.3835
ᏨᎩ	-9.38402
▁ᏓᏆ	-9.38404
▁ᎪᎯᏓ	-9.38803
Ꮡ	-9.38951
e	-9.39088
▁ᏄᎵᏍᏔᏅᎢ	-9.39145
▁ᏚᎴᏅ	-9.39252
▁ᏕᏣᏙᎥ	-9.39584
▁ᏱᏗ	-9.3975
▁ᎠᎵᏍᏚᎶ	-9.39798
▁ᎥᎩ	-9.39805
ᏅᏏᏛ	-9.39807
▁ᎠᏤ	-9.39826
▁ᎦᎨ	-9.40014
ᏍᏙ	-9.40091
▁ᏄᏩᏁᎸ	-9.401
▁ᏥᏕ	-9.40222
▁ᎢᏣᏤᎵ	-9.40302
▁ᎪᏍᏚ	-9.40421
▁ᏘᏅᏏᏓᏍᏗ	-9.40423
▁ᏄᏂᎬᏫᏳᏌᏕᎩ	-9.4043
▁ᏗᏓᏅᏙ	-9.40442
▁ᎢᎳᏯ	-9.40449
▁ᎤᎾᎵᏍᏕᎸᏙᏗ	-9.40457
▁ᎤᏗᎴᎩ	-9.40458
▁ᏗᏘᏂᏙᎯ	-9.40482
▁ᏐᎳ	-9.40492
▁ᏗᏜ	-9.40529
▁ᎤᏍᎦᏃᎵ	-9.40562
▁ᎠᏍᏓᏱ	-9.40599
▁ᎤᏩᏒᎯᏳ	-9.40617
▁ᏗᏣᏤᎵᎦ	-9.40748
▁ᎠᏆᏚᎵᎭ	-9.40784
▁Ꮡ	-9.40789
▁ᎤᏕᏅᎯ	-9.40809
▁ᎤᏙᎯᏳᏒ	-9.41004
ᏁᎵ	-9.41096
▁ᎬᏗᏍᎩ	-9.41152
▁ᏙᏳ	-9.41163
▁ᏯᏆ	-9.4128
ᎢᏍᏗᏱ	-9.41447
▁ᏞᎦ	-9.41517
▁ᏕᎨ	-9.41635
ᎦᏅᎯᏛ	-9.4167
▁ᏗᎨ	-9.42095
▁ᏓᎬ	-9.42724
t	-9.43161
▁ᎥᏍᎩ	-9.43237
▁ᎯᏯ	-9.43239
▁Ꭹ	-9.43453
▁ᏭᏂ	-9.43608
▁ᏧᏂᏢᎩ	-9.4368
Ꮰ	-9.43758
▁ᎠᏥᎸᏱ	-9.43854
▁ᎾᏃ	-9.44002
▁ᎤᎶᏐᏅ	-9.44296
▁ᏥᏈ	-9.44349
ᎥᎢ	-9.44428
ᏕᎢ	-9.44435
▁ᎠᎧᎵᎢ	-9.44536
▁ᎠᏰᏙᎳᏛᏗ	-9.44573
▁ᏓᏏᎳᏛ	-9.44578
▁ᎠᏍᏆᎨᏂ	-9.44582
▁ᏩᏏᏓᏂ	-9.44582
▁ᏩᏚᎵᏏ	-9.44583
▁ᏧᏕᏘᏴᏓ	-9.44584
▁ᏚᏬᏢᏔᏅᎩ	-9.44585
ᎠᏂᎳᏍᏓᎸ	-9.44587
▁ᏥᏔᎦ	-9.44587
▁ᏧᏯᏖᎾ	-9.44587
▁ᎤᏬᏚᎯ	-9.44623
▁ᎧᏃᎮᏍᎩ	-9.44631
▁ᎤᏅᏌ	-9.44652
▁ᏱᏄᏍᏗ	-9.44656
▁ᏧᏂᎸᏫᏍᏓᏁᏗᏱ	-9.44684
▁ᎠᎹᏰᎵ	-9.44696
▁ᏥᏁᎬᎢ	-9.44984
▁ᏱᏗᏥ	-9.45044
ᎵᏍᏗ	-9.45157
▁ᎤᏲᎱᏒᎯ	-9.45333
▁ᎤᎵᏍᏗ	-9.45343
▁ᏱᏥ	-9.45449
▁ᎨᏂ	-9.45455
▁ᎫᏢᏗ	-9.45512
▁ᏂᏥ	-9.45517
ᏌᏛ	-9.45829
ᏛᎦ	-9.46113
▁Ꭾ	-9.46139
▁ᎧᏁᎬᎢ	-9.46183
▁ᎦᏥ	-9.46212
▁ᏗᎦᎸᏉᏗ	-9.46357
▁ᏚᏁᏤᎴ	-9.46373
▁ᎠᏍᎦᎾ	-9.46491
▁ᎤᏂᏥ	-9.46548
▁ᏗᏆ	-9.46978
▁ᎾᏂᎥᏉ	-9.47137
▁ᏙᎯ	-9.47402
ᎯᏍᏙᏗ	-9.47545
▁ᎠᏔᎴᏒ	-9.4755
▁ᎠᎲᎢ	-9.47593
▁ᏦᎩ	-9.4769
▁ᏚᏙᎥᎢ	-9.47753
▁ᏧᏪᏅᏒ	-9.48097
▁ᏗᏓᎴᏂᏍᎬ	-9.48122
▁ᎠᏦᏴ	-9.48129
▁ᏂᏕ	-9.48312
▁ᎤᏬᎸ	-9.48431
▁ᏗᎦᎫᏍᏛᏗ	-9.48698
▁ᏍᏈᏍᏓ	-9.4893
▁ᎵᏫ	-9.48934
▁ᎨᏥᏅᏏᏓᏍᏗ	-9.48936
▁ᏌᏊ	-9.48945
▁ᏌᎪᏂᎨ	-9.48952
▁ᎧᏂᎩᏓ	-9.48962
▁ᎤᎦᎾᏍᏓ	-9.48964
▁ᏚᏬᏢᏅᎩ	-9.48965
▁ᎢᎩᏙᏓ	-9.48976
▁ᎾᏍᎦᏅᎾ	-9.48979
▁ᎠᏂᎩᏏ	-9.49026
▁ᏍᏔᏯ	-9.49029
▁ᎤᏬᏗᎨ	-9.49041
▁ᎤᎾᏁᎳᎩ	-9.49045
▁ᎦᎶᏙᏗ	-9.49048
▁ᎫᎫ	-9.49078
▁ᎠᏢᏗᏱ	-9.49097
▁ᎤᏓᏅᏘᏳ	-9.49228
▁ᎠᏲᎩ	-9.49232
▁ᎠᎩᏏ	-9.49278
▁ᎤᏅᏟ	-9.49298
ᏐᎢ	-9.49371
▁ᏚᎸᏫᏍᏓᏁᎲᎢ	-9.49478
▁ᎢᏳᏍᏗᏉ	-9.49542
▁ᎦᏅᎯᏛ	-9.49855
▁ᎤᎾᎵᎢ	-9.50025
▁ᎤᏓᏅᏖ	-9.50218
▁ᎡᎲᎢ	-9.50377
▁Ꮑ	-9.50514
▁ᎢᎦᏘ	-9.50571
ᎡᎢ	-9.50653
ᎢᏍᏗ	-9.50661
ᏍᎦᏅᎢᏍᏗ	-9.51143
▁ᏫᎦ	-9.51613
▁ᎤᎸᏉᏗ	-9.51633
▁ᏅᎩᏁ	-9.51687
▁ᎾᎥᎢ	-9.51944
▁ᏧᎾᏍᏗ	-9.52503
ᏤᏍᏗ	-9.52547
▁ᏓᏓᎿᏩᏍᏛ	-9.52606
▁ᏓᏆᏙᎥ	-9.52635
▁ᏂᏚᎩᏨᏂᏒ	-9.52642
▁ᎤᏂᏣᏖ	-9.52688
▁ᎤᏃᏴᎬ	-9.5269
ᎠᎴ	-9.52733
▁ᏍᏆ	-9.52772
▁ᎢᎦᎦᏛ	-9.52792
▁ᎢᎾ	-9.52816
ᏍᎬᎩ	-9.52931
ᏤᎢ	-9.53071
ᎲᏏ	-9.53132
▁ᏗᎧᏃᏗ	-9.53285
▁ᎠᎦᏘᏏ	-9.53474
▁ᏗᏖᎵᏙ	-9.53485
▁ᏧᏃᏰᏂ	-9.53486
▁ᎤᏍᎦᏎᏗ	-9.5349
▁ᏅᏛᎩᏅᏏᏛ	-9.53499
▁ᏂᎦᏪᏍᎨᎢ	-9.53501
▁ᏗᏂᎦᏙᎵ	-9.53519
▁ᎾᏎᎵᏗ	-9.53521
▁ᎠᎩᏅᏏᏙᎯ	-9.53523
▁ᎠᏂᎪᏕᏍᎩ	-9.53538
▁ᎯᎸᎯᏳ	-9.53542
▁ᎬᏂᏗᏳ	-9.53546
▁ᏦᎳᏂ	-9.53551
▁ᏥᎦ	-9.53575
▁ᎤᏍᏆᎸᎲ	-9.53581
▁ᏗᎧᏃᏗᏱ	-9.53699
▁ᏚᎪᎮ	-9.53719
▁ᏅᏗᎦᎵᏍᏙᏗᏍᎪ	-9.53774
▁ᎤᏂᎷᏨᎩ	-9.53909
▁ᎦᏬᏂᎯᏍᏗ	-9.53949
ᎴᎯᏐᏗ	-9.54008
▁ᎭᎾᎾ	-9.54091
▁ᏗᏤ	-9.54223
▁ᎠᎼ	-9.54238
ᏒᎭ	-9.54251
▁ᏫᏣ	-9.54254
▁ᏙᏓ	-9.54297
▁ᎤᏥᎸᎢ	-9.54322
ᎡᎵ	-9.54418
▁ᎤᏪᎿᎢ	-9.54537
ᏚᎵᏍᎬᎾ	-9.54605
▁ᏧᏍᏗ	-9.54634
▁ᏭᎷᏤᎢ	-9.54677
ᎦᏔᎲᎾ	-9.54762
▁ᎤᏒᎢ	-9.54809
▁ᎢᎬᏁᏗ	-9.54855
ᎠᏋᏌ	-9.54904
ᏂᏏ	-9.55047
ᏁᎲ	-9.55521
ᏍᏔ	-9.55718
▁ᏗᎦᏓ	-9.5585
ᏁᎳᏅᎯ	-9.5588
▁ᎠᎬ	-9.56504
Ꮉ	-9.56647
▁ᎬᏩᎾ	-9.5677
▁ᏅᏛ	-9.56843
▁ᎤᏍᎦᏅᏨ	-9.57051
▁ᎦᏛᎬ	-9.57373
ᎩᏎ	-9.57375
▁ᎦᎳᎨᏴ	-9.57385
▁ᏕᎦᏚᎲ	-9.57389
▁ᏗᎩᎦᏴᎵᎨ	-9.574
▁ᏂᏣᏛᏁᎸ	-9.57402
▁ᏚᏂᎸᏫᏍᏓᏁᎲ	-9.57437
▁ᎦᏓᏅᏖᏍᎬ	-9.57446
▁ᏚᎾᏓᏅᏛ	-9.57482
▁ᎦᏅᏅ	-9.5757
▁ᎤᏕᏅ	-9.5761
▁ᏚᏯ	-9.57707
ᏁᎴᎢ	-9.57746
▁ᏇᏂ	-9.58032
▁ᎢᏤᎾ	-9.58075
▁ᎤᏂᏬᏂᎯᏍᏗ	-9.58153
▁ᎤᎾᎵᏍᏓᏴᏗ	-9.58189
▁ᎤᏂᏴᏍᏗ	-9.58189
c	-9.58204
▁ᎢᏥᏈ	-9.58217
▁ᎢᏳᏩᎫᏗ	-9.58238
▁ᏄᏃᎯᏳᏒᎾ	-9.58238
▁ᏒᎧᏔ	-9.58238
▁ᎢᏳᏓᎴᎩ	-9.58238
▁ᎢᏥᏡᏱ	-9.58238
▁ᏚᏙᎡᎢ	-9.58241
▁ᎢᏳᏩᏂᎸ	-9.58243
▁ᎦᎵᏆᏍᎪᎯ	-9.58248
▁ᏙᎴᏛ	-9.58248
▁ᏫᏥᎢᎦ	-9.58248
▁ᏪᏌ	-9.58254
▁ᎢᏤᏯᏔᎮᏍᏗ	-9.58256
▁ᎦᏃᎸᎥᏍᎬ	-9.58265
▁ᎢᏌᏯ	-9.58266
▁ᎢᏗᎦᏔᎭ	-9.58267
▁ᏅᏓᏳᎵᏍᏙᏔᏅᎩ	-9.58274
▁ᏄᎬᏫᏳᏌᏕᎩ	-9.58281
▁ᎢᏨᏲᏎᎭ	-9.58297
▁ᏗᎹᏗ	-9.58305
▁ᏥᏍᏚ	-9.58316
▁ᎤᎯᏐᏗ	-9.58343
▁ᎤᎵᏑᏫᏓ	-9.58353
▁ᎠᏏᎾᏌᏂ	-9.58373
▁ᏧᏙᏓᏆᏓ	-9.58389
▁ᎤᏲᏨ	-9.58421
▁ᏓᏯᎢ	-9.58461
▁ᎠᎫᏴᏙᏗ	-9.58471
ᎪᎯ	-9.58481
▁ᏗᎦᎪᏗᏱ	-9.58487
▁ᎦᎾᏰᎯᏍᏗ	-9.58519
▁ᎤᎾᏫᏱ	-9.58545
▁ᎤᎾᏄᎪᏫᏒᎯ	-9.58573
▁ᏉᎳᏃ	-9.58577
▁ᏗᏦᏢᏗ	-9.58598
▁ᎠᎴᏬ	-9.58603
▁ᎠᏆᏛᎦᏅᎩ	-9.58684
▁ᏭᏴᎴᎢ	-9.58816
ᏍᏔᏂ	-9.58885
▁ᏁᎳ	-9.58986
▁ᎾᏂᎥᎢ	-9.59161
▁ᏩᏍᏗ	-9.59172
ᎲᏍᎩ	-9.59447
▁ᏧᏪ	-9.59895
▁ᎠᎩᏍᏗ	-9.60135
ᎩᎶ	-9.60316
▁ᎢᏤᎯ	-9.6032
▁ᏫᏓ	-9.60535
ᏁᎸᎩ	-9.60544
▁ᏛᎾ	-9.60729
▁ᎤᏲᎢ	-9.61058
ᏁᎮᏍᏗ	-9.61126
ᎶᏗ	-9.6116
▁ᎡᏘ	-9.61172
▁ᎠᏓᏁᎸᎢ	-9.61284
ᏑᏴᎾ	-9.61315
▁ᏳᎾ	-9.61395
▁ᏄᏍᏛᎢ	-9.61485
ᎪᏗ	-9.61705
ᎾᏝᎢ	-9.6216
ᎦᏘ	-9.62179
Ꮾ	-9.6221
ᏔᏅᎭ	-9.6226
▁ᎠᏂᏃᎮᏍᎬ	-9.62373
ᎤᏁᎳᏅᎯ	-9.62401
▁ᎠᎪ	-9.62455
▁ᏓᏓᏁᎸ	-9.62463
▁ᎾᏍᎩᏉ	-9.62661
▁ᎯᎸ	-9.62978
▁ᏭᎶᏒ	-9.62997
ᏥᏌ	-9.63028
▁ᏣᎾ	-9.63035
ᏛᎬᎦ	-9.63099
▁ᎡᏉᏗ	-9.63128
▁Cr	-9.63238
▁ᎢᏳᎾᏛᎿᏕᎩ	-9.63238
▁ᏍᎦᏚᎩ	-9.63238
▁ᏂᏥᏪᎭ	-9.63239
▁ᏎᎩᎵ	-9.63239
▁ᏗᏂᎭᏄᎸᎯ	-9.63244
▁ᏧᏓᏕᏒᏛ	-9.63245
▁ᎡᏈᏌ	-9.63246
▁ᎠᏦᎭᏴ	-9.63251
▁ᎤᎪᏏᏓ	-9.63252
ᏁᎯ	-9.63253
▁ᎠᎩᎵᏯ	-9.63263
▁ᏔᎷᏣ	-9.63273
▁ᏍᎩᏃᎲᏏ	-9.63273
▁ᎢᏳᏓᎴᏅᏛ	-9.63276
▁ᎤᏩᏙᎯᏴᏓ	-9.63276
▁ᎢᎳᎪ	-9.63276
▁ᎤᏂᎬᏫᏳᏌᏕᎩ	-9.63278
▁ᎢᏳᏩᏂᏐᏗᏱ	-9.63278
▁ᎢᏳᏩᏁᏗᏱ	-9.63289
▁ᏗᎪᏪᎵᏍᎩ	-9.63302
▁ᏓᏣ	-9.63351
▁ᏙᏰ	-9.63353
▁ᏒᎮᏱᏣ	-9.63397
▁ᎢᎬᏁᎯ	-9.63402
▁ᎠᎵᏍᏕᎸᏙᏗ	-9.63419
▁ᎤᏰᎯ	-9.63426
▁ᏱᏂ	-9.63458
▁ᎡᏓ	-9.63556
▁ᏣᏁᎳ	-9.63734
ᏙᎩ	-9.63922
▁ᎡᎵᏍᏗ	-9.64037
▁Ꮖ	-9.64069
▁ᏚᎾᏓᏅᏛᎢ	-9.64106
▁ᎧᎸᎢ	-9.64137
▁ᏭᎾ	-9.64155
▁ᏗᎪᏪᎶᏗ	-9.64177
▁ᎤᎾᎵᎪ	-9.64574
ᏉᏃ	-9.64844
▁ᏄᏛᏁᎴᎢ	-9.64853
▁ᎦᎸᎳᏗᏳ	-9.64881
▁ᏱᏨ	-9.64997
▁ᎠᏙ	-9.6501
▁ᏣᏤᎵᎦ	-9.6503
▁ᎢᏯᏂᎢ	-9.65042
▁ᎤᎾᏓᏡᎬᎢ	-9.65182
▁ᏗᏦ	-9.65215
▁ᎤᏂᎸᏉᏗ	-9.65739
▁ᏓᎾᏓ	-9.65955
▁ᏂᎦᏗ	-9.66024
▁ᎤᏥᎸ	-9.66153
ᏅᏓ	-9.66163
▁ᏗᎧᎿᏩᏛᏍᏗᏱ	-9.66228
▁ᎤᏓᏅᏖᏗ	-9.66233
ᎵᏍᏙᏗ	-9.66416
▁ᏄᏪᏒᎢ	-9.66431
ᏛᎯ	-9.66458
▁Ᏸ	-9.66687
▁ᏗᏗ	-9.67387
ᎦᏔᎭ	-9.67516
▁ᏃᏥ	-9.67539
▁ᎤᎨᏓᎵᏴ	-9.67608
▁ᎧᎳᏩᏗᏒ	-9.67608
▁ᎤᏅᏏᏴ	-9.67609
▁ᎢᏦᎯᏳᏒ	-9.67672
▁ᎠᏤᎵᏍᏛ	-9.67677
▁ᎠᏃ	-9.67684
▁ᎾᏂ	-9.6802
▁ᎨᎳ	-9.68093
▁ᎦᏁᏌᎢ	-9.68181
▁ᎤᏅᏒᏉ	-9.68202
▁ᎦᏂ	-9.68213
▁ᏕᎩ	-9.68246
▁ᏨᏗᏓᎴᎲᏍᎦ	-9.68501
▁ᎠᏙᎳᏅᏍᏗ	-9.68501
▁ᎥᏳᎩ	-9.68503
▁ᏗᏟᎶᏍᏔᏅᎯ	-9.68504
▁ᏦᏓᏂ	-9.68514
▁ᎠᏂᏫᏅ	-9.68516
▁ᎤᎩᏨᏓ	-9.68518
▁ᏱᏅᏗᎦᎵᏍᏙᏗᎭ	-9.68525
▁ᎢᏳᎾᎵᏍᏙᏗᏱ	-9.68532
▁ᏗᏓᏘᏂᏙᎯ	-9.68539
▁ᎡᎵᏊ	-9.68539
▁ᎢᏯᎾᏛᏁᎯ	-9.68551
▁ᎬᏩᏟᏍᏗ	-9.68554
▁ᏧᎪᎳ	-9.68568
▁ᎠᏟᎶᏍᏗ	-9.68571
▁ᎪᎯᏗᏳ	-9.68577
▁ᎨᎵᏍᎬ	-9.68621
▁ᏧᏓᎴᏅᏓ	-9.68641
▁ᎠᏥᏍᏛ	-9.68655
▁ᎪᎨᏱ	-9.68674
▁ᎮᎦ	-9.6871
▁ᎤᏚᎵᏍᎨᏍᏗ	-9.68715
▁ᎾᏍᎩᏴ	-9.68732
▁ᎤᏚᎸᏗ	-9.68744
▁ᎢᏣᏤᎵᎦ	-9.68766
▁ᎢᎦᎦᏘ	-9.68788
ᏍᏕᎸᏗ	-9.68831
▁ᏗᏆᏤᎵᎦ	-9.68957
▁ᎤᏚᎵᎭ	-9.69049
ᏕᎵ	-9.69212
▁ᎠᏁᎭ	-9.69383
▁ᎯᎠᏍᎩᏂ	-9.69462
▁ᎤᏕ	-9.69842
▁ᏧᏓᏃ	-9.70033
▁ᎤᏂᏣᏔ	-9.70133
ᏅᏍᏗ	-9.70203
▁ᎣᏂᏱ	-9.70227
ᏂᏗᏳ	-9.70376
ᎶᎯ	-9.70852
▁ᎤᎵᏬᏨ	-9.70925
ᎷᎦ	-9.70933
ᎸᏗ	-9.70975
▁ᎤᏚᎵ	-9.71317
▁ᏁᎳᎩ	-9.71333
▁ᎢᎨ	-9.71861
ᎡᏗᏱ	-9.72092
▁ᏄᏂ	-9.72094
▁ᏯᎩ	-9.72265
▁ᎾᎾᏛᏁᎲ	-9.72357
ᎪᏍᏓᏱ	-9.72448
▁ᏱᎬ	-9.72616
ᎾᏏ	-9.72653
▁ᎡᏙᎲ	-9.72745
▁ᎤᏪᎵᎯᏍᏗ	-9.72775
▁ᏚᎳᏍᎬ	-9.73024
▁ᏭᏯᏅᎮ	-9.73177
ᏰᎵ	-9.73199
▁ᎠᎾᎢᏒ	-9.73223
▁ᏕᏡᎬ	-9.7325
▁ᎤᏂᎷᏨ	-9.73263
▁ᏕᎭᎷᎨ	-9.73291
▁ᏄᎾᏛᏅ	-9.7335
▁ᎠᏆᏚᎵᏍᎬ	-9.73454
▁ᎤᏁᏨᎢ	-9.73472
▁ᏭᎷᏨ	-9.73558
ᎸᎾ	-9.73749
▁ᏐᏓᎻ	-9.73827
▁ᏗᏥᎾᏫ	-9.73827
Ꭻ	-9.73951
ᎶᏛ	-9.73963
▁ᎤᎷᎯᏍᏗ	-9.74038
ᏚᏓᎴᏍᏙᏗ	-9.74054
▁Perry	-9.74056
▁ᏅᏬᏘ	-9.74056
▁ᎠᎵᏍᏔᏴᏗ	-9.74056
▁ᏧᎦᎾᏮ	-9.74057
▁ᎤᏏᏩ	-9.74076
▁ᏗᏕᏲᏗ	-9.74078
▁ᎧᏂᎩᏛ	-9.74079
▁ᎤᏂᎩᎬ	-9.7408
▁ᎤᏫᏯ	-9.74086
▁ᏧᎾᎩᎸᏗ	-9.74088
▁ᎤᏬᏢᏔᏅᎩ	-9.74089
▁ᎤᎾᏰᎯᏍᏗ	-9.7409
▁ᎤᏁᎫᏥᏛ	-9.74103
▁ᎠᏆᏁᎳᏅᎯ	-9.74118
▁ᎠᎵᏍᎪᎸᏔᏅᎯ	-9.74123
▁ᎧᎸ	-9.7415
▁ᏳᏚᎵᏍᎨ	-9.74151
▁ᎤᎶᏒᏍᏗ	-9.74198
▁ᎤᏢᎩ	-9.74223
▁ᏂᏗᎥ	-9.74233
▁ᏂᎦᎵᏍᏓ	-9.74269
▁ᏚᏓᏘᎾᎥᎢ	-9.74312
ᏌᎳᏓ	-9.74313
▁ᎤᏂᏍᏆᏂᎪᏎᎢ	-9.74316
▁ᎠᏍᏚᏗ	-9.74328
▁ᎢᏳᎾᏛᏁᏗᏱ	-9.74505
ᎤᏅ	-9.74592
▁ᎤᏍᏆᏂᎪᏗᏳ	-9.74614
▁ᏄᏛᏁᎸᎩ	-9.74824
▁ᏐᎢᏱ	-9.7507
▁ᎤᎭ	-9.75075
▁ᎣᏏᏉ	-9.75127
▁ᏗᎨᏒᎢ	-9.7538
▁ᏴᎬ	-9.75422
▁ᏳᏂ	-9.75521
ᏖᏍᏗ	-9.75556
▁ᎤᏁᏨᎯ	-9.7588
▁ᎠᏗ	-9.75882
▁ᎤᏁᎸ	-9.75896
▁ᏡᎬᎢ	-9.75936
▁ᎠᏫᏅ	-9.75944
▁ᏂᎦᏪᏍᎬᎢ	-9.75987
▁ᏓᏨ	-9.76151
▁ᎢᏧ	-9.76171
ᎦᏛ	-9.76685
▁ᎤᎸ	-9.76754
▁ᎠᏏᏴᏫᏃ	-9.76822
▁ᏁᎰ	-9.7686
▁ᎤᏬᎵ	-9.77126
ᎡᎯ	-9.77159
▁ᏫᎬᏩ	-9.77187
▁ᎦᏅ	-9.7741
ᏠᎾᏍᏗ	-9.77798
▁ᎠᏜ	-9.77827
ᎵᎦ	-9.77861
ᏍᏊ	-9.77953
ᎥᏍᎬ	-9.7796
n	-9.78269
▁ᏚᏳᎪᏛᎢ	-9.78271
▁ᎠᏎᎩ	-9.78383
ᏍᏉ	-9.78457
▁ᏗᏓ	-9.78503
▁ᎤᏕᏁᎸ	-9.78576
▁ᎠᏰᏙᎳᏛ	-9.78583
▁ᎠᎾᏓ	-9.78615
▁ᎢᏳᎢ	-9.78701
▁ᏔᎵᎭ	-9.78926
▁ᎤᏓᏂᎵᎨ	-9.78995
▁ᏗᎪ	-9.79045
▁ᎤᎵᏁᏨ	-9.79054
▁ᎠᎾᏛ	-9.79081
▁ᏓᏁᏩᏗᏒ	-9.79136
▁ᏕᎨᏌᏗᏒ	-9.7916
▁ᎤᏓᏅᏖᎴ	-9.7922
▁ᏱᎨ	-9.79291
ᏲᎯ	-9.7936
ᎠᏯ	-9.79366
▁ᏯᎾ	-9.79406
▁ᎤᏍᎪᎵ	-9.7941
ᏴᏫ	-9.79556
▁ᎤᏬ	-9.79576
▁ᎡᏝᏪ	-9.79638
▁ᎤᏓᏴᏍᏗ	-9.79743
▁ᎪᏪᎳ	-9.79753
▁ᏕᎦᎶᏗ	-9.79765
▁ᎤᏕᎰᎯᏍᏗ	-9.79837
▁ᎷᏈᏂ	-9.79939
▁ᏗᏂᎵᎠᏅᎯᏛ	-9.79939
▁ᏱᏄᎵᏍᏔᎾ	-9.79939
▁ᎢᏈᎬᎢ	-9.79939
▁ᎤᎵᎪᎲᏍᏗ	-9.79939
▁ᏧᎦᏒᏍᏗ	-9.7994
▁ᏍᏆᏞᏍᏗ	-9.79942
▁ᎹᏏᏙᏂ	-9.79943
▁ᎠᎾᏓᏅᏟ	-9.79949
▁ᎬᏔᏂᏓᏍᏗ	-9.79952
▁ᏞᎩᏳ	-9.79952
▁ᎠᎪᏄ	-9.79955
▁ᏗᏍᏓᏓᏅᏟ	-9.79957
▁ᏌᎺᎵᏱ	-9.79959
▁ᏧᎳᏏᏕᏂ	-9.7998
▁ᎠᏫᏄᏣ	-9.79982
▁ᏗᎦᏅᏙᏗ	-9.79988
▁ᎢᏨᏗᏍᎨᏍᏗ	-9.79998
▁ᎢᏳᏪᏅᏍᏗ	-9.80004
▁ᏧᏍᏆᏅᎾ	-9.80006
▁ᎠᏂᎦᏓᎭ	-9.8001
▁ᎡᏏᏱ	-9.80027
▁ᎠᏥᎾᏝᎢ	-9.80046
▁ᎤᏬᏚᎯᏳ	-9.80084
▁ᎤᏬᏚᏨ	-9.80124
▁ᏎᎳᏱ	-9.80137
▁ᏁᎲᎾ	-9.80143
▁ᎫᎴ	-9.80174
▁ᏥᏥ	-9.80183
▁ᏧᎾᏓ	-9.80184
▁ᏔᎵᏧᏈ	-9.8022
▁ᎤᏂᏴᏍᏗᏱ	-9.80256
▁ᎤᏟᏍᏓ	-9.80285
▁ᎠᎪᏩᏛᏗ	-9.80288
▁ᎡᏗ	-9.8033
▁ᏱᎨᏐᎢ	-9.80415
ᎨᏳᏎᏍᏗ	-9.80447
ᏩᏛᎲ	-9.80467
▁ᏤᎮᎢ	-9.80473
▁ᎣᏁ	-9.80516
▁ᎤᎴ	-9.80535
▁ᎠᏁᎮᎢ	-9.80547
▁ᏚᎴᏁᎢ	-9.80746
ᏨᎯ	-9.80757
▁ᏰᎭ	-9.8083
ᏂᎸ	-9.80873
▁ᎠᏓᏁᏗ	-9.8108
ᏩᏛᏗ	-9.81093
ᏅᏟ	-9.81113
▁ᎠᏓᎯ	-9.81199
ᏫᏒ	-9.81562
ᎸᏉᏙᏗ	-9.81708
ᏢᏙᏗ	-9.81832
▁ᎠᏥᎸᏉᏗ	-9.81885
▁ᎢᏳᎾ	-9.81915
▁ᏥᏯ	-9.81987
▁ᏒᎯ	-9.82092
ᏉᏰᏃ	-9.82201
▁ᎦᏍᎩᎸᎢ	-9.82299
ᏯᏅᏛ	-9.82389
ᎴᏂ	-9.82935
▁ᏙᎯᏱ	-9.83014
▁ᎤᎨᏳᎯ	-9.83147
▁ᏚᎴᏁ	-9.83487
▁ᎤᏂᏠᏱ	-9.83561
▁ᎤᏁᏅᏎ	-9.83566
▁ᏚᎾᏓ	-9.83741
a	-9.8407
ᏛᎭ	-9.84228
▁ᏨᏍᎩᏃ	-9.84289
▁ᎤᏣ	-9.84631
▁ᎠᏂᏙᎾᎥ	-9.84788
▁ᏅᏓᏳ	-9.84895
ᎡᎭ	-9.84941
ᎳᏅᎯ	-9.84953
▁ᎦᏁᎲ	-9.84976
ᎢᏳ	-9.85015
ᏅᏒᎩ	-9.8505
Ꮁ	-9.85063
▁ᏗᏣᏓᏅᏙ	-9.8521
ᎳᏗ	-9.85282
ᏗᏍᎨ	-9.85285
▁ᎠᏆᏛᎦᏅ	-9.85306
▁ᎤᏰᏤ	-9.85331
▁ᎠᏆᎧᏛ	-9.85342
ᏛᏗ	-9.85357
▁ᏓᏠᎯᏍᏛ	-9.85381
▁ᎠᏁᏙᎲ	-9.85384
▁ᏭᎶᏎ	-9.85406
▁ᏙᎩ	-9.85474
▁ᏙᏓᎸ	-9.85494
▁ᎤᏓᏅᏎ	-9.85561
▁ᎠᏴᏫᏯ	-9.85762
▁ᏏᎩᎻ	-9.85905
▁ᎠᏥᎦᏘᏗᏍᏗ	-9.8593
▁ᎬᏆ	-9.85948
ᏚᎦ	-9.85973
▁ᎢᏳᏟᎶ	-9.86003
▁ᏔᎵᏁᎢ	-9.86013
▁ᎤᏓᎵ	-9.86072
▁ᎢᏳᏛᏁᏗ	-9.86136
▁ᎢᏓ	-9.86154
y	-9.86178
▁ᎦᎷᏯᏍᏘ	-9.86189
▁ᎬᏩᏍᏓᏩᏛᏎᎢ	-9.86189
▁ᎢᏏᎺᎵ	-9.86189
▁ᎤᎵᏗᏨ	-9.86189
ett	-9.86189
▁ᏅᏓᏳᏂᎶᏒᎯ	-9.8619
▁ᏗᏰᏙᎳᏛᏗ	-9.86191
▁ᏗᎬᏔᏂᏓᏍᏗ	-9.86193
▁ᏑᎾᏙᏓᏆᏍᏗ	-9.86193
▁ᏂᎬᏩᏪᏎᎸᎩ	-9.86194
▁ᎢᏯᏅᏙ	-9.86194
▁ᎠᏖᎵᏙ	-9.86198
▁ᎤᎴᏂᏙᎸ	-9.86199
▁ᎢᎦᏪᏍᏗ	-9.86202
▁ᎭᏩᏧ	-9.86203
▁ᏚᏘᏅᏎ	-9.86207
▁ᎠᎦᎵᏍᎬ	-9.86211
▁ᎢᏳᏓᏅᎯᏓ	-9.8622
▁ᏕᎹᏍᎦ	-9.86221
▁ᎠᏂᎨᎾᏂ	-9.86221
▁ᎠᏫᏒᏗᏱ	-9.86221
▁ᏗᎳᏑᎶ	-9.86225
▁ᎦᏂᎦᏔ	-9.86226
ᏩᎬᏘ	-9.86227
▁ᏣᏓᎵᎢ	-9.86244
▁ᏌᎾᏱ	-9.86254
▁ᏥᏚᏙᎥ	-9.86259
▁ᎤᏁᎵᏤᎢ	-9.8627
▁ᎠᎪᏙᏗ	-9.86282
▁ᎤᎾᏁᎳᏅᎯ	-9.86283
▁ᏎᎻ	-9.86287
▁ᎠᎩᎵᏲᎢᏍᏗ	-9.86293
▁ᎧᏃᎮᏓ	-9.86293
▁ᎤᎾᏰᎯᏍᏗᏳ	-9.86298
▁ᏗᏦᏢᏙᏗ	-9.86301
▁ᎤᎾᏠᎾᏍᏗ	-9.86305
▁ᏙᏱᏨ	-9.86312
▁ᎠᏰᏟ	-9.86324
▁ᏱᏂᎦᎵᏍᏓ	-9.86335
ᏙᏓ	-9.86386
▁ᏏᏲ	-9.86423
▁ᎤᏂᎯᏍᏗᏱ	-9.86437
▁ᎠᎩᏰᎸᎭ	-9.86455
▁ᏈᎳ	-9.86483
▁ᎤᎷᎯᏍᏗᏱ	-9.86487
▁ᏧᏒᎯ	-9.8649
▁ᎠᏍᎪᎯᏁ	-9.86497
▁ᎾᏂᏪᏍᎬᎩ	-9.86569
▁ᎢᎬᏓ	-9.8657
▁ᏚᎸᏫᏍᏓᏁᎲ	-9.86646
▁ᎠᎱᏍᏕ	-9.86653
▁ᏗᏂᏅᏌᏗ	-9.86678
▁ᎠᏁᎩ	-9.86754
▁ᎤᏴ	-9.86758
▁ᎢᎬᏒ	-9.86863
▁ᎨᎵᎠ	-9.86879
▁ᏕᎬ	-9.86881
▁ᏓᏁᏩᏗᏒᎢ	-9.87057
▁ᏄᎾᏛᏅᎢ	-9.87112
▁ᏕᎭᎷᎨᎢ	-9.87112
ᎸᏉᏗᏳ	-9.87431
▁ᎤᏓᏅ	-9.87605
▁ᎠᎿᏬ	-9.87682
▁ᏗᎨᏥ	-9.87746
▁ᏓᏓ	-9.8809
ᏔᏅᎢ	-9.88269
ᎭᏂ	-9.88318
▁ᏕᎦᏛ	-9.88326
ᎸᏉᏗ	-9.88435
ᏙᏓᏆᏓ	-9.88468
▁ᎨᏴᎢ	-9.88612
ᏃᎮᎭ	-9.88639
▁ᏴᎦ	-9.88694
ᎪᎵᏰᏍᎩ	-9.89084
▁ᏥᏓᏂ	-9.8948
ᎵᏏ	-9.89651
▁ᎤᏂᏁ	-9.90288
▁ᎤᎾᏙᎴᎰᏒ	-9.9038
▁ᏳᏩ	-9.90482
▁ᎤᏇᏓᎸ	-9.90482
ᎵᏍᎦᏍᏙᏛ	-9.90788
▁ᏩᎩ	-9.90875
ᏗᏍᎨᎢ	-9.9109
ᎵᏍᏆᏗᏍᎩ	-9.91164
▁ᏤᏣ	-9.91453
ᎦᏅᎯᏓ	-9.91521
▁ᏚᎸᏫᏍᏓᏁᎸ	-9.91558
▁ᏄᏛᏅ	-9.91618
▁Ꮠ	-9.9176
ᏣᏓ	-9.91772
▁ᎤᏚᎵᏍᎨ	-9.91824
ᎵᏱ	-9.91846
▁ᏥᎬ	-9.91859
▁ᏎᎳ	-9.91891
ᏍᏗᏍᎬ	-9.91935
▁ᏣᏉ	-9.91995
▁ᏕᏥᎸᏫᏍᏓᏁᎲ	-9.92038
▁ᏭᏴᎴ	-9.92078
▁Ꮲ	-9.921
▁ᏅᏗᎦᎵᏍᏙᏗ	-9.92126
▁ᏫᏚᏂ	-9.92208
▁ᎡᎮ	-9.92238
▁ᏗᏁᎲ	-9.92353
▁ᎤᏪᏙᎸ	-9.92552
ᏴᏓ	-9.92619
▁ᏗᎧᏃᎩᏍᏗ	-9.92667
▁ᎤᏪᏅᏍᏗ	-9.92721
ᏲᎯᏍᏗ	-9.92842
▁ᎠᎾᏓᎾᏏᏂᏙᎯ	-9.92855
▁ᎠᏗᏆᎸᏕᏲ	-9.92855
▁ᎠᎵᏰᎾ	-9.92858
▁ᎦᏣᏄᎳ	-9.92858
▁ᏌᎶᎵ	-9.92859
▁ᎠᏨᏍᏙᏗ	-9.9286
▁ᏗᏥᏲᎵ	-9.92866
▁ᎢᎬᏩᎵᏍᏙᏗ	-9.92871
▁ᎢᏣᎵᏍᏙᏗᏱ	-9.92875
▁ᎠᏒᎬ	-9.92876
▁ᏥᏄᏪᏎᎢ	-9.92884
▁ᏗᏂᏏᏗ	-9.92885
▁ᎠᏤᎷᎩ	-9.92889
▁ᎠᏂᎩᎷᏫ	-9.92894
▁ᎤᎵᏍᎨᏛ	-9.92905
ᎵᏰᎢᎶᎯᏍᏗ	-9.92914
▁ᏫᎦᎷᎩ	-9.92915
▁ᏗᏂᏰᎸ	-9.92945
▁ᏫᎶᎯ	-9.92945
▁ᎤᎾᎳᏅᎯ	-9.9295
▁ᏄᎾᏓᎴᏒ	-9.92981
▁ᎤᏲᎱᎯᏍᏗᏱ	-9.93049
▁ᎤᎴᏫᏍᏔᏅ	-9.93082
▁ᎠᏥᎳ	-9.93095
▁ᎭᏫᏂᏨ	-9.93102
▁ᎧᏫ	-9.93133
▁ᎢᏳᏍᏘ	-9.93139
▁ᎠᎾᏓᏅᏖᏍᎬ	-9.93141
▁ᎤᏟᏂᎩᏓ	-9.93162
▁ᎧᏃᎮᏗ	-9.93163
▁ᏯᎦᏔᎮ	-9.93195
▁ᏭᏂᎶᏎᎢ	-9.93221
▁ᎤᏂᏣᏛᎩ	-9.93229
▁ᏗᎩᏏ	-9.93232
ᎦᏙᏃ	-9.93267
ᏄᎦ	-9.93269
▁ᏂᎪᎯᎸᎾᏉ	-9.9329
▁ᏥᎨᏳᎢ	-9.93321
▁ᎤᏴᏜ	-9.93333
▁ᎦᏥᏯ	-9.93425
▁ᏓᏅᏅ	-9.93435
▁ᎠᎢᏒᎢ	-9.93479
ᏯᏖᏅ	-9.93531
▁ᏂᎦᎵᏍᏙᏗ	-9.93606
▁ᎡᎮᏍᏗ	-9.93609
▁ᏚᎸᏫᏍᏓᏁᎸᎢ	-9.93683
▁ᎠᏁᏙᎲᎢ	-9.93732
▁ᎢᎦᏤᎵᎦ	-9.93752
▁ᎪᎨ	-9.93764
▁ᎡᎩ	-9.93845
▁ᏗᏁᎲᎢ	-9.93853
▁ᎡᏙᎲᎢ	-9.93876
▁ᎤᏓᏅᏅ	-9.93983
▁ᏍᎩᏯ	-9.94089
ᏰᎯ	-9.94189
▁ᏙᎦ	-9.94205
▁ᎤᏛᏁᎢ	-9.94363
▁ᏑᏓᎵᏁ	-9.94364
▁ᎢᏅᎯ	-9.94514
▁ᏱᏗᏣ	-9.94536
ᎳᎻ	-9.94575
▁ᎡᎾ	-9.94576
▁ᏩᏁ	-9.94984
ᏍᏗᏍᎨᏍᏗ	-9.95019
▁ᏂᏙᏓᏳ	-9.95124
▁ᎤᏂᎷᏤᎢ	-9.95153
▁ᏂᏥᎥᎢ	-9.95219
▁ᎠᏂᏐ	-9.95317
▁ᏂᎪᎯᎸᎾ	-9.95372
ᏃᎲᏏ	-9.95377
ᏤᎸ	-9.95397
ᎪᏩᏛᏗ	-9.95498
ᏎᎸ	-9.95509
▁ᎠᎩᎭ	-9.95732
▁ᎠᏓᏰᏍ	-9.95738
▁ᎠᏋᏒᏉ	-9.95865
ᏍᏔᏅᎩ	-9.95885
ᎵᏗ	-9.96178
▁ᏕᏣᏓ	-9.96248
▁ᎦᏨ	-9.96385
▁ᏙᏓᎦ	-9.96423
ᎲᏍᎨᏍᏗ	-9.96776
▁Ꮜ	-9.96949
ᏗᏍᎪᎢ	-9.97028
▁ᎤᏛ	-9.97078
▁ᏣᏚ	-9.97159
▁ᎪᎯᏍᎩᏂ	-9.97182
▁ᏱᎬᏩ	-9.9719
ᏙᎴᎰᎯᏍᏗ	-9.97571
ᏅᏗ	-9.9775
▁ᎤᎦ	-9.97771
ᏧᏈᏍᏗ	-9.97798
▁ᏄᏓ	-9.97924
▁ᎦᏛ	-9.98145
▁ᎦᏁ	-9.9832
ᏙᎥ	-9.98676
▁ᎢᏳᏪ	-9.9869
▁ᎢᏍᏗ	-9.98757
▁ᏧᎾᏄᏬ	-9.9887
▁ᎤᏍᎦ	-9.99072
▁ᎤᏬᏢᏅ	-9.99106
ᎦᎶᏁᏛ	-9.99141
▁ᎡᎳᏪ	-9.99189
▁ᏓᏫᏒ	-9.99252
▁ᎠᏨᏯ	-9.99284
▁Ꮞ	-9.99287
▁ᏭᏂᎷᏨ	-9.99483
▁ᏚᏁᎴ	-9.99552
▁ᏧᎵ	-9.99581
▁ᎠᏰ	-9.99621
ᏓᎵ	-9.99742
▁ᎤᏓᏅᏛ	-9.99797
▁ᏤᏈ	-9.99913
▁ᎠᏛᎪᏗ	-9.99919
▁ᏗᎪᏪᎵ	-9.99946
▁ᎤᏩᏛᎲ	-9.99984
▁ᎠᏂᏌᏚᏏ	-9.99998
▁ᎦᎶᏄᎮ	-9.99998
▁ᎬᏍᎦᎢᏍᏓᎩ	-9.99998
▁ᏂᎦᏅᎯᏎᏍᏗ	-9.99998
▁ᏑᏓᎴᎩ	-9.99998
▁ᏄᏜᏏᏛᏒᎾ	-9.99998
▁ᏌᏯᏂ	-9.99998
▁ᏗᏁᎶᏙᏗ	-9.99999
▁ᏧᏃᏑᎶᏨᎯ	-9.99999
▁ᏢᏓᏥ	-10
▁ᎤᎶᏒᏍᏔᏅᎯ	-10
▁ᎢᏨᏔᏲᏎᎭ	-10
▁ᏧᎾᎳᏏᏕᏂ	-10.0001
▁ᏧᎾᏦᎯᏍᏗ	-10.0001
▁ᎢᏳᏓᎨᏛ	-10.0001
▁ᎳᏏᎳ	-10.0001
▁ᎢᎩᏍᏕᎵᏍᎩ	-10.0001
▁ᎢᏣᏓᏙᎵᏍᏗᏍᎨᏍᏗ	-10.0002
▁ᎤᏚᏫᏛ	-10.0002
▁ᏫᏂᎦᎵᏍᏓ	-10.0002
▁ᏫᏄᏒᎸ	-10.0002
▁ᎦᏃᏍᎩᏍᎩ	-10.0002
▁ᎣᏌᏂ	-10.0003
▁ᎣᎦᏁᎳᏅᎯ	-10.0003
▁ᎾᏛᏁᎮᏍᏗ	-10.0004
▁ᎦᏰᏌᏗ	-10.0004
▁ᎤᏴᏣ	-10.0004
▁ᎠᎦᏘᏯ	-10.0005
▁ᎤᎾᎴᏅᎮ	-10.0005
▁ᎠᏂᎦᏔᎿᎢ	-10.0005
▁ᎬᎪᏩᏛᏗ	-10.0005
▁ᎠᎵᎮᎵᏍᏗ	-10.0005
▁ᏚᎦᏒᏍᏛ	-10.0005
▁ᎢᎦᏪᏛ	-10.0006
▁ᏗᏯᏖᎾ	-10.0007
▁ᎤᎦᏃᏩ	-10.0013
▁ᎤᎵᏍᎨᏓ	-10.0013
▁ᏂᎦᏚ	-10.0015
▁ᏧᎾᏓᎵᎢ	-10.0015
▁ᎢᏳᏅᏁᏗᏱ	-10.002
ᏛᏳᎨᏗ	-10.002
ᏍᏗᏍᎩ	-10.0022
▁ᎠᏓᏅᏖᏗ	-10.0025
▁ᏣᏁᎮᎢ	-10.0033
ᏔᏲᏎᎴ	-10.0033
▁ᏧᏅ	-10.0034
▁ᎦᏁᎳ	-10.0037
▁ᎠᏂᏁᎵ	-10.0037
▁ᎤᏤ	-10.004
▁ᎤᏬᏢᏅᎯ	-10.0042
▁ᏧᎸᏫᏍᏓᏁᏗᏱ	-10.0042
▁ᏗᎦᎵᎠᏅᎯᏛ	-10.0043
▁ᏄᎾᏛᏁᎸᎩ	-10.0045
▁Ꮼ	-10.0046
ᎪᏩᏘᎭ	-10.0047
▁ᎠᏥᎸᎠᏁᎶᎯ	-10.0055
▁ᏚᏳᎪᏗ	-10.0056
▁ᎤᎾᏄᎪᏫᏎᎢ	-10.0059
▁ᎤᏔᎷᎩᏍᎩ	-10.0062
▁ᏯᏆᏚᎵ	-10.0068
▁ᏓᎬᎾ	-10.0069
▁ᏯᏂ	-10.0074
▁ᏭᎶᏒᎩ	-10.0075
▁ᎬᏩᏛᏛᏁ	-10.0077
▁ᎠᎦᏔᎭ	-10.008
▁ᎾᎥᏂᏳ	-10.0082
▁ᎣᏣ	-10.009
▁ᎭᏓᏅᏖᏍᎬ	-10.0093
▁ᏓᏠᎯᏍᏛᎢ	-10.0095
▁ᏧᎵᎢ	-10.0099
▁ᏕᎬᏩ	-10.0099
▁ᏕᎨᏌᏗᏒᎢ	-10.01
ᏃᎯᏎᎸ	-10.0103
ᎸᏌᏛ	-10.011
▁ᎤᏁᏤᎸᎩ	-10.0126
ᎷᏥᏏ	-10.013
an	-10.0135
▁ᎠᏔᎴᏒᎢ	-10.0138
ᏌᏘ	-10.0151
▁ᏚᏪ	-10.0152
ᏍᏕ	-10.0157
▁ᏧᏪᏘ	-10.0179
▁ᎤᏣᏛ	-10.0183
ᏕᎩ	-10.0198
ᎲᏍᎬ	-10.0199
▁ᎬᏗᏍᎬᎢ	-10.0217
▁ᎤᏯ	-10.0234
ᏍᏛᎾ	-10.0253
▁ᎤᎴᏅ	-10.026
▁ᎠᏰᎸᏗ	-10.027
ᏣᏘ	-10.029
▁ᎤᏰᎸᏛᎢ	-10.03
▁ᎤᏂᎵ	-10.035
▁ᏍᎩᏃ	-10.035
▁ᏤᎩ	-10.0365
▁ᎤᏲᏉ	-10.0365
ᏍᏔᏁ	-10.037
ᏁᏥ	-10.0384
ᎯᎭ	-10.0388
▁ᏗᏣᏓ	-10.039
▁ᎠᏓᏅᏙᏍᎩᏂ	-10.0405
▁ᏂᏙ	-10.0407
ᎵᏓᏍᏗ	-10.0411
ᏓᏡᎬ	-10.0411
▁ᏥᎨᏒᎢ	-10.0425
ᏙᎳ	-10.0427
ᏢᎢ	-10.0433
▁ᎯᎦᏔᎭ	-10.0434
ᎢᏍ	-10.0448
▁ᎠᏁ	-10.0451
ᎭᏗ	-10.0473
▁ᎠᏍᏓ	-10.0495
▁ᎪᎯᏛ	-10.0496
ᎴᎭ	-10.0505
ᎦᏘᏍᏙᏗ	-10.0538
▁ᏗᎬᏩᏂ	-10.0543
▁ᎤᏦ	-10.0562
▁ᏥᏅᏏᏓᏍᏗ	-10.0583
▁ᎧᎵ	-10.0607
▁ᎤᎫᏴᏗ	-10.0623
▁ᏄᏍᏛᎾ	-10.0624
ᏤᎵ	-10.0643
▁ᎠᏁᏙᎮ	-10.066
▁ᏕᎨᏴ	-10.0676
▁---	-10.0682
▁ᏗᏓᏁᎸ	-10.0686
▁ᏚᎾᏓᏡᏩᏗᏒ	-10.0688
▁ᏑᎾᎴᏃ	-10.0696
▁ᎠᎦᏍᎦᏂ	-10.0706
▁ᎤᏄᎪᏨ	-10.0717
▁ᏅᏃ	-10.0725
▁ᏫᎬ	-10.0728
▁ᏚᏅ	-10.0733
▁ᎤᏛᏐᏅ	-10.0736
ᏅᏅ	-10.0738
▁ᎩᎶᎢ	-10.0744
▁ᎠᏂᏃᎯᎵᏙ	-10.0745
▁ᎦᏅᎬ	-10.0746
▁ᏗᎦᎪᏗ	-10.0752
▁ᏚᎪᎲ	-10.0752
▁ᎠᏒᎨ	-10.0754
ᏁᎲᎢ	-10.0762
ᎪᏣᎴᏛ	-10.0763
▁ᎤᏲᎱᎯᏍᏗ	-10.0763
▁ᎤᏓᏅᏖᎸ	-10.0767
▁ᏍᏏᏉᏯ	-10.0769
▁ᏗᎦᏙᏌᏗᏍᏗᏱ	-10.0769
▁ᏗᏂᎨᏫ	-10.0769
▁ᏚᏑᎬ	-10.0769
▁ᏀᎾ	-10.0769
▁ᏌᏙᏂ	-10.0769
▁ᏧᎾᏦᏴᏍᏗ	-10.0769
▁ᎮᎳᏂ	-10.0769
▁ᎾᎦᎥ	-10.0769
▁ᏗᎪᏒᏔᏅ	-10.077
▁ᎬᎩᏍᎦᎩ	-10.077
▁ᎨᏣᏍᎦᎩ	-10.077
▁ᎠᏉᏰᏂ	-10.077
▁ᎦᏚᎢᏗᏢ	-10.077
▁ᏗᏂᎰᎵ	-10.077
▁ᎦᏂᏓᏛ	-10.077
▁ᎨᎦᏑᏰᏛ	-10.077
▁ᏁᏂᏏ	-10.077
▁ᏇᏍᏓ	-10.077
▁ᏍᏗᏫ	-10.0771
▁ᎠᏂᎦᏔᎾᎢ	-10.0771
▁ᏗᏍᏆᎾᎳᏗᏍᏗ	-10.0772
▁ᏄᏍᏗᏓᏅ	-10.0772
▁ᎢᏳᏕᏘᏴᏓ	-10.0772
▁ᎣᏥᎦᏔᎭ	-10.0772
▁ᎤᏕᎶᎰᏎ	-10.0773
▁ᏓᎨᏏ	-10.0773
▁ᎤᎧᏲᏛᎯ	-10.0773
▁ᎣᎭᏂ	-10.0774
▁ᏩᏛᎬᎦ	-10.0774
▁ᎢᏥᏯᏫᏍᎨᏍᏗ	-10.0774
▁ᎠᎦᏯᎷᏗ	-10.0774
▁ᎠᏂᎩᏏᏙᎯ	-10.0775
▁ᎠᎾᎦᎵᏍᎩ	-10.0775
▁ᏗᏥᎶᏍᏔᏅ	-10.0776
▁ᎠᏂᎦᏔᎯ	-10.0776
▁ᏥᎮᎾ	-10.0776
▁ᎢᏥᏅᏟ	-10.0777
▁ᎨᏆᏂ	-10.0777
▁ᎠᏍᎦᏰᎬᏍᏔ	-10.0778
▁ᎦᎾᏍᏓ	-10.0778
▁ᎦᏐᎯ	-10.0781
▁ᎤᎪ	-10.0781
▁ᎤᏙᎴᎰᏎ	-10.0782
▁ᎤᏪᎷᏅᎩ	-10.0784
▁ᏄᏕᏘᏴᎮᎢ	-10.0786
▁ᎤᏁᎳᏅᎯᏱ	-10.0787
▁ᏓᏳᎶᏒ	-10.0788
▁ᎠᎦᏔᎿᎢ	-10.0789
▁ᏕᎪ	-10.0789
▁ᎢᏕᎾ	-10.0792
▁ᏚᎧᎾᏁ	-10.0793
▁ᎤᏁᎷᏁᎢ	-10.0799
▁ᎢᏥᏍᎦᏅᏨᎢ	-10.0799
▁ᎪᏢᏅᎯ	-10.08
▁ᎤᏂᎩᏍᏗ	-10.0803
▁ᎤᏓᏅᏒᎩ	-10.0803
▁ᎤᏛᏐᏅᎯ	-10.0807
▁ᎤᎵᏍᏕᎸᏙᏗ	-10.0807
▁ᎠᏧᏏ	-10.0808
ᎠᏎᏃ	-10.0809
▁ᎨᏙᎲ	-10.0809
▁ᎤᎾᏛᏁᎢ	-10.0813
▁ᎤᏓᏔᏅᎯ	-10.0814
▁ᏕᎦᎶᏗᎯ	-10.0814
▁ᎤᎾᏓᏑᏴ	-10.0815
▁ᎬᏩᎷᏤᎸᎩ	-10.0819
▁ᎠᎩᎪᎲᎩ	-10.0819
▁ᏓᎧᏅᎢ	-10.0819
▁ᏕᎭ	-10.0822
▁ᎬᏩᎪᎲ	-10.0826
▁ᎢᏧᏩᏁ	-10.0829
▁ᎤᏄᎪᏤ	-10.0831
▁ᎠᏥᎸᎨᎶᎯ	-10.0833
ᎴᏅ	-10.0833
▁ᎡᎳᏗᏣ	-10.0833
▁ᎡᏙᎯ	-10.0834
▁ᏣᏂᏃ	-10.0835
▁ᎪᏢᏒᎢ	-10.084
▁ᎯᏆ	-10.084
▁ᎨᎾᏂᏱ	-10.0841
ᏅᏎ	-10.0852
▁ᏚᎾᏓᏡᏩᏗᏒᎢ	-10.0853
▁ᎤᏂᏍᎦᏅᏨᎯ	-10.0854
▁ᎠᎩᎾᏫ	-10.0854
▁ᎪᏣᎴᏛ	-10.0859
▁ᎤᏍᏘᏰᎬ	-10.0859
ᎦᏗᏓ	-10.0863
▁ᎠᏁᎳ	-10.0867
▁ᎮᏗ	-10.0871
ᏖᎸᏗ	-10.0872
▁ᏥᎪᎨ	-10.0873
▁ᎦᏅᎯᏓ	-10.0878
▁ᎤᎪᏗ	-10.0886
ᏍᏔᏅᎯ	-10.0896
▁ᏚᏂᎸᏫᏍᏓᏁᎲᎢ	-10.0905
▁ᏂᎦᏪᏍᎬᎩ	-10.0939
ᏯᎠ	-10.095
▁ᏗᎾᏓ	-10.0953
ᏙᏢᏅ	-10.0954
▁ᎤᎪᎮᎢ	-10.0962
▁ᏱᎦᎩ	-10.0967
▁ᎤᎴᏅᎲ	-10.0968
▁ᎦᏬᏂᏍᎬᎢ	-10.0979
▁ᎤᎲ	-10.0989
ᏓᏏ	-10.099
▁ᎤᏩᏅ	-10.1012
ᏩᏛ	-10.104
▁Ꮾ	-10.106
▁ᏫᎩ	-10.1076
▁ᎦᎾ	-10.1088
ᎵᏍᎪᎸᏓᏁᎸᎯ	-10.1093
▁ᎤᏲᎱᏒᎢ	-10.1093
ᏒᏅ	-10.1102
▁ᎤᎿᏥ	-10.1109
▁ᏥᏙ	-10.1116
ᏅᎭ	-10.1121
▁ᎡᎳ	-10.1122
ᎷᏤᏗᏱ	-10.1134
ᎦᏔ	-10.1164
▁ᎢᏳᏩ	-10.1166
▁ᎧᏁᎢᏍᏗ	-10.1168
▁ᏙᏗ	-10.1169
▁Ꮋ	-10.1169
▁ᎠᏂᏂ	-10.1176
ᎫᏴᏙᏗ	-10.1179
ᏍᏕᏍᏗ	-10.1194
ᎶᎢ	-10.1208
▁ᎾᏑᏴ	-10.1208
ᎸᏓ	-10.1215
▁ᏩᏥ	-10.1228
▁ᎤᏩᏛᏗ	-10.1234
▁ᎠᎾᎵ	-10.1253
▁ᎠᎦᏔ	-10.1255
▁ᎤᏂᏁᏨ	-10.1256
▁ᎤᏄᏬ	-10.1288
ᎥᎾ	-10.129
▁ᎯᏍᎩᏁ	-10.133
ᏓᏂᎸᏨᎯ	-10.1341
▁ᎪᎯᏳᏗᏍᎩ	-10.1393
▁ᏱᏙ	-10.1415
▁ᏏᎻᏯᏂ	-10.142
ᏓᏑᏯ	-10.1421
▁ᎠᎯᏗ	-10.1426
▁ᎣᎦᏤᎵ	-10.1438
▁ᎨᏓᎵ	-10.1443
▁ᎧᏃᎮᏍᎬ	-10.1466
▁ᏄᎾᏛᏁᎸ	-10.1471
▁ᏫᎦᏅᏅ	-10.1502
▁ᎠᏂᏨᏯ	-10.1503
ᏁᏤᏗ	-10.1511
▁ᎠᏅᏗᏍᎬ	-10.1511
▁ᎤᏜᏅᏛ	-10.1515
▁ᏕᎦᏅᏅ	-10.1518
▁ᏫᏚᏯᏅᎮ	-10.1523
▁ᎠᏇ	-10.1523
▁ᏂᎬᏁ	-10.154
▁ᎠᏂᏁᎬ	-10.154
▁ᏥᏙᎬ	-10.1541
▁ᎤᏂᎩᏎ	-10.1546
▁ᎪᏱᏁ	-10.1549
▁ᎠᏇᎵᏒ	-10.1549
▁ᎤᎾᏚᎵᏍᎬ	-10.155
▁ᏚᎸᏌᏛ	-10.155
ᏙᎵ	-10.155
▁ᏂᏚᏩᏁᎸ	-10.1553
▁ᎠᏁᎵᏍᎨ	-10.1555
ᎥᎯᏍᏗ	-10.1555
▁ᎭᎵ	-10.1556
▁ᎤᏪᏅᏒ	-10.1557
▁ᏥᏁᎬ	-10.1562
ᏓᏅ	-10.1562
▁ᏣᏚᎵ	-10.1563
ᏗᏣ	-10.1567
▁ᏱᏥᎦᏔ	-10.157
ᏢᏗ	-10.1576
ᏄᏬ	-10.1579
▁ᎢᏯᏆᏛᏁᏗ	-10.158
▁ᎤᏁᏓᏍᏗ	-10.158
▁ᎦᎴᏂ	-10.1587
▁ᏂᏨᏁᎸ	-10.1589
▁ᎡᎳᏂᎬ	-10.1594
▁ᎠᏂᏃᏍᎩᏍᎩ	-10.1602
▁ᎠᏂᏩᏥᏂ	-10.1602
▁ᎦᎳᎱᏂ	-10.1602
▁ᏕᎦᎳᏫᎥ	-10.1602
▁ᏧᏓᎿᏩᏛ	-10.1602
▁ᏗᏓᏬᏍᎩ	-10.1602
▁ᏧᏙᏓᏋᏓ	-10.1602
▁ᎾᎪᏔᏅᎾ	-10.1602
▁ᎢᏆᎶᏂ	-10.1602
▁ᏚᎾᎧᏛ	-10.1602
▁ᎤᏙᎴᎰᎯᏍᏗᏱ	-10.1603
▁ᏄᏓᎵᏓᏍᏛᎾ	-10.1603
▁ᏗᏂᏬᏂᏍᎩ	-10.1603
▁ᏚᏃᏢᏔᏅᎩ	-10.1603
▁ᏗᎨᏥᎤᏍᏕᏎᎸᎯ	-10.1603
▁ᎢᏕᎯ	-10.1603
▁ᎠᏓᏪᎳᎩᏍᎩ	-10.1603
▁ᏅᏓᎦᎵᏍᏙᏔᏂ	-10.1603
▁ᏅᏓᎦᎵᏍᏙᏓ	-10.1603
▁ᏗᏂᏍᎪᎵ	-10.1603
▁ᏂᎦᎵᏍᏔᏂᏙᎲ	-10.1603
▁ᏣᏔᎦ	-10.1603
▁ᏧᏆᎶᎬ	-10.1603
▁ᎤᏍᏚᎢᏒ	-10.1604
▁ᏄᎵᏍᏔᎾ	-10.1604
▁ᎢᏥᏰᎸᏎᏍᏗ	-10.1604
▁ᏂᏣᏛᏁᎮᏍᏗ	-10.1604
▁ᎾᎵᏍᏆᏗᏍᎬᎾ	-10.1604
▁ᎢᏣᏅᏖᏍᏗ	-10.1604
▁ᎥᎩᏅᏏᏛ	-10.1604
▁ᎤᏬᏑᎶᏨᎯ	-10.1604
▁ᏚᎾᎴᏁ	-10.1604
▁ᏦᏢᏗ	-10.1605
▁ᎢᏥᎦᏔᎮᏍᏗ	-10.1605
▁ᎢᏧᎳᏗᏢ	-10.1605
▁ᎯᏍᎦᏯ	-10.1606
▁ᏂᏚᎾᏓᏪᏎᎴᎢ	-10.1606
▁ᎠᏌᏅᏙᏗ	-10.1607
▁ᎣᏂᏗᏢ	-10.1607
▁ᎡᏂᏗ	-10.1607
▁ᏗᏑᏢᏛ	-10.1607
▁ᎠᎵᏥᏙᎲᏍᎩ	-10.1607
▁ᎢᏥᎦᏙᎥᎯᏍᏗᏱ	-10.1608
▁ᎡᏈᎵ	-10.1608
▁ᏧᎾᎵᏂᎩᏛ	-10.1608
▁ᎠᏥᎤᏍᏕᏎᎸᎯ	-10.1609
▁ᎪᎯᏳᎲᏍᎩ	-10.1609
▁ᎢᏯᏍᏘ	-10.1609
▁ᏂᎬᏪᏎᎭ	-10.161
▁ᏧᏍᎪᎵ	-10.1611
▁ᎠᏓᏍᏓᏴᏗ	-10.1611
▁ᏣᏓᏅᏙ	-10.1611
▁ᎤᏛᎦᎾ	-10.1612
▁ᏅᏧᎵᏍᏙᏔᏅ	-10.1614
▁ᏍᎩᏙᎵᎩ	-10.1617
▁ᏍᎪᏯ	-10.162
▁ᏂᎦᎵᏍᏔᏅᎭ	-10.162
▁ᎠᏂᏅᎢ	-10.1621
ᏴᏗ	-10.1621
▁ᏧᏂᎳᏫᎢᏍᏗᏱ	-10.1622
▁ᎢᏨᏯ	-10.1622
▁ᎤᎵᏍᏗᏳ	-10.1622
▁ᎢᏳᎵᏍᏔᏅᎯ	-10.1622
▁ᎭᎻ	-10.1623
▁ᏄᏩᏅ	-10.1623
▁ᎤᏕᎵᏒ	-10.1623
▁ᏚᏠᏱᎴᎢ	-10.1625
▁ᎠᏆᎵᏏ	-10.1625
▁ᎢᏯᏆᏛᏁᏗᏱ	-10.1625
▁ᏦᎳ	-10.1628
▁ᏓᏓᏏ	-10.1628
▁ᎢᏓᎵ	-10.163
ᏌᏂ	-10.163
ᏎᏗ	-10.163
▁ᏥᎪᏩᏘᎭ	-10.163
▁ᎹᏗ	-10.1633
▁ᎤᏪᏗᏱ	-10.1637
▁ᎤᏍᏆᏛ	-10.1642
▁ᎤᏣᏖ	-10.1644
▁ᎨᎥᎢ	-10.1644
▁ᎡᏘᏴ	-10.1649
▁ᎤᏂᎩᏒᎩ	-10.1649
▁ᎧᏅᏑᎸ	-10.165
▁ᏘᎵ	-10.1652
▁ᏂᏚᏩᏁᎸᎩ	-10.1655
▁ᏓᎬᏩ	-10.1655
▁ᏧᏂᎾᏫᏱ	-10.1657
▁ᎹᎩ	-10.1661
▁ᏧᏓᏅᏛᎢ	-10.1668
▁ᏌᏚ	-10.1674
▁ᏧᏬᏚᎯ	-10.1677
▁ᏭᏂᎷᏤᎢ	-10.168
▁ᏄᎾᏍᏗ	-10.1683
▁ᎨᏂᏗ	-10.1688
ᏏᏗᏒ	-10.1692
ᏗᏒ	-10.1694
▁ᎤᏄᏢ	-10.1695
▁ᏗᏨ	-10.1695
ᎵᏍᏔᏅ	-10.1696
▁ᎠᎭ	-10.1702
▁ᏱᏚᏂ	-10.1714
▁Ꮘ	-10.1714
▁ᏂᏫ	-10.1721
▁ᎠᏆᎵ	-10.1727
▁ᎾᏆ	-10.1728
▁ᏱᎰ	-10.174
▁Ꮢ	-10.1752
▁ᎦᏛᎬᎢ	-10.1753
▁ᎤᎪᎲᎯ	-10.1758
ᏍᏆᏂᎪᏗ	-10.1768
ᏁᎬ	-10.1789
▁ᏄᏛᏁᎸᎢ	-10.1789
ᏐᏅ	-10.1792
ᏪᏨᎯ	-10.1799
ᏃᏁᎸᎩ	-10.1812
▁ᏚᏩ	-10.1831
▁ᎤᏁᎢᏍᏗ	-10.1846
ᏍᏔᏅᎢ	-10.1856
▁ᎠᎩᎪᎲ	-10.1885
ᏴᎭ	-10.1894
▁ᏗᎬᏙᏗ	-10.1897
ᏘᏗ	-10.1897
ᎦᎸ	-10.1902
▁ᎤᎾᏕ	-10.1902
Ꮬ	-10.1916
▁ᎤᎭᎨ	-10.1934
ᏁᎮ	-10.195
▁ᏓᏥᏯ	-10.1952
ᏍᏓᏴ	-10.1958
▁ᏫᏗ	-10.1962
▁ᏥᏴ	-10.1972
▁ᎯᎾ	-10.1975
ᏂᏒ	-10.1979
ᏧᏏ	-10.198
▁ᎠᎦᏛ	-10.1992
▁ᎤᏙᏓᏃ	-10.1999
▁ᎤᏔᏅ	-10.2027
ᎡᏍᏗ	-10.2028
▁ᏧᏙ	-10.2029
ᎩᏓ	-10.203
▁ᎠᏏᎳᏛ	-10.2031
▁ᏚᎦ	-10.2034
ᏅᏏᏙᎯ	-10.2036
ᎠᏯᏗ	-10.2049
▁ᎯᎸᎯ	-10.2058
ᏙᎮᏍᏗ	-10.2091
▁ᎤᎶᏒ	-10.2092
▁ᎠᏲ	-10.2094
ᎩᏍᎨᏍᏗ	-10.2096
▁ᎤᏛᏅᎩ	-10.2097
▁ᎨᎶᎯ	-10.2104
▁ᎤᏍᏆ	-10.2106
ᏍᎪᏃ	-10.2123
ᏗᏳ	-10.2128
▁ᏂᏣᏛᏅᎢ	-10.2134
ᏁᎸᏔᏅ	-10.2137
ᎶᏒ	-10.2139
ᏪᎳ	-10.2146
▁ᏭᏂᎷᏤ	-10.2151
ᎪᎩ	-10.2167
ᏉᏗ	-10.2173
ᏙᎵᏍᏗ	-10.2174
▁ᎤᏩᎨᏫ	-10.2176
ᎧᎵᎢ	-10.2181
▁ᎢᏍ	-10.2184
ᎤᏙᎯᏳ	-10.2213
ᎩᎳ	-10.2215
▁ᏥᎾ	-10.223
ᏰᎸ	-10.2231
▁ᎠᎢᏒ	-10.2232
▁ᎠᏂᏁ	-10.2233
ᏬᏂᎯᏍᏗ	-10.2241
ᏨᎢ	-10.2244
ᏓᏁᎸ	-10.2249
▁ᎠᏍᏚᎲ	-10.2275
▁ᎠᏍᎦ	-10.2284
▁ᎬᏯ	-10.2322
▁ᎢᏣᏓ	-10.2336
ᏅᏓᏗᏍᏙᏗ	-10.2346
▁ᎠᏍᎦᏅᏨ	-10.2347
ᎥᏏ	-10.2357
ᎴᏅᎯ	-10.236
ᏓᎶᏂᎨ	-10.2368
ᎵᎪ	-10.2369
▁ᎾᏆᏛᏁᎸ	-10.2373
▁ᎪᏢᏒ	-10.2376
▁ᏣᎩ	-10.238
ᏔᎷᎩᏍᎩ	-10.238
▁ᎠᏓᏙᎵᏍᏗ	-10.2384
ᎨᎳᏍᏗ	-10.2386
▁ᎾᏂᏪᏍᎬ	-10.2386
▁ᎠᎩᏁᏨ	-10.2394
▁ᏂᎪ	-10.2398
▁ᎠᏓᏅᏖᏍᎨ	-10.2402
▁ᎡᎵᏍᎨ	-10.2405
▁ᎥᏓᎸ	-10.241
ᏍᏚ	-10.2412
▁ᎤᎩᏨᏅ	-10.2415
▁ᎤᎵᏂᎬᎬ	-10.2416
▁ᎠᏲᏟ	-10.2417
▁ᎤᏂᏃᎮᎸ	-10.2421
ᎢᏳᎾᏍᏗ	-10.2425
▁ᎬᏩᎷᏤᎴ	-10.2426
▁ᏣᎧᏛ	-10.2426
▁ᏗᏤᎲ	-10.2427
▁ᎦᏰᏌᏛ	-10.2428
ᏛᏂ	-10.2428
ᏆᎵ	-10.243
▁ᏂᏣᏛᏅ	-10.2436
▁ᎤᎿᎥ	-10.2439
▁ᎤᏰᎸᏁ	-10.244
▁ᎠᏓᏯ	-10.2443
▁ᏫᏍᎩ	-10.2445
ᏯᏅ	-10.2449
▁ᏗᏥᏰᎸ	-10.2451
▁ᎤᎦᏔᎲᏒ	-10.246
▁ᏫᏚᏯᏅᎲ	-10.2461
▁ᎬᏩᎷᏤᎸ	-10.2465
▁ᎾᏛᏁᎲ	-10.2471
▁Ꮗ	-10.2476
▁ᎠᏁᎵᏍᎬ	-10.2485
▁ᏗᏄᎪᏗᏍᎩ	-10.2489
▁ᎢᎬᏩᏁᏗ	-10.2489
▁ᎠᏥᎢᏍᏗ	-10.2491
ᎥᏝ	-10.2495
ᏇᏓᎵ	-10.2499
▁ᎭᎴ	-10.2501
ᏙᎢ	-10.2502
▁ᏚᏅᏎ	-10.2505
▁ᎪᏢᏗ	-10.2508
ᏅᎦ	-10.2509
▁ᎠᏰᎳᏍᏘ	-10.2511
▁ᎡᎩᎵᏈ	-10.2511
▁ᎢᏗᏍᏓᏓᎳ	-10.2511
▁ᎦᏌᏆᎸ	-10.2511
▁ᏂᏓᎪᏔᏅᎾ	-10.2511
▁ᏌᏬᏚ	-10.2511
▁Chap	-10.2511
▁ᎢᏯᎬᏁᎸᎯ	-10.2511
▁ᏌᏱᎳ	-10.2511
▁ᎠᏂᏈᎵᏍᏗ	-10.2512
▁ᏣᎦᏟᎶᏍᏔᏅᎯ	-10.2512
▁ᎧᏁᏍᎪ	-10.2512
▁ᏚᎧᏔᏍᏔᏁᎢ	-10.2512
▁ᏥᏍᎪᏴ	-10.2512
▁ᏧᏓᏕᏍᏗᏱ	-10.2512
▁ᏅᏓᎦᏥᏴᏁᎵ	-10.2512
▁ᎤᏲᏍᏛᏉ	-10.2512
▁ᎮᎼ	-10.2512
▁ᎠᏕᏒᎲᏍᎩ	-10.2512
▁ᎢᏆᎻ	-10.2512
▁ᎢᏳᏛᏁᎸᎯ	-10.2512
▁ᎠᏗᏒᏍᏗ	-10.2512
▁ᏗᏥᎦᏙᎵ	-10.2513
▁ᏥᏂᏣᏛᏅ	-10.2513
▁ᏧᎾᏓᏅᏙ	-10.2513
▁ᎤᏂᏁᎫᏥᏛ	-10.2513
▁ᎦᏌᎾᎵ	-10.2513
▁ᎤᎳᎨᏯᏛᏤᎢ	-10.2514
▁ᎤᎩᏓᏟᏅᏯ	-10.2514
▁ᏗᎿᏬ	-10.2514
▁ᎤᎴᏴᏒ	-10.2514
▁ᏱᏥᏍᎦᎢᎮᏍᏗ	-10.2514
▁ᎠᎹᏳᎸᏓ	-10.2515
▁ᎧᏴᏐᎵ	-10.2515
▁ᎠᎩᎬᏫᏳᎯ	-10.2515
▁ᏣᏤᎵᎪᎯ	-10.2515
▁ᏏᎵᏱ	-10.2515
▁ᏥᏲᏎᎸ	-10.2515
▁ᎦᎫᏍᏛᏗ	-10.2516
▁ᏐᏁᎳ	-10.2516
▁ᎠᏂᏃᎮᏍᎩ	-10.2517
▁ᏇᏕᎵ	-10.2517
▁ᏗᎨᏥᎾᏌᎢ	-10.2517
▁ᏭᎷᏣ	-10.2517
▁ᎠᎦᏔᎾᎢ	-10.2518
▁ᎤᏣᏔ	-10.2518
▁ᎤᎾᏗᏍᎦᎶᏗ	-10.2519
▁ᎠᏰᎲ	-10.2519
▁ᏓᎬᏔᏂ	-10.2519
▁ᎬᎵᏍᏆᏗᏍᎩ	-10.2519
▁ᎬᏩᏍᏓᏩᏛᏒᎩ	-10.2519
▁ᎠᏉᎳ	-10.252
▁ᎢᏳᏩᏁᎯ	-10.252
▁ᎠᎵᏍᎪᎸᏓᏁᏗ	-10.2521
▁ᏥᏥᎦᏔᎭ	-10.2521
▁ᏗᎬᏩᎸᏌᏛ	-10.2521
▁ᏯᎦᏔᎭ	-10.2521
▁ᎣᎩᏙᏓ	-10.2521
▁ᏚᏃᎡᎢ	-10.2521
▁ᏤᏙᎲ	-10.2523
▁ᎠᏃᏍᏛ	-10.2523
▁ᎤᏁᏢᏔᏅᎯ	-10.2524
▁ᏗᎦᏅᏍᎨᏂ	-10.2524
▁ᎾᏥᎾᏝᎥᎾ	-10.2525
▁ᏧᏂᎦᏴᎵᎨ	-10.2525
▁ᏳᏩᏁᎦ	-10.2527
▁ᏏᏅᏓ	-10.2527
▁ᎢᏣᏠᎾᏍᏗ	-10.2528
▁ᏭᎶᎯᏍᏗᏱ	-10.2529
▁ᎪᏪᎳᏅᎯ	-10.253
▁ᎠᎨᏯ	-10.253
▁ᏦᏈ	-10.2532
▁ᎬᏂᎨᏒᎢᏳ	-10.2533
▁ᎤᏁᏍᏓᎳ	-10.2536
ᎬᏫᏳᏒ	-10.2536
▁ᏥᏂᎦᏪᎭ	-10.2537
▁ᎪᏢᏅ	-10.254
▁ᎠᏥᏃᎮᏍᎬᎢ	-10.2541
▁ᏧᏁᎬ	-10.2543
▁ᏂᎦᏅᎯᏒᎩ	-10.2544
▁ᎤᎦᎹ	-10.2545
▁ᎤᎪᏩᏛᏗ	-10.255
▁ᏂᏚᏍᏛ	-10.2551
▁ᎡᏉᏗᏱ	-10.2558
▁ᎤᏅᏏᏙᎯ	-10.256
▁ᎤᏓᏅᏖᎸᎯ	-10.2561
▁ᎣᎩᎾᎵᎢ	-10.2566
▁ᎤᏕᏁᎸᎯ	-10.2569
ᎾᏰᏍᎬᎾ	-10.2572
▁ᏥᏄ	-10.2572
ᎩᏍᎪ	-10.2574
▁ᎾᎦᏔᎲᎾ	-10.2574
▁ᏓᏕᏲᎲᏍᎬᎢ	-10.2586
▁ᎤᏬᏢᏅᎩ	-10.2587
▁ᎠᏁᎰ	-10.2589
ᏂᏓᏍᏗᏱ	-10.2589
▁ᏓᏂᏁᎸᎢ	-10.259
▁ᎠᎭᏂ	-10.259
▁ᎬᏂᏳ	-10.2595
▁ᎤᏍᎦᏅᏨᎯ	-10.2596
ᏚᎵᎭ	-10.2597
▁ᎡᎳᏗᏢ	-10.2597
▁ᏥᎨ	-10.2614
ᏂᎩᏛ	-10.2619
▁ᎨᎳᏍᏗ	-10.2621
▁ᎤᎿᎥᎢ	-10.2621
▁ᎠᎩᏍᏗᏱ	-10.2622
ᎡᏗ	-10.2622
▁ᏱᏕ	-10.2629
▁ᏤᏆ	-10.2639
ᏈᏍᏗ	-10.2648
▁ᏌᎵ	-10.2649
▁ᎠᏍᏘ	-10.2653
▁ᏕᏡᎬᎢ	-10.2656
▁ᎤᎾᏛᎦᏅᎯ	-10.2662
ᎵᏯ	-10.2663
▁ᎾᎨ	-10.2668
▁ᎠᎩᏰᎸ	-10.2695
▁ᎠᏆᏓᏅᏙᎩ	-10.2698
▁ᏕᏂ	-10.2698
ᎨᏳᏗ	-10.2701
▁ᎦᏙᎬᎩ	-10.2712
ᏑᏰᏛ	-10.2713
▁ᏳᏚᎵ	-10.2713
ᏄᎪᏫᏒᎩ	-10.2714
▁ᏂᎬᏁᎲ	-10.2721
ᎩᎯ	-10.2726
ᏁᎰᎢ	-10.2731
▁ᏄᎵᏍᏔᏂᏙᎸᎢ	-10.2745
ᏳᎯ	-10.2749
▁ᎤᏂᏍᎦᏅᏨᎢ	-10.275
ᏕᎶᎰᎯᏍᏗ	-10.2754
▁ᎦᎸᏉ	-10.2761
▁ᎤᎷᏤᎢ	-10.2773
▁ᎤᏗᏔᏍᏗ	-10.2784
▁ᏅᏗᎦᎵᏍᏙᏗᏍᎬᎢ	-10.2789
▁ᏦᎯᏳᏒ	-10.2797
▁ᎠᎫ	-10.2814
▁ᎠᏒᎩ	-10.2823
ᏓᏅᎦᎸᏛ	-10.2839
ᏔᏲᏏ	-10.2846
ᏏᏁ	-10.2848
id	-10.285
▁ᎤᎧᏛᎢ	-10.2858
▁ᎢᏥᏰᎸ	-10.2863
ᏔᎾ	-10.2863
▁ᏕᏍᎩ	-10.2868
▁ᎨᏛ	-10.2879
ᎨᏂ	-10.288
ᏁᏤᎴ	-10.2881
ᏙᎴᎰᏏ	-10.2895
▁ᎤᎾᏛ	-10.2898
▁ᎢᏒ	-10.29
▁ᎤᏂᎲ	-10.2904
ᏁᏍᏗ	-10.2923
▁ᎭᏩ	-10.2939
▁ᏗᎦᏅ	-10.2958
ᎷᏣ	-10.2959
▁ᎦᏲᎵ	-10.296
ᏗᏍᎬᎢ	-10.296
ᎦᏙ	-10.2992
▁ᎾᎩ	-10.2998
l	-10.3003
ᎵᏍᏗᏱ	-10.3054
▁ᏄᏪ	-10.3055
ᎡᎸᎩ	-10.3057
ᎵᏏᏱ	-10.3064
▁ᏦᎢᎭ	-10.3072
ᎯᎯ	-10.3084
▁ᎩᎵ	-10.309
▁ᎢᏏᎵᏱ	-10.3095
▁ᎤᏂᏰ	-10.3097
ᎦᏔᎰ	-10.3099
▁ᏚᏁᎸ	-10.3145
ᏅᏓᏓ	-10.315
ᏓᏍᏗ	-10.3164
▁ᎠᏂᏫᎾ	-10.3179
ᏕᏅ	-10.3187
▁ᏚᏂᏲ	-10.3216
▁ᏓᏰ	-10.3218
ᏚᎵ	-10.3223
ᏠᏱ	-10.3252
▁ᎠᏂᏐᎢᏃ	-10.3257
ᎥᎩ	-10.3261
ᏅᏏᏓᏍᏗ	-10.3269
ᏰᎢ	-10.3278
ᎶᏨ	-10.329
ᏁᎸᎢ	-10.3296
▁ᎯᎦᏘᏏ	-10.3309
ᏁᏤᎸᎯ	-10.331
ᏎᎴ	-10.3311
ᎾᎥ	-10.3316
▁ᎣᎩᎾ	-10.3316
▁ᎪᎦ	-10.3326
▁ᏣᏓ	-10.3337
ᏟᏍᏗ	-10.3342
▁ᎤᏬᏂᏒ	-10.336
ᏩᏛᎮ	-10.3361
▁ᎤᏂᏣᏛ	-10.3363
▁ᎠᏉ	-10.3367
▁ᎢᎳ	-10.3369
ᎾᏄᎪᏫᏏ	-10.3376
▁ᏚᎧᎿᏅ	-10.3379
ᏯᏅᎲ	-10.3381
ᎡᎸᎯ	-10.3393
▁ᏂᎨ	-10.3404
▁ᏄᏅ	-10.3408
▁ᎠᏔᎴᎦᏒ	-10.3408
▁ᎤᏃᏁᎴ	-10.3411
▁ᏕᎦᏚᏩᏗᏒ	-10.3422
▁ᏧᏩᎫᏔᏅᏒ	-10.3426
▁ᎤᏍᏓᎦᎸ	-10.3429
▁ᏓᏕᏲᎲᏍᎬ	-10.343
ᏔᏅᎾ	-10.3431
▁ᏩᎾ	-10.3433
ᎪᎱᏍᏗ	-10.3434
▁ᏱᎨᏐ	-10.3434
▁ᎠᏚᎢᏍᏛ	-10.3437
▁ᎣᎵᏩ	-10.3439
▁ᏚᏬᎡ	-10.3439
▁ᎤᏰᎸᏅ	-10.3439
▁ᎤᏂᎷᏤᏗ	-10.344
▁ᏗᎫ	-10.3449
▁ᏓᏂᏁᎸ	-10.3449
ᎦᏚ	-10.3449
ᏗᏢ	-10.3452
▁ᎤᎷᏤᎴ	-10.3466
▁ᏤᎮ	-10.3468
▁ᎤᏬᏚ	-10.3475
▁ᏕᎪᏪᎸ	-10.3477
▁ᎤᏁᎦᎸ	-10.348
ᏍᎦᎢᎲᎾ	-10.3482
ᏥᏲᏏ	-10.3483
ᏣᏛᏁᎯ	-10.3498
▁ᎤᏅᏎ	-10.3504
rs	-10.3511
ᎰᎲᏍᏗ	-10.3511
▁ᎡᏂᎾᏯ	-10.3511
▁ᎥᏘᎣᎩ	-10.3511
▁ᏑᏓᎳᏍᎪᎯ	-10.3511
▁ᏗᎫᏓᎸᏗᏱ	-10.3511
▁ᏤᎦᎳᏯ	-10.3511
▁ᏫᏚᎧᎿᏁ	-10.3511
▁ᎡᎹᏂᏓ	-10.3511
▁ᎢᏍᎦᎳᏗ	-10.3511
▁ᏧᎦᏃᏮ	-10.3511
▁ᎤᎵᏍᏔᏴᏗ	-10.3511
▁ᎤᏂᏃᎮᎴ	-10.3511
▁ᏗᎧᎾᏩᏛᏍᏗ	-10.3511
ᏔᏬᏍᏔᏅ	-10.3512
▁ᎤᎾᏢᏉᏗ	-10.3512
▁ᏯᏃᎩᏳ	-10.3512
▁ᏧᏯᏖᏃᎯ	-10.3512
▁ᏗᏇᏅᏒ	-10.3512
▁ᏗᎾᏓᏂᏱᏍᎩ	-10.3512
▁ᎤᏯᏖᏃᎯ	-10.3512
▁ᎢᏤᎳᏗᏙᎮᏍᏗ	-10.3512
▁ᏓᏓᎶᏂ	-10.3512
▁ᏗᏍᏆᎨᏂ	-10.3512
▁ᎬᏉᏎᎰ	-10.3512
▁ᏕᎨᏥᏰᎸᏔᏅᎩ	-10.3512
▁ᏦᏍᏓᏓᏅᏟ	-10.3512
▁ᎻᎾᏌ	-10.3512
▁ᎢᏳᏩᏂᏌᏅᎯ	-10.3512
▁ᏑᎾᏓᎴᎩ	-10.3512
▁ᎦᎶᎯᏍᏗᏳᎶᏗ	-10.3512
▁ᎡᏥᎸᏉᏓ	-10.3512
▁ᏅᏓᏳᎵᏍᏙᏗᏱ	-10.3512
▁ᎨᏣᏍᏓᏩᏗᏙᎯ	-10.3513
▁ᏂᏣᏪᏒ	-10.3513
▁ᏕᎪᏪᎵᏍᎬ	-10.3513
▁ᏱᏅᎦᎵᏍᏓ	-10.3513
▁ᏅᏓᎬᏁᎵ	-10.3513
▁ᏍᎩᏄᏍᏛ	-10.3513
▁ᎪᏌᏂ	-10.3513
▁ᎠᏂᏈᎷ	-10.3513
▁ᎢᏲᏍᏛ	-10.3514
▁ᎤᏰᎸᎮ	-10.3515
▁ᎯᎨᏴ	-10.3515
▁ᏂᏣᏛᎦ	-10.3515
▁ᏧᎳᏍᎩ	-10.3516
▁ᏗᏓᎴᎲᏍᎦ	-10.3516
▁ᎢᏳᏛᎿᏕᎩ	-10.3517
▁ᎢᎧᏁᏨᎯ	-10.3517
▁ᎠᏓᏠᏍᏗ	-10.3517
▁ᏫᏨᎷᏤᏗᏱ	-10.3518
▁ᎤᏂᎷᎯᏍᏗᏱ	-10.3518
ᎸᏉᏕᏍᏗ	-10.3518
▁ᎤᎵᏠᏯᏍᏕᏍᏗ	-10.3519
▁ᎠᏂᏦᎢ	-10.3519
▁ᏛᏍᏆᎸᎯ	-10.352
▁ᏗᏓᏂᏐᏗᏱ	-10.352
▁ᏑᏕᏘᏴᏛ	-10.3521
▁ᎢᏣᏛᎦᏅᎯ	-10.3521
▁ᎢᏣᎵᏍᏕᎸᏙᏗ	-10.3521
▁ᎠᏙᎴᎰᎯᏍᏙᏗ	-10.3522
▁ᏗᎦᎴᏂ	-10.3522
▁ᎤᏛᎪᏗᏱ	-10.3523
▁ᏭᏂᎶᎯᏍᏗᏱ	-10.3523
▁ᎢᏳᏩᏁᎸᎯ	-10.3523
▁ᎠᎩᏅᏏᏛ	-10.3524
▁ᏭᏴᎸ	-10.3525
▁ᎤᏓᏙᎵᏍᏓᏁᎴᎢ	-10.3525
▁ᎤᏁᎷᏅᎩ	-10.3525
▁ᎾᏂᎦᏔᎲᎾ	-10.3525
▁ᎤᏪᎵᏍᏗ	-10.3526
▁ᎤᏓᏙᎵᏣᏘᏳ	-10.3526
▁ᏩᎩᎷᏨ	-10.3526
▁ᏦᏓᎸ	-10.3527
▁ᏁᎵᏍᎬ	-10.3527
▁ᎠᏇᏅᏍᏗ	-10.353
▁ᎤᏪᏙᎵᏍᏗ	-10.3531
ᏂᏌᏁ	-10.3531
▁ᎾᏂᎠ	-10.3532
▁ᎢᎨᎬᏁᏗ	-10.3532
▁ᎬᏩᏔᏲᏎᎴ	-10.3533
▁ᏴᎨᏥ	-10.3533
▁ᎤᏂᏇᏓᎸᎢ	-10.3533
▁ᏂᎦᎵᏍᏗᏍᎨᏍᏗ	-10.3534
▁ᏙᏓᏳ	-10.3534
ᏛᏅ	-10.3535
▁ᎾᎩᏪᏒᎩ	-10.3537
▁ᎠᎦᏍᎬ	-10.3537
ᎦᏴᎵᎨ	-10.3539
▁ᎤᏌᎳᏓᏅ	-10.3539
▁ᎤᏂᏁᎫ	-10.354
▁ᏗᎦᎶᏗ	-10.3541
▁ᏥᏍᏆᏯ	-10.3544
▁ᎤᎾᏕᏅᎯ	-10.355
▁ᎤᏂᏃᎮᎸᎯ	-10.355
▁ᏥᏍ	-10.3553
▁ᏚᏂᏅᏎ	-10.3553
▁ᎤᎶ	-10.3554
▁ᏤᎲᎩ	-10.3555
▁ᏂᎬᏁᎭ	-10.3556
▁ᏚᏁᏤᎸᎩ	-10.3557
▁ᎢᏳᏛᏁᏗᏱ	-10.3557
▁ᎤᏰᎸᎯ	-10.3559
▁ᏙᏧᎾᏓᏅᏛᎢ	-10.356
ᎦᏔᎯ	-10.3563
▁ᎤᏪᏅᏍᏗᏱ	-10.3563
▁ᎤᏓᏑᏯ	-10.3564
ᏰᎭ	-10.3565
▁ᎤᎾᎵᏍᏓᏴᏗᏱ	-10.3565
▁ᎤᏩᏂ	-10.3569
▁ᏄᎾᏛᏁᎴᎢ	-10.3569
▁ᏫᏚᏯᏅᎲᎩ	-10.357
▁ᎣᎬᏒ	-10.357
ᏲᎢᏴ	-10.3571
▁ᎠᏆᏓᏅᏛ	-10.3571
▁ᎤᏓᎴᏅᏛ	-10.3571
▁ᏅᏓᎬ	-10.3573
▁ᎤᎵᏬᏨᎯ	-10.3577
▁ᏚᏌᎳᏓᏁ	-10.3579
▁ᎠᏥᎸᎨᎳᏍᏗᏱ	-10.3582
▁ᎤᏪᏅᏒᎩ	-10.3584
ᏗᏏ	-10.3589
▁ᎤᏪᏙᎸᎩ	-10.3592
▁ᎤᎩᎸ	-10.3599
▁ᎤᏄᎪᏨᎩ	-10.36
▁ᎨᎦᎫᏴᎡ	-10.3603
▁ᎾᏂᏪᏍᎬᎢ	-10.3604
▁ᎠᏎᏍᎩᏂᏃᏅ	-10.3609
▁ᎤᏰᎸᏁᎢ	-10.3611
▁ᏙᏯ	-10.3615
▁ᎠᏨᏯᎢ	-10.363
▁ᏕᎳ	-10.3633
▁ᎤᏂᏰᎸᏁ	-10.364
ᏄᎪᏩ	-10.3643
ᎧᏁ	-10.3647
▁ᎧᏁᏉ	-10.3651
▁ᎢᎾᎩ	-10.3657
ᏩᏒ	-10.3664
▁ᎢᏳᏓᎵ	-10.3668
▁ᏲᎩ	-10.367
▁ᎠᏤᎵᏍᏛᎢ	-10.3674
▁ᎠᏫᏍᎩ	-10.3677
▁ᎤᏂᎬ	-10.3694
ᏲᎯᏍᏔᏅ	-10.3716
▁ᎧᎪ	-10.3717
ᏓᏱᎵ	-10.3721
ᎲᏍᎦ	-10.374
▁ᏔᎵᏍᎪ	-10.3743
▁ᏄᏩᏁᎴᎢ	-10.3747
▁ᏴᏓ	-10.3748
▁ᏗᎦᏚᎲᎢ	-10.3755
Ꮮ	-10.3766
ᎯᏓ	-10.3768
▁ᎤᎶᎩᎸᎢ	-10.3773
▁ᏗᎦᏅᏌᏗ	-10.3781
▁ᏫᏗᎦ	-10.379
ᎵᏍᏕᎸᏙᏗ	-10.3794
ᏁᎸᎾ	-10.3795
▁ᎾᏋᏁᎸ	-10.3797
▁ᎬᎾ	-10.3806
ᏓᎴᏅᏛ	-10.3822
▁ᏱᏏ	-10.3834
ᏙᎸ	-10.3835
▁ᎤᎬ	-10.3852
▁ᏙᎩᎾ	-10.3874
ᏅᏔ	-10.388
ᎸᏉᏙᏗᏱ	-10.3885
▁ᎠᏋᎭ	-10.3888
▁ᎤᎴᏁ	-10.389
ᎰᎵ	-10.3907
ᏥᎪᏩᏛ	-10.3912
▁ᎠᏟ	-10.3917
ᎲᏍᎪᎢ	-10.3922
▁ᏂᏕᎬᏁ	-10.3923
ᏤᎵᎦ	-10.3923
▁ᏥᎪᎥ	-10.3929
▁ᎤᏥᎸᏒ	-10.3931
▁ᏣᏁ	-10.3953
▁ᏄᎵᏍᏔᏁᎮ	-10.3973
ᏁᏃ	-10.3989
▁ᎤᎲᎢ	-10.4005
▁ᎤᏚ	-10.4006
▁ᏰᎵᏍᎨ	-10.4011
▁ᏧᏬ	-10.4039
ᏍᏆᏙᏅ	-10.4049
ᎱᏍᏗ	-10.4052
▁ᎢᎯ	-10.4054
▁ᎠᏫᎾ	-10.4055
ᏁᎮᎢ	-10.4056
ᏛᏙᏗ	-10.4059
ᎦᎳ	-10.4068
ᏍᏔᎾ	-10.4071
▁ᎢᏣᏓᏅᏘ	-10.4082
ᎠᏈ	-10.4094
▁ᎣᎩᏂ	-10.4095
▁ᎭᏓ	-10.4106
▁ᏱᏙᎦ	-10.4108
ᎳᏓ	-10.4111
▁ᏂᎬᏩ	-10.4114
ᏓᏂ	-10.4115
ᏒᏍᏗ	-10.4121
▁ᎣᎬ	-10.4121
ᏒᏃ	-10.4124
ᏍᏕᎵᎭ	-10.4152
ᏓᏅᏖᏗ	-10.4161
▁ᎢᎬᏁ	-10.4168
ᎾᏄᎪᏨᎯ	-10.4169
ᏗᏍᎬᎾ	-10.4178
ᏍᏓᏩᏗᏙᎯ	-10.418
ᎧᏅ	-10.4191
▁ᏓᏲ	-10.42
ᏉᏍᎪ	-10.4214
▁ᎤᎾᏛᎦᏁ	-10.4219
ᏏᏆ	-10.4226
ᏂᏗ	-10.4229
▁ᎦᏰᏥ	-10.424
▁ᎩᎳᎯ	-10.4241
ᏅᎵ	-10.4244
ᏇᏅ	-10.4246
▁ᏛᏂ	-10.426
▁ᏱᏍᎩ	-10.4264
Ꮛ	-10.4272
ᏰᏌᏛ	-10.4276
ᎪᎵᏰ	-10.4282
ᏕᏗ	-10.4288
▁Ꮉ	-10.4289
▁ᏱᏗᎦ	-10.4289
▁ᎤᏍ	-10.4303
▁ᎡᏥᏁᏗ	-10.4314
ᏦᏅ	-10.4353
ᎵᎢ	-10.4357
ᏠᏍᏗ	-10.4359
▁ᏥᏂᎦᏪ	-10.4361
▁ᎡᎦ	-10.4369
ᏍᏔᏱ	-10.437
ᎪᎵᏰᏗ	-10.4394
ᏥᏩᏛᎲ	-10.4397
▁ᎾᎿᏉ	-10.4401
▁ᎠᏓᏅᏖᎵᏙ	-10.442
▁ᎠᏍᎪᎯᏃ	-10.4426
ᏢᏅ	-10.4441
▁ᏧᎾᎴᎯᏐ	-10.4443
h	-10.4454
ᎾᏄᎪᏫᏒᎯ	-10.4466
ᎠᏎ	-10.447
ᎦᏓᏁ	-10.4471
▁ᏄᏂᏪᏒ	-10.4482
▁ᎤᏂᎩᏒ	-10.4485
▁ᏫᏓᏂ	-10.449
▁ᎾᎬᏁᎸ	-10.4493
ᎯᏫ	-10.4497
ᏍᏆᏂᎪᏙᏗᏱ	-10.4498
▁ᏓᏈ	-10.4504
▁ᎯᏰᎸ	-10.4505
ᎢᏒ	-10.4508
▁ᏂᎦᎵᏍᏗᏍᎨ	-10.4509
▁ᎣᏓᏅᏛ	-10.4521
▁ᎤᏲᎯᏍᏔᏁ	-10.4525
ᏗᏂᏅᏌᏗ	-10.4526
ᎭᏕᏬ	-10.4529
▁ᏧᏴᏢ	-10.4531
▁ᏥᏂ	-10.4531
▁ᎢᏣᏓᏡᎬ	-10.4535
▁ᎤᎾᎵᎮᎵᏤ	-10.4536
on	-10.4538
ᎨᎵᎠ	-10.4539
ᎠᎩᎾ	-10.454
ᎦᎸᎳᏗ	-10.4541
ᎠᏕᎸ	-10.4542
▁ᎡᏙᎮ	-10.4546
▁ᏕᎤᎴᏔᏅ	-10.4547
▁ᏱᏓᏂ	-10.4548
ᏗᎦᏘᏯ	-10.4549
ᎭᏲᎲ	-10.4549
▁ᏧᏓᏅᏛ	-10.455
ᏍᎦᎩ	-10.4554
▁ᏥᏁ	-10.4556
ᎧᎵᏨᎯ	-10.4558
ᎾᏄᎪᎢᏍᏗ	-10.4559
ᏲᎯᏎᎸᎩ	-10.4559
▁ᎤᏪᏴ	-10.4559
ᏠᎠᏏ	-10.4566
ᎦᏔᎲ	-10.457
▁ᏚᏂᎸᏫᏍᏓᏁᎸ	-10.4575
▁ᎠᏓᏁᏣᏍᏚᎶ	-10.4575
▁ᏥᏰ	-10.4588
▁ᎤᏗᏞ	-10.4588
▁ᎢᏙᎻ	-10.4594
▁ᏏᏓᏁᎸ	-10.4595
▁ᏧᏂᎳᏫᎢᏍᏗ	-10.4601
▁ᏅᏲ	-10.4602
▁ᎠᏲᎱᏒ	-10.4602
▁ᎠᏥᏍᏕᎸᏗ	-10.4602
▁ᏣᎾᏫ	-10.4608
▁ᏙᏧ	-10.4608
▁ᎮᎵᎠ	-10.4619
▁ᎤᎾᏕᏅ	-10.4619
ᎭᏄᎸᎯ	-10.4621
▁Philadelphia	-10.4623
▁ᏐᎵᎹᏅ	-10.4623
▁ᏕᎨᎦᏨᏍᏗᏍᎬ	-10.4623
▁ᏕᏦᎯᏳᏎᏍᏗ	-10.4623
▁ᏚᏍᏆᎸᏔᏁ	-10.4623
▁ᎬᏩᏠᏯᏍᏗ	-10.4623
▁ᏆᎳᏆ	-10.4623
▁ᎢᏦᎯᏳᎯ	-10.4623
▁ᏗᎦᏒᏍᏔᏅ	-10.4623
▁ᏚᏩᏂᎦᏢ	-10.4623
▁ᎤᏒᎯᏰᏱ	-10.4623
▁ᏀᎢᏳ	-10.4623
▁ᏇᏚᎡᎵ	-10.4623
▁ᎤᏣᎴᏓ	-10.4623
▁ᏗᎾᏕᏲᎲᏍᎩ	-10.4623
▁ᏧᎴᎯᏌᏅᎯ	-10.4623
▁ᎨᏅᎢᏍᏗ	-10.4623
▁ᎤᏗᏔᎲ	-10.4623
▁ᏚᎧᎿᏁ	-10.4623
▁ᎧᏂᎵᏯ	-10.4623
▁ᏧᏴᏨ	-10.4623
▁ᎤᏬᏓᎸ	-10.4623
▁ᏓᏳᏂᎶᏒ	-10.4623
▁ᏧᏙᎢᏓ	-10.4623
▁ᎦᏣᏃᏍ	-10.4623
▁ᏗᎦᎸᏫᏍᏓᏁᎸᎯ	-10.4623
▁ᎢᏧᎾᏓᎳ	-10.4623
▁ᏅᏩᏙᎯ	-10.4623
▁ᎠᏚᎸᏗ	-10.4623
▁ᎤᏄᎪᎢᏍᏗ	-10.4623
▁ᏧᏣᏲᏍ	-10.4623
▁ᎢᏥᏆᎵᏏ	-10.4623
▁ᏱᏣᏓᏅᏖᏗᏍᎨᏍᏗ	-10.4623
▁ᏚᏃᏢᏅᎩ	-10.4623
▁ᎤᏓᏑᏱ	-10.4623
▁ᏗᏥᎸᏫᏍᏓᏁᏗᏱ	-10.4623
▁ᎤᏓᏅᎵᏰᎥ	-10.4624
▁ᏚᏛᏛᏁ	-10.4624
▁ᎡᏣᏂᎵ	-10.4624
▁ᏓᎵᏆ	-10.4624
▁ᎢᏗᏅᏁ	-10.4624
▁ᏗᎨᏥᎾᏝᎢ	-10.4624
▁ᎪᏍᏗ	-10.4624
▁ᎦᏓᎷᏯᏛ	-10.4624
▁ᎠᎾᏛᎩᏍᎩ	-10.4625
▁ᎠᎩᎷᏥᎸ	-10.4625
▁ᏗᎬᎪᏩᏛᏗ	-10.4625
▁ᎠᏍᏆᏚᎸ	-10.4625
▁ᎠᏂᎴᏴᏍᎩ	-10.4625
▁ᎤᎵᎬᎭᎷᏴ	-10.4626
ᎾᏙᏓᏆᏍᏗ	-10.4626
▁ᏱᎪᎵᎦ	-10.4626
▁ᎤᎾᏓᏓᏍᎬ	-10.4626
▁ᏗᏛᏓᏅᎯ	-10.4626
▁ᏗᎪᏑᎴᏗᏱ	-10.4627
▁ᎾᏯᏛᎡᏍᏗ	-10.4627
▁ᏧᎴᏔᏅᎯ	-10.4627
▁ᎬᏩᏲᎱᎯᏍᏗ	-10.4627
▁ᏧᏓᎴᏅᎲ	-10.4628
▁ᎢᎠ	-10.4628
▁ᎬᏆᏛᏁᏗᏱ	-10.4628
▁ᏥᎣᎵ	-10.4628
▁ᎠᏄᎦᎸ	-10.4628
▁ᏂᏥᎦᏔᎲᎾ	-10.4629
▁ᎥᏥᎪᎥᎩ	-10.4629
▁ᎠᏓᏍᏓᏩᏗᏙᎯ	-10.4629
ᏛᏅᎢᏍᏙᏗᏱ	-10.4629
▁ᎤᏕᏁᎢ	-10.4629
▁ᎤᏓᎴᏨ	-10.4629
▁ᎤᎾᎵᏗᎩᏛ	-10.463
▁ᎤᏬᏪᎳᏅᎯ	-10.463
▁ᎠᏓᏪᎳᎩᏍᎬ	-10.463
ᎳᏏᏕᎾ	-10.463
ᎤᏅᏓᏕ	-10.4631
▁ᎠᎹᎴᎩ	-10.4631
▁ᏚᎷᏫᏍᏔᏁᎲ	-10.4631
▁ᎤᏂᎪᎮ	-10.4631
▁ᎢᎩᏅᏟ	-10.4632
▁ᏍᎩᎾᏝᎢ	-10.4632
▁ᎤᎵᏨᏓᏆᏓ	-10.4632
▁ᎢᏧᏕᏘᏴᏛ	-10.4633
▁ᏔᎸᏗ	-10.4633
▁ᎤᎬᏫᏳᏎᏍᏗ	-10.4633
▁ᏧᎾᏄᏩᎢ	-10.4635
▁ᎤᎶᎯᏍᏗ	-10.4635
▁ᎾᏁᎲᎾ	-10.4636
▁ᎠᎵᎮᎵᎬ	-10.4637
▁ᎠᏁᏙᎭ	-10.4637
▁ᎤᎧᎭᏛ	-10.4637
▁ᎠᎩᏰᎸᎲ	-10.4638
▁ᎠᏨᏍᏛ	-10.4638
▁ᎤᎴᏫᏍᏔᏁ	-10.4639
▁ᏭᏂᏴᎴᎢ	-10.4639
▁ᎠᎵᏥᏙᎲᏍᎨ	-10.4639
▁ᎤᏂᏰᎸᏒᎩ	-10.464
▁ᎦᏅᏙᏗ	-10.464
ᏥᎯᏍᏗ	-10.464
▁ᎡᏙᎭ	-10.4644
▁ᎠᏴᏤᏂ	-10.4645
▁ᏧᏬᎸ	-10.4645
▁ᎨᏥᏁᎸᎯ	-10.4646
▁ᎧᏃᎩᏍᏗ	-10.4646
▁ᎥᎩᏙᏉ	-10.4647
ᎦᏃᎱᎩᏍᎬ	-10.4648
▁ᎤᎾᏗᏅᏗ	-10.4649
▁ᎤᏅᏙᏗᏱ	-10.465
▁ᏭᏂᎶᏒᎩ	-10.465
▁ᎤᏪᎧᏅᎩ	-10.4651
ᎩᎡᎸ	-10.4651
▁ᏗᏂᎦᏘᏯ	-10.4652
▁ᏄᏂᏪᏎᎸᎩ	-10.4656
▁ᏥᏍᎪᎵ	-10.4656
▁ᎢᏳᏓᎵᎭ	-10.4657
▁ᏯᏗᎭ	-10.4657
▁ᎾᏍᎦᎢᎲᎾ	-10.4657
▁ᎾᏂᎡᎢ	-10.4659
▁ᎠᎧᎵᏬᎯ	-10.4659
▁ᎤᏨᏉᏗ	-10.4661
ᏲᎭ	-10.4661
▁ᎠᏓᎴᏂᏍᎬ	-10.4666
ᎡᎴᎢ	-10.4667
▁ᏗᎦᎵᏍᏙᏗᎭ	-10.4667
▁ᎠᏟᏍᏛᎢ	-10.4667
▁ᎤᏕᏗᏱ	-10.4667
▁ᎤᏯᏅᎯ	-10.4667
▁ᎡᎮᎾ	-10.4668
▁ᏱᎾ	-10.4668
▁ᏗᏟᏍᏗ	-10.4669
▁ᏐᏓᎻᏱ	-10.467
▁ᎤᏪᏁᎢ	-10.467
ᎶᎯᏍᏗᏱ	-10.4671
▁ᎠᏯᎥ	-10.4671
▁ᎢᎩᏁᎸᎯ	-10.4672
▁ᎤᏰᎸᎭ	-10.4679
▁ᏗᏐᎢ	-10.4679
ᏰᏂ	-10.4681
▁ᏫᎦᎶᎯᏍᏗ	-10.4683
▁ᏣᏚᎵᎭ	-10.4683
▁ᏯᎩᎭ	-10.4688
▁ᏍᏓᏱ	-10.4689
▁ᏍᎩᎨᏳ	-10.469
▁ᏧᏁᎳ	-10.4693
▁ᏓᏳᏓᎴᏅᏓ	-10.4694
▁ᎢᎦᏁᎳᏅᎯ	-10.4694
▁ᎦᏗ	-10.4695
▁ᎦᏁᏌᎢᎯ	-10.4698
▁ᏙᏥ	-10.4702
ᏗᏍᎪᏂᎯ	-10.4705
▁ᏚᏂᎸᏫᏍᏓᏁᎸᎢ	-10.4707
▁ᎡᏙᎮᎢ	-10.4708
▁ᎤᎵᏏᏂ	-10.4708
▁ᎭᎾᏂ	-10.4709
▁ᏥᎨᏥ	-10.4711
▁ᎤᎾᏛᎦᏁᎢ	-10.4714
▁ᎢᏯᎬᏁᏗ	-10.4714
▁ᎤᏩᏛᎮᎢ	-10.4716
▁ᎢᏗᎦᏪᏍ	-10.4718
▁ᎤᏎᎵᏔᏅ	-10.4725
▁ᏭᎷᏨᎩ	-10.4731
▁ᎠᏒᎭ	-10.4733
▁ᎡᎵᏍᎨᎢ	-10.474
▁ᎦᏄᎸᏒ	-10.4742
▁ᏧᏂᎵ	-10.4743
ᏁᎶᏗ	-10.4749
ᏅᏍᏗᏱ	-10.4749
▁ᎥᎵ	-10.4753
▁ᎬᏙᏗᏱ	-10.4754
▁ᎤᏓᏅᏖᎸᎢ	-10.4755
▁ᎤᏍᏉᏟ	-10.4756
▁ᎤᏃᎮᎴ	-10.4757
▁ᎤᏯᎢ	-10.476
▁ᏏᎦ	-10.4762
▁ᎢᏌ	-10.4763
▁ᏕᏥᎸᏫᏍᏓᏁᎲᎢ	-10.4766
ᏍᏕᎵᏍᎬ	-10.477
▁ᎢᏦ	-10.4771
▁ᎤᏓᏅᏛᎢ	-10.4774
▁ᏄᎳ	-10.4774
ᏍᏕᎸᎯ	-10.4774
▁ᎤᏓᏅᏎᎢ	-10.4782
ᎥᏍᎨᏍᏗ	-10.4787
▁ᏚᏁᎴᎢ	-10.4795
▁ᎾᎾᏛᏁᎲᎢ	-10.4797
▁ᎠᏑ	-10.48
▁ᏗᏟ	-10.4801
▁ᎢᏦᎯᏳᏒᎢ	-10.4807
ᏂᏯ	-10.4811
▁ᎤᏯᏅᏒ	-10.482
▁ᎦᏓᏅᏖᏍᎬᎢ	-10.4825
▁ᎡᎵᎩ	-10.4828
▁ᏗᎬᏗ	-10.4832
▁ᏦᎾ	-10.4835
▁ᏧᎵᏏ	-10.4836
▁ᏗᎬᏩᏓᏂᎸᎢᏍ	-10.4837
▁ᎤᏲᎴ	-10.4839
▁Ꮝ	-10.484
▁ᏗᏍᎩ	-10.484
▁ᎡᎲᎩ	-10.4847
▁ᎠᏍᎦᎾᎢ	-10.485
▁ᏥᏁᎸ	-10.4852
▁ᏚᏁᏤᎴᎢ	-10.4853
ᎳᏁᎢ	-10.4859
ᏍᏛᏱ	-10.4868
ᎦᏨ	-10.4872
▁ᏅᏗ	-10.4894
▁ᎠᎦᏘᏰ	-10.4894
▁ᎦᏯ	-10.4896
ᎪᎵᏰᎡ	-10.4902
▁ᎠᎾᏗᏍᎪ	-10.4902
▁ᎤᏪᏅᏎᎢ	-10.4906
▁ᏅᏓᏳᎾᎵᏍᎪᎸᏔ	-10.4907
▁ᏧᎾᏄᎪᏫᏎᏗ	-10.4912
▁ᎠᏍᏛᎢ	-10.4924
▁ᎪᏍᏔ	-10.494
▁Ꮂ	-10.4941
▁ᎤᎪᎲᎩ	-10.4949
▁ᏗᏂᏩᎾᎦᎳ	-10.4958
▁ᎤᎾᏄᎪᏫᏒ	-10.4961
▁ᎤᏁᎳ	-10.4962
ᏁᏤᎵ	-10.4972
ᎢᎦ	-10.4974
▁ᎠᏓᏅᏖᏍᎬᎢ	-10.4975
▁ᎤᏪᎷᏁᎢ	-10.4987
▁ᎤᏅᏅ	-10.4989
▁ᏇᎵᏥ	-10.5005
ᏲᎰᏎᎸ	-10.5006
▁ᎤᎵᏍᏚᎢ	-10.5008
▁ᏗᏂᏃ	-10.5035
▁ᎤᎾᏙᏓᏆᏍᎬᎢ	-10.5046
▁ᎠᏂᏤ	-10.5054
ᏂᏫ	-10.5062
▁ᎠᏲᎱᏍ	-10.5065
▁ᎠᏆᏓᏅᏖᏗ	-10.5071
▁ᎤᎾᎩᎸ	-10.5072
ᏬᎥ	-10.5079
▁ᏅᏗᎦᎵᏍᏙᏗᏍᎨᎢ	-10.5081
▁ᎠᏥᏁᎸ	-10.5088
▁ᎤᏍᎪ	-10.5089
▁ᎦᏚᏱ	-10.5094
ᏓᏁᏟᏴᏛ	-10.5131
▁ᎤᏂᏴ	-10.5132
▁ᎠᏋ	-10.5133
▁ᎤᏂᏩᏛᏗ	-10.5151
ᎥᎦ	-10.516
▁ᎢᏣᎵ	-10.5183
▁ᏗᎲ	-10.5185
ᎵᏍᏓᏴᎲᏍᎦ	-10.5197
ᎦᏙᎥᎯᏍᏗᏱ	-10.5197
▁ᏙᏘ	-10.521
ᎣᎢ	-10.5215
ᏍᏆᏂᎪᏕᏍᏗ	-10.5222
▁ᏂᎦᎵᏍᏙᏗᏍᎨ	-10.5227
▁ᎤᎾᏄᎪᏫᏎ	-10.5238
▁ᏚᏓ	-10.5239
ᏃᎮᏍᎬᎢ	-10.5256
▁ᏛᎩ	-10.5264
▁ᎠᎦᏕ	-10.5264
ᏅᏓᏛ	-10.5269
ᏂᏙᎯ	-10.5279
▁ᎤᎵᎮᎵᏤ	-10.5285
▁ᏕᎫ	-10.5287
▁Ꮺ	-10.529
▁ᏧᎴ	-10.5296
ᎳᏏ	-10.5311
ᎢᏴ	-10.5317
▁ᎠᎨ	-10.5327
▁ᎢᏥᎩᏍᏗ	-10.5331
ᏛᏔᏂ	-10.5343
ᏛᏁᏗᏱ	-10.5345
ᏟᎶᏍᏙᏗ	-10.535
▁ᎾᎦᏛ	-10.5379
▁ᏂᏨ	-10.5395
▁ᏙᎯᏳ	-10.5402
ᏛᏁᎵ	-10.5407
▁ᎬᏗᎭ	-10.5408
ᎵᏍᎬ	-10.5411
▁ᎤᏥᏃ	-10.5411
ᏍᎦᏰᎬᏍᏓ	-10.543
▁ᏙᏓᏣ	-10.5436
▁ᎡᏣᎫᏴ	-10.5437
Ꮽ	-10.5447
ᏎᎸᎩ	-10.5448
ᎮᏃ	-10.5456
ᏓᎳ	-10.5458
▁ᏲᎦ	-10.5462
▁ᏗᏨᏂᏗ	-10.5463
ᎷᎩ	-10.5475
ᎨᏛ	-10.5488
ᏍᏖ	-10.5495
ᏙᎴ	-10.5506
▁ᎢᏥᎲ	-10.5511
ᎴᏅᏛ	-10.5516
▁ᎤᏁᎴ	-10.5516
▁ᏚᏯᏪ	-10.5517
▁ᏂᏛ	-10.5517
▁Ꮏ	-10.5521
▁ᎡᎳᏪᏱ	-10.5524
▁ᎦᏅᎨ	-10.5536
▁ᎢᏍᏓ	-10.5548
ᎾᏝᎠ	-10.5549
▁ᏱᏫ	-10.555
ᏪᏒ	-10.5551
ᎨᏍᏗᏗ	-10.5553
ᏅᏖ	-10.5571
ᎯᏯ	-10.5577
▁ᏚᏙ	-10.5582
▁ᏕᏨ	-10.5584
ᏲᎵ	-10.5593
ᎳᏅ	-10.5595
ᏣᎵ	-10.5599
▁ᎤᏂᎦᏙᎥᏒ	-10.5607
▁ᏂᎯᎾ	-10.5614
▁ᏨᏗ	-10.562
▁Ꮮ	-10.562
▁ᎤᎧᏔ	-10.5626
▁ᎠᏢ	-10.5627
▁ᎠᏗᏍᎬ	-10.5628
▁ᏦᏥ	-10.5629
ᎬᏫᏳᎯ	-10.5629
ᏘᏲᏍᏗ	-10.5633
▁ᏂᎯᏍᎪ	-10.5634
ᏙᎵᏨ	-10.5636
ᏘᏰ	-10.564
▁ᎤᎦᏛ	-10.5645
▁ᎦᏣᏄᎵ	-10.5658
ᏁᏎᎢ	-10.5671
ᏯᎥᎢ	-10.5674
ᏍᏔᏅᎭ	-10.5679
▁ᏣᏆ	-10.5682
▁ᎢᏣᏚᎵ	-10.5683
▁ᏕᏣᎧ	-10.572
ᏠᏨ	-10.5731
▁ᏂᏚᏪᏎᎸ	-10.5736
▁ᎦᎶ	-10.5742
▁ᏧᎳᏑᎶ	-10.5746
▁ᎯᎠᏉ	-10.575
ᏦᏁ	-10.5756
ᏙᎬ	-10.5757
ᏲᎪ	-10.5762
▁ᏓᎵᏍᏗᎳᏁᎬ	-10.5769
ᏃᎴ	-10.5776
▁ᏙᏓᏆᏍᎬ	-10.5779
▁ᎤᏁᎵᏎ	-10.578
▁ᏗᎦᏅᏬ	-10.5781
ᏴᎵ	-10.5783
▁ᎤᏬᎴ	-10.5783
▁ᎢᏕᎲ	-10.5784
▁ᏓᏂᎳᏫᎥ	-10.5787
▁ᏗᏥᎦᏴᎵᎨ	-10.5787
▁ᏓᏟᎶᏍᏛ	-10.5787
▁ᏳᏫ	-10.5788
▁ᎧᎸᎬ	-10.5788
ᎶᏐᏅ	-10.5788
▁ᎤᏗᏛᎮ	-10.5788
ᏥᎨᏳᎢ	-10.5789
▁ᎢᎩᏍᎦᏅᏨ	-10.579
▁ᎤᏬᏎᎴ	-10.579
r	-10.5793
▁ᎠᏂᏙᎾᎡ	-10.5794
▁ᎤᏚᎢᏍᏔᏅ	-10.5794
▁ᏚᎴᎯᏌᏅ	-10.5798
▁ᎤᏪᎧᏁᎴ	-10.5799
ᏕᎬ	-10.58
ᎾᏉ	-10.5803
▁ᎠᏂᎦᏴᎵᎨ	-10.5805
▁ᏓᏂᎧᏅ	-10.5807
ᏁᏨ	-10.5808
▁ᏧᎦᏴᎵᎨ	-10.581
ᎠᎹ	-10.5812
▁ᎡᎵᏍᎬ	-10.5815
ᎵᏬᏨ	-10.5817
ᎬᏫᏳᏌᏕᎩ	-10.5819
▁ᎦᎢᏒ	-10.582
ᏟᏂᎩᏓ	-10.5825
ᎤᏍᏆᏂᎩᏗ	-10.5827
▁ᎭᏗ	-10.5831
▁ᏚᏁᏤᎸ	-10.5831
▁ᎦᏆᏘ	-10.5831
ᎧᎵᏬᎯ	-10.5832
ᎤᏙᎯᏳᎯ	-10.5837
▁ᎪᏢᏔᏅ	-10.5843
▁ᎠᏁᎮ	-10.5843
ᏅᎪᏤ	-10.5845
▁ᎤᏂᏗ	-10.5848
▁ᎤᏩᏛᎮ	-10.5848
ᏂᎦᏓ	-10.5849
▁ᏚᎷᏫᏍᏔᏁ	-10.5849
ᏛᏁᎲ	-10.5849
▁ᎤᏂᏍᏆᏂᎪᏙᏗ	-10.5851
▁ᎪᎹᎵ	-10.5851
▁ᏤᏅᏍᏗ	-10.5851
▁ᎦᏂᏏ	-10.5854
ᎸᏫᏍᏓᏁᏗ	-10.5854
▁ᎢᏥᏍᏆᏂᎪᏙᏗ	-10.5854
ᏔᏲᏎᎸᎩ	-10.5855
▁ᎠᏓᎨᏗ	-10.5857
ᎴᎯᏌᏅ	-10.5859
▁ᎢᏳᏅᏁᏗ	-10.5859
▁ᎨᏥᏁᏗ	-10.5862
▁ᎤᎾᏅᏗ	-10.5864
▁ᎠᏕ	-10.5864
ᏴᏐᎵ	-10.5869
▁ᎤᏰᎸᏎ	-10.587
ᎾᏓᎴᎩ	-10.5872
▁ᎡᏉᏄᎶᏗ	-10.5873
▁ᎤᏂᏚᏯᏍᏗ	-10.5873
▁ᎤᏓᏏᏂᏕᎾ	-10.5873
▁ᎤᏪᏲᏓᏛ	-10.5873
▁ᎾᏂᎳᏍᏓᎸ	-10.5873
▁ᏅᏓᎬᏴᏁᎵ	-10.5873
▁ᏈᏯᏏᏆ	-10.5873
▁ᏗᎾᏙᏂᏍᎩ	-10.5873
▁ᏦᎩᎸᏫᏍᏓᏁᎯ	-10.5873
ᎦᏌᏯᏍᏕᏍᏗ	-10.5873
▁ᎠᏣᏪᏐᎸᏍᏙᏗᏱ	-10.5873
▁ᎦᎵᏦᏙᏙᏗ	-10.5873
▁ᏆᎻᏆᏂ	-10.5873
▁ᎢᏰᏆ	-10.5873
▁ᏗᎧᏁᎢᏍᏗ	-10.5873
▁ᎯᎦᏙᎵ	-10.5873
▁ᎯᎧᏅᎭ	-10.5873
▁ᏂᏚᎾᏓᏪᏎᎸᎩ	-10.5873
▁ᏫᏂᎦᎵᏍᏙᏓ	-10.5873
▁ᎤᏓᏛᏛᏁ	-10.5873
▁ᎦᏅᏃᏩ	-10.5873
▁ᏗᏉᏰᏂ	-10.5873
▁ᎠᏂᏙᎾᎢ	-10.5873
▁ᏧᏁᎿᎢ	-10.5873
▁ᏧᏩᏂᎦᏝᏅ	-10.5873
▁ᏄᏬᎯᏳᏒᎾ	-10.5873
▁ᏧᏃᏚᎯ	-10.5873
▁ᏗᏆᎳᏏᏕᏂ	-10.5873
▁ᏅᏓᎪᎯᏥ	-10.5873
▁ᏅᏃᎱᎶᏗ	-10.5873
▁ᎢᎳᏏᏗ	-10.5873
▁ᎤᏢᏉᏗ	-10.5873
▁ᏧᎾᏓᏍᏚᏗ	-10.5873
▁ᏕᏥᏲᎵᎸᎭ	-10.5873
▁ᎦᏣᏄᎸ	-10.5873
▁ᎬᏩᏕᏁᎸᎯ	-10.5873
▁ᏗᎦᏃᏣᏟ	-10.5873
▁ᎤᏬᏞ	-10.5873
▁ᎤᏪᏚᎲ	-10.5873
▁ᏱᏄᎵᏍᏔᏅ	-10.5873
▁ᎪᏒᏔᏅ	-10.5873
▁ᎤᏂᎸᏉᏔᏁ	-10.5873
▁ᎤᏂᎬᎥᏍᎩ	-10.5873
▁ᏅᏓᏳᏓᎴᏅᏛ	-10.5874
▁ᏱᏤᎵᎯᏍᎨᏍᏗ	-10.5874
ᏍᎦᎣᏅ	-10.5874
▁ᎰᏪᎸᎦ	-10.5874
▁ᏓᎩᏯᏪᎦ	-10.5874
▁ᏧᏓᏘᎾᎢ	-10.5874
▁ᎦᏯᎴᏍᏗ	-10.5874
▁ᏗᎧᏂᎨ	-10.5874
▁ᎤᎾᏓᏑᏰᏛ	-10.5874
▁ᎢᏨᏍᏗᏰᏗᎭ	-10.5874
▁ᎥᎩᏅᏟ	-10.5874
▁ᎢᎬᏪᏅᏛ	-10.5875
▁ᏂᏚᏅᏏᏴ	-10.5875
▁ᏗᏁᏙᎲ	-10.5876
▁ᏧᏃᏩ	-10.5876
▁ᎬᏩᏓᏍᏕᎸᏗ	-10.5876
▁ᏕᎪᏢᏩᏗᏒ	-10.5876
▁ᏄᏠᎾᏍᏛᎾ	-10.5876
▁ᎢᎧᏁᎢᏍᏗ	-10.5876
▁ᎠᏂᎾᏁᏍᎬ	-10.5876
▁ᏗᎩᏅᏒ	-10.5876
▁ᎠᏆᏓᎵᎢ	-10.5876
▁ᏄᏂᎲᎾ	-10.5876
▁ᎠᏂᏯᎢ	-10.5876
▁ᏌᏈ	-10.5876
▁ᎤᏂᏑᎸᏓ	-10.5877
▁ᎲᏗᏍᎨᏍᏗ	-10.5877
▁ᎿᏛᎦ	-10.5877
▁ᎦᏌᎴᏂ	-10.5877
▁ᎡᏣᎸᏉᏗᏳ	-10.5877
▁ᎤᏍᏗᎩᏛ	-10.5877
▁ᎢᏥᏪᏍᏗᏱ	-10.5877
▁ᏚᎦᏌᏛ	-10.5877
▁ᎠᏆᎵᏍᏓᏴᏗ	-10.5878
▁ᎠᎹᏳᎶᏗ	-10.5878
▁ᎤᏕᎶᎰᏒ	-10.5878
▁ᏗᎫᎪᏗᏍᎩ	-10.5878
▁ᎠᏁᏢᏔᏅᎯ	-10.5879
▁ᏙᏗᏣᏓᏅᏛᎢ	-10.5879
▁ᏫᎨᏥᏲᎵᎭ	-10.5879
▁ᏚᏭ	-10.5879
▁ᏓᎭᏃᏫ	-10.5879
▁ᏚᏦᎯᏍᏛ	-10.5879
▁ᏫᏚᎾ	-10.588
▁ᎡᏃᏱ	-10.588
ᎳᎩᏒ	-10.588
▁ᎠᎾᏓᏙᎵᏍᏓᏁᎯ	-10.588
▁ᎬᏁᏍᏗ	-10.588
▁ᏧᏙᏓᏆᏛ	-10.588
▁ᎤᎩᎵᏲᏨ	-10.588
▁ᎦᎵᎡᎵᎦ	-10.588
ᎿᏕᎩ	-10.5881
▁ᎠᎬᏓᎨᏂ	-10.5881
▁ᎯᏬᏂᏍᎬ	-10.5881
▁ᏗᏓᏬᏍᏗ	-10.5882
▁ᎠᏯᏖᎾ	-10.5882
▁ᎤᏃᏍᏛ	-10.5882
▁ᎪᏍᏓ	-10.5882
▁ᎤᏂᎵᏦᏩᏛ	-10.5882
▁ᏱᏍᎦᎢᎮᏍᏗ	-10.5883
▁ᎠᎬᎭᎸᏛ	-10.5883
▁ᏓᎬᏁᎵ	-10.5883
▁ᎤᏂᏍᏆᏂᎪᏒᎩ	-10.5883
▁ᎤᎾᏛᏁᎸᏗ	-10.5883
▁ᏥᏅᏗᎦᎵᏍᏙᏗᎭ	-10.5883
▁ᎤᏛᏅᎢᏍᏔᏁ	-10.5884
▁ᎤᎭᎸᏂᎯ	-10.5884
▁ᎤᏘᏴᎯ	-10.5884
▁ᎠᎦᏙᎵ	-10.5885
▁ᎠᎦᎸᏓ	-10.5885
▁ᎬᏩᏃᏁᎴ	-10.5886
▁ᎠᏂᏥᎸᏍᎩ	-10.5886
▁ᎠᎪᏎᎮᏍᏗ	-10.5887
▁ᎢᎪᎯ	-10.5887
ᎦᏯ	-10.5888
ᏕᎦ	-10.5888
▁ᎹᎾ	-10.5889
▁ᎩᎾᎵᎢ	-10.589
▁ᏅᏓᏰ	-10.5891
▁ᎦᏟᏓ	-10.5891
▁ᏓᏆᎧᎾᏅ	-10.5891
▁ᎠᎪᏔᏅᎯ	-10.5892
▁ᎮᏂᎵ	-10.5892
▁ᎠᏓᏰᎨᏍᏗ	-10.5892
▁ᏂᏨᎦ	-10.5893
▁ᎢᏥᏁᏍᏗ	-10.5893
▁ᎤᏃᎯᏳᏗᏱ	-10.5893
▁ᎠᏥᏅᏏᏛ	-10.5895
▁ᏕᎬᏗᏍᎬ	-10.5895
▁ᎠᎴᏂᏍᎩ	-10.5896
▁ᏧᎾᏄᎪᏫᏒᎯ	-10.5898
ᏯᏅᎲᎩ	-10.5898
ᎳᏚ	-10.5899
▁ᎭᏂᏣ	-10.5899
▁ᎤᏂᏩᏛᎮ	-10.59
▁ᎠᏂᏴᎩ	-10.59
▁ᎤᏰᏨ	-10.5901
▁ᏄᎾᎵᏍᏓᏁᎸ	-10.5902
▁ᏕᎧᏁᏤ	-10.5902
▁ᎤᎾᎦᏙᏍᏕᎢ	-10.5903
▁ᎤᏂᏁᎬ	-10.5904
ᎲᏍᎬᎾ	-10.5904
▁ᎩᎳᏊ	-10.5905
▁ᏗᎵᏍᎪᎸᏓᏁᎸᎯ	-10.5906
ᏰᎢᎵᏓᏍᏗ	-10.5906
▁ᎠᏲᏙᏗ	-10.5906
▁ᎤᎾᏕᏗᏱ	-10.591
▁ᎠᏂᎯᏗ	-10.591
ᏍᏚᏗ	-10.5915
▁ᏄᏛᏅᎢ	-10.5916
▁ᏣᎨ	-10.5917
▁ᏬᎩᎷᏨᎩ	-10.5918
▁ᎤᏡᏗᏍᎩ	-10.5921
▁ᎤᏗᏗᏢ	-10.5921
▁ᎠᎪᎵᏰᏗ	-10.5922
▁ᎤᏂᎩᏍᏗᏱ	-10.5924
▁ᎠᎬᏗᏍᎬᎢ	-10.5924
▁ᏮᏛ	-10.5925
▁ᏗᏥᎾᏫᏱ	-10.5927
▁ᎤᏪᏅᎩ	-10.5929
▁ᎦᏟᎮ	-10.5929
▁ᏧᏁᏤᎢ	-10.5931
▁ᏗᏧ	-10.5932
ᏲᎾ	-10.5934
▁ᎠᎯᏓ	-10.5937
ᏎᎭ	-10.5937
ᏯᏔᎮᏍᏗ	-10.5938
▁ᎤᎵᏍᏆ	-10.5938
▁ᏙᏓᎨ	-10.5939
▁ᏗᏁᎯ	-10.5942
▁ᎠᏂᎩᏍᎬ	-10.5944
▁ᏎᏉ	-10.5944
▁ᏓᏍᏛᎢ	-10.5945
▁ᎤᎵᏍᏆᏛ	-10.5945
▁ᎤᏌᎯᎸᎢ	-10.5946
▁ᎠᎵᎮᎵᎨ	-10.5955
▁ᎤᏂᏁᏨᎩ	-10.5958
▁ᎢᎩᏍᎦᏅᏨᎢ	-10.5959
ᏁᏆ	-10.596
▁ᏕᏥᏁᎸ	-10.5963
▁ᎤᎾᏓᏅᏎ	-10.5965
▁ᎤᎾᏅᏅ	-10.5967
ᎧᎭ	-10.5968
▁ᎾᏆᏍᏛ	-10.5968
ᎤᏲ	-10.5968
▁ᎦᏓᏍᎬᎢ	-10.597
▁ᎤᎴᏅᎩ	-10.5971
▁ᏗᎨᏣ	-10.5975
▁ᏗᎪᏢ	-10.5975
▁ᎠᏓᎯᎯ	-10.5976
ᎴᎾ	-10.5982
▁ᎦᏁᏟᏴᏍᏗ	-10.5983
▁ᎠᏥᏛᏙᏗ	-10.599
▁ᏚᏩᏛᎮ	-10.5991
▁ᎪᏛ	-10.5996
▁ᎤᏬᎯᏳ	-10.6
▁ᏅᎵᏌᎵᏉ	-10.6
▁ᎮᏓ	-10.6001
ᎿᎢ	-10.6004
▁ᎤᏂᎩᏎᎢ	-10.601
▁ᎤᏤᎸ	-10.6012
▁ᎦᏰᏫᏍ	-10.6016
▁ᎤᏚᎸᎲ	-10.6018
▁ᎬᎨᏳᎢ	-10.6022
▁ᏓᏤᎸ	-10.6027
▁ᎣᏒ	-10.6027
▁ᎤᏂᎪᎲᎯ	-10.6027
ᏕᏯᏙᏔᏅᎩ	-10.6027
▁ᎤᏬᏢᏅᎢ	-10.6032
▁ᏮᏓ	-10.6034
ᏄᎪ	-10.6035
ᎸᏉᏛᎾ	-10.6036
▁ᏏᎳ	-10.6038
▁ᏱᏂᎬ	-10.6039
ᏇᎵ	-10.6042
ᏔᏲᏍᏗ	-10.6044
ᎡᎵᏍᏗ	-10.6051
ᏐᏉ	-10.6053
ᏁᎲᎩ	-10.606
▁ᎪᏪᎸᎩ	-10.6061
▁ᏥᎳ	-10.6066
▁ᏣᎪ	-10.6069
▁ᏝᎨ	-10.6078
▁ᎦᎬᏩ	-10.6085
ᏁᎰ	-10.6091
ᏞᏍᏗ	-10.6092
▁ᎦᏅᏅᎢ	-10.6112
▁ᏂᏚᎩᏨᏂᏒᎢ	-10.6115
▁ᏴᎦᎦ	-10.6116
▁ᎤᏩᏔᏅ	-10.6124
ᎩᏍᎬ	-10.6125
ᎠᏆ	-10.6125
▁ᏄᏓᎴᎯ	-10.613
▁ᎤᏬᎸᎢ	-10.6133
▁ᎡᏍᎦᏂ	-10.6134
ᏫᏍᎩ	-10.6139
ᏔᏂᏓ	-10.614
ᏃᎮᎸ	-10.6145
ᏍᎬᏏ	-10.6145
ᎩᏃ	-10.6156
ᏴᎩ	-10.6158
ᏙᎵᎩ	-10.6158
ᏎᎸᎯ	-10.616
▁ᎠᏓᏙᎵᏍᏙᏗ	-10.6171
▁ᎮᎯ	-10.6174
▁ᎤᏍᏆᎸ	-10.6178
▁ᎵᏏ	-10.6179
ᎩᏍᏗᏱ	-10.6182
▁ᎠᏂᏍᎦᎾᎢ	-10.6184
▁ᏄᏍᏕᎢ	-10.6185
▁ᏍᎩᏍᏕᎸ	-10.6185
ᏦᏰᏂ	-10.6195
ᏍᏙᏗᏱ	-10.6196
ᎫᏩ	-10.6197
▁ᎤᎦᏃ	-10.6201
▁ᎤᏁᏤᎸᎢ	-10.6203
▁ᎾᏍ	-10.6204
▁ᏅᏩᏍᏛ	-10.6204
▁ᏥᏅ	-10.621
ᎦᎹ	-10.6219
▁ᎥᏣ	-10.622
ᏓᏴᎳᏛ	-10.6221
▁ᎲᎦ	-10.6223
▁ᏓᎶᏂᎨᎢ	-10.6225
▁ᎤᎾᏛᎦᏅᎩ	-10.6237
▁ᏕᎨᏥ	-10.6241
ᏍᏚᎢᏒ	-10.6242
ss	-10.625
▁ᏚᏬ	-10.6253
▁ᎠᎵᏍᏆᏗᏍ	-10.6259
ᎧᏏ	-10.626
▁ᏓᎦᏥ	-10.6261
▁ᎠᎩᎸᏉᏗ	-10.6264
ᎷᏤ	-10.6266
▁ᎢᏥᎩ	-10.6267
▁ᎤᏁᏒ	-10.6278
ᏣᏁ	-10.6287
ᏦᏩᏛ	-10.6291
▁ᎠᎦᏅ	-10.6294
ᏒᎲᏍᏗ	-10.6296
ᏪᏎᏗ	-10.6296
▁ᎤᏙᏳ	-10.6296
▁ᎢᏣᏟᏂᎬᏁ	-10.63
ᎬᎾᎨ	-10.6303
▁ᏆᎾ	-10.6312
▁ᎤᏩᏁ	-10.6315
▁ᏙᏓᎬ	-10.6319
ᎵᏍᏔᏁ	-10.6325
ᏳᏍᏗ	-10.6328
▁ᎬᏩᏍᏓᏩᏗ	-10.633
ᏢᏅᎯ	-10.6349
▁ᎢᎸ	-10.6365
ᏂᏴ	-10.6369
▁ᎠᏂᏔᎵᎭ	-10.6371
▁ᎾᏕᏘᏴ	-10.6378
▁ᎠᎦᏙ	-10.6378
ᏥᎶᏏ	-10.6379
ᎵᏓ	-10.6382
ᏏᏗ	-10.6386
ᎶᏏ	-10.6389
▁ᎤᏂᎷᏤᎸ	-10.6425
ᏘᏃᎮᎸᎩ	-10.6427
ᏓᏅᏖᎴ	-10.6443
ᏓᏁᎮᏍᏗ	-10.6445
▁ᎤᏬᏂᎯᏍᏗ	-10.6447
ᎾᎵ	-10.6449
▁ᎯᏁᎸ	-10.6452
▁ᏙᏉ	-10.6453
▁ᎠᎩᏰᎸᏅ	-10.6468
ᏍᏓᏁ	-10.6471
ᏥᏃᎮᏍᎩ	-10.6471
ᏚᎬ	-10.6474
▁ᎠᏍ	-10.6479
ᏗᏍᏔᏁ	-10.6485
ᎾᏩ	-10.649
▁ᏲᏥ	-10.6505
ᏦᏢᏙᏗ	-10.6508
ᏏᎾᏌᏂ	-10.6513
ᏬᏂᏍᎬ	-10.6515
ᏍᏛᎢ	-10.6534
ᎵᎹ	-10.654
▁ᎤᏪᏅᏎᏃ	-10.655
▁ᎨᎢ	-10.6562
▁ᎨᎩ	-10.6564
ᎯᏳᎲᏍᎦ	-10.657
ᎴᏃ	-10.6574
▁ᏥᏕᎦ	-10.6579
▁ᎠᏌ	-10.6583
ᎵᏍᏙ	-10.66
▁ᎠᎦᏔᎮ	-10.6603
▁ᎬᏒ	-10.6615
▁ᎠᏁᎶᎯ	-10.6616
▁ᎤᏅᏣ	-10.6618
ᎪᎲ	-10.6619
▁ᎠᏥᏰ	-10.6623
▁ᎬᏩᎪᏩᏛ	-10.6628
▁ᎤᎩᏍᏗ	-10.6642
▁ᏗᏅ	-10.6643
ᎩᏍᏙᏗ	-10.6653
ᎳᏗᏍᏗ	-10.6653
ᏰᎸᎲ	-10.6661
▁ᏑᎾᎴᏉ	-10.6664
ᎵᏨ	-10.6682
▁ᏧᏄᏬ	-10.6688
▁ᏓᏂᎸ	-10.6693
▁ᏳᏓ	-10.6703
▁ᏚᏃ	-10.6703
ᎢᏍᏔᏂ	-10.6706
▁ᏗᎧ	-10.6727
▁ᎤᏭ	-10.6728
ᏏᏳ	-10.6738
ᏰᎸᏗ	-10.6745
▁ᎢᏣᎵᎮᎵ	-10.6751
▁ᏳᏪ	-10.6752
▁ᏄᏬ	-10.6753
▁ᎢᎪ	-10.6753
▁ᏗᎩᎦ	-10.6779
ᏣᏅᎩ	-10.6781
▁ᏥᏳᎪ	-10.6785
ᏓᏱ	-10.6785
▁ᎢᏗᎦᏘ	-10.6787
ᏏᎳ	-10.6795
ᏍᎦᏃᎳ	-10.6797
ᎾᏄᎪᏩ	-10.68
ᏅᎪᎢᏍᏗ	-10.6801
ᏥᎪᏩᏛᏗᏱ	-10.6804
ᎷᏤᎸ	-10.6805
▁ᏓᎬᎩ	-10.6807
ᏴᎵᎸ	-10.681
▁ᎠᏘ	-10.6814
ᏅᏓᏗᏍᏗ	-10.6817
▁ᏗᎩᏲᎯ	-10.6822
▁ᎯᏍᎩᎦᏚ	-10.6826
▁ᏚᎪ	-10.6827
▁ᎦᏙᎦ	-10.6827
▁ᏱᏣᏓ	-10.6838
ᏑᏰᏒ	-10.6843
▁ᏦᎦ	-10.6846
ᎾᏄᎪᏫᏎᎸ	-10.6848
ᏁᏉᏥ	-10.6854
▁ᎤᏩᏒᏍᎩᏂ	-10.6864
ᏁᏟᏴᎾ	-10.6869
ᎳᏛ	-10.6872
ᏫᏎᎴᎢ	-10.6875
ᎷᎯᏍᏗ	-10.6879
ᏕᎶᏆᏍᏗ	-10.6887
▁ᎤᏂᎶᏒ	-10.6887
▁ᎤᏃᎸ	-10.6887
ᏓᏁᎮ	-10.6889
▁ᏥᎦᏔᎲ	-10.6893
ᎤᏍᏗ	-10.6899
▁ᎤᏍᏆᏂᎪᏙᏗ	-10.69
▁ᎤᏁᏅ	-10.6914
ᎡᎸ	-10.6915
▁ᏫᏨᏲᏪᎳ	-10.6919
▁ᏥᏂᎬ	-10.6922
▁ᏕᏅ	-10.6925
ᏘᏃᎸ	-10.6946
ᏲᏍᏙᏗ	-10.695
▁ᏂᎦᎥᎩ	-10.696
▁ᏱᏓᎩ	-10.6961
ᎷᏨ	-10.6972
ᏰᎸᎭ	-10.698
▁ᏔᎵᏚ	-10.6983
▁ᏣᏚᎵᏍᎬ	-10.6984
▁ᎦᏬᏂ	-10.6988
▁ᎤᏰ	-10.6995
▁ᏗᎨᎦ	-10.7027
▁ᎤᎧ	-10.7028
▁ᏧᎦ	-10.7032
▁ᏓᎨᏣ	-10.7055
ᎩᏯ	-10.7058
ᎪᏩᏛ	-10.706
▁ᎤᏃᏴ	-10.7075
ᏯᏂᏍᎬ	-10.7078
ᏤᎭ	-10.7094
▁ᏈᎵ	-10.7095
ᎵᏙᎴ	-10.7099
ᎶᎯᏍᏗ	-10.7099
▁ᏚᏂᎧᎵ	-10.7104
Ꮌ	-10.711
▁ᏥᏚᏂ	-10.7141
ᎪᏛ	-10.7143
▁ᎤᏃᎮᎸ	-10.7157
▁ᎦᏃ	-10.718
ᏍᎦᏃᎵ	-10.7185
▁ᎤᎵᎮᎵᏨ	-10.7188
ᎴᎣ	-10.7189
▁ᏂᏣᏛᏁᎲ	-10.719
▁ᎤᏂᏙ	-10.7195
▁ᏕᎦᎳᏅᏛ	-10.72
▁ᏚᎾᏄᎪᏫᏎᎴ	-10.72
▁ᎠᏐᏴ	-10.7204
▁ᎦᎦᎶ	-10.7205
▁ᏓᏂᏙᎨ	-10.7206
d	-10.7208
ᏂᏙᎸ	-10.7209
▁ᏕᎦᎶᎨᏒ	-10.7211
ᏧᏍᏆᏴᏍᏗ	-10.7215
▁ᎤᏦᏱᎴ	-10.7217
ᏗᎦᎵᎠᏅᎯᏛ	-10.7217
▁ᏭᏂᎶᏎ	-10.722
▁ᏤᎲ	-10.7222
▁ᎤᏌᎯᎸ	-10.7222
▁ᏕᏣᏓᏅᏛ	-10.7223
ᏑᎾᎴ	-10.7223
▁ᎠᏍᏆᎵᏍᎬ	-10.7225
ᎬᏂᎨ	-10.7225
▁ᎧᏁᏌ	-10.7225
▁ᎤᏓᏑᏴ	-10.7226
▁ᎤᎾᏄᎪᏫᏎᎴ	-10.7227
▁ᏂᎨᏎ	-10.7228
▁ᏄᎾᏛᏁᎴ	-10.7229
ᎸᏍᏔᏅ	-10.7233
▁ᎠᏂᏍᎦᎢᎲ	-10.7238
▁ᎠᏩᏛᏗ	-10.7243
ᏓᎴᏂᏍᎬ	-10.7243
ᏍᏈᏯ	-10.7243
ᎳᏁ	-10.7245
▁ᏬᎩᎷᏨ	-10.7249
▁ᏂᎦᏅᎯᏒ	-10.7251
▁ᏄᎾᎵᏍᏔᏁ	-10.7252
▁ᏚᎸ	-10.7256
▁ᎠᏆᏣ	-10.7258
▁ᎤᏂᏴᎮ	-10.7259
▁ᎾᏯᏛᎥ	-10.726
ᏆᏏ	-10.7261
▁ᏓᎩᎸᏫᏍᏓᏁᎲ	-10.7262
▁ᎢᏥᏠ	-10.7264
▁ᏚᏩᏂᎦᎸ	-10.7265
▁ᎤᏁᏝᏅ	-10.7267
▁ᏗᏘᏲᎯ	-10.727
ᎵᏍᏓᏴᏙᏗ	-10.7275
▁ᏧᏭᎪᏙᏗ	-10.7276
▁ᏂᎦᎵᏍᏔᏅ	-10.7276
▁ᏑᏟᎶ	-10.7277
▁ᎤᏁᎢᏍᏔᏅ	-10.7278
▁ᎤᏪᏓᏍᏗ	-10.7281
▁ᏂᎦᏛᏁᎲ	-10.7283
▁ᎤᎾᏂᎩᏒ	-10.7283
▁ᎥᏞ	-10.7284
ᎢᏍᏙᏗ	-10.7286
ᏍᏆᏂᎪᏔᏂ	-10.7288
▁ᎤᎾᏛᎪᏗ	-10.7292
▁ᏭᏩ	-10.7292
ᎦᏘᏕᎯ	-10.7294
ᏫᏛᎲ	-10.7295
▁ᎧᏃᎮ	-10.73
▁ᎠᏩᎾᎦᎳ	-10.73
▁ᎤᏁᏉᏨ	-10.73
▁ᎪᎵᏍᏗ	-10.7301
ᎦᎵᎷᎨᏍᏗ	-10.7301
▁ᏥᎦᏘᏏ	-10.7301
▁ᎠᎵᏏᎾᎯᏍᏔᏅᎯ	-10.7301
▁ᎠᏲᏓᏌᎲ	-10.7301
▁ᎤᎾᏗᏍᎦᏟ	-10.7301
▁ᎤᏩᎭᏂᎴ	-10.7301
▁ᏂᎩᏪᏎᎸᎭ	-10.7301
▁ᏅᏛᏆᏓᎴᏅᎯ	-10.7301
▁ᏅᏧᏓᎴᏅᎲᎾ	-10.7301
▁ᏦᏑᏫ	-10.7301
▁ᎠᏓᏅᏖᏍᎪ	-10.7301
▁ᎤᏂᎩᎵᏲᎢᏍᏗ	-10.7301
▁ᎨᎴᏏᏱ	-10.7301
▁ᏗᏦᏪᎵᏍᎩ	-10.7301
▁ᏚᎨᏓᎵᏴ	-10.7301
▁ᎠᏐᎥᏍᏙᏗ	-10.7301
▁ᏅᏥᏪᏎᎸᎩ	-10.7301
▁ᏏᎵᏆ	-10.7301
▁ᎠᎾᏓᏍᎦᎶᎩ	-10.7301
▁ᎤᏚᏓᎴᏛ	-10.7301
▁ᎤᎪᎵᏰᎥ	-10.7301
▁ᏄᎾᏓᎡᏍᏗ	-10.7301
▁ᏣᏓᏲᏁᎸᎩ	-10.7301
▁ᎠᏓᏪᎯ	-10.7301
▁ᎤᏛᎴᎮ	-10.7301
▁ᎤᏪᏐᏅᏴ	-10.7301
▁ᎠᏂᏰᎪᎩ	-10.7301
▁ᎢᏣᏛᏓᏍᏓ	-10.7301
▁ᏕᎦᏅᏙᎬ	-10.7301
▁ᎢᎳᎩᏳ	-10.7301
▁ᏤᏆᎳᏂ	-10.7301
▁ᎧᏄᎦᏟ	-10.7302
▁ᎠᎪᏕᏍᎩ	-10.7302
▁ᎢᎪᏪᎳ	-10.7302
▁ᎠᏍᎩᏓᏍᎬ	-10.7302
▁ᎤᏭᏢᏔᏅᎩ	-10.7302
▁ᎦᏗᎨᏂ	-10.7302
▁ᎤᎵᏏᏂᏕᏅ	-10.7302
▁ᏧᏁᎵᏁ	-10.7302
▁ᎤᎵᏲᏗ	-10.7302
▁ᎶᎻ	-10.7302
▁ᏕᏥᏃᎩᏍᎨᏍᏗ	-10.7302
▁ᎾᎨᎢᏴ	-10.7302
▁ᎠᎾᏓᏍᏓᏩᏗᏙᎯ	-10.7302
▁ᏩᎩᎷᏣ	-10.7302
▁ᏓᏲᏤᏏ	-10.7302
▁ᎭᏰᎵᏍᏗ	-10.7302
▁ᎠᎾᎵᏍᏕᎵᏍᎩ	-10.7302
▁ᏂᎩᏪᏏ	-10.7302
▁ᎠᎾᏓᏤᎵ	-10.7302
▁ᏱᏂᎬᏁᎭ	-10.7302
▁ᏕᏥᎧᎿᏩᏗᏙᎮᏍᏗ	-10.7302
▁ᏫᏗᎶᎯ	-10.7302
▁ᏔᏘᏄᎦ	-10.7302
▁ᎠᏦᎳᏅ	-10.7303
▁ᏚᎭᏄᏮ	-10.7303
▁ᏗᎧᏃᎩᏍᏙᏗ	-10.7303
▁ᏗᎦᎶᏔᏅ	-10.7303
▁ᎠᏓᏲᏁᎮᏍᏗ	-10.7303
▁ᏚᏍᏓᎦᎸ	-10.7303
▁ᏕᎪᏪᎴᏍᏗ	-10.7303
▁ᎢᏦᎯᏳᏗᏱ	-10.7303
▁ᎤᏛᎦᏍᏕ	-10.7303
▁ᏓᎦᏛᏁᎵ	-10.7303
▁ᏧᏂᏁᏟᏴᏍᏗ	-10.7303
ᏘᏯᏍᏓᏁ	-10.7303
▁ᏄᏪᎲᎾ	-10.7304
▁ᏓᏱᎾ	-10.7304
▁ᏧᎾᎬᏩᎶᏗ	-10.7304
▁ᏗᏣᎴᎲᎦ	-10.7304
▁ᎡᏥᏅᏏᏓᏍᏗ	-10.7304
▁ᏥᏚᏳᎪᏗ	-10.7305
▁ᎢᎬᏛᏁᏗ	-10.7305
▁ᏗᎾᎢᏒ	-10.7305
▁ᏧᏂᎶᎸᏗ	-10.7305
▁ᎦᏂᎩᎸ	-10.7305
▁ᎠᎫᏩᏌ	-10.7305
▁ᎠᏂᎪᎲᎭ	-10.7305
▁ᎨᏥᏍᏕᎸᏗ	-10.7305
▁ᎤᎬᎥᏍᎩ	-10.7305
▁ᎢᏯᏥᎸᏉᏗ	-10.7305
▁ᏗᎪᏢᏅᎯ	-10.7306
▁ᎬᏬᎯᏳᏅᎩ	-10.7306
▁ᎣᎦᏚᎵᎭ	-10.7306
▁ᎢᏳᏪᏎᎸᎯ	-10.7306
▁ᏍᎩᏍᏓᏩᏚᎦ	-10.7306
▁ᎤᏂᎪᏩᏛᏗᏱ	-10.7307
▁ᎠᏍᏕᏯᏓ	-10.7307
▁ᎪᎰᏍ	-10.7307
▁ᎯᎸᏉᏓ	-10.7307
▁ᏣᎦᏨᏍ	-10.7307
▁ᎠᏂᎨᏳᏣ	-10.7308
ᏍᏓᏱ	-10.7308
▁ᏥᏣᏛᎩᎭ	-10.7308
▁ᏂᏣᏛᎿᏕᎬᎢ	-10.7308
▁ᎢᏥᏯᎡᏍᏗ	-10.7309
▁ᎢᏣᏚᎵᏍᎨᏍᏗ	-10.7309
▁ᏓᎭᏏ	-10.7309
▁ᎯᏍᎪᎵ	-10.7309
▁ᎭᏓᏅᎾ	-10.7309
▁ᎠᏍᎩᏗᏍᎨᎢ	-10.7309
▁ᏣᏙᎳᏅᏍᏗ	-10.7309
▁ᏍᏈᏍᏔ	-10.7309
▁ᏗᎦᎶᎩᏍᎩ	-10.7309
▁ᏗᏣᎧᏅᎦ	-10.7309
▁ᎠᏠᏗᏱ	-10.7309
▁ᎢᏣᎵᎮᎵᎨᏍᏗ	-10.7309
▁ᏂᏴᏁᎸ	-10.7309
▁ᎨᏥᏅᏒᎯ	-10.731
▁ᏇᏗᏂᏱ	-10.731
▁ᏗᎩᎸᏫᏍᏓᏁᏗᏱ	-10.731
▁ᏫᏥᎷᏨᎭ	-10.731
▁ᎤᎶᏗᏢ	-10.7311
▁ᎤᎾᏛᏅᎩ	-10.7311
ᏲᏒᎩ	-10.7311
ᏒᏗ	-10.7311
▁ᏑᏓᎵᏍᎪᎯ	-10.7311
▁ᏭᏕᎵᏨ	-10.7311
▁ᏝᏬᏚ	-10.7312
▁ᏧᏂᎸᏫᏍᏓᏁᏗ	-10.7312
▁ᎠᏂᎦᏲᏟ	-10.7312
▁ᎢᏯᏓᏅᏖᏗ	-10.7312
▁ᎡᏥᏯᏅᏛ	-10.7312
▁ᏎᏘ	-10.7312
▁ᏰᏙᎭ	-10.7313
▁ᏗᏣᏓᎴᏅᏛ	-10.7313
▁ᏧᎷᏫᏍᏔᏁᏗ	-10.7313
▁ᏈᎵᏏ	-10.7314
▁ᎠᎩᎵᎨᏂ	-10.7314
▁ᏍᎪᏁ	-10.7314
▁ᎦᏃᏙᏗᏱ	-10.7314
▁ᎤᎾᏓᏙᎵᏍᏓᏁᎸᎩ	-10.7314
▁ᎤᎿᎷᏒᎩ	-10.7315
▁ᏚᏯᏪᎨ	-10.7315
▁ᎪᎯᎢᏴ	-10.7317
ᎧᏁᎸ	-10.7317
ᏄᏍᏗ	-10.7317
▁ᎢᎦᎵᏍᏙᏗᏱ	-10.7317
▁ᎢᏨᏃᎮᎮᎸ	-10.7318
▁ᏃᎩᏪᏎᎸ	-10.732
▁ᏚᏃᎸ	-10.7321
ᏟᏌᏂ	-10.7321
▁ᎤᏓᏙᎵᏣᏛ	-10.7321
▁ᏱᏅ	-10.7322
▁ᎤᎦᏔᏔᏅᎯ	-10.7323
▁ᏓᎾᏕᏲᎲᏍᎬ	-10.7324
ᎡᎲ	-10.7324
▁ᎹᎦ	-10.7325
ᏲᏍᏔᏂ	-10.7325
▁ᏄᏩᏁᎰ	-10.7325
▁ᎤᏃᎯᏳᏅᎯ	-10.7326
▁ᎠᏓᏁᏣᏍᏚᎶᎩᎯ	-10.7326
▁ᏯᏂᎦᏔᎮ	-10.7327
▁ᎠᏍᎫᏕᏍᏗᏱ	-10.7327
ᏗᏔᎯ	-10.7328
▁ᎤᏛᏒᎯ	-10.7329
▁ᎢᎦᎦᏓ	-10.733
▁ᎲᏓ	-10.7331
▁ᎢᏍᏕᎾ	-10.7332
▁ᎠᎦᏔᎯᏳ	-10.7333
▁ᎬᏩᏛᏗ	-10.7334
▁ᎤᎳᏏᏕᏂ	-10.7334
▁ᎤᏓᏴᏎᎢ	-10.7334
▁ᏥᏁᎦ	-10.7335
▁ᏓᎧᏅ	-10.7335
▁ᎤᏁᏉᏨᎯ	-10.7337
▁ᎪᏪᎴ	-10.7337
▁ᎤᏁᏝᏅᎯ	-10.7337
▁ᎤᏪᎧᏁᎢ	-10.7338
▁ᎤᏃᎯᏳᏅᎩ	-10.7338
▁ᎤᎾᏄᎪᎢᏍᏗ	-10.7339
▁ᎯᏲᎵ	-10.7339
▁ᎩᎳᎯᏳ	-10.7339
▁ᏓᏨᏁᎵ	-10.7339
▁ᏄᎾᎵᏍᏔᏅ	-10.7341
▁ᎢᎫᏩ	-10.7341
▁ᏥᏙᎦ	-10.7342
▁ᎠᏂᏃᎮᎭ	-10.7343
▁ᏇᎵᎩ	-10.7345
ᏨᏗ	-10.7345
▁ᎤᏦᏍᏗ	-10.7346
▁ᎤᎾᏛᎪᏗᏱ	-10.7347
ᏍᏗᏍᎨ	-10.7347
▁ᎢᏳᏒᎯ	-10.7347
▁ᎤᏪᏍᎩᎸᎢ	-10.7347
▁ᏫᏥᎦᏛᎢ	-10.7347
▁ᎤᎪᏩᏛᏗᏱ	-10.7347
▁ᏗᎦᏥ	-10.7348
ᏅᏃ	-10.7348
▁ᏗᎪᏩᏛᏗ	-10.7348
ᏩᏔ	-10.7348
▁ᏥᏯᎵᎡᎵᏤ	-10.7348
▁ᏂᏚᏩᏁᎴᎢ	-10.7348
▁ᎨᎵᏍᎩ	-10.7349
▁ᏧᏓᎵᎢ	-10.7349
▁ᏥᎪᏩᏘᏍᎬ	-10.7352
▁ᎻᎳ	-10.7354
▁ᎡᏓᏍᏗ	-10.7354
▁ᎾᏯᏛᎥᎩ	-10.7354
▁ᎤᎩᏒᎩ	-10.7355
▁ᎤᎾᏂᎩᏒᎩ	-10.7356
ᏅᏬᏗᏱ	-10.7359
▁ᎤᏓᏙᎵᏍᏔᏁᎢ	-10.7359
▁ᏗᎾᏓᎪᎾᏗᏍᎬᎢ	-10.736
▁ᎤᏍᏆᏂᎪᏛ	-10.736
▁ᎠᎾᏓᎪᎾᏗᏍᎬᎢ	-10.736
▁ᎦᏓᏙᎵᏍᏗᏍᎬᎢ	-10.7361
ᏛᏁᎸ	-10.7362
▁ᎤᎾᏓᏅᏖᎴ	-10.7363
▁ᎤᏁᎯ	-10.7365
ᏣᎵᏍᏙ	-10.7365
▁ᎢᎦᎵᎢ	-10.7365
▁ᏥᎬᏩ	-10.7366
▁ᎤᎾᏕᏗ	-10.7369
▁ᎠᎦᏍᎩ	-10.737
▁ᎤᏩᏔᏅᎩ	-10.737
▁ᎤᎾᏂᎩᏎᎢ	-10.7373
▁ᎤᏇᏓᎵᏉ	-10.7375
▁ᏥᏰᎸᎢ	-10.7376
ᎴᏅᎲ	-10.7378
▁ᎤᏂᏣᏖᏍᏗ	-10.7379
▁ᎠᎪᎾ	-10.7379
▁ᎤᎾᏓᏅᏖᎸ	-10.7382
▁ᏥᏄᏍᏕ	-10.7385
▁ᏚᏩᏂᎦᎸᎢ	-10.7386
▁ᎤᏦᏱᎴᎢ	-10.7386
ᏓᏛᏍᎩ	-10.7388
▁ᎦᏯᎸ	-10.7388
ᏓᏁᎯ	-10.739
▁ᎤᎩᏎᎢ	-10.7393
ᎶᎸᏗ	-10.7393
▁ᎠᎢᏒᎩ	-10.7393
▁ᎦᏟ	-10.7401
ᎲᏎ	-10.7402
▁ᎤᏗᏛᎮᎢ	-10.7403
▁ᎣᎩᎾᎵᎪ	-10.7404
▁ᎤᏲᎢᏴ	-10.7408
▁ᎣᎵᏩᏲ	-10.7408
ᏂᎦ	-10.7409
ᏴᎮᎢ	-10.7409
ᏏᏔᏛ	-10.7411
▁ᏭᏂᎷᏨᎩ	-10.7412
▁ᎦᏲᏟᎨ	-10.7412
▁ᎠᏟᏍᏗ	-10.7413
▁ᎤᏪᏴᎢ	-10.7413
ᎵᏍᎪᎸᏓᏁᏗᏱ	-10.7414
ᏍᎦᏎᏗ	-10.7414
▁ᏫᎦᎷᎬ	-10.7416
▁ᎢᏣᏓᏅᏖᏍᎬ	-10.742
ᏗᏂᏍᎪᏂᎯ	-10.7421
ᏚᎢᏍᏓᏁᎴ	-10.7421
▁ᏦᎨ	-10.7422
ᏕᎶᎰᏌ	-10.7425
▁ᏧᏁᎦ	-10.7427
▁ᎤᎩᏒ	-10.7427
▁ᎢᏗᎬᏁ	-10.7432
▁ᏣᏗᎭ	-10.7432
▁ᎮᎵ	-10.7432
▁ᏕᎦᎧᎲ	-10.7433
▁ᏥᏫ	-10.7434
ᎤᏩᏂᎦᎸ	-10.7435
▁ᎤᏍᎪᏒ	-10.7435
▁ᎢᏨᏗᏍᎬ	-10.7439
▁ᎠᎩᏁᏨᎢ	-10.7439
ᏃᎯᏎᎴ	-10.7439
▁ᎤᏂᎾᏫ	-10.7442
▁ᎫᎦ	-10.7443
▁ᏗᏐᏴ	-10.7446
▁ᏂᏕᎬᏁᎲ	-10.7448
▁Ꮬ	-10.7451
▁ᏫᏚᏯᏅᎮᎢ	-10.7452
▁ᎠᏥᎾ	-10.7453
▁ᎯᎦᏔᎲ	-10.7455
▁ᎤᏄᎪᏤᎢ	-10.7459
▁ᎤᏅᏎᎢ	-10.7461
▁ᎢᏔ	-10.7463
▁ᎠᎾᎵᎮᎵᎨ	-10.7463
▁ᎾᏛᏁᎲᎢ	-10.7464
▁ᎠᏁᎮᏍᏗ	-10.7464
▁ᎤᏁᏍᎩᎸ	-10.7472
▁ᎤᏁᏍᏔ	-10.7478
▁ᎤᎷᏤᎴᎢ	-10.7478
▁ᎤᏩᏔᏁ	-10.7479
ᏣᏗ	-10.7481
▁ᏚᏙᏍᏛ	-10.7481
▁ᏥᏕᏣ	-10.7482
▁ᏧᏁᏗᏱ	-10.7482
ᏙᎭ	-10.7485
ᏈᏱ	-10.7487
▁ᎤᏬᏨ	-10.7488
▁ᎡᎾᎢ	-10.749
ᏂᏓᏍᏗ	-10.7493
ᏔᏁᏍᏗ	-10.7503
ᏛᎦᏅ	-10.7504
▁ᏂᏥᏪᏎᎸ	-10.7504
▁ᎤᏪᎭ	-10.7504
▁ᏄᏩᏁᎸᎩ	-10.7506
ᏧᏂᏲᎯᏍᏗᏱ	-10.7509
▁ᎤᏬᏂᏎ	-10.7511
ᎨᏎᎢ	-10.7513
▁ᏧᏁᏤᎴ	-10.7522
ᎪᎵᏯ	-10.7522
ᏙᎵᎦ	-10.7526
▁ᏱᏥᏰᎸ	-10.7531
ᏌᏛᏗ	-10.7534
▁ᏧᎾᏦ	-10.7553
▁ᎤᏂᎪᎲᎩ	-10.7563
▁ᎤᏕᎸ	-10.7569
▁ᏗᎩᎦᏴᎵᎨᎢ	-10.7571
▁ᎤᏩᏂᎸ	-10.7574
▁ᎢᎩᏁᎸ	-10.7575
ᏐᏗ	-10.7576
▁ᏃᏳ	-10.7577
ᏄᎪᏫᏏ	-10.7586
ᏠᏒ	-10.7593
▁ᎾᏏ	-10.7593
▁ᏚᏂᎸ	-10.7596
▁ᏧᏪᏅᏒᎢ	-10.7598
▁ᎠᏦᏴᎢ	-10.7598
▁ᎤᏍᎦᏅᏨᎢ	-10.7599
▁ᎢᏣᏓᏅᏖ	-10.76
▁ᎤᏍᏓᏱᏕ	-10.7611
▁ᏘᏅ	-10.7614
▁ᎤᏓᏅᏙᎩ	-10.7615
ᏏᏐᏗ	-10.7616
ᏢᎾᏁᏗ	-10.7617
▁ᏧᏲ	-10.7619
▁ᎤᏃᏢᏅ	-10.762
ᎦᏅᎦ	-10.7622
▁ᏕᏣᏙᎥᎢ	-10.7625
▁ᏃᎩ	-10.7628
▁ᎤᏍᏗᏉ	-10.7628
ᏖᎵ	-10.7629
ᏲᏍᏗᏍᎬ	-10.7633
▁ᎤᎧᎵᎸ	-10.7635
▁ᏃᏒ	-10.7639
ᎪᎳ	-10.7639
ᏟᎶ	-10.764
▁ᎤᎵᏍᏆᏕ	-10.765
ᏅᎦᎸᏛ	-10.7654
▁ᎢᏨᏲᏪᎳ	-10.7657
ᎧᎾ	-10.7658
ᏗᏯ	-10.7664
ᏅᏗᏍᎨᏍᏗ	-10.7672
▁ᏥᏗ	-10.7674
ᏉᎯ	-10.7681
ᏁᎢᏍᏓᏁᏗ	-10.7681
▁ᎾᏥ	-10.7686
▁ᎠᏃᎵ	-10.7688
▁ᏂᎬᏁᎸ	-10.7691
▁ᎠᏅ	-10.7701
ᏲᎦ	-10.7704
▁ᏪᏙ	-10.7705
ᏲᎯᎲ	-10.7711
▁ᏗᏍᏆ	-10.7725
▁ᎣᏍ	-10.7726
▁ᏄᏪᏎᎸᎢ	-10.7742
▁ᎤᏁᏅᏍᏗ	-10.7743
▁ᎤᏓᏅᏒ	-10.7745
▁ᎤᏁᏅᏎᏃ	-10.7748
ᏌᎳᏓᏁ	-10.775
▁ᎢᏲ	-10.7756
▁ᎦᏘ	-10.7764
▁ᏧᏓᎴ	-10.7766
▁ᎤᏙᎯᏳᎭ	-10.7766
ᏂᏌᏂ	-10.7771
ᏂᎬᎦ	-10.7774
▁ᎠᏉᏢ	-10.7775
ᎦᏙᎥᏎ	-10.7776
▁ᎯᏃ	-10.7778
▁ᎠᏂᎸᏉᏗᏍᎨ	-10.778
▁ᏕᎠ	-10.778
ᏥᏁᎸ	-10.7788
▁ᏗᎬᏩᎾ	-10.7789
ᏁᏍᎨ	-10.7791
▁ᎤᎧᎵ	-10.7794
▁ᏤᎳᏗ	-10.7798
▁ᏦᏏ	-10.7799
ᎵᏍᏓᏴᏗ	-10.7807
ᏰᎲ	-10.7808
ᏍᎦᎢᎮᏍᏗ	-10.7809
ᎤᏍᏓᎦᏴᎯᏓ	-10.781
▁ᏦᏒ	-10.7816
▁ᎤᏁᏤᎢ	-10.7819
▁ᎠᏰᎵᏒ	-10.7821
ᏟᏯ	-10.7833
▁ᎾᏂᎥᎩ	-10.7838
▁ᎤᏁᏤᎴᎢ	-10.7842
ᎸᏂ	-10.7862
ᎫᏴ	-10.7866
s	-10.7869
ᎪᎵᏂᏗ	-10.787
▁ᎤᏙᎯ	-10.7874
▁ᎬᏩᏛᏛ	-10.7877
▁ᎢᎤ	-10.789
▁ᎭᏗᏔ	-10.7902
▁ᎨᏍ	-10.7906
ᏓᏂᎸᎩ	-10.791
▁ᎤᎳ	-10.7916
ᏡᏗᏍᎩ	-10.7919
▁ᏓᏔᎴᏒᎢ	-10.7921
▁ᎠᏣ	-10.7928
ᏓᏁᏗᏱ	-10.7929
ᏕᎭ	-10.7931
▁ᎦᏲᎦ	-10.7935
▁ᎢᏳᏂ	-10.7936
▁ᏚᏁᏤᎴᏃ	-10.7945
ᏛᎪᏗ	-10.7946
ᎶᏓ	-10.7957
ᏍᏓᏩᏕᎩ	-10.7968
▁ᏫᏂ	-10.7976
▁ᎤᎿᎸ	-10.7981
▁ᎢᎬᏱᏱᏉ	-10.7988
▁ᏓᏥᏲ	-10.7997
▁ᎡᏍᏗ	-10.8005
ᏂᏍᏙᏗ	-10.801
▁ᎢᏳᏍᎩᏂᏃ	-10.8023
ᎴᏒ	-10.8026
ᎧᎸ	-10.8035
▁ᎠᎩᏍᎦᏅᏨ	-10.8038
▁ᎾᏓ	-10.8043
ᏗᏔᏍᎬ	-10.8044
ᎦᏛᎦ	-10.8055
▁ᎠᎹᏂ	-10.8062
ᏯᏙ	-10.8062
ᎪᏕᏍᏗ	-10.8068
ᏥᏧᏣ	-10.8097
ᏩᏛᎯ	-10.8098
▁ᏯᏓᏅᏖ	-10.81
▁ᎤᏂᏴᎸ	-10.81
▁ᎠᎩᎲ	-10.8113
ᎪᏅ	-10.8128
ᎨᏳᎭ	-10.813
▁ᎠᎫᏴᏗ	-10.8131
▁ᎠᎾᏗᏍᎨ	-10.8132
▁ᏰᏣ	-10.8132
▁ᏚᏁ	-10.8136
ᏍᏗᏍᎨᎢ	-10.8139
▁ᎾᎯᏳᎢ	-10.8143
ᎩᏌ	-10.8154
▁ᎤᏍᏛ	-10.8157
ᏂᏆᏘᎯ	-10.8169
▁ᎠᏓᏅ	-10.8169
▁ᏰᎵᎦ	-10.8177
▁ᎤᏂᏄᎪᏨ	-10.8178
▁ᏙᏣ	-10.8178
▁ᏥᏲ	-10.8182
ᏪᏎᎴᎢ	-10.8197
▁ᎦᎾᏄᎪ	-10.82
ᎷᏥ	-10.8201
▁ᏪᏣ	-10.8203
▁ᏥᎦᏔ	-10.8206
▁ᎤᏂᏏᏗ	-10.8209
ᏓᏅᎯᏓ	-10.8216
▁ᏯᏛᏅ	-10.8225
ᎸᎮ	-10.8232
▁ᎤᏣᏅ	-10.8233
▁ᎤᎵᏍᏆᎸᏗᏃ	-10.8236
ᏁᏅ	-10.824
▁ᎤᏪᏰ	-10.8245
ᎦᏎᏍᏕᏍᏗ	-10.8248
▁ᏓᏍᎩ	-10.8251
ᏍᏆᎵ	-10.8258
ᏂᎩᏍᎬ	-10.826
▁ᎠᎩᏁ	-10.8267
ᏡᏗᏍᎬᎢ	-10.8267
▁ᎤᏃᏴᎵ	-10.8272
▁ᎬᎾᏬ	-10.8289
ᎦᏍᎪ	-10.829
ᏰᏛ	-10.829
▁ᏗᏣᏁᎶ	-10.8293
ᏔᎵ	-10.8295
▁ᏱᏣᏓᏅᏖ	-10.8308
ᏘᎾᏫᏛᎲᎩ	-10.8316
ᎳᏗᏍᎬ	-10.8316
ᏌᏕ	-10.8317
▁ᎠᏍᎩ	-10.8317
ᏢᏗᏱ	-10.8329
ᎦᏁᎶᏗ	-10.836
▁ᏚᏲᏎ	-10.8372
ᎾᏔ	-10.8372
▁ᏗᎦᎴᏅ	-10.838
▁ᎠᏩᏛ	-10.8383
▁ᎩᏯ	-10.8385
al	-10.8393
ᏍᏓᏩᏛᏒᎩ	-10.8403
ᏅᏗᏱ	-10.8405
▁ᎦᎵᏦ	-10.8418
ᎵᏳ	-10.8421
ᏓᏁᎲ	-10.8426
ᏥᏆ	-10.8432
ᏇᏓ	-10.8447
ᏘᏍᏗᏍᎩ	-10.8447
▁ᎤᎵᏏ	-10.8454
▁ᎦᎬ	-10.8454
▁ᎠᏂᏁᎸ	-10.8459
▁ᏧᏁ	-10.8464
ᏅᏁ	-10.8464
▁ᏂᎩ	-10.8467
▁ᎥᏥ	-10.8476
ᎳᏑᏢ	-10.8481
ᏂᏍᏗ	-10.8483
▁ᏄᏍᏛᎩ	-10.8484
ᏥᎩ	-10.8488
▁ᎠᏍᏆᏂᎪᏙᏗ	-10.8499
▁ᎠᏆᏓ	-10.8506
▁ᎠᎵᏰᎢᎵ	-10.8513
ᏓᏑᏰᏍᏗ	-10.852
ᎦᏓ	-10.8522
▁ᎯᏴ	-10.8523
ᏁᎸᎭ	-10.8525
ᎦᏘᏴ	-10.8526
▁ᏙᏛᏂ	-10.8537
ᏴᏍᏗ	-10.8539
ᏎᎮ	-10.854
ᏰᏗ	-10.8542
ᏛᏃᎯ	-10.8545
ᏓᏎᎪᎩᏍ	-10.8547
▁ᏓᏳᏂ	-10.8547
▁ᏕᎦᏅ	-10.8557
▁ᏂᎦᎥᎢ	-10.8559
▁ᏓᏌ	-10.8563
▁ᎠᏥᎸᏳ	-10.8565
ᏍᎦᏨᎯ	-10.8571
▁ᏔᏯ	-10.8583
ᏘᏃᎯᏍᏗᏱ	-10.8604
ᏍᏕᎸᏗᏱ	-10.8604
▁ᎤᏅᏁ	-10.8611
▁ᏅᏓᎬᏩ	-10.8614
▁ᏗᎩᏍᏗ	-10.8622
▁ᏧᎬᏩ	-10.8625
ᏍᏓᏩᏗᏒ	-10.8639
▁ᏱᎨᏥ	-10.8651
ᏨᎾ	-10.8653
ᏅᏛ	-10.8659
▁ᏣᏛ	-10.8676
ᏣᏛ	-10.8682
▁ᏚᏳ	-10.8686
▁ᏂᏯ	-10.8687
ᎧᎯᏯᏍᏗ	-10.8694
ᏲᏏ	-10.8697
▁ᎤᏂᏍᏆᏂᎪᏎ	-10.8698
▁ᎬᏰᎸ	-10.8699
ᏙᎲᎢ	-10.8706
▁ᎤᏂᏅ	-10.8709
ᏥᏍᎦᏯ	-10.8709
▁ᎤᎾᏛᏁ	-10.8714
▁ᏂᏕᎦ	-10.8719
ᏂᎪᎲ	-10.8722
▁ᏳᏬᎯᏳ	-10.8736
ᏩᏕᎬ	-10.8737
▁ᎨᏍᏗᏗ	-10.8739
ᎴᏙᏗ	-10.8742
ᏍᎦᎳᏁᎸ	-10.8744
▁ᎤᏍᏆᎸᎯᏗ	-10.8744
ᎿᎥᎢ	-10.8752
▁ᎢᏍᏛ	-10.8756
ᏬᎢ	-10.8756
▁ᏍᎦ	-10.8758
ᏏᏂ	-10.8761
ᎳᏂ	-10.8764
▁ᎤᏄᏪ	-10.8767
▁ᎤᏂᏃ	-10.8779
▁ᏄᏂᏪᏎ	-10.8781
▁ᎠᏚᏓᎴᏍᏗ	-10.8784
ᎬᏁᎵ	-10.8784
ᏓᏂᎸᏤᎢ	-10.8795
ᏙᎠ	-10.88
▁ᏧᏁᏨ	-10.8802
ᏪᎶᏗ	-10.8807
ᏢᏛ	-10.8807
▁ᏕᎦᏄᎪᏫᏍ	-10.8809
ᏂᎴ	-10.881
ᎾᏛᎦ	-10.8813
▁ᎤᏁᎷᎬ	-10.8822
ᏎᎮᏍᏗ	-10.8825
ᏛᏃ	-10.8826
▁ᏙᏓᏥ	-10.8831
ᎾᏗ	-10.8834
ᏍᏆᎳ	-10.8839
ᎪᎵᏰᎥᎯ	-10.8846
ᎬᏅ	-10.8848
▁ᏣᎦ	-10.8848
▁ᏫᎦᎶᎯ	-10.885
▁ᏄᏛᏁ	-10.885
▁ᏱᎬᎩ	-10.8853
ᏂᏙᎲ	-10.8855
ᎵᏍᏓᏴ	-10.8857
▁ᎢᎩᏰᎸ	-10.8859
▁ᏕᎦᏄᎪᎬ	-10.8865
ᏘᏄᎦ	-10.8865
▁ᎠᏂᏍᎦ	-10.8866
▁ᎤᏍᏆᏂᎪᏎ	-10.8868
▁ᎠᏍᎪ	-10.8869
▁ᎠᏓᏪᎵᎩᏍᎬ	-10.8874
▁ᎣᎦᏛᎦᏅ	-10.8877
▁ᎠᎩᏇᏓᎸ	-10.8879
▁ᎢᏣᏓᏙᎵᏍᏗᏍᎬ	-10.8881
▁ᏕᎦᏍᎩᎸ	-10.8881
ᏗᎦᏛᎯ	-10.8883
▁ᎤᎾᏂᎩᏎ	-10.8884
▁ᎤᎵᏰᏔᏁ	-10.8884
ᏫᎵᎻ	-10.8885
▁ᏙᏧᎾᏓᏅᏛ	-10.8885
ᏓᏙᎵᏍᏗᏍᎬ	-10.8886
ᏄᏓᎴ	-10.8886
▁ᎤᎶᎨᏒ	-10.8887
▁ᏱᏥᎦᏔᎮ	-10.8888
▁ᏂᎦᎵᏍᏗᏍᎪ	-10.8889
▁ᏄᏂᏪᏎᎴ	-10.8889
▁ᎢᏣᎵᎮᎵᎬ	-10.889
▁ᎦᏁᏥ	-10.8896
▁ᏚᏓᏘᎾᎥ	-10.8897
▁ᎤᏬᎯᏳᏒ	-10.8898
▁ᏱᏄᏍᏕ	-10.8902
▁ᏈᎬ	-10.8907
▁ᎤᏄᏩᎥ	-10.8908
▁ᏗᎦᏘ	-10.891
▁ᎠᏇᏅᏒ	-10.891
ᏲᏍᏓ	-10.891
▁ᏗᎦᏁᎸ	-10.8911
▁ᎤᏮᏔᏅ	-10.8912
ᎾᏄᎪᏫᏎ	-10.8913
▁ᏕᎦᏬᏁᏗᏍᎬ	-10.8914
▁ᏱᎬᏆ	-10.8914
▁ᎬᏩᎾᏕ	-10.8915
ᎯᏍᏔᏂ	-10.8917
▁ᎾᎩᏪᏎᎸ	-10.8918
▁ᏭᏯᏅᎲ	-10.892
ᎪᎲᏍᏙᏗ	-10.892
▁ᎠᎩᏩᏛᎲ	-10.8923
▁ᏄᏅᏁᎸ	-10.8924
▁ᎥᎩᏙ	-10.8925
▁ᏥᏰᎸ	-10.8929
ᏰᎳᏍᏗ	-10.893
ᎴᏏ	-10.893
▁ᎠᏴᎩ	-10.8931
ᎤᎷᏨ	-10.8934
▁ᏕᏗ	-10.8934
▁ᎤᎵᏦᏛ	-10.8935
▁ᎠᏂᎪᏩᏘᏍᎬ	-10.8937
ᏬᏗᎨ	-10.894
▁ᏇᏓᏁᎳᎻ	-10.8942
ᏗᎦᎵᏍᏙᏗ	-10.8943
Ꮶ	-10.8943
▁ᏧᏂᎧᎿᏩᏛᏍᏗ	-10.8943
▁ᏗᎫᏍᏙᏍᏗ	-10.8944
▁ᎠᏍᎫᏕᏍᏗ	-10.8945
▁ᏂᏕᎦᏪᏎᎲ	-10.8945
ᏲᎱᎯᏎᎸᎯ	-10.8946
ᎰᏩ	-10.8946
▁ᎤᏬᎯᏳᏅ	-10.8947
▁ᏭᎷᏤᎴ	-10.8949
▁ᏗᎨᎫᎪᏓᏁᏗ	-10.8949
ᏏᏔᏗᏍᏗ	-10.8953
▁ᏭᎶᎯᏍᏗ	-10.8954
▁ᎠᏥᏁᏗ	-10.8955
ᏙᎡᏍᏗ	-10.8956
▁ᎤᎷ	-10.8957
▁ᏗᏣᎸᏫᏍᏓᏁᏗ	-10.8959
▁ᎠᏇᏓᏍᏗ	-10.896
ᏛᏁᎲᎢ	-10.896
ᎣᏏ	-10.8964
ᏍᏗᎭ	-10.8965
▁ᎤᎾᏗᏔᏍᏗ	-10.8965
▁ᎠᎾᎳᏍᎦᎵᏍᎩ	-10.8968
▁ᎠᎾᏓᎭᏲᎯ	-10.8968
▁ᎠᏂᏥᏊᏏ	-10.8968
▁ᎠᏬᎭᎵ	-10.8968
▁ᎢᎨᎬᏁᎸᎯ	-10.8968
▁ᎢᎵᎡᏌ	-10.8968
▁ᎤᏍᏔᏲᏒ	-10.8968
▁ᎤᏖᎸᎳᏛ	-10.8968
▁ᎧᎾᏥᏍᏕᏥ	-10.8968
▁ᎫᏫᏍᎫᏫ	-10.8968
▁ᎬᏬᎯᏳᎲᏍᎩ	-10.8968
▁ᎬᏲᏎᎭ	-10.8968
▁ᎰᏢᏔᏅᎭ	-10.8968
▁ᎴᎣᏗᏏᏯ	-10.8968
▁ᎻᏚᏏᎳ	-10.8968
▁ᏂᏦᎵᎬᎾ	-10.8968
▁ᏇᏣᎵᎵ	-10.8968
▁ᏍᏕᏱᏓ	-10.8968
▁ᏓᏇᎪᏔᏅ	-10.8968
▁ᏗᎾᏙᎴᏆᏍᎩ	-10.8968
▁ᏗᏓᎴᏅᏗᏍᎩ	-10.8968
▁ᏣᎦᏑᎲᎢ	-10.8968
▁ᏧᏂᏦᏯᏍᏗ	-10.8968
▁ᎥᏆᎸᎢᏛ	-10.8968
▁ᎯᏌᎳᏛᎦ	-10.8968
▁ᏗᎬᏩᎩᏨᏗ	-10.8968
▁ᏥᏈᎣᏂ	-10.8968
▁ᎤᏂᎵᏅᏨᎯ	-10.8968
▁ᏓᏗᎶᏂ	-10.8968
▁ᎢᏯᏛᏁᎵᏓᏍᏗ	-10.8968
▁ᎤᎵᏃᎯᏴᎯ	-10.8968
▁ᏗᏥᎨᏫ	-10.8968
▁ᏥᏂᏨᏪᏎᎸᎩ	-10.8968
▁ᏧᎾᏗᎩᏓ	-10.8968
▁ᎢᏥᏇᏓᎸ	-10.8968
▁ᎢᏳᏩᎬᏗ	-10.8968
▁ᎠᎵᏏᎾᎯᏍᏙᏗ	-10.8968
▁ᎠᏂᎪᏗᏳ	-10.8968
▁ᎤᏪᏯᎸᏤᎢ	-10.8968
▁ᏚᏕᏲᏁ	-10.8968
▁ᎠᏆᏗᏔᏍᏗ	-10.8968
▁ᏍᎪᏂᏗᏢ	-10.8968
▁ᎠᎾᎵᏖᎸᎲᏍᎩ	-10.8968
▁ᏗᎨᏘᏂᏓᏍᏗ	-10.8968
▁ᎤᎵᏍᏛᏧᏁ	-10.8968
▁ᎹᎺᎵ	-10.8968
▁ᎪᎯᏳᎲᏍᎨᏍᏗ	-10.8968
▁ᎠᏂᎶᏍᎩ	-10.8968
▁ᎤᏦᎠᏎᏗ	-10.8968
▁ᎠᎪᎲᏍᏔᏅᎯ	-10.8968
▁ᎠᏟᎶᎥ	-10.8968
▁ᎤᏢᏓᎸ	-10.8968
▁ᎤᎦᏛᎾᏨᎯ	-10.8968
▁ᏧᏏᏩ	-10.8968
▁ᎦᎶᏣᏗ	-10.8968
▁ᎠᏁᎸᏗᏍᎨᎢ	-10.8968
▁ᎢᎪᏂᏯ	-10.8968
▁ᎤᏙᎳᏅᏍᏗ	-10.8968
▁ᏕᏥᏂᏴᏎᏍᏗ	-10.8968
ᎾᏌᎾᎩ	-10.8968
▁ᎢᏥᏁᎫ	-10.8968
▁ᏓᏲᏣᏛᏁᎵ	-10.8968
▁ᏗᎩᏲᎱᏒᎯ	-10.8968
▁ᏅᏓᏳᎾᏓᎴᏅᎯ	-10.8968
▁ᎾᏂᏍᎦᏅᎾ	-10.8968
▁ᏆᏏᎹ	-10.8968
▁ᎾᏃᎯᏳᎲᏍᎬᎾ	-10.8968
▁ᎠᏙᎴᎰᏒᎯ	-10.8968
▁ᎬᏩᏕᏱᏛ	-10.8968
▁ᏗᏂᏃᎨᏂ	-10.8968
▁ᏧᎬᏩᎳᏅᎯ	-10.8968
▁ᏧᏈᏯ	-10.8968
ᎩᏏᏕᎩ	-10.8969
▁ᏄᎾᏛᏁᎵᏙᎸ	-10.8969
▁ᎢᎬᏆᏛᏁᏗ	-10.8969
▁ᏖᎹ	-10.8969
ᏫᏂᏗᏢ	-10.8969
▁ᏭᏕᎵᏤ	-10.8969
▁ᏗᏂᏐᎯ	-10.8969
▁ᏱᏥᎪᎵᏰᎣ	-10.8969
ᏙᎴᏋ	-10.8969
▁ᎤᏴᎵᎴ	-10.8969
▁ᎢᏳᎾᏓᎳ	-10.8969
▁ᎤᎦᏃᏮ	-10.8969
▁ᏓᏓᏛᏂ	-10.8969
▁ᏁᏆᎸ	-10.8969
▁ᏓᎦᏥᏁᎵ	-10.8969
▁ᏘᎦᏙᎵ	-10.8969
▁ᏗᎬᏩᏂᏰᎯ	-10.8969
▁ᏚᏪᎧᏅᎩ	-10.8969
▁ᎤᏆᏛᎩ	-10.8969
▁ᏧᏬᏢᏅᎯ	-10.8969
▁ᎶᏩᏂ	-10.8969
▁ᏗᎦᎾᏌᎢ	-10.8969
▁ᏚᏭᏢᏔᏅᎩ	-10.8969
▁ᏧᎵᎬᏩᏟ	-10.8969
▁ᎠᏆᏟᏂᎬᏁᎸ	-10.8969
▁ᎠᏂᎱᏣ	-10.897
▁ᏧᎾᎪᏅᏍᏓᎵ	-10.897
▁ᏩᏥᎳ	-10.897
▁ᎥᏃᏥ	-10.897
ᏐᎭᏛ	-10.897
▁ᏳᏲᎱᏒ	-10.897
▁ᎢᏯᏓᏛᏁᎯ	-10.897
▁ᏗᏕᏲᎲᏍᎩ	-10.897
▁ᏫᏥᏲᎵᎦ	-10.897
▁ᎠᏂᏃᎮᏍᎨ	-10.897
▁ᏅᏁᎸᎭ	-10.897
▁ᎢᏯᏆᎵᏍᏙᏗᏱ	-10.897
▁ᎤᎾᏚᎵᏍᎩ	-10.897
▁ᎦᏥᏯᏁᎳᏅᎯ	-10.897
▁ᎪᎢᏳᎲᏍᎦ	-10.897
▁ᎭᏛᏓᏍᏓ	-10.897
▁ᏅᏓᏳᏅᏏᏛ	-10.8971
▁ᎠᏂᎩᎦᎨ	-10.8971
▁ᏗᎩᏴᏫ	-10.8971
▁ᏥᏍᎦᎢᎲ	-10.8971
▁ᎱᎷᏣ	-10.8971
▁ᎤᎾᏙᎴᎰᎯᏍᏙᏗ	-10.8971
▁ᎠᏂᎾᏰᏍᎩ	-10.8971
▁ᏫᏄᏪᏎᎢ	-10.8971
▁ᏕᏅᏙᎥ	-10.8972
▁ᎡᏥᏲᎵᎸᎭ	-10.8972
▁ᏕᎦᏰᏌᏛ	-10.8972
▁ᏂᏣᏓᏅᏛᎾ	-10.8972
▁ᎤᏃᎯᏳᎯ	-10.8972
▁ᎢᏥᎨᏴ	-10.8972
▁ᏚᏬᏁᏔᏅᎩ	-10.8972
▁ᏗᏍᎩᎧᏁ	-10.8972
▁ᎢᏗᏜ	-10.8972
▁ᎢᏤᎵᎭ	-10.8972
▁ᏱᏥᏏᎾ	-10.8972
▁ᏄᏓᏑᏴᎾ	-10.8972
▁ᏗᏥᎸᏫᏍᏓᏁᎯ	-10.8973
▁ᏗᏂᎴᏂ	-10.8973
▁ᎠᏂᎡᎼᎵ	-10.8973
▁ᎤᏂᏆᏘᏍᏗ	-10.8973
▁ᎠᏆᏕᎶᎰᏒ	-10.8973
▁ᎤᎸᏉᏔᏁ	-10.8973
▁ᏗᏣᎳᏏ	-10.8973
▁ᏅᏓᏍᏆ	-10.8973
▁ᎠᎱᎵ	-10.8973
▁ᏫᏂᏪᏏ	-10.8974
▁ᏁᎳᏚ	-10.8974
▁ᏗᎭᎾᏬ	-10.8974
▁ᎢᏧᏖ	-10.8974
▁ᏓᏓᏂᎸᎨᏍᏗ	-10.8974
▁ᎤᎧᎵᏨ	-10.8974
▁ᏤᎵᎪ	-10.8974
▁ᏚᏄᏌᏛ	-10.8975
▁ᎢᎬᎾᏕᏅ	-10.8975
▁ᎠᏯᏄᎵ	-10.8975
▁ᎤᏓᏑᏰᏛ	-10.8975
▁ᏫᏥᎦᏘ	-10.8975
▁ᏚᎿᏍᏕᏢ	-10.8975
▁ᏗᏁᏍᎨᏍᎩ	-10.8975
▁ᎢᏤᏅᏍᏗᏱ	-10.8975
▁ᏗᎦᎪᏙᏗ	-10.8975
ᏡᏔᏂ	-10.8975
▁ᏦᎨᏥ	-10.8975
▁ᎬᏔᏲᏎᎭ	-10.8975
ᏲᎵᏍᏗᏱ	-10.8976
▁ᎡᎿᎢ	-10.8976
▁ᏣᏓᏅᏛᎢ	-10.8976
▁ᎪᏒᏅ	-10.8976
▁ᎠᏄᏬᎩᎯ	-10.8976
▁ᏓᏂᏴᎬᎢ	-10.8976
ᎵᏖᎸᏂᏍᏗ	-10.8976
▁ᎢᏨᏲᏪᎳᏁᎭ	-10.8976
▁ᏓᏂᏴᎨᏍᏗ	-10.8976
▁ᏣᏓᎸᎩ	-10.8976
▁ᏭᎩᎶᏫᏎ	-10.8976
▁ᏓᏂᏄᏙᎬᎢ	-10.8977
▁ᏚᏚᏓᏛᎢ	-10.8977
▁ᏗᏣᎳᏏᏕᏂ	-10.8977
▁ᏥᎦᏚᎭ	-10.8977
▁ᏭᎳᎩᏒ	-10.8977
▁ᎠᏈᎷ	-10.8977
▁ᏧᏲᎯᏍᏗᏱ	-10.8977
▁ᎤᏓᏅᎦᎸᏓ	-10.8977
▁ᏂᏥᏪᏍᎬ	-10.8977
▁ᎡᏈᎳ	-10.8977
▁ᎧᏁᏍᎬ	-10.8977
▁ᏧᎸᏫᏍᏓᏁᎸᎯ	-10.8978
▁ᏓᏥᏁᎵ	-10.8978
▁ᎤᏬᏒᏅ	-10.8978
▁ᏓᎾᏠᏱᎲ	-10.8978
▁ᎦᏛᎩᎠ	-10.8978
▁ᏅᏛᏛᏁᎵ	-10.8978
▁ᎬᏯᎵᎡᎵᏤ	-10.8978
▁ᏧᏬᏪᎳᏅ	-10.8979
▁ᏒᎯᏰᏱ	-10.8979
▁ᏇᎵᏏ	-10.8979
▁ᎡᏚᏥ	-10.8979
▁ᎤᏅᏪ	-10.8979
▁ᏕᎯᎧᏅ	-10.8979
▁ᎤᏲᎱᏎᎮᏍᏗ	-10.8979
▁ᎠᏴᏓᏆᎶᏍᎩ	-10.898
▁ᏚᏘᏃᎮᎴᎢ	-10.898
▁ᏣᏔᎳᏬᎯᏍᏗ	-10.898
▁ᏧᎧᎭᏲ	-10.898
▁ᏗᎦᏁᎲ	-10.898
▁ᎦᏓᎷᎪᏗ	-10.898
▁ᏱᏂᎦᎵᏍᏗᎭ	-10.8981
▁ᎡᏍᎦᏂᏳ	-10.8982
▁ᎤᎵᏦᎯᏛ	-10.8983
▁ᎢᏣᎵᏍᏓᏴᏗᏱ	-10.8983
▁ᏗᏟᏍᏙᏗ	-10.8983
▁ᏧᎾᏁᎳᏅᎯ	-10.8983
▁ᏚᏏᏔᏛ	-10.8984
-“	-10.8984
▁ᎠᏆᏛᏅᎢᏍᏗ	-10.8985
▁ᎢᏥᏁᏨ	-10.8985
▁ᎠᏆᏓᏅᏖᏛ	-10.8985
▁ᎤᏬᏪᎳᏅᎩ	-10.8985
▁ᎴᎻᎩ	-10.8985
▁ᎠᏆᏛᏁᏗᏱ	-10.8985
▁ᎠᏫᏌᏅ	-10.8986
▁ᎢᏗᏂ	-10.8986
▁ᎤᏢᎦ	-10.8986
▁ᎤᏃᏪᎳᏅ	-10.8986
▁ᏑᏓᎵᏧᏈ	-10.8987
▁ᎠᏤᏍᏙᎩᎯ	-10.8987
▁ᎠᏂᎦᏘᏯ	-10.8987
▁ᏗᏥᎧᎿᏩᏛᏍᏗᏱ	-10.8987
▁ᎦᏰᎵᏍᏗ	-10.8988
▁ᎤᏲᎱᏎᏗ	-10.8988
▁ᏩᏍᏘ	-10.8988
▁ᎠᏣᎳᎩ	-10.8988
▁ᏚᏪᏴ	-10.8989
▁ᎠᏌᎳᏙᏗ	-10.8989
▁ᎤᎾᏄᎪᏥᎸ	-10.8989
▁ᎠᏃᏍᏓ	-10.899
▁ᎤᏁᏅᏒᎩ	-10.899
ᏓᎵᏓᏍᏗ	-10.899
▁ᎠᏋᏔᏅᎯ	-10.899
▁ᎠᏔ	-10.8991
▁ᎦᎬᏩᏐᏢ	-10.8991
▁ᎤᏩᏂᎦᎸᎢ	-10.8991
▁ᎤᎸᏌᏗ	-10.8991
▁ᏗᎫᏍᏙᏍᏗᏱ	-10.8991
▁ᎦᏁᏥᏱ	-10.8992
▁ᎠᏂᏍᎦᏰᎬᏍᏓ	-10.8993
▁ᎤᏍᏆᏂᎪᏔᏁᎢ	-10.8993
▁ᎤᏂᎾᎥ	-10.8993
▁ᎤᏂᏍᎦᎴᎢ	-10.8993
▁ᎤᏂᏃᎮᏗᏱ	-10.8994
▁ᎤᏪᏙᎴᎢ	-10.8994
ᏬᏁᏔᏁ	-10.8994
▁ᎤᏬᎳ	-10.8995
ᎵᏓᏍᏗᏱ	-10.8995
▁ᎾᏥᏪᏎᎴᎢ	-10.8996
▁ᎭᏟᏂᎬᏁ	-10.8996
▁ᎦᎪᎵᏍᏗ	-10.8997
▁ᎢᏣᏛᏁᏗ	-10.8997
▁ᏂᏨᏁᎲ	-10.8997
▁ᏧᎾᏛᎾ	-10.8997
▁ᎬᏩᏍᎦᎩ	-10.8998
▁ᎤᏂᏁᏉᏤ	-10.8998
▁ᏱᏂᎦᎩ	-10.8998
▁ᎤᏕᏔᏅᎯ	-10.8999
▁ᎾᏥᎤᏍᏕᏎᎸᎾ	-10.8999
▁ᎠᏂᎩᎾ	-10.8999
▁ᏳᏪᎾ	-10.8999
▁ᎢᏨᏁᏗ	-10.9
ᏁᏉᏣᏘ	-10.9
▁ᎤᏛᏅᏗᎦᎳᏫᎢᏍᏗᏱ	-10.9001
▁ᎢᏳᏪᏍᏗ	-10.9002
▁ᏤᏣᎧᏃᏗ	-10.9003
▁ᎤᎵᏍᎪᎸᏔᏅᎯ	-10.9003
ᏥᎤᏍᏕᏎᎸᎾ	-10.9003
▁ᎠᏍᏕᎵᏍᎩ	-10.9004
▁ᏥᏄᏍᏛ	-10.9004
▁ᎢᏨᏙᏗᏱ	-10.9005
▁ᏣᎾᏫᏱ	-10.9005
▁ᏣᏍᏆ	-10.9005
ᎩᏴ	-10.9005
▁ᎢᏥᏁᏗ	-10.9007
▁ᏭᏓᏒᏍᏔᏁ	-10.9007
▁ᎤᏂᏚᎲᎢ	-10.9007
▁ᎤᎾᏅᏗᏱ	-10.9007
ᏩᏛᎲᏍᏗᏱ	-10.9008
▁ᎢᏣᏁᎳᏅᎯ	-10.9008
▁ᎤᏂᏰᎸᎯ	-10.9008
▁ᎠᎩᎷᏤᎸᎩ	-10.9009
▁ᎱᏂᎷᏤ	-10.9009
▁ᏭᏓᎪᎾᏛᏛ	-10.9009
▁ᎤᏴᎸᎩ	-10.9011
▁ᏳᏪᎭ	-10.9011
▁ᏂᎨᏥᏪᏎᎸ	-10.9011
▁ᏍᎦᏰᎬᏍᏔ	-10.9011
ᏎᏃ	-10.9011
ᎦᎶᎨᏒ	-10.9013
▁ᏚᏃᏁᎴ	-10.9015
▁ᎯᏄᎪᎢ	-10.9015
▁ᎡᏥᏁᎸᎯ	-10.9016
ᏕᎪ	-10.9016
▁ᏚᏄᎪᏫᏒ	-10.9017
▁ᎦᏃᎯᎵᏙ	-10.9017
▁ᎤᎾᏓᏟᏌᏅ	-10.9017
▁ᎤᎦᏔᎲᏎ	-10.9021
▁ᏚᏓᏘᎿᎥᎢ	-10.9023
▁ᎤᏓᏅᏍᏗ	-10.9023
▁ᎤᎾᏄᎪᏫᏍᏗᏱ	-10.9024
ᏘᏁᏒᎭ	-10.9024
▁ᎢᏓᏙᎴᎰᎯᏍᏗ	-10.9024
▁ᏩᎦᏛᎢ	-10.9025
▁ᎠᏁᎵᏍᎪ	-10.9026
▁ᏒᏙᏂ	-10.9026
▁ᎤᏍᏕᎸᏗᏱ	-10.9026
▁ᎤᏔᏪᏙᏁᎢ	-10.9027
▁ᎠᎩᎪᏩᏛᏗᏱ	-10.9028
▁ᎤᎩᎵ	-10.9029
ᎴᏁᎯ	-10.9029
▁ᎠᎾᏗᏍᎬ	-10.9029
▁ᏌᎻ	-10.903
▁ᎤᏅᏙᏗ	-10.9032
▁ᏕᎦᎧᎲᎩ	-10.9032
▁ᎠᎳᏑᎶ	-10.9032
ill	-10.9033
▁ᎤᏍᏚᏁ	-10.9034
▁ᏧᎾᏍᏗᎦ	-10.9037
▁Ꮌ	-10.9038
▁ᎤᎵᏰ	-10.9041
▁ᎢᎨᏣᏛᏁᏗ	-10.9041
▁ᎤᏬᏢᏁᎢ	-10.9042
▁ᏧᏓᎴᏁᎢ	-10.9042
▁ᏧᏪᏥᏛᎯ	-10.9042
▁ᎤᏍᏓᏩᏗᏙᎯ	-10.9044
▁ᎹᎵ	-10.9044
▁ᎦᏁᎮᎢ	-10.9045
▁ᎦᎵᏆᏚ	-10.9047
▁ᎠᎩᏃᎮᎸ	-10.9047
▁ᏙᎳᏧᎦ	-10.905
▁ᏙᏌ	-10.9052
▁ᏓᏥᏂ	-10.9052
▁ᎦᏆᎵ	-10.9052
▁ᎢᎾᏏ	-10.9052
▁ᎣᎨᏅᏒ	-10.9053
▁ᎤᏂᏴᏗ	-10.9053
▁ᎦᏁᏥᎢ	-10.9054
▁ᎤᎵᏰᏔᏁᎢ	-10.9056
▁ᎤᏄᏬᏍᏗ	-10.9056
▁ᏥᏅᎵ	-10.9056
▁ᏬᏤ	-10.9056
▁ᏂᎦᎵᏍᏗᏍᎪᎢ	-10.9058
▁ᎤᎾᎴᏅᎲ	-10.9058
ᏰᎵᏎ	-10.9058
▁ᏓᏍᏛ	-10.9058
▁ᏕᎪᏪᎸᎩ	-10.9061
▁ᎢᏍᏕ	-10.9062
▁ᏭᏴᎸᎩ	-10.9063
▁ᎠᎪᎲᏍᎬ	-10.9063
▁ᎠᎦᏅᎩ	-10.9063
▁ᏧᏃᎸ	-10.9064
▁ᏗᎦᎫᏍᏛᏗᏱ	-10.9065
▁ᏥᏯᎥᎢ	-10.9067
▁ᎢᏣᎴᏂᏙᎲ	-10.9067
▁ᎤᏬᎭ	-10.9069
▁ᎠᏫᏒᎯ	-10.907
ᏟᎶᏍᏔᏅ	-10.9072
▁ᏂᏣᏛᏁᎲᎢ	-10.9073
▁ᎤᎶᎨᏒᎢ	-10.9077
▁ᏥᏂᎨᎬᏁ	-10.9079
▁ᎦᎵᎷᎨᏍᏗ	-10.908
▁ᏭᎷᏤᎴᎢ	-10.908
▁ᎠᏇᎵᏒᎩ	-10.9081
ᏥᏁᎢᏍᏗᎭ	-10.9081
▁ᎤᏰᎬ	-10.9082
▁ᎧᏃᎮᏍᎬᎩ	-10.9083
ᏢᏂ	-10.9084
▁ᎠᎾᏓᏙᎵᏍᏗᏍᎨ	-10.9084
▁ᏓᏟᎶᏍᏛᎢ	-10.9085
▁ᏓᎧᏁ	-10.9088
ᏚᏓᎴᏍᏗᏱ	-10.9092
▁ᏱᏍᏛ	-10.9093
▁ᏂᏚᏅ	-10.9099
▁ᎤᏍᎦᏤ	-10.9099
▁ᎤᏂᏴᎮᎢ	-10.91
▁ᎤᏬᏎᎴᎢ	-10.9102
ᏓᏅᎡᎮᏍᏗ	-10.9102
▁ᏗᎦᏙᏗ	-10.9102
ᎵᏍᎪᎸᏙᏗ	-10.9103
▁ᏂᏗᎨ	-10.9103
ᏓᏎᎪᎩ	-10.9104
▁ᏣᎢᏒ	-10.9107
▁ᎠᎦᏔᎯ	-10.911
▁ᎤᎾᏙᎴᎰᏒᎩ	-10.9113
▁ᏚᏂᎪᎲ	-10.9113
▁ᎭᏕᏬ	-10.9114
▁ᏧᏩᎫᏔᏅᏒᎢ	-10.9117
▁ᎤᏍᏓᎦᎸᎢ	-10.9117
ᎵᏎᎲ	-10.9118
ᏍᏗᏰᏗᎭ	-10.9119
ᏅᏗᏍᎪ	-10.9125
▁ᏱᏅᎦ	-10.9127
▁ᏩᎩᎦ	-10.913
▁ᏥᏂᎦ	-10.9131
▁ᎦᏅᎦ	-10.9132
▁ᏣᎧᏛᎢ	-10.9132
▁ᎾᏆᏛᏁᎸᎢ	-10.9134
▁ᏏᏅ	-10.9134
ᎠᎩᏏᏙᎯ	-10.9134
▁ᎤᏃᏢᏗ	-10.9135
▁ᏎᎳᎩ	-10.9135
ᏂᏪᎠ	-10.9137
▁ᎬᏩᎷᏤᎴᎢ	-10.9138
ᏚᎯ	-10.9139
▁ᎬᎩᏍᏗ	-10.9142
▁Ꮇ	-10.9142
▁ᎡᏙᎲᎩ	-10.9143
▁ᏯᎩᏰᎸ	-10.9144
ᏛᏛᎾ	-10.9146
ᎵᏓᏍᏔᏅ	-10.9153
▁ᎠᏂᏁᎬᎢ	-10.9153
ᎵᏙᎯ	-10.9155
ᎩᎾᏝᎢ	-10.9156
ᏅᏂ	-10.9156
▁ᎠᏆᏛ	-10.9157
▁Ꮰ	-10.9158
▁ᏤᏏ	-10.916
▁ᎦᏁᎯ	-10.9162
▁ᎨᏙᎲᎢ	-10.9166
▁ᎤᏃᏢ	-10.9166
▁ᏧᎾᏗᏔᏍᏗ	-10.9168
▁ᏣᏍᎦᏅᏨ	-10.9168
▁ᎦᎵᏦᏙᏗ	-10.9169
ᎵᏍᎪᎸᏔ	-10.9169
▁ᏚᎷᎬ	-10.9171
▁ᎢᏥᎲᎢ	-10.9178
ᎷᏤᎸᎩ	-10.918
▁ᏓᏫᏒᎢ	-10.918
▁ᏓᏯ	-10.918
▁ᏗᎬᎩ	-10.918
▁ᎠᎢᏎ	-10.9186
ᎳᏅᎩ	-10.9187
▁ᎬᏩᎦ	-10.9188
▁ᎣᎦᎾ	-10.9193
ᎩᏳᏍᏈᏛ	-10.9195
ᏍᏕᏓᎵᏴ	-10.9196
▁ᏅᎩᏃ	-10.9198
ᎵᏍᎪᎸᏓᏏ	-10.9199
▁ᎡᎳᏂᎬᎢ	-10.92
▁ᎤᎾᎵᎪᏒ	-10.9201
ᎯᎲᎢ	-10.9203
ᏂᏬᏂᎯᏍᏗ	-10.9206
▁ᎾᏛᎦ	-10.9209
▁ᏥᎩᎵᏲᎬ	-10.9209
▁ᎢᏢ	-10.9216
ᏌᏛᎥᏍᎩ	-10.9216
▁ᎠᏏᎾ	-10.9218
▁ᏙᏓᎸᎢ	-10.9224
▁ᎣᏤ	-10.9226
ha	-10.9228
▁ᎣᏍᏗ	-10.9229
▁ᏚᏲ	-10.9231
▁ᎤᏂᎯ	-10.9231
▁ᎠᎦᎵᏍᎪᎸᏓᏁᎸ	-10.9231
ᏓᎾᏫᏛᎮ	-10.9232
ᏆᎴ	-10.9235
ᎸᏍᏗᏱ	-10.9236
▁ᎠᏯᎠ	-10.9241
▁ᎠᎾᎢᏒᎢ	-10.9244
ᏓᎩᏍᎨ	-10.9253
ᎦᏅᏍᎨᏂ	-10.9256
▁ᏙᎤ	-10.9258
ᎵᏦᏩᏛ	-10.9262
ᏁᏤᏗᏱ	-10.9263
ᏲᏍᎬ	-10.9263
▁ᎡᏏ	-10.9278
▁ᏓᏓᏁᎸᎢ	-10.9278
ᏍᏚᏟᏍᏗ	-10.9279
▁ᎤᏂᎾ	-10.9283
▁ᎤᎷᏨᎯ	-10.9283
▁ᏗᏍᏚ	-10.9284
▁ᏚᏩᏒ	-10.9285
▁ᎦᎳᎨᏴᎢ	-10.9291
▁ᏕᎦᏚᎲᎢ	-10.9291
▁ᏂᏣᏛᏁᎸᎢ	-10.9292
▁ᎠᏲᎱ	-10.9293
▁ᎦᎵᏣ	-10.9293
▁ᎤᏕᏅᎢ	-10.9298
ᏂᎩᏓ	-10.9299
▁ᏂᏣᏍᏛ	-10.93
ᏱᏆ	-10.9301
▁ᎤᏁᎳᏅ	-10.9302
▁ᏗᎵ	-10.9303
▁ᏇᎳ	-10.9303
▁ᏓᏆᏙᎥᎢ	-10.9308
▁ᏕᎨᏒ	-10.9313
▁ᎤᏓᏅᏖᎢ	-10.9321
▁ᎤᎶᏎ	-10.9321
▁ᏗᏛ	-10.9323
ᏲᎵᎴ	-10.9324
▁ᎤᏢ	-10.9332
▁ᎢᏆ	-10.9334
▁ᎠᏂᎦ	-10.9341
ᏳᎳ	-10.9342
ᎸᏛ	-10.9344
▁ᎫᏓ	-10.9357
ᎵᏙᎮ	-10.9359
▁ᎠᎾᏛᎩᏍᎨ	-10.9364
▁ᏕᎯᏁᎸ	-10.9373
ᏘᏃᎦ	-10.9381
ᎩᎵ	-10.9382
ᏌᎳᏓᏅ	-10.9385
▁ᎠᏂᏬᏂᏍᎬᎢ	-10.9388
ᎦᏘᏓ	-10.9389
▁ᏏᏆᏏ	-10.9393
ᎳᏍᏓ	-10.9395
ᏳᎵ	-10.9401
ᏛᏅᎢᏍᏓ	-10.9404
▁ᎵᏍᏗ	-10.9405
ᏓᎴᏒ	-10.941
ᎤᏣ	-10.9413
ᎵᏱᎶᎯᏍᏗ	-10.9415
▁ᎠᎵᏍᏓᏴᏗᏱ	-10.9419
▁ᎢᎭ	-10.942
ᏛᎯᏍᏙᏗ	-10.9421
▁ᎤᏑᎸ	-10.943
▁ᏂᏚᏓᎴ	-10.9431
ᏓᎴᎾᏍᏗ	-10.9432
▁ᎤᏛᎦᏁᎢ	-10.9439
ᏰᎵᏉ	-10.944
▁ᎨᏆ	-10.9444
ᏁᏤᎸ	-10.9447
ᎯᏗᏳ	-10.9452
▁ᏣᎬ	-10.9457
▁ᎪᏢ	-10.946
ᏚᏓ	-10.9463
▁ᏫᏄ	-10.9464
ᎾᏄᎪᏫᏍᎨᏍᏗ	-10.9465
▁ᎠᏍᏆᏂᎪᏗᏍᎨ	-10.9465
ᏏᏯ	-10.9471
ᏯᎡᏍᏗ	-10.9474
▁ᎪᎯᎩ	-10.9475
▁ᏗᏍᏛ	-10.9482
▁ᎤᏓᎴ	-10.9482
ᏓᏅᏖᏙᏗ	-10.9486
ᎫᏓᎴ	-10.9487
▁ᏂᎬᏁᎮ	-10.9487
▁ᎦᏳ	-10.9488
▁ᎦᎸᎳᏗᎨ	-10.9489
ᏥᏁᎸᎯ	-10.9493
▁ᎦᎸᏍᏗ	-10.9495
▁ᎯᏥ	-10.9507
ᏟᏂᎬᎬ	-10.951
▁ᎢᏥᎷᏤᎸ	-10.952
▁ᏳᎪ	-10.9523
▁ᏨᏍᎩᏃᎢ	-10.9525
▁ᏃᏉᏗ	-10.9529
ᎶᏅ	-10.9531
▁ᎤᏕᎵ	-10.9532
▁ᏱᏂᏣᏛᏁ	-10.9534
ᏅᏤᎢ	-10.9535
ᎴᎲᎦ	-10.9537
ᎵᏍᏗᏍᎩ	-10.9544
▁ᏳᏰᎸ	-10.9551
ᏢᏈ	-10.9552
▁ᏄᏅᏁ	-10.9565
ᏏᏏ	-10.9566
▁ᎢᎡ	-10.957
ᎲᏍᎬᎢ	-10.9583
▁ᎦᏄᎪᎬ	-10.9583
ᎰᎸ	-10.9594
▁ᏧᏃᏢ	-10.9603
ᎦᏍ	-10.9606
ᏅᏍᏓᏕᎸᎩ	-10.9607
▁ᏕᎬᏩᏂ	-10.9611
ᏅᏁᎮᏍᏗ	-10.9615
ᎲᏍᎨ	-10.9616
ᎪᎵᏰᎠ	-10.9617
ᏴᎦ	-10.9634
ᎵᏦᏛ	-10.9637
▁ᏚᏂᎭ	-10.9645
▁ᏍᎩᏳ	-10.9652
▁ᏯᏇ	-10.9652
ᏍᎪᎵ	-10.9655
▁ᎤᏂᎬᏫᏳ	-10.9667
▁Ꮦ	-10.9671
▁ᎾᏛᏁᎰ	-10.9675
ᏍᏕᎸ	-10.9679
▁ᎩᏓ	-10.9693
ᏲᎯᏎᏗᏱ	-10.9705
ᏓᏂᏴ	-10.971
▁ᏧᎳ	-10.9713
ᎵᏍᎦᏍᏙᏗ	-10.973
▁ᏣᎵᏍᎪᎸᏙᏗ	-10.9731
▁ᎠᎾᏘ	-10.9743
ᏂᏍᏆᏂᎪ	-10.9743
▁ᎤᎪᎲᎢ	-10.9749
ᏓᏓ	-10.9757
ᏤᎯ	-10.9758
▁ᎦᏥᏃᏍ	-10.9759
ᎸᏉᏗᏍᎩ	-10.976
▁ᏱᏍᏆ	-10.9763
▁ᏭᏍᏗ	-10.9772
▁ᎠᏁᎲᎩ	-10.9778
▁ᏁᏣ	-10.9781
▁ᏃᎦ	-10.9787
ᏲᎰ	-10.9811
▁ᏧᏲᎯᏎᏗ	-10.9812
ᎪᏩᏘᏍᎪ	-10.9822
ᏘᏅᏒᎩ	-10.9827
▁ᏧᏁᏤ	-10.9831
▁ᏍᎩᏰᎸᏗ	-10.9835
ᏆᏂ	-10.9841
▁ᎠᏫᏃ	-10.9842
ᏗᎦᏅᎯᏛ	-10.9859
▁ᎦᎶᏗ	-10.9863
ᏲᎵᎸ	-10.9866
ᎯᎲ	-10.9873
▁ᎠᎪᎢ	-10.9902
ᏥᎾᏄᎪᏫᏏ	-10.9904
ᏬᏁᏔᏅ	-10.9905
▁ᎤᏆ	-10.9909
▁ᎥᎩᎸᏉ	-10.991
▁ᎦᎾᏰ	-10.9911
ᎦᏕ	-10.9915
▁ᎤᎿᏬ	-10.9916
ᎯᎮᏍᏗ	-10.9916
▁ᎢᏥᏍᏆᏂᎪ	-10.9919
ᎪᏎᎭ	-10.9921
ᏓᏁᎸᎯ	-10.9924
ᏍᏓᏩᏗᏒᎩ	-10.9931
ᎳᎭ	-10.9935
ᎴᏅᎮ	-10.9947
ᏙᎮ	-10.995
ᏩᏗᏒᎢ	-10.9952
ᏥᎵ	-10.9957
ᏌᏁ	-10.9958
ᏚᎵᏍᎪ	-10.9959
▁ᎢᏥᎭ	-10.9965
▁ᏣᏕ	-10.9969
ᎲᏍᎨᎢ	-10.9971
ᎨᏎ	-10.9977
▁ᏣᏓᏰ	-10.9984
▁ᏫᏱ	-11.0002
▁ᏗᏥᏁᏟᏴ	-11.0008
▁ᎤᎵᎢ	-11.0011
▁ᎤᏂᏯ	-11.0017
▁ᎦᎶᏁᏛᏰᏃ	-11.0023
▁ᏗᏍᏓ	-11.0028
ᏤᎦᏈᏃ	-11.0029
ᏍᎩᎸ	-11.0031
ᎵᏍᏓ	-11.0043
ᏥᎦᏔᎲᎾ	-11.0047
▁ᎤᏪᏅ	-11.0047
▁ᏣᎫ	-11.0049
ᏍᏓᏁᎸᎯ	-11.0053
ᎩᏏ	-11.0054
ᎩᏍᎨ	-11.0062
▁ᏣᏁᎩ	-11.0064
ᏂᎲ	-11.0064
▁ᏱᏙᎩ	-11.0066
ᏔᏪᏙ	-11.0114
ᏡᎬ	-11.0117
ᎵᏍᎪᎸᏙᏗᏱ	-11.0128
ᏍᏗᏉ	-11.0133
ᏤᎷᎯᏒ	-11.0138
ᏥᎦᏔᎭ	-11.014
▁ᎧᏃ	-11.0151
ᎨᎯᏓᏍᏗ	-11.0156
▁ᏳᎳ	-11.0164
ᏫᏛ	-11.0181
▁ᎾᏯ	-11.0196
▁ᎠᏂᏧᏏᏃ	-11.0205
ᏍᏓᏲ	-11.0213
▁ᎤᏄᎸ	-11.0217
ᏴᏔᏁᎢ	-11.0231
▁ᏱᎨᏣ	-11.024
ᏛᏁ	-11.0247
ᏞᎢ	-11.0248
ᏖᎢ	-11.0249
▁ᎡᏙ	-11.0252
ᏴᏢ	-11.0263
ᏚᏃᏴᎬ	-11.0271
ᏅᎯᏓ	-11.0272
ᎢᎦᎸᏉᏗ	-11.0272
ᎪᎾᏛ	-11.0275
▁ᎠᏏᏴᏫᏉ	-11.028
ᎸᏙᏗ	-11.0283
▁ᎠᏂᏉ	-11.0286
▁ᏫᏙ	-11.0288
▁ᎠᏎᏍᎩᏂ	-11.0302
▁ᎠᎵᏥᏙ	-11.0303
▁ᏦᏍᎪ	-11.0306
ᏣᏛᏂᏏ	-11.0307
▁ᏄᏩᏁ	-11.0313
ᏕᏅᎯ	-11.0318
▁ᏱᎦᏓ	-11.0321
ᏄᏩ	-11.0328
ᏢᏍᎦ	-11.033
▁ᏚᏂᏍᏚ	-11.0333
▁ᎠᎩᏲ	-11.0334
ᏫᏍᎪ	-11.0334
▁ᎤᏪᏯ	-11.0338
▁ᏚᎵ	-11.0344
ᎪᎦ	-11.0346
ᎮᎾ	-11.0356
ᎩᎨᏳᎯᏳ	-11.0358
ᏍᏆᏂᎩᏗ	-11.036
ᏓᏍᏗᏱ	-11.0366
ᏧᎬ	-11.0367
ᎬᏩᎶᏗ	-11.0368
ᏍᏛᏗ	-11.0387
ᏤᏗ	-11.039
ᏟᏗ	-11.0405
▁ᏂᎦᏪ	-11.0409
ᎰᏅ	-11.0409
ᎬᎭ	-11.042
▁ᏱᏛ	-11.042
▁ᎤᏰᎸ	-11.0429
ᏰᎸᏍᎬ	-11.0435
ᏎᏗᏱ	-11.0438
ᎥᏍᎦ	-11.0438
ᎪᏩᏘᏍᎬᎾ	-11.0446
▁ᎣᏂᎦ	-11.0447
▁ᎤᏓᏁ	-11.0454
ᎻᏂ	-11.0454
ᏪᎵ	-11.0455
ᎳᎩᏍᏗ	-11.0456
ᏒᏰᏃ	-11.0457
ᏍᏕᎾ	-11.0467
▁ᏛᏆ	-11.0473
ᎵᎻ	-11.0485
ᎧᎿ	-11.0485
▁ᎤᎾᏓᏅ	-11.0493
ᎾᏄᎪᏫᏍᏗᏱ	-11.05
ᎵᏍᎪᎸᏓᏁ	-11.0516
ᏒᏆᎶᏍᏗ	-11.0519
ᏕᏲ	-11.0523
ᎬᏓ	-11.0525
ᏍᏕᎵᏍᎩ	-11.0537
ᎪᏒ	-11.0541
ᏎᎸᎢ	-11.0542
▁ᎤᏍᎩ	-11.0544
ᏆᏓ	-11.0563
▁ᎬᏗᏍᎪ	-11.0565
ᏁᎳᎩ	-11.0568
ᏟᏐᏗᏱ	-11.0583
ᏰᏍᏗ	-11.0587
ᏍᏚᎢᏍᏗ	-11.0588
ᏐᏁ	-11.0591
ᎧᏯ	-11.0594
ᎦᏓᎭ	-11.06
▁ᏇᎵ	-11.0603
▁ᎢᏨᏁ	-11.0615
▁ᏱᏂᎪ	-11.0615
▁ᎠᎦᏓ	-11.0618
ᎡᎰᎢ	-11.0623
ᎵᏒ	-11.0624
ᎵᎰ	-11.0626
ᎦᏄᎪᏫᏍᎦ	-11.063
▁ᎢᏥᏍᎦᎾ	-11.0634
ᎦᏬᏂᎯᏍᏗ	-11.0639
▁ᏂᎤ	-11.064
▁ᎤᏩᏗ	-11.0642
ᎧᎵᏎ	-11.0642
ᏲᎱᎯᏍᏗ	-11.065
▁ᏗᏍ	-11.0651
▁ᎤᏅᏤ	-11.0657
▁ᎠᏆᏕ	-11.0658
ᏓᏂᎸᎢᏍᏗ	-11.0659
ᎧᎵᎢᏍᏗᏱ	-11.0664
▁ᏯᎩᎪ	-11.0667
ᎬᏩᎶᏓᏁ	-11.0668
▁ᎠᏂᏍᎦᎢᎮ	-11.067
ᎢᏣ	-11.0672
ᏇᏅᎯ	-11.0674
▁ᎠᏆᏚ	-11.0691
▁ᎤᏄ	-11.0692
ᏫᏍᎬ	-11.0707
ᎦᏔᎮᏍᏗ	-11.0711
▁ᎪᎵ	-11.0714
▁ᎠᏎᎵ	-11.0734
ᏆᏠ	-11.0734
ᏢᏅᎩ	-11.0741
ᏯᏅᏗ	-11.0745
ᏴᎮ	-11.0752
▁ᎤᏂᏩ	-11.0756
ᎵᏍᏓᏏ	-11.0757
ᏕᎰ	-11.076
▁ᏧᏂᎳᏫ	-11.0761
▁ᎤᎾᏦ	-11.0762
▁ᏙᎩᏂ	-11.0765
▁ᎠᏚᎢᏍ	-11.0769
ᎦᏔᏁᎢ	-11.0773
ᏯᏪᎢᏍᏗ	-11.0773
ᏰᎸᎯ	-11.0775
▁ᎤᏲᎢᏍᏗ	-11.078
▁ᎤᏁᏙᎸ	-11.0787
▁ᏓᎦᏥᏯ	-11.0799
▁ᏗᎧᏃᎩ	-11.08
ᏅᎢᏍᏗᏱ	-11.0801
▁ᎯᏁᎩ	-11.0801
ᏁᏅᏍᏗᏱ	-11.081
ᏍᏓᏁᎴ	-11.0814
▁ᎤᏮ	-11.0817
ᏁᏤᎲ	-11.0819
▁ᏤᏈᏛ	-11.082
▁ᏣᏤᏍᏙ	-11.083
ᏆᏕ	-11.0835
▁ᎦᏬᏂᏍᎨ	-11.0839
▁ᎤᎵᏍᏚ	-11.0844
▁ᏙᏓᎧ	-11.0848
▁ᎤᏂᏰᎸᏎ	-11.0849
▁ᎢᏗᏣ	-11.085
▁ᏚᏂᏁ	-11.0851
ᏛᏗᏍᎩ	-11.0853
▁ᏅᎦ	-11.0854
▁ᏦᎩᏂ	-11.0855
▁ᏓᏛ	-11.0857
▁ᎹᏓ	-11.0858
▁ᎾᎩᏪᏒ	-11.0859
▁ᏕᏍ	-11.0864
▁ᏫᏚᎧᎾᏁ	-11.0865
▁ᎤᏢᎬ	-11.0865
▁ᎦᏍᎩᏓᏍᎬ	-11.0865
▁ᎠᏥᏃᏁᎴ	-11.0865
▁ᏙᎩᎸᏫᏍᏓᏁᎲ	-11.0866
▁ᎤᏁᎫ	-11.0867
▁ᎢᏛᏗᏍᎬ	-11.0869
▁ᎠᎾᏛᎩᏍᎬ	-11.0871
▁ᎠᎾᎵᎮᎵᎬ	-11.0872
▁ᎦᏴ	-11.0873
ᏔᏲᏎᎭ	-11.0873
ᎾᏰᎯᏍᏗ	-11.0875
ᏎᎪᎩᏍᏗ	-11.0875
▁ᎤᏃᎯᏳᏒ	-11.0877
▁ᏕᎤᎷᎬ	-11.0878
▁ᏂᏓᏕᏘᏴᎯᏒ	-11.0879
▁ᎠᏂᎩᎵᏲᎬ	-11.0879
▁ᏕᏣᎸᏫᏍᏓᏁᎲ	-11.0881
▁ᏗᎾᏓᎪᎾᏗᏍᎬ	-11.0884
▁ᏩᎾᎢ	-11.0884
▁ᏨᏌ	-11.0884
ᎡᏝᏪᎯ	-11.0887
▁ᎤᏪᎵ	-11.0887
▁ᎠᏂᎧᎸ	-11.0887
▁ᎠᎩᏍᏛᏗᏍᎬ	-11.0887
▁ᎤᏁᎷᏁ	-11.0888
ᎢᏏᎵ	-11.0888
▁ᎠᎾᏕᎲᏍᎬ	-11.0889
▁ᎯᏁᎬ	-11.089
▁ᎢᏳᎵᏍᏔᏅ	-11.089
▁ᎤᏒᏂᎴ	-11.0891
ᎠᏍᎦᏯ	-11.0891
▁ᎠᎬᏗᏍᎬ	-11.0892
ᏃᎮᎮᎸ	-11.0892
▁ᎠᏟᏍᏛ	-11.0892
▁ᎤᏍᏗᏰᏔᏁ	-11.0894
ᏯᏗ	-11.0894
ᎠᎳᏂ	-11.0894
▁ᎠᏓᎾᏅ	-11.0895
▁ᎤᏃᎯᏳᏅ	-11.0895
▁ᎠᏗᏍᎨ	-11.0895
▁ᎠᎧᎵ	-11.0898
▁ᎤᏓᏙᎵᏍᏔᏅ	-11.0898
▁ᎤᎾᏓᏙᎵᏍᏔᏅ	-11.0903
ᏴᏔᏂᎸ	-11.0903
ᏂᏃᏁᎴ	-11.0905
▁ᎦᏓᏙᎵᏍᏗᏍᎬ	-11.0905
▁ᎾᏆᎵᏍᏔᏅ	-11.0906
ᎷᎩᏍᎩ	-11.0907
▁ᎪᏙ	-11.091
▁ᏧᎶᏒ	-11.0914
▁ᏥᏃᎮᏍᎬ	-11.0914
ᏍᏇᏚᎩ	-11.0915
▁ᎠᎾᏓᎪᎾᏗᏍᎬ	-11.0916
▁ᏭᏂᎶᏒ	-11.0918
▁ᏅᏓᎦᎵᏍᏙᏗᏍᎬ	-11.0918
▁ᏅᏗᎦᎵᏍᏙ	-11.0918
▁ᎯᏌ	-11.0919
▁ᎤᏂᏰᎸᏅ	-11.0919
ᏕᎸ	-11.092
ᎩᏓᏟ	-11.0923
▁ᎤᏯᏅᎮ	-11.0923
▁ᎠᏉᏪᎳᏅ	-11.0925
▁ᏧᏓᎴᏁ	-11.0926
▁ᎠᏂᎯ	-11.0928
▁ᎤᏦᎯ	-11.0928
▁ᏭᏓᎪᎾᏛ	-11.0933
▁ᎢᏯᏅᏁ	-11.0934
▁ᏥᏨ	-11.0935
ᏛᎩᏍᎬ	-11.0936
ᏴᏤᏂ	-11.0936
ᏴᏍᏗᏱ	-11.0937
▁ᏕᏣᏓᏂᎸᏨ	-11.0939
▁ᏧᎾᏛᏐᏅ	-11.0939
ᎳᏕ	-11.0939
▁ᏗᎩᎾᏫ	-11.0939
▁ᏗᏂᏅ	-11.0941
▁ᏗᎪᏪᎳᏅ	-11.0941
ᏈᎳ	-11.0942
ᏥᎾᏝᎥᎾ	-11.0942
▁ᎢᏳᎵᏍᏔᏂᏓᏍᏗ	-11.0942
ᏄᏕᏘᏴᎲ	-11.0943
▁ᏱᏓᏓ	-11.0943
ᎠᏁᎯ	-11.0944
▁ᎨᏥᏛᏙᏗ	-11.0945
ᏦᎢ	-11.0945
▁ᏭᏂᎶᎯᏍᏗ	-11.0946
ᏁᎵᏍᎬᎾ	-11.0947
▁ᏗᏥᎧᎿᏩᏛᏍᏗ	-11.0948
▁ᏗᎩᏲ	-11.0948
▁ᏗᏍᏆᏂᎪᏙᏗ	-11.0949
▁ᎦᏅᏆᎶ	-11.095
ᏟᏏᏍᎪ	-11.095
▁ᏧᏂᏒᏍᏗ	-11.0951
▁ᏣᏍᏆᏂᎪᏙᏗ	-11.0952
▁ᎦᎷᏨ	-11.0952
▁ᎢᏓᎵᎮᎵ	-11.0953
▁ᎠᎪᏎ	-11.0953
▁ᏗᎦᎵᏦ	-11.0953
▁ᎤᏂᏃᎮᏗ	-11.0954
ᏨᏁᏗ	-11.0954
ᏙᎥᎯᏍᏗ	-11.0956
▁ᎤᎵᏂᎩᏗ	-11.0959
▁ᏍᏋ	-11.096
▁ᎠᎺ	-11.096
ᏠᎾᏍᏛᎾ	-11.0962
▁ᎠᏍᏆᎸ	-11.0963
ᏚᎧᎾᏅ	-11.0963
ᎰᏢᏅᎭ	-11.0964
es	-11.0964
▁ᎨᏨ	-11.0965
▁ᎤᏙᎯᏳᏁ	-11.0965
▁ᏅᏓᏳᏓᎴ	-11.0966
▁ᎢᏥᎦᏔᎲ	-11.0967
ᏍᏓᏩᏛᏍᏗᏱ	-11.0967
▁ᏱᏅᏎᎦᎩ	-11.0968
dinot	-11.0968
▁ᎠᎰᎵᏆᎹ	-11.0968
▁ᎠᏁᏯᏔᎯ	-11.0968
▁ᎢᏯᏆᏕᏘᏴᏓ	-11.0968
▁ᎤᎧᏖᏃᎴ	-11.0968
▁ᎤᎬᏩᎳ	-11.0968
▁ᎱᏁᏅᏎ	-11.0968
▁ᎾᎵᏍᏓᏴᎲᏍᎬᎾ	-11.0968
▁ᏂᏣᏛᎿᏕᎨᏍᏗ	-11.0968
▁ᏂᏥᎪᎸᎾ	-11.0968
▁ᏕᏏᎶᏂᎦ	-11.0968
▁ᏗᎦᏃᏣᏝᏍᎩ	-11.0968
▁ᏗᎦᏌᏆᎸ	-11.0968
▁ᏧᏂᎳᎾᎢ	-11.0968
▁ᏧᏩᏗᏔᏯ	-11.0968
▁ᏬᎩᎶᏒᎩ	-11.0968
▁ᏭᎩᏨᏅ	-11.0968
▁ᎠᏳᎾᎦ	-11.0968
▁ᎤᎾᎵᏍᏔᏴᏗ	-11.0968
▁ᎤᎾᏗᎦᎴᏲᏨᎯ	-11.0968
▁ᎤᏔᎳᏬᏎᎢ	-11.0968
▁ᏂᏥᏪᎠ	-11.0968
▁ᏧᎾᏍᏕᏥ	-11.0968
▁ᎠᎩᏍᏓᏩᏕᎨᏍᏗ	-11.0968
▁ᎤᏔᎴᎦᏒ	-11.0968
▁ᎤᏕᏯᏔᏁᎴ	-11.0968
▁ᎾᏅᏛᏁᎰ	-11.0968
▁ᏄᎾᏓᏅᏛᎾ	-11.0968
▁ᏅᏧᎵᏍᏙᏔᏁ	-11.0968
▁ᏍᎩᏁᎲᏏ	-11.0968
▁ᎤᏓᏩᏗᏍᏙᏛ	-11.0968
▁ᏓᏤᎵᏍᏛ	-11.0968
▁ᎠᎵᏰᎢᎶᎸᎭ	-11.0968
▁ᎤᏁᎳᏫᏎᎸ	-11.0968
▁ᏕᏥᏙᎨᏍᏗ	-11.0968
▁ᏗᎦᏩᏒᎩ	-11.0968
▁ᏗᏔᎳᏗᏍᏗᏱ	-11.0968
▁ᎢᏣᏛᏅᎢᏍᏙᎢ	-11.0968
▁ᎨᎢᎾᏂ	-11.0968
▁ᎠᏙᏂᏍᎩ	-11.0968
▁ᎣᏍᏓᏓᏤᎵ	-11.0968
▁ᎠᏓᏪᎵᎩᏍᎩ	-11.0968
▁ᏥᏂᏥᏪᎭ	-11.0968
ᏁᏉᏣᏖᏍᏗ	-11.0968
▁ᏂᏚᏩᏅ	-11.0968
▁ᏗᏠᏍᎩ	-11.0968
▁ᏛᏥᎷᏥ	-11.0968
▁ᏗᎦᏟᏓ	-11.0968
▁ᎤᏓᏥᎾᏍ	-11.0968
▁ᏅᏓᏣᏓᎴᏅᎯ	-11.0968
▁ᏙᏓᎫᎪᏓᏁᎵ	-11.0968
▁ᏂᎪᎯᏳᎲᏍᎬᎾ	-11.0968
▁ᏗᎫᎪᏓᏁᎯ	-11.0968
▁ᎤᎬᏩᎴ	-11.0968
▁ᏧᎾᎴᏐᏛ	-11.0968
▁ᏫᏂᏨᎦ	-11.0968
▁ᎤᏍᏔᏩᏛ	-11.0968
▁ᎠᏂᎶᎻ	-11.0968
▁ᎤᎵᏘᎾᎥ	-11.0968
▁ᎥᎨᏒᎩ	-11.0968
▁ᎢᎬᏩᎾᏛᏁᏗ	-11.0968
▁ᎠᏍᏙᏍᎩ	-11.0968
▁ᎢᎦᏪᏍᎩ	-11.0968
▁ᏥᏕᏣᎪᎲᎩ	-11.0968
▁ᏱᏂᎦᏛᏁᎭ	-11.0968
▁ᎧᎹᎹ	-11.0968
▁ᏅᏓᏥᏴᏁᎵ	-11.0968
▁ᏴᎦᏥᏛᏓ	-11.0968
▁ᏂᎬᏠᏍᎬᎾ	-11.0968
▁ᏣᏃᎮᎸᎩ	-11.0968
▁ᏍᎨᏫ	-11.0968
▁ᏗᎪᏏᏏᏍᎩ	-11.0968
▁ᎤᏂᎾᏰᏎᎢ	-11.0968
▁ᏂᏪᏍᎬᎢ	-11.0968
▁ᏗᏂᎧᎿᏩᏕᎩ	-11.0968
▁ᏗᏓᏂᏱᏍᎩ	-11.0968
▁ᎠᎵᏛᏓ	-11.0968
▁ᏥᏨᏰᎳᏗᏙᎲᎩ	-11.0968
▁ᏤᎿᎠ	-11.0968
▁ᎥᏓᎷᎶᏗ	-11.0968
▁ᏗᎾᏓᎾᏌᎲᏍᎩ	-11.0968
▁ᏕᎭᏓᏅᎡᎮᏍᏗ	-11.0968
▁ᎤᏩᏃᏪ	-11.0968
▁ᏱᏕᏍᎬᏏ	-11.0968
▁ᏥᏚᎸᏫᏍᏓᏁᎭ	-11.0968
▁ᏍᎩᏲᎮᏍᏗ	-11.0968
▁ᎣᎾᏂ	-11.0969
▁ᏄᏍᎦᏅᏨᎾ	-11.0969
▁ᎭᏓᏅᏓᏓ	-11.0969
▁ᏂᏕᎤᏍᏕᏍᏗ	-11.0969
▁ᏔᏘᏂᏙᎯ	-11.0969
▁ᏅᏓᎬᏯᏛᏁᎵ	-11.0969
▁ᏂᎩᏴᏁᎸ	-11.0969
▁ᏂᎨᎵᏍᎬ	-11.0969
▁ᏕᎪᏢᏎᏍᏗ	-11.0969
▁ᏧᎵᎩᏏ	-11.0969
▁ᏗᎾᏂᏏᎲᏍᎩ	-11.0969
ans	-11.0969
▁ᏕᎯᏁᏤᎮᏍᏗ	-11.0969
▁ᏂᏑᏪᏎᎴᎢ	-11.0969
▁ᎤᏄᏬᏍᏕᏍᏗ	-11.0969
▁ᏭᏓ	-11.0969
ᎵᏍᎪᎸᏗᏍᎨᏍᏗ	-11.0969
▁ᏗᏂᏲᎤᎵ	-11.0969
▁ᏣᎢᏎᏍᏗ	-11.0969
▁ᏅᏓᏨᏁᎵ	-11.0969
▁ᎰᏌᎾ	-11.0969
▁ᏗᏥᏲᎱᏒᎯ	-11.0969
▁ᏭᏪᏙᎸ	-11.0969
▁ᏗᏣᏓᎵᎢ	-11.0969
▁ᎢᏣᎦᏌᏯᏍᏓ	-11.0969
▁ᏄᎾᏛᎾᏕᎬ	-11.0969
▁ᏧᏔᎾᎶ	-11.0969
▁ᎤᏓᎾᏏᏅ	-11.0969
ᏤᏬᎩ	-11.0969
▁ᎠᎩᏍᎦᏅᏥᏙᎸᎢ	-11.097
▁ᏂᏥᏍᎦᎢᎲᎾ	-11.097
▁ᎠᎾᏁᎸᏗᏍᎬ	-11.097
▁ᏗᏣᏘᏂᏙᎯ	-11.097
▁ᏚᏌᎯᎸ	-11.097
▁ᎤᏓᏍᏛᏗᏍᏗ	-11.097
▁ᏧᏁᏅᏒ	-11.097
▁ᏧᎾᏘᏂᏙᎯ	-11.097
▁ᎤᏩᏯᎨᎢ	-11.097
ay	-11.097
▁ᏚᏓᏂᎸᏨ	-11.097
▁ᎨᎦᎫᏴᏓᏁᏗ	-11.097
▁ᎬᏩᎾᎦᏌᏯᏍᏗᏕᎩ	-11.097
▁ᎤᏁᎾᎢ	-11.097
▁ᏲᏥᎦᏔᎭ	-11.097
ᏙᎴᏇ	-11.097
▁ᎤᏃᏢᏔᏅᎩ	-11.097
▁ᎢᏨᏰᎳᏗᏙᎭ	-11.097
▁ᎤᏩᎾᏕ	-11.097
▁ᎨᎵᏌᏕ	-11.097
▁ᏙᏛᏛᏔᏂ	-11.097
▁ᏱᏄᏪᏒ	-11.0971
▁ᏧᎳᏏᏕᏅ	-11.0971
▁ᎨᏥᏍᎦᎩ	-11.0971
▁ᏧᏯᏍᎦ	-11.0971
▁ᎤᏂᏁᎢᏍᏔᏅ	-11.0971
▁ᏂᏤᎲᎾ	-11.0971
▁ᎠᎵᏍᎦᏁᏛ	-11.0971
▁ᎢᏣᏓᏅᏟ	-11.0971
▁ᎤᏗᏌᏓᏛ	-11.0971
▁ᎠᎩᏬᏂᎯᏍᏗᏱ	-11.0971
▁ᏂᎦᏚᏏᏁ	-11.0971
▁ᎠᎾᏟᎲ	-11.0971
▁ᎢᏥᎪᏩᏘᏍᎨᏍᏗ	-11.0971
▁ᏂᎦᏪᏍᎪᎢ	-11.0971
▁ᎠᏛᏂᏗᏍᏙᏗ	-11.0971
▁ᎾᏅᏁᎲ	-11.0971
ᎸᏂᏗᏍᎩ	-11.0972
▁ᏂᏣᏛᏁᎭ	-11.0972
▁ᎨᎦᎵᏍᎪᎸᏓᏁᎸᎯ	-11.0972
▁ᏭᏓᏐᎴ	-11.0972
▁ᎦᏙᎴᎣᏍ	-11.0972
▁ᏩᎵᏰᎢᎶᎯᎭ	-11.0972
ᎲᏍᏗᏱ	-11.0972
▁ᏤᏌᏂ	-11.0972
▁ᎡᎭᎦᏔ	-11.0972
▁ᏂᎦᎾᏰᏍᎬᎾ	-11.0972
▁ᎢᏣᏤᎵᎪᎯ	-11.0972
▁ᎢᏰᏨᏁᎸᎯ	-11.0972
▁ᎢᏳᏩᎦᏘ	-11.0972
▁ᎠᎾᏛᏁᎵᏍᎩ	-11.0972
▁ᎤᏂᏃᏁᏗᏱ	-11.0972
▁ᎬᎩᏁᏉᏤᏗᏱ	-11.0972
▁ᎤᏓᏴᏛ	-11.0973
▁ᏓᏥᏍᏓᏱᏕᎵ	-11.0973
▁ᏓᎩᎸᏫᏍᏓᏁᎸ	-11.0973
▁ᏕᎤᏙᏍᏛ	-11.0973
▁ᎤᎾᎵᏏᎾᎯᏍᏗ	-11.0973
▁ᎡᏣᏅᏏᏓᏍᏗ	-11.0973
▁ᏗᏕᎶᏆᏍᎩ	-11.0973
▁ᏂᏍᎦᏅᎾ	-11.0973
▁ᏚᏕᏘᏴᏌᏗᏒ	-11.0973
▁ᎠᎩᏍᏕᎵᏍᎩ	-11.0973
▁ᏣᏃᏍᎩᏒᎩ	-11.0973
ᎵᏛᏓᏁ	-11.0973
ᏓᏬᏅᏛ	-11.0973
▁ᎤᏬᏯᏁᏒ	-11.0973
▁ᏗᎧᎿᏩᏕᎩ	-11.0974
▁ᏯᏆᏚᎵᏍᎨ	-11.0974
▁ᎤᏛᏒ	-11.0974
▁ᎤᏯᏖᎾ	-11.0974
▁ᎤᏔᏂᏗᎨ	-11.0974
▁ᏗᎩᏲᎯᏍᏗᏱ	-11.0974
▁ᏣᏂᎧᎳ	-11.0974
▁ᏭᏂᎷᏣ	-11.0974
▁ᎤᎬᏩᎸ	-11.0974
ᏲᎱᏏ	-11.0975
▁ᏧᏂᏲᏏᏍᎩ	-11.0975
▁ᏧᏂᏴᏍᏕᏍᎩ	-11.0975
▁ᎬᏩᏃᎮᏍᎩ	-11.0975
▁ᎢᏥᏩᏛᏗᏱ	-11.0975
▁ᏓᎾᏤᎸ	-11.0975
▁ᎡᏥᎾᏰᏍᎨᏍᏗ	-11.0975
▁ᎧᏁᎩ	-11.0975
▁ᏗᏎᎯᏍᏗ	-11.0975
▁ᏛᏓᎴᎲᏍᎬᎩ	-11.0975
▁ᏧᏚᎪᏔᏅ	-11.0975
▁ᎠᏂᏬᏂᏍᎩ	-11.0975
▁ᎣᏩᏒ	-11.0975
▁ᎤᎵᏖᎸᏅᎩ	-11.0975
▁ᎤᏂᎬᎥᏍᎬ	-11.0976
▁ᎡᏤᎾ	-11.0976
▁ᏗᏣᎦᏴᎵᎨ	-11.0976
▁ᎤᎾᏕᏘᏱᏍᎬ	-11.0976
▁ᏚᏆᏛ	-11.0976
▁ᎧᏃᎨᏂ	-11.0976
▁ᏚᏅᏍᏓᏕᎴ	-11.0976
▁ᎠᎾᏓᏙᎵᏍᏗᏍᎬ	-11.0976
▁ᎠᎩᏃᎮᏍᎩ	-11.0976
▁ᏳᏓᏬᎠ	-11.0977
▁ᏱᏙᎨᏥ	-11.0977
▁ᎠᎾᏛᎬᎦ	-11.0977
▁ᏍᎩᎥᏏ	-11.0977
▁ᏍᎩᏅᏏᏓᏍᏗ	-11.0978
▁ᏗᏆᎵᎢ	-11.0978
▁ᏲᏨᏗᏍᎨ	-11.0978
▁ᏗᏑᏱ	-11.0978
▁ᏙᏓᏰ	-11.0978
▁ᎪᏢᏍᎩ	-11.0978
▁ᎪᏱᏅᏍᏗ	-11.0978
▁ᎠᏥᎸᎨᎳᏍᏗ	-11.0978
▁ᎡᏥᏍᏕᎸᏗᏱ	-11.0978
▁ᎢᏥᎬᏫᏳᎯ	-11.0979
▁ᏥᏄᎵᏍᏔᏅ	-11.0979
▁ᏣᏓᏴᎳᏔᏍ	-11.0979
▁ᎤᏮᏙᏗᏱ	-11.0979
▁ᏗᎧᏃᎨᏂ	-11.0979
▁ᎾᏉᎯᏳ	-11.0979
▁ᎠᎵᏥᏙᎲᏍᎬ	-11.0979
▁ᎢᏨᏃᏁᎭ	-11.0979
▁ᎤᏂᏂᏴᏗᏱ	-11.0979
▁ᎬᏁᏤᎭ	-11.098
▁ᏓᎪᏄᎸ	-11.098
▁ᏂᏨᏴᏁᎭ	-11.098
▁ᏗᏨᏲᎯᏎᏗᏱ	-11.098
▁ᎤᎾᏙᎴᎰᎯᏍᏗᏱ	-11.098
▁ᎬᎥᏏ	-11.098
▁ᎤᏍᏗᎩᏳ	-11.098
▁ᏭᏴᎮ	-11.098
▁ᏘᏯ	-11.098
▁ᎠᎩᏰᎸᎰ	-11.098
▁ᎠᏂᎦᏲᎵᏳ	-11.098
▁ᏂᎦᎡᏍᏗ	-11.0981
▁ᎢᏥᎦᏴᎵᎨ	-11.0981
▁ᎦᎶᎪᏗ	-11.0981
▁ᎪᎵᎬ	-11.0981
▁ᏏᏐᎢ	-11.0981
▁ᏭᏅᏥᎴ	-11.0982
▁ᎢᏏᎦ	-11.0982
▁ᏚᎵᏍᏚᎢᏎᎢ	-11.0982
▁ᏓᏦᎯᏍᏛ	-11.0982
▁ᎦᏟᎲ	-11.0982
▁ᏖᏏ	-11.0982
▁ᏧᏬᎳ	-11.0982
▁ᏣᏃᏎᎰᎢ	-11.0983
▁ᎠᏴᏓᏆᎶᏍᎬ	-11.0983
▁ᎬᏩᏔᏲᏎᎸᎩ	-11.0983
▁ᏣᎾᎥᎢ	-11.0984
▁ᏚᎸᏫᏍᏓᏁᎮᏍᏗ	-11.0984
▁ᏧᏕᏲᏅᎯ	-11.0984
▁ᏗᏙᎴᏆᏍᏗ	-11.0985
▁ᏧᏂᏲᎱᎯᏍᏗᏱ	-11.0985
▁ᏍᎩᎷᏥᏏ	-11.0985
▁ᎠᎴᏂᏍᎬ	-11.0985
▁ᎡᏣᎫᏴᎡᏗ	-11.0985
▁ᏄᎾᏓᎴ	-11.0985
ᏃᎯᏎᎲ	-11.0986
▁ᎠᏇᏲᏅ	-11.0986
▁ᏭᏃᏁᎸᎩ	-11.0986
▁ᎦᎶᏐᏅᎭ	-11.0986
▁ᎢᏥᎪᏩᏘᎭ	-11.0986
▁ᏂᎦᏥᏴᏁᎸᎭ	-11.0986
▁ᏓᎬᎩᎵ	-11.0986
▁ᎢᏥᎷᎩ	-11.0987
ᎦᏂᏌᎲ	-11.0987
▁ᏗᎦᎳᏫᎩ	-11.0987
▁ᎣᏓᎵ	-11.0987
▁ᎤᏛᏓᏍᏓᏁᎴ	-11.0988
▁ᏗᎦᏘᎴᎩ	-11.0988
▁ᏫᎨᏥᏯᏅᏛ	-11.0988
▁ᎤᏄᎸᏅ	-11.0988
▁ᎾᏂᏪᏍᎨᏍᏗ	-11.0988
▁ᎯᎰᎵ	-11.0988
▁ᏥᏂᎦᎵᏍᏗᎭ	-11.0988
▁ᏗᏂᏢᏗᏱ	-11.0989
▁ᎠᏓᏬᎯᎳ	-11.0989
▁ᏗᏣᏄᏬ	-11.0989
▁ᎤᎾᎵᏃᎮᎴ	-11.0989
▁ᎠᏂᏍᏓᏩᏕᎩ	-11.0989
▁ᏂᎨᏳᏎᏍᏗ	-11.0991
▁ᏗᎵᏒᏍᏗ	-11.0991
▁ᎦᎸᏉᏗᏍᎨ	-11.0991
▁ᏅᎩᏦᏁ	-11.0991
▁ᏕᎦᏅᏌᏛ	-11.0992
▁ᎠᎦᎾᎦᏘ	-11.0992
▁ᎠᏛᎩᏍᎨᏍᏗ	-11.0992
▁ᏧᏂᎸᏫᏍᏓᏁ	-11.0992
▁ᎦᏅᏆᎶᏍᏗ	-11.0992
▁ᎤᎵᏃᎮᏔᏅᎢ	-11.0992
▁ᏚᏘᏅᏒᎩ	-11.0993
▁ᏓᏰᏏ	-11.0993
▁ᏄᎵᏂᎬᎬ	-11.0993
▁ᏧᎪᎸ	-11.0993
▁ᎠᏓᏙᎵᏍᏓᏁᎯ	-11.0994
▁ᎨᏥᏯᏅᏛ	-11.0994
▁ᎤᏂᎨᏳᎯ	-11.0994
▁ᏗᏆᏓᏅᏛ	-11.0995
▁ᎤᎾᏓᏓᏍᎩ	-11.0996
▁ᏥᏤᎭ	-11.0997
▁ᎤᎾᏚᎵᎭ	-11.0997
▁ᏗᏲᏍᏙᏗ	-11.0997
▁ᎾᏅᏁᎭ	-11.0997
▁ᎢᎨᏎᎢ	-11.0997
▁ᎠᏩᎾᎦᎳᎯᏳ	-11.0998
▁ᏴᎨᏨ	-11.0999
▁ᎦᏂᎳ	-11.0999
▁ᎠᎪᏩᏘᏍᎬ	-11.0999
▁ᎢᏥᎷᏤᏗᏱ	-11.1
ᏚᎸᏅᏗ	-11.1
▁ᎢᎨᏨᏁᏗ	-11.1
▁ᏄᏩᏂᏌᏅ	-11.1
▁ᎤᎾᏓᏅᏒᎩ	-11.1
▁ᏰᎵᎦᏯ	-11.1001
ᏙᎰᎢ	-11.1001
▁ᏕᎾᏓᎪᎲᏳ	-11.1001
ᏚᎸᏅᎥᏍᎬ	-11.1002
▁ᏭᏂᏴᎸᎩ	-11.1002
ᏒᎾᏔᏅ	-11.1003
▁ᏫᏚᏂᏯᏅᎲ	-11.1004
▁ᎢᏯᏅᏁᎯ	-11.1004
▁ᎡᏦᎢᏳᏒ	-11.1005
▁ᎯᎪᏩᏘᎭ	-11.1005
▁ᏣᏓᏅᏖᏍᏗ	-11.1005
▁ᎤᏍᏓᏲᏒ	-11.1005
▁ᏚᏂᎧᏁᎢ	-11.1005
▁ᎤᏕᎰᎯᏍᏗᏳ	-11.1006
▁ᏚᏑᏰᏒ	-11.1006
▁ᎿᏛᏁᎲ	-11.1006
▁ᏏᏊ	-11.1006
▁ᎯᎷᎦ	-11.1006
▁ᏚᎸᏫᏍᏓᏁᎰᎢ	-11.1006
▁ᏥᏍᎦᏅᏤᎸ	-11.1007
▁ᎠᎨᏲᏅ	-11.1007
▁ᏯᏃᏉ	-11.1007
▁ᎤᏁᏙᎸᎯ	-11.1007
ᏲᎯᏎᎸ	-11.1008
▁ᎯᏍᎩᏍᎪᎯ	-11.1009
▁ᎤᏍᏉᎵᏱ	-11.1009
▁ᎪᎵᏍᏗᏱ	-11.1009
▁ᎡᏈ	-11.101
ᎣᏏᏉ	-11.1011
▁ᏚᎾᎴᏅᎩ	-11.1011
ᏘᏱ	-11.1011
▁ᎤᏛᎪᏗ	-11.1012
▁ᎦᏓᎥ	-11.1012
▁ᎬᏩᎪᎮᎢ	-11.1012
▁ᎠᎦᏛᏅᎯ	-11.1013
▁ᏚᏪᎧᎲ	-11.1013
▁ᎣᏤᎯ	-11.1013
▁ᎠᎾᏗᎭ	-11.1013
ᏢᏔᏂ	-11.1013
▁ᎤᏓᏅᏍᏗᏱ	-11.1015
▁ᎤᎯᏐᏓᏁ	-11.1015
ᏍᏉᎸ	-11.1015
▁ᎦᏬᏂᎭ	-11.1015
▁ᏣᏰᎯ	-11.1016
▁ᏧᏑᏰᏛ	-11.1016
▁ᎠᎩᏠᏫᏍ	-11.1016
▁ᏓᎩᏏᎳᏛᎢ	-11.1017
▁ᏚᏬᏢᏁᎢ	-11.1017
▁ᎤᎾᎵᏎᎢ	-11.1018
▁ᎢᏥᏔᏲ	-11.1019
▁ᏓᏰᏂ	-11.1019
▁ᏗᎬᏔᏅᎯ	-11.102
▁ᎤᏓᏔᏅ	-11.1021
ᏓᎳᎩ	-11.1021
▁ᏧᏁᎶᏗ	-11.1021
▁ᎠᏯᏫᏍᎩ	-11.1022
▁ᎤᎾᏣᎢ	-11.1023
▁ᏦᏍᏛ	-11.1023
▁ᎢᎦᎵᏍᏕᎸᏙᏗ	-11.1023
▁ᎠᏂᏍᏆᏂᎪᏗᏍᎩ	-11.1024
▁ᏗᎦᏚᎲᏍᎩ	-11.1024
▁ᎤᏰᎸᏒ	-11.1024
▁ᏦᎴᏍᏗ	-11.1026
▁ᎠᏇᎷᏅ	-11.1027
▁ᎦᏰᏥᏐᏢ	-11.1027
▁ᎤᏂᏰᎸᎭ	-11.1028
▁ᎤᏂᎩᏌ	-11.1029
▁ᏂᏚᏂᏪᏎᎴᎢ	-11.1029
▁ᎾᏆᏍᏗ	-11.1029
ᏓᎾ	-11.1029
ᏃᏅᎯ	-11.1029
▁ᎤᎸᏁᎢ	-11.1029
▁ᎾᎦᎸᎳᏗ	-11.103
▁ᎤᎵᏍᏙᏔᏅ	-11.1031
▁ᎤᏁᏓᏍᏗᏱ	-11.1032
▁ᏭᎪᎮ	-11.1033
▁ᎠᏰᎸᏒᎩ	-11.1033
▁ᎤᎫᏴᎡᏗ	-11.1034
▁ᎦᎵᏙᏗ	-11.1034
▁ᎨᎳᏍᏙᏗ	-11.1035
▁ᏕᎦᏬᏁᏗᏍᎬᎩ	-11.1035
▁ᎤᏁᎷᎬᎩ	-11.1036
▁ᏕᎤᎸᏫᏍᏓᏁᎲᎢ	-11.1036
▁ᎠᏓᏁᏣᏍᏚᎶᎩ	-11.1036
▁ᎠᏂᎷᎩ	-11.1036
▁ᏄᎵᏍᏓᏁᎸᎢ	-11.1037
▁ᏓᎾᎵᏍᏓᏴᎲᏍᎬᎢ	-11.1037
▁ᏓᏘᏁᎲᎢ	-11.1037
▁ᎤᎪᎵᏰᏗ	-11.1038
▁ᏪᎯ	-11.1038
▁ᎠᏓᎴᏒᎢ	-11.1038
▁ᎤᏓᏅᎡᎴᎢ	-11.1039
▁ᎲᏅᎢ	-11.1039
▁ᎤᏬᎯᏳᏅᎩ	-11.1039
▁ᎧᏃᎮᎭ	-11.104
ᎾᏛᏁᎭ	-11.1041
▁ᎤᎾᏤ	-11.1041
▁ᎾᏋ	-11.1042
ᏅᏓᏛᎩ	-11.1043
▁ᎠᏇᏅᏒᎩ	-11.1043
ᎯᏍᏔᏅ	-11.1044
▁ᏣᏚᎵᏍᎪ	-11.1048
▁ᏚᎾᏄᎪᏫᏎᎸ	-11.105
▁ᏚᏂᏍᏘᏰᎬ	-11.105
▁ᎠᎧᏘ	-11.1051
▁ᏥᏍᎦ	-11.1052
ᎵᏰᏑᏍᏙ	-11.1054
▁ᏕᏣᎸᏫᏍᏓᏁᎲᎢ	-11.1055
▁ᎤᎵᎮᎵᏨᎯ	-11.1056
▁ᎠᏂᏍᎦᎢᎮᎢ	-11.1057
ᏰᏲᎲᏍᎩ	-11.1059
ᏛᏗᏍᎪᎢ	-11.1059
▁ᎤᏂᎦᎸ	-11.106
▁ᎡᎶᏗᏏ	-11.106
▁ᏑᏟᎶᏛᏉ	-11.106
▁ᏓᎻ	-11.1062
▁ᏂᏓᏛᏁᎲ	-11.1063
▁ᏚᏂᏏᏂᏙᎸ	-11.1064
▁ᏪᏙᎮ	-11.1065
▁ᎨᏍᏓ	-11.1065
▁ᏂᏕᏨᏁᎸ	-11.1066
▁ᏗᏍᏓᏱ	-11.1067
▁ᏧᎴᎯᏐᏗ	-11.1069
▁ᎤᏢᏨ	-11.1072
▁ᏁᏨᏁᎸ	-11.1074
▁ᎤᏂᏂᏴᎮ	-11.1074
▁ᏄᏕᏘᏴᎲ	-11.1075
▁ᏦᏨ	-11.1075
▁ᎨᏥᏚᎢᏍᏓᏁᎸ	-11.1076
▁ᎤᏒᏂᎴᎢ	-11.1076
▁ᎢᏣᏕᎶᏆ	-11.1076
▁ᎤᎾᏄᎪᏫᏏ	-11.1076
ᏏᏱ	-11.1079
▁ᎠᎾᏗᏍᎬᎢ	-11.108
ᎨᏳᏅᎾ	-11.108
ᏣᏉᎯ	-11.108
ᎳᏍ	-11.1081
▁ᎦᏓᏍᎬ	-11.1081
▁ᎤᏃᏛ	-11.1083
▁ᎤᏂᏅᏅ	-11.1084
▁ᏧᏂᏲ	-11.1085
ᎾᏄᎪᏫᏍᎦ	-11.1085
▁ᎤᏰᎸᏅᎩ	-11.1087
▁ᏥᎪᎥᎩ	-11.1088
▁ᎵᏳ	-11.1088
ᏓᏙᎵᏍᏔᏂ	-11.1089
▁ᏌᎾ	-11.1094
ᏓᏂᎧᎿᏩᏕ	-11.1095
▁ᎤᏂᎸ	-11.1095
ᎵᏲ	-11.1096
▁ᎠᏁᎵᏍᎬᎩ	-11.1096
▁ᎬᏩᎷᏤᎮ	-11.1097
▁ᎤᎩᎳ	-11.1099
▁ᎤᎾᏄᎪᏫᏎᎴᎢ	-11.1102
▁ᎤᏅᏂ	-11.1102
ᏙᏢᎾ	-11.1104
ᏅᏓᏗᏍᎨᏍᏗ	-11.1105
▁ᎢᏣᏓᏙᎵᏍᏗ	-11.1106
▁ᎤᏂᏴᎲ	-11.1107
ᎦᏌᎴ	-11.1109
▁ᏂᎨᏎᎢ	-11.111
▁ᏭᏂᏴᎮ	-11.111
▁ᎤᎩᏎ	-11.1112
ᏳᏓᎴᏏ	-11.1113
▁ᏓᏂᎧᏅᎢ	-11.1114
▁ᎠᏂᏙᎾᎡᎢ	-11.1114
▁ᏔᎵᏍᎪᎯ	-11.1114
ᏰᏟ	-11.1114
▁ᏓᏂᎳᏫᎥᎢ	-11.1114
▁ᏂᏚᏪᏎᎸᎢ	-11.1115
▁ᏦᎢᏉ	-11.1115
▁ᎦᎢᏒᎢ	-11.1115
ᎳᏅᏛ	-11.1116
ᎨᎾ	-11.1117
▁ᎦᎶᏍᎬ	-11.1117
▁ᏄᏛᏁᎸᎾ	-11.1118
▁ᎡᎳᏪᏉ	-11.1119
▁ᏚᏲᎯᏎᎴ	-11.1124
ᏙᏱ	-11.1126
▁ᎤᏪᎧᏅ	-11.113
▁ᎡᎵᏍᎬᎢ	-11.1131
ᏪᏢᏗ	-11.1131
▁ᏄᏂᏪᏎᎸ	-11.1134
▁ᎢᏍᎩ	-11.1136
▁ᏚᏜᏅᏛ	-11.1138
▁ᏧᏬᎸᎢ	-11.1139
ᏀᎢ	-11.1139
▁ᎠᎼᎯ	-11.114
▁ᏣᏁᎵ	-11.1141
▁ᏄᎵᏍᏔᏁᎴ	-11.1143
ᏛᏅᎢᏍᏕ	-11.1143
▁ᎤᏢᏗ	-11.1146
ᏂᎬᎬ	-11.1146
▁ᏐᎯ	-11.1148
▁ᏕᏨᏅ	-11.1148
ᏪᏣ	-11.1149
▁ᎦᏄᎸᏒᎢ	-11.1151
ᏲᎦᏛᏅ	-11.1152
▁ᎠᏚᎢᏍᏛᎢ	-11.1154
ᏅᏓᏗᏍᎬ	-11.1155
▁ᎠᎾᎵᏥᏙᎲᏍ	-11.1156
ᏍᏕᎵ	-11.1159
▁ᎤᏛᎦ	-11.116
▁ᎤᏩᎨᏫᏎ	-11.1162
▁ᎠᏂᏙᎾᎥᎩ	-11.1164
▁ᏅᏔ	-11.1167
ᎩᏍᎪᎢ	-11.1167
▁ᏣᏉᎩ	-11.1169
▁ᏗᎦᏘᏯ	-11.1169
ᏘᏍᎩ	-11.117
▁ᎢᏧᏓᎴ	-11.117
▁ᏥᏕᎭ	-11.1171
▁ᏥᎦᎶ	-11.1172
▁ᏣᎩᏍᏗ	-11.1173
▁ᎤᎾᏓᏅᏖ	-11.1176
ᏔᎳᏬᎯᏍᏗ	-11.1178
▁ᎤᏔᏲᎸ	-11.118
▁ᎦᏁᎲᎩ	-11.1181
▁ᏩᏚ	-11.1181
ᏙᎩᏯᏍᏗ	-11.1183
▁ᏚᏂᎸᏫᏍᏓᏁᎮ	-11.1184
▁ᏚᏅᏎᎢ	-11.1188
▁ᏄᎾᏛᏁᎸᎢ	-11.1195
▁ᏂᎨᏒ	-11.1197
ᎴᏂᏓᏍᏗ	-11.1198
▁ᎤᏂᏄᎪᏨᏃ	-11.1199
▁ᎤᏜᏅᏛᎢ	-11.12
ᏅᎡᎵ	-11.12
▁ᎤᏪᎯᏍᏓᏁ	-11.1201
▁ᎯᏍᏚ	-11.1201
▁ᎠᏂᎵ	-11.1202
▁ᎤᏂᏲᎭ	-11.1202
▁ᎠᎩᏍᎨᏍᏗ	-11.1204
▁ᎧᏃᎮᏍᎬᎢ	-11.1205
ᎦᏍᎦᏂᏗᏢ	-11.1205
▁ᎤᏂᏏ	-11.1205
ᏄᏬᏍᏗ	-11.1206
ᏚᎪᏓᏁᏗ	-11.1207
▁ᎣᎦᎵᎪ	-11.121
▁ᎨᏛᎢ	-11.1214
▁ᎤᏕᏗ	-11.1215
▁ᏱᏙᎨ	-11.1217
▁ᎢᏥᏍᎦᏅᏨ	-11.1219
▁ᎦᏅᎬᎢ	-11.122
▁ᎤᏪᎷᎬ	-11.1222
▁ᏱᏗᏗ	-11.1223
▁ᏣᎪᏩᏘᏍᎪ	-11.1225
▁ᎤᏅᏏᏛ	-11.1227
ᏴᎯᎮᏍᏗ	-11.1228
ᏠᏱᎭ	-11.1231
▁ᏕᎨᎦᎸ	-11.1239
ᎵᏑᏫᏓ	-11.1241
▁ᎤᏂᏣᏖᏰᏃ	-11.1242
▁ᏱᏗᏓ	-11.1245
▁ᏩᎾᎢᏒ	-11.1246
ᏣᏘᏃᎵ	-11.1254
▁ᎤᎨᏳ	-11.1256
▁ᏓᎪ	-11.1257
ᏓᏬᎠ	-11.1258
ᎷᎬ	-11.1258
▁ᎢᏍᏆ	-11.126
ᎯᏏ	-11.126
ᏥᎶᏍᏔᏅ	-11.1261
▁ᎢᏥᏍᏆ	-11.1264
▁ᏱᏓᎾ	-11.1264
ᎦᎵᏍᎪ	-11.1264
▁ᎤᏪᎯ	-11.1265
ᏥᏄᎪᏫᏍᏗ	-11.1266
ᏂᏴᎲ	-11.1269
▁ᎤᏬᎯᏳᏁ	-11.127
ᏣᎸᏉᏗᏍ	-11.127
▁ᏚᎴᏅᎩ	-11.1271
▁ᎤᎶᏗ	-11.1272
▁ᎠᏌᏃ	-11.1272
▁ᎠᏆᎧᏛᎢ	-11.1272
▁ᎠᏂᏙᎾᎥᎢ	-11.1273
▁ᏗᏦᎸ	-11.1279
▁ᎤᏰᏤᎢ	-11.1279
ᎦᏅᏓᏗᏍᏙᏗ	-11.128
▁ᎨᎬ	-11.1281
ᎩᎪᏩᏛᏗᏱ	-11.1281
ᎯᏉ	-11.1282
▁ᎢᏨᏴ	-11.1287
ᎵᏍᎩ	-11.129
ᎦᏘᎴᏅ	-11.129
ᏴᏛ	-11.1291
▁ᎠᏰᏙᎳᏛᎢ	-11.1294
▁ᎤᏁᏅᏎᎢ	-11.1298
▁ᎦᏁᎲᎢ	-11.1311
ᏕᎸᎩ	-11.1313
ᎵᏂᎩᏛ	-11.1314
▁ᏳᏂᏰᎸ	-11.1315
▁ᏟᏗ	-11.1317
ᏑᏫᏓ	-11.1317
▁ᎩᏂ	-11.1317
▁ᎠᏍᏚᎢᏍ	-11.1317
▁ᎤᎯᏍᏗᏱ	-11.1318
▁ᎠᏂᎩ	-11.132
ᎦᏍᏙᏗ	-11.1321
▁ᎤᏍᎪᏍᏗ	-11.1324
▁ᏫᏯ	-11.1325
▁ᎤᏁᎵᏍᏗ	-11.1328
▁ᎤᏁᏤᎸᎯ	-11.1328
▁ᎤᏂᏣᏘᏰᏃ	-11.1335
▁ᎤᏴᏍᏗᏱ	-11.1337
ᎵᏂᎩᏗᏳ	-11.1337
ᏰᎬ	-11.1338
▁ᎢᏳᎾᎵᏍᏔᏅ	-11.134
▁ᎥᎴ	-11.135
ᏬᏣ	-11.1353
▁ᎢᎦᏛᏍᎩᏂ	-11.136
▁ᏮᏓᏲ	-11.1361
▁ᎦᏬᏂᏍᎬᎩ	-11.1361
▁ᏚᎧᎿᏅᏃ	-11.1363
▁ᎤᏂᎲᎢ	-11.1363
ᏠᏯ	-11.1374
▁ᏫᏓᎦ	-11.1375
▁ᎤᎵᏘᏒ	-11.1375
▁ᎨᏥᏁᏤᎸ	-11.1375
▁ᏓᏕᏲᎲᏍᎨ	-11.1383
ᏍᎦᎳᏁ	-11.1386
▁ᎢᎩᏴᏁᏗ	-11.1388
▁ᏕᎨᎦᏛ	-11.1389
▁ᏕᎦᏁᎲ	-11.139
▁ᎤᏃᏴᎬᎢ	-11.1395
▁ᎠᏁᎵᏗ	-11.1396
▁ᎠᎦᏛᏅ	-11.1408
ᎮᎵ	-11.1408
▁ᎢᏨᏯᎵᏥᏙᏁᎸ	-11.1408
▁ᏗᏓᎴᏂᏍᎬᎢ	-11.1412
▁ᎠᎢᏒᏃ	-11.1414
▁ᏚᏭᏢ	-11.1414
▁ᏪᏥ	-11.1431
▁ᎦᎪᎨ	-11.1436
ᏛᏂᏏ	-11.1436
ᏙᎾ	-11.1441
▁ᏏᎻᏯᏂᏃ	-11.1451
ᎨᏓ	-11.1453
ᏌᎲ	-11.1454
▁ᏚᏂᎩᏒ	-11.1454
▁ᎤᏂᏁᏨᏃ	-11.1459
ᏥᏯᏅᏛ	-11.146
▁ᏔᎳ	-11.146
ᏂᏏᏅᎯ	-11.1463
ᏲᎯᏎᎸᎯ	-11.1463
▁ᎤᎾᏓᏅᏛ	-11.1465
ᏛᏗᏱ	-11.1467
▁ᎮᎵᏍᎬ	-11.147
ᏨᏛ	-11.1472
▁ᏕᎤᏙᎥᎢ	-11.1473
ᎲᏒ	-11.1474
▁ᎤᎾᏓᏃᏴᎵᏍ	-11.1476
▁ᏗᎦᎦ	-11.148
▁ᎤᏓᎴᏅ	-11.1488
ᏩᏛᏗᏱ	-11.1488
▁ᎨᎥ	-11.1491
ᏴᎢ	-11.1492
▁ᎤᏕᏘᏴᏌᏗᏒᎢ	-11.1492
ᎦᏛᏁ	-11.1493
ᏴᏙᏗᏱ	-11.1493
▁ᎠᏩ	-11.1495
ᏙᎦ	-11.1497
▁ᎤᎷᏤᎸ	-11.1503
ᎵᏙᎸ	-11.1509
ᏍᏓᏁᎭ	-11.1512
ᏩᏍᎬ	-11.1512
ᏌᎥ	-11.1517
▁ᎥᏆ	-11.1518
▁ᎠᏆᏓᏅᏖᎸ	-11.1519
ᏴᎳ	-11.1519
ᎾᏗᏅᏗ	-11.1519
ᏎᎦ	-11.1522
ᏍᏔᏅᎾ	-11.1524
ᏓᏛᏁᎮᏍᏗ	-11.1529
▁ᏗᎦᎸᏫᏍᏓᏁᏗᏱ	-11.1539
▁ᏧᏂᏰᎸ	-11.1548
ᏁᏟᏴᏛ	-11.1554
▁ᏚᏂᎬ	-11.1555
ᏚᎵᏍᎬ	-11.1556
▁ᎤᏂᏅᏁ	-11.1563
ᏥᎦᏔ	-11.1566
ᏍᏓᏯ	-11.1571
ᏫᏒᎯ	-11.1572
ᏥᏯᏅᏗ	-11.1578
▁ᎤᏲᎱᏒᎩ	-11.1578
ᏍᏚᎲᎦ	-11.1584
ᏓᎢᏅᏒᎩ	-11.1585
ᎦᏖᏃᎲ	-11.1588
▁ᏱᏚᎾ	-11.1588
▁ᎤᏲᎯ	-11.159
ᏂᏙᎲᎢ	-11.1595
▁ᏕᎯᏴ	-11.1599
▁ᏳᎸ	-11.1601
ᎪᎲᎩ	-11.1605
▁ᏨᏔᏅ	-11.1611
▁ᎦᎶᎯᏍᏗᏳ	-11.1624
ᏍᎦᎾᎯᏳ	-11.1624
ᎠᏤ	-11.1634
ᏲᎢᏳ	-11.164
ᏁᎦ	-11.1641
ᏛᎦᏁᎰᎢ	-11.1645
▁ᏓᎨ	-11.1646
▁ᏣᎵᏍᎦᏍᏙᏗ	-11.1661
▁ᎦᏅᎢ	-11.1666
ᎸᏎ	-11.1674
ᏓᏁᏟᏴᏍᏗ	-11.1683
ᏥᏍᎦᏨᎯ	-11.1687
▁ᎤᏪᎷ	-11.1689
▁ᏓᏥᏩᏛᎯ	-11.1689
ᏣᏓᏙᎵᏍᏗ	-11.1693
▁ᎢᎩᏛ	-11.1695
▁ᎠᏂᏫᎾᎨ	-11.1714
ᏢᎾ	-11.1715
ᏂᏪᏏ	-11.172
ᏓᎴᏅᎯ	-11.1725
ᎴᏛ	-11.1727
ᎵᏎ	-11.1729
ᏔᏂᏓᏍᏗ	-11.1729
▁ᏎᏗ	-11.1732
▁ᏱᏘ	-11.1733
▁ᎤᏃᎮᏗ	-11.1733
▁ᏧᎾᏓᎴᏅ	-11.1734
▁ᎤᏁᏗ	-11.1739
▁ᎤᎾᏓᏅᏖᏗ	-11.1739
▁ᎠᏥᏅ	-11.1739
▁ᎤᎵᏏᎬᎢ	-11.1742
ᏣᎾᏄᎪᏫᏎᎸ	-11.1744
▁ᎢᏥᏴ	-11.1747
ᏗᏍ	-11.1748
▁ᎠᏁᏟ	-11.1762
ᎾᏗᏅᏎ	-11.1762
ᏢᏈᏍᏗᏱ	-11.1769
ᏂᏟ	-11.177
ᎩᎸᏙᏗ	-11.1771
▁ᎠᏐ	-11.1776
ᏴᎲ	-11.1788
ᏍᎦᎢᏍᏗ	-11.1791
▁ᎬᏩᎵ	-11.1791
▁ᏫᏓᏥ	-11.1802
ᏆᏟ	-11.181
▁ᎬᏓ	-11.1818
ᏰᎸᏍᎦ	-11.1819
ᎦᏘᎴᎩ	-11.1823
▁ᎤᏂᎷᏤᎴ	-11.184
ᎳᏕᏗ	-11.1845
▁ᎤᏍᏕᎸᎲ	-11.1846
▁ᎣᏍᏕ	-11.1847
ᎾᏰᏍᎨᏍᏗ	-11.1848
ᏲᎮᎢ	-11.1851
ᏍᏚᏟ	-11.186
▁ᏕᏣᏂᏴ	-11.1863
ᏕᎪᎢ	-11.1873
▁ᎠᏞ	-11.1875
ᎵᎸ	-11.1885
▁ᎤᎷᏨᎢ	-11.1886
▁ᏗᏥᏲᎯᏍᏗ	-11.1892
▁ᎬᏔᏅ	-11.1894
ᎯᏍᏓᏁᎸ	-11.1899
▁ᎠᏉᎯᏳ	-11.1907
ᏐᎸ	-11.1913
ᎾᏕᏘᏴᏛ	-11.1913
ᎪᏍᎬ	-11.1916
ᎾᎵᏍᏓᏴᏗ	-11.1929
ᏗᏔ	-11.1932
ᏁᏪᏎᎢ	-11.1935
▁ᎣᎩᎾᎵ	-11.1945
ᏃᎯᏍᏗ	-11.1945
▁ᏱᏚᏳᎪ	-11.1951
ᎩᏎᎢ	-11.1951
ᎪᏔᏅ	-11.1962
▁ᎤᎦᏙᏍᏕ	-11.1968
▁ᎣᏥᏁ	-11.1976
ᏓᏁᎴ	-11.1982
▁ᎦᏃᏍᎩ	-11.1984
ᏍᏙᏰ	-11.1995
ᏤᎴ	-11.1997
▁ᏕᏤ	-11.2006
ᏰᎸᎾ	-11.2012
▁ᎨᎾ	-11.2027
▁ᏂᎦᏪᏎ	-11.203
ᎩᏍᏆᏂᎪᏔᏅ	-11.2032
▁ᏍᎩᏉ	-11.2036
ᎵᏘᏎᎢ	-11.2044
ᏌᎡ	-11.2046
ᏚᎩ	-11.2047
▁ᎨᎪᏎ	-11.2047
ᏁᏤᎸᎭ	-11.2053
▁ᏚᏲᎯᏎᎸ	-11.2061
▁ᏗᎦᏚ	-11.2075
▁ᏧᏂᏅ	-11.2078
ᏓᎾᏅ	-11.2078
▁ᎤᎾᏚᎵᏍᎨ	-11.2078
▁ᎦᏙᎨᏃ	-11.2082
ᏓᏅᏛ	-11.2083
▁ᏥᏩᎾᎦ	-11.2087
▁ᏦᎠ	-11.2089
ᏓᎨᏳᏗ	-11.2091
ᏥᎶᏍᏗ	-11.2095
▁ᏂᎪᎯ	-11.2096
▁ᏓᏅ	-11.2097
▁ᏘᏂ	-11.2098
▁ᎢᏣᏓᏅᏛ	-11.2105
ᎯᏍᏗᏍᎬ	-11.2106
▁ᏥᏩ	-11.2118
ᏂᏏᏍᎨᏍᏗ	-11.2123
▁ᎡᏉ	-11.2124
ᏓᎿᏫ	-11.2126
ᏆᎶ	-11.2126
ᏗᏗᏱ	-11.2135
ᏣᎦᏌᏯᏍᏗᏕᎩ	-11.2135
▁ᎤᎪᏅ	-11.2137
▁ᏍᎩᏍᏓᏩᏕ	-11.214
ᎵᏙᎲᎢ	-11.2143
▁ᎠᏍᏓᏱᏛ	-11.2158
▁ᎥᏝᏍᎩᏂ	-11.2163
▁ᏧᎾᏙ	-11.2169
▁ᎠᏂᎪᏩᏘᏍᎨ	-11.2173
▁ᎭᎵᏍ	-11.2175
▁ᏫᏍᏗ	-11.2178
▁ᎠᏑᏴ	-11.2178
ᏏᎸ	-11.2179
▁ᎢᏦᎵᏍ	-11.2182
ᏓᏅᏛᎵ	-11.2191
ᏄᎪᏨᎩ	-11.2195
ᏓᏴᏎ	-11.2197
ᏅᏒᎾ	-11.2199
▁ᏱᎦᎷ	-11.2201
▁ᏓᏘ	-11.2212
▁ᎤᎾᎵᎪᏎ	-11.2215
▁ᏂᎦᏛᏉ	-11.2217
▁ᎤᎮᏍᏗ	-11.2217
ᏥᎪᏩᏔ	-11.2218
ᏍᏗᏍᎬᎢ	-11.2222
▁ᏅᏩᎾᏓᎴᎢ	-11.2225
▁ᎤᏯᏅ	-11.2229
ᏠᏏ	-11.2231
ᏛᏅᎩ	-11.2231
ᎵᎮ	-11.2232
ᏕᎨ	-11.2232
ᏲᎢ	-11.2233
ᏅᏁᏗᏱ	-11.2239
▁ᏱᏂᎬᏂ	-11.2241
ᏙᎲ	-11.2248
ᏍᏓᏁᎮ	-11.225
ᏎᎴᎢ	-11.2251
▁ᏳᎵᏍᏓᏴ	-11.2254
ᏬᏁᏙᏗ	-11.2269
▁ᎤᏂᏍᏚ	-11.227
ᏍᏆᎵᏍᎬ	-11.2272
ᏙᎴᎰᏒ	-11.2283
▁ᏨᏆ	-11.2284
ᎪᏍᏓᏯ	-11.2286
ᎵᏍᏕᎸ	-11.2286
▁ᏩᏆ	-11.2288
ᏨᎭ	-11.2288
ᏂᏱᏍᎬ	-11.2289
▁ᎢᏥᏁ	-11.2291
ᏓᏲ	-11.2294
▁ᏙᎯᏱᏉ	-11.2298
ᎨᏥᏁᏗᏱ	-11.23
ᎩᏍ	-11.2313
ᏓᏥ	-11.232
▁ᎠᏆᏓᏅ	-11.2321
▁ᎠᏆᏓᏅᏖ	-11.2322
ᏥᏓ	-11.2325
ᏆᎳ	-11.2328
ᎲᏍᎪ	-11.2332
▁ᎤᎸᎢ	-11.2342
▁ᎪᎱ	-11.2342
ᏎᎵᏙᏗ	-11.2346
▁ᎤᏂᎧᎵ	-11.2351
▁ᏗᎦᎴ	-11.2354
▁ᏗᎦᎨ	-11.2355
▁ᏱᏅᏩᏍᏗ	-11.2356
ᎦᏁᎳᏅᎯ	-11.2356
ᏁᎶᏕᏍᏗ	-11.236
▁ᏴᎦᏥ	-11.2368
▁ᏳᏓᏑ	-11.2369
ᏔᎴᏒ	-11.237
ᏪᏏ	-11.2371
ᏥᏍᏔᏅ	-11.2373
ᏁᎸᏗᏍᎬ	-11.2381
▁ᎦᏲ	-11.2383
▁ᎡᏥᏁ	-11.2384
ᏨᏓ	-11.2386
ᎦᏘᏲ	-11.2392
ᏦᎯ	-11.2396
ᏍᏕᎸᎯᏙᎯ	-11.24
ᎶᏃ	-11.2401
▁ᎢᏗᎦ	-11.2418
▁ᎠᏂᎪᎵᏰᏍᎨ	-11.2419
ᏓᏛᏁᏗ	-11.242
▁ᏳᏲ	-11.2435
ᎸᏅᎯ	-11.244
▁ᎤᎵᎪ	-11.2447
▁ᏭᎶ	-11.2453
ᏣᏓᏅᏔ	-11.2457
▁ᎤᏓᎨᏳ	-11.2461
ᏲᏙᏗ	-11.2468
ᎵᏍᏕᎵᏍᎬ	-11.2476
ᏁᏌ	-11.2484
ᎧᏂᏍᎬ	-11.2485
▁ᎠᏍᏚ	-11.2497
ᏚᎲ	-11.25
ᎴᏗᏱ	-11.2508
▁ᏕᎤᏲ	-11.2508
ᏂᏪᏎ	-11.2509
ᏂᎦᏔᎲᎾ	-11.2511
▁ᎠᏥᎸᏃ	-11.2511
ᎶᏂ	-11.2512
▁ᏥᏍᎦᎾ	-11.2514
ᏍᏕᎢ	-11.2521
ᏍᏗᏍᎪᎢ	-11.2522
ᏤᎮ	-11.2538
▁ᎠᏰᎵᏉ	-11.254
ᏍᏓᏩᏕᏏ	-11.2548
ᏲᏒ	-11.2554
ᏗᏅᏗ	-11.2555
ᎳᏁᎸᎯ	-11.2559
ᏲᏍᏔᏅ	-11.2576
▁ᎤᏄᎪᏫᏎ	-11.258
ᏚᏓᎴ	-11.2583
▁ᏱᏄ	-11.2585
ᏍᏆᏂᎪᏓᏁᏗ	-11.2588
▁ᏕᎦᏥ	-11.2589
ᏏᏅᏍᏗ	-11.2591
ᎨᎯᏙᎸ	-11.2591
ᏯᏅᎮ	-11.2592
▁ᎠᎾᎵᎮᎵ	-11.2598
▁ᏩᏂᎷ	-11.2602
ᏓᏑᏴ	-11.2613
▁ᎬᏩᏁ	-11.2613
ᎥᏍᎨᎢ	-11.2631
ᏁᎢᏍᏗᏍᎬ	-11.2643
ᎫᏴᏗᏱ	-11.2644
▁ᎤᏂᏩᏛ	-11.2649
▁ᎢᏥᏍᎦᏅ	-11.2649
▁ᎠᏆᏙ	-11.2653
ᏝᏁ	-11.2655
▁ᏗᏑᏫ	-11.2655
ᏍᏙᎢ	-11.2657
▁ᏧᎴᏗ	-11.2666
▁ᎬᏛᎪ	-11.2683
▁ᏘᏁ	-11.269
ᏙᎵᎪ	-11.2691
ᏝᎥ	-11.2694
ᎵᏍᎦᎸ	-11.2703
▁ᏯᏆᏓ	-11.2705
ᏓᏛᏁᎵ	-11.2718
ᏣᎷᏤᏗᏱ	-11.272
ᎵᏍᏆᏙᎾ	-11.2727
▁ᎬᏩᎵᎪᏁ	-11.2729
▁ᏧᎿᏬ	-11.2731
ᎦᎶ	-11.2731
ᏒᎦᎸ	-11.2736
ᏓᏗᏍᏗ	-11.2736
▁ᎤᏩᏎ	-11.2738
ᏓᏙᎵᏍᏓᏏ	-11.2757
ᎵᏏᏂ	-11.2759
ᎸᏫᏍᏓᏁᎰᎢ	-11.2785
▁ᎤᎾᎵᏍᏓᏴ	-11.2786
ᏂᎵ	-11.2786
ᎹᏂ	-11.2791
▁ᏯᏛ	-11.2791
ᏂᏢᏗᏱ	-11.2793
ᏓᏯᏂᏍᎪ	-11.2795
▁ᏱᏙᏥ	-11.2796
▁ᎠᎩᎨᏳᎯ	-11.2796
ᎵᎭ	-11.2802
▁ᎦᎷᎶ	-11.2805
ᏁᎵᏍᎬ	-11.2806
ᎯᏍᏗᏍᎪ	-11.2815
▁ᏗᎦᎸ	-11.2817
ᏏᏙ	-11.2817
▁ᏕᎨᏣ	-11.282
ᎣᏁ	-11.2825
ᏓᏴᎳᏔ	-11.283
ᏍᏛᎩ	-11.2831
▁ᎠᏂᎴ	-11.2833
ᏌᏛᎢ	-11.2839
▁ᏈᏂ	-11.2845
ᏅᏩᏍᏗᏉ	-11.285
▁ᎤᏩᏙ	-11.285
▁ᏕᎦᏘ	-11.285
ᏌᏅ	-11.2857
▁ᏄᎵᏍ	-11.286
ᏂᎦᏛ	-11.2861
▁ᏚᎾᎵᎪ	-11.2877
▁ᏗᎦᎾ	-11.2884
ᏓᏬᏍᏗ	-11.2896
ᏃᎮᏗ	-11.2906
ᎪᏩᏘᏍᎬ	-11.2912
ᏠᎠᎯ	-11.2915
ᏦᏒ	-11.2917
▁ᎠᏂᏯᏫᏍᎩᏃ	-11.2922
ᏲᎮᏗ	-11.2926
ᏚᎵᏍᎨ	-11.2933
ᎪᎨ	-11.2934
ᏥᎾᏄᎪᏫᏎᎸ	-11.2934
▁ᎠᏤᎸᏍ	-11.2939
ᏍᏆᏂᎪᏓ	-11.2943
ᎪᎵᏰᏍᎬᎢ	-11.2944
ᎳᏏᏕᏂ	-11.2944
ᏓᏘᏂᏙᎯ	-11.2959
▁ᏓᎵ	-11.2964
ᎷᎨᏍᏗ	-11.2966
ᎵᏬ	-11.2969
ᏁᏟᏴᏍᏗ	-11.297
as	-11.297
ᏛᏁᎰ	-11.2974
ᏂᏍᎨᏍᏗ	-11.2976
▁ᏗᎪᏪᎶ	-11.2978
ᏲᎱᎯ	-11.2978
▁ᎤᏐᏅᎢ	-11.2981
ᎧᏔᎭ	-11.2984
▁ᏗᎩᎦᎨ	-11.2985
ᏛᎩᎠ	-11.2989
▁ᏂᏥᏪᏎ	-11.299
ᏄᏪᏎ	-11.3006
▁ᎤᎷᏨᏃ	-11.3006
▁ᏥᎠ	-11.3006
ᏍᎦᏯ	-11.3007
ᏤᏪ	-11.301
ᎸᏍᏙᏗᏱ	-11.3011
▁ᏫᏯᏅ	-11.3012
▁ᎡᏣᏑᏰ	-11.3012
ᎦᏛᎩ	-11.3012
ᎫᎩ	-11.3014
ᎡᎲᎢ	-11.3016
▁ᎠᏗᏔᏍ	-11.3019
▁ᏆᏏ	-11.302
▁ᏧᏅᏏ	-11.3021
▁ᎠᏂᏲ	-11.3021
▁ᏧᎵᏰ	-11.3026
▁ᎠᏴᏉ	-11.303
ᏲᎲᏍᎩ	-11.3031
▁ᏕᏥᏯ	-11.3032
ᏍᎦᏅᏨᎢ	-11.3042
ᏐᏢ	-11.3044
▁ᎠᏕᎸᏃ	-11.3061
ᏛᏛᎲᏍᎦ	-11.3069
ᏒᏉ	-11.3071
ᎪᎵᏰᏍᎨᎢ	-11.3071
ᏫᏗ	-11.3079
▁ᏱᏚᏓ	-11.3084
▁ᏳᏃᏴ	-11.3088
ᎾᏗᏍᎪᎢ	-11.3107
ᏣᎴᏛ	-11.3112
▁ᎠᏂᏯᎥ	-11.3113
▁ᎤᏝ	-11.3114
ᏨᏍᏗᏱ	-11.3126
ᏂᏍᏔᏅ	-11.3128
▁ᏧᏂᏲᎰ	-11.3134
ᏅᏏ	-11.3134
▁ᎦᏄ	-11.3134
▁ᎠᎩᏁᎸ	-11.3136
ᏘᏃᎯᏍᏗ	-11.3136
▁ᏂᏣᎵᏍᏓᏁ	-11.3138
ᎦᎵᏍᏓ	-11.314
ᏫᏎᎢ	-11.3141
ᏍᏚᎩᏒ	-11.3143
ᏍᎬᎾᏉ	-11.3151
ᏢᎭ	-11.3154
ᏕᏣᏙ	-11.3156
ᎵᏍᎪᎢ	-11.3164
ᎦᎵᎰ	-11.3166
▁ᏂᎦᏥᏴᏁ	-11.3166
▁ᎾᏥᎸᏉ	-11.3171
ᏛᏛᏅ	-11.3173
ᏍᏗᏍᎪ	-11.318
ᏍᎦᏅᎾ	-11.3181
ᎯᏰ	-11.3182
▁ᏯᏥ	-11.3188
▁ᎠᏆᏓᏅᏔ	-11.3189
ᏲᎯᏏ	-11.32
ᏄᎪᏫᏒᎯ	-11.32
▁ᏅᎵᏌᎵ	-11.3201
ᏝᏅ	-11.3202
ᏁᎩᏎᎢ	-11.3204
▁ᏩᏂ	-11.321
▁ᎤᏑ	-11.3213
ᏁᎩ	-11.3217
▁ᏝᏍ	-11.3218
ᎸᏉᏓ	-11.3218
ᏛᏁᎢ	-11.3219
▁ᎠᏂᎡ	-11.3222
▁ᎤᏂᎩ	-11.3222
▁ᏯᎦᏓ	-11.3223
ᏥᏲᏍᏙᏓᏁ	-11.3231
▁ᏓᎭ	-11.3233
ᏴᏔᏅᎩ	-11.3233
▁ᎠᏓᏍᏕᎵ	-11.3236
ᎴᎬ	-11.3238
ᏍᏓᏱᏕ	-11.3239
ᏚᏓᏲᏎ	-11.3239
ᎠᎩᎷᏨ	-11.3242
Ꮐ	-11.3243
▁ᎩᎳᎢ	-11.3245
ᏛᏅᎯ	-11.3246
ᏅᏙ	-11.3254
ᏢᏁᎢ	-11.3254
ᎩᏍᏓ	-11.326
ᏳᏩᏅ	-11.3267
▁ᏁᏩᏔᎵ	-11.3271
▁ᎤᏂᏧᏈᏍ	-11.3271
▁ᎯᏰ	-11.3271
ᏲᏍᏗ	-11.3271
ᎾᏄᎪᏫᏒ	-11.3272
ᏝᏁᎢ	-11.329
▁ᏩᏌ	-11.329
▁ᏓᏟᎶᏍᏗ	-11.3291
ᏲᏂ	-11.3291
ᏓᎴᎲᎦ	-11.3295
▁ᎤᎵᏦ	-11.3299
▁ᏧᏓᎴᏅ	-11.3299
▁ᏚᏩᏛᎲ	-11.3299
ᎪᎰ	-11.33
▁ᎠᎾᎵᏍᏓᏴᎲᏍᎬ	-11.33
▁ᏚᎾᏓᏅ	-11.3302
ᏑᏯᎩ	-11.3304
ᎪᏩᏗᏍᎬ	-11.3305
▁ᏧᏯ	-11.3305
▁ᎬᏩᏃᎯᏳ	-11.3307
ᏓᏅᏖᏍᎨ	-11.3308
ᎿᏩ	-11.3308
ᎦᏌᏯᏍᏙᏗ	-11.3314
▁ᏕᎪᏢᏒ	-11.3314
ᏗᏢᏍᏙᏗ	-11.3315
▁ᎤᏂᎭ	-11.3321
▁ᎤᏲᏍᏔᏅ	-11.3324
ᏧᏔᏅ	-11.3325
▁ᏭᏭᏍ	-11.3327
ᎸᏉᏙ	-11.3328
ᏗᏍᏗᏍᎩ	-11.3329
Ꮊ	-11.3331
▁ᏅᏩ	-11.3332
ᎵᎨᏂ	-11.3334
ᏩᏗᏍᎬ	-11.3339
▁ᎤᏂᏩᏒ	-11.3341
ᏂᎯ	-11.3343
ᎠᏂ	-11.3345
ᏙᎴᎰᏎ	-11.335
ᏪᏎᎸᎩ	-11.3354
ᎡᏃ	-11.3357
▁ᎠᏛᏅᎢᏍᏗ	-11.3357
▁ᏕᎧᏅ	-11.336
▁ᏂᏓᏙᏓᏈᏒ	-11.3365
▁ᎾᎬᏁᎴ	-11.3365
ᏚᏲᏎ	-11.3366
ᏥᏃᎯᏎᎸ	-11.3367
▁ᏚᏄᏩᎥ	-11.3368
▁ᎠᎵᏥ	-11.3368
▁ᎤᎵᏍᏙ	-11.3369
▁ᏂᏚᏍᏕ	-11.337
▁ᎤᏙᏢᏒ	-11.3373
▁ᏓᏂᏍᏓᏲᎯᎲ	-11.3375
ᏍᎪᏒ	-11.3375
▁ᎦᎵᎡᎵᎬ	-11.3375
▁ᏕᏣᎸᏫᏍᏓᏁᎸ	-11.3375
▁ᎤᏃᎯᏳᏁ	-11.3376
ᏍᏆᏂᎪᏔᏅ	-11.3377
ᎤᏨᏉᏗ	-11.3377
▁ᎤᎾᏅᏁ	-11.3378
▁ᏧᎶᏎ	-11.3379
ᎢᏗᎦᏘ	-11.3379
ᎤᏂᎷᏤᎢ	-11.338
ᏒᎮᏱᏣ	-11.3381
▁ᏕᎤᎸᏫᏍᏓᏁᎲ	-11.3381
▁ᏄᎵᏍᏓᏁᎸ	-11.3382
▁ᏂᏣᏓᎨᏳᏒ	-11.3382
ᎧᏃᎮᏛ	-11.3382
ᎢᏥᏈᏱ	-11.3382
▁ᏚᏓᏘᎿᎥ	-11.3383
▁ᎤᏔᏪᏙᏁ	-11.3383
ᎦᎵᎡᎵ	-11.3383
ᎠᎬᏱ	-11.3383
▁ᎤᏓᏙᎵᏍᏔᏁ	-11.3384
▁ᎤᎵᏖᎸᏁ	-11.3384
▁ᏚᏄᎪᏔᏅ	-11.3385
▁ᏚᏍᎫᏓᏛ	-11.3385
▁ᎤᏪᏍᎩᎸ	-11.3386
ᏍᏓᏁᏗ	-11.3386
▁ᎠᏥᏰᎸᎾᏁ	-11.3387
▁ᏓᎾᎵᏍᏓᏴᎲᏍᎬ	-11.3389
▁ᎤᎴᏂᏙᎴ	-11.3389
▁ᏚᏂᏢᎬ	-11.339
▁ᏱᏄᎵᏍᏔᏁ	-11.339
▁ᎾᏂᏪᏍᎨ	-11.3391
▁ᏂᏚᏩᏁᎴ	-11.3391
▁ᎢᏣᏚᎵᏍᎬ	-11.3392
ᏇᎵᏥ	-11.3392
▁ᎤᏓᏅᎡᎴ	-11.3392
▁ᏫᏥᎦᏛ	-11.3393
▁ᏚᏭᎪᏔᏅ	-11.3394
ᏍᏓᏴᎲᏍᎩ	-11.3394
▁ᎢᏥᏁᎬ	-11.3394
▁ᏑᏟᎶᏛ	-11.3396
▁ᎤᏍᎩᏓᏒ	-11.3397
▁ᎾᏂᎡ	-11.3397
▁ᎠᏥᏃᎮᏍᎬ	-11.3398
ᏍᏓᏩᏛᏎ	-11.34
▁ᎢᏨᏰᎳᏗᏙᎲ	-11.3403
ᏘᏅᏍᏔᏁᎢ	-11.3404
▁ᎤᏍᏓᏱᏛ	-11.3404
ᏠᎯᏍᏓ	-11.3405
▁ᏚᏂᏲᎱᏒ	-11.3406
ᏉᎡᏗ	-11.3406
ᏚᏓᏕᏫᏒ	-11.3406
▁ᎠᏄᎯᏍᏗᏍᎬ	-11.3408
▁ᎦᏅᎪᎢ	-11.3409
ᎵᏍᎪᎸᏗᏍᎬ	-11.341
▁ᏓᏂᏙᎬ	-11.341
▁ᎤᏑᎵᎪᏨ	-11.3411
▁ᏥᏬᏂᏍᎬ	-11.3412
▁ᏱᏂᎨ	-11.3412
ᏍᏉᎵᏱ	-11.3412
▁ᏂᎦᎵᏍᏗ	-11.3415
▁ᎤᏓᏅᏁ	-11.3416
ᏫᏍᎪᎢ	-11.3416
▁ᎡᏌ	-11.3416
ᎦᏘᏗᏍᏗᏱ	-11.3417
ᏍᎩᏓᏎᎢ	-11.3418
ᎫᎫ	-11.3421
▁ᎲᏅ	-11.3422
ᎵᎷᎬ	-11.3422
▁ᏣᏁᏨ	-11.3424
▁ᏚᎾᎴᏅ	-11.3424
▁ᎠᏆᎴᏅ	-11.3425
▁ᎣᎦᏣᏅ	-11.3428
▁ᏓᏅᏗᏍᎬ	-11.3429
▁ᏗᏓᎾᏅ	-11.3429
ᎯᏢᎾ	-11.343
▁ᎤᏍᏓᏩᏛᏎ	-11.343
ᏍᏕᎸᎲᎩ	-11.3431
▁ᏱᏥᎪᏩᏘ	-11.3433
ᎩᏍᏓᏩᏕ	-11.3433
ᏖᏍᎬᎢ	-11.3434
▁ᏗᏘᏂᏙ	-11.3435
ᎾᎾᏛᏁᎰ	-11.3435
▁ᏓᏍᏓ	-11.3436
▁ᏱᏣᏚᎵ	-11.3436
ᎸᏉᏔᏂ	-11.3436
▁ᎢᏨᏲᏎ	-11.3438
▁ᎦᏁᎮ	-11.3438
▁ᏓᏰᏣ	-11.3439
ᏖᎸᏂ	-11.3439
ᎨᏳᎯ	-11.3442
▁ᏦᎩᎾᏫ	-11.3442
▁ᎤᎩᎵᏲᎢᏍᏗ	-11.3443
ᏛᏍᎦ	-11.3444
▁ᎡᎩᏍᏕᎸᏗ	-11.3445
▁ᏗᎬᏩᎸᏌ	-11.3445
ᏒᎲᏍᎦ	-11.3446
ᏁᎵᏎᎢ	-11.3446
▁ᎢᏳᏩᏂᏐᏗ	-11.3446
ᏓᏂᎵᎨ	-11.3447
▁ᎢᏣᏓᏅᎦᎸ	-11.3447
ᏏᏌᏅ	-11.3449
▁ᏱᏙᎬ	-11.3449
▁ᎤᏁᏍᏓ	-11.3453
▁ᏗᎧᏃᎨ	-11.3455
▁ᏣᏁᎮ	-11.3455
ᏍᏆᏂᎪᏗᏳ	-11.3455
ᏌᎳᏛ	-11.3457
ᏓᏓᏍᎬ	-11.3458
▁ᎤᏪᎧᎲ	-11.346
▁ᏗᎦᏤᎵ	-11.346
▁ᎢᏣᎵᏍᏓᏴᏗ	-11.346
▁ᎤᏍᎦᎴ	-11.3461
ᏂᏴᏗᏱ	-11.3462
▁ᏂᎦᎵᏍᏔᏂ	-11.3463
▁ᎠᏛᎩᏍᎨ	-11.3463
▁ᏓᏰᏙᎳᏛ	-11.3464
ᏄᏬᎡᎢ	-11.3464
ᎦᎸᎲᎩ	-11.3464
ᏃᎵᏤ	-11.3465
▁ᏂᏚᎵᏍᏔᏅ	-11.3465
ᏙᎴᏆᏍᏗ	-11.3465
▁ᏥᎪᏩᏛ	-11.3465
▁ᎤᏬᏢᏁ	-11.3466
ᏔᏍᎩᏍᎩ	-11.3466
ᏩᏙᎯᏯᏛ	-11.3466
ᏦᏎᎭ	-11.3466
ᎵᏍᏘᏂᎸ	-11.3466
ᏓᏅᏓᏗᏍᏗᏍᎩ	-11.3467
▁ᏂᏓᎾᏓ	-11.3467
▁ᏂᏦᎯᏳ	-11.3468
▁ᏓᏂᎶᏄᎮᏍ	-11.3468
ᏓᎾᏕᏒᎲᏍᎪᎢ	-11.3468
ᏧᎪᏓᏏ	-11.3468
▁ᎠᏂᎢᏏᎺᎵ	-11.3468
▁ᎠᏍᏕᏱᏛ	-11.3468
▁ᎢᏍᎪᏂᏗᏢ	-11.3468
▁ᎤᎾᏓᎪᎾᏙᏗ	-11.3468
▁ᎤᎾᏗᏍᎦᏢ	-11.3468
▁ᎤᎾᏙᏓᏉᏅ	-11.3468
▁ᎤᏩᎬᏘᎶᏓ	-11.3468
▁ᎤᏩᎾᏓᎴ	-11.3468
▁ᎤᏭᏓᎸᏤ	-11.3468
▁ᎥᏖᎣᎩ	-11.3468
▁ᎺᎮᎴᎵ	-11.3468
▁ᏁᏥᏪᏎᎸᎭ	-11.3468
▁ᏂᏓᏁᏢᏛᎾ	-11.3468
▁ᏂᏗᎬᏩᏓᎴ	-11.3468
▁ᏂᏧᏪᏎ	-11.3468
▁ᏄᏃᎯᏳᏅᎾ	-11.3468
▁ᏒᏗᏩᏟ	-11.3468
▁ᏓᎱᏃᎲ	-11.3468
▁ᏓᎾᏦᎭᏱᎲ	-11.3468
▁ᏓᏂᎳᏍᏓᎳᏩᏗᏒᎢ	-11.3468
▁ᏓᏊᎪᏔᏅ	-11.3468
▁ᏓᏓᏂᏌᎲ	-11.3468
▁ᏗᎾᎵᏦᎯᏛ	-11.3468
▁ᏗᏓᏅᏫᏍᎩ	-11.3468
▁ᏗᏙᎳᏅᏍᏗ	-11.3468
▁ᏙᏛᎾᏓᏡᏔᏂ	-11.3468
▁ᏥᏂᏥᏪᎠ	-11.3468
▁ᏥᏓᎩᎸᏫᏍᏓᏁᎭ	-11.3468
▁ᏥᏕᎭᏘᏁᎭ	-11.3468
▁ᏮᏘᎶᏏ	-11.3468
▁ᏮᏘᏯᏅᎯ	-11.3468
▁ᏯᏙᎴᎰᏍᎦ	-11.3468
▁ᏱᎡᏦᎢᏳ	-11.3468
▁ᏱᏂᏓᎦᎵᏍᏔᏂ	-11.3468
▁ᏱᏓᎴᏂᏙᎭ	-11.3468
▁ᏱᏣᏁᎢᏍᏔᏁᏍᏗ	-11.3468
▁ᏱᏫᏣᏴᎸ	-11.3468
▁ᎤᎩᏠᏫᏎ	-11.3468
▁ᎤᎾᎵᏃᎯᏴᎯ	-11.3468
▁ᎨᏥᎦᏘᏗᏍᏗ	-11.3468
▁ᏂᎦᏗᎹᏏ	-11.3468
▁ᏄᏛᎿᏕᎬ	-11.3468
▁ᏆᎻᏈᎵᏱ	-11.3468
▁ᏌᎷᏱ	-11.3468
▁ᏓᎦᎫᏴᎯ	-11.3468
▁ᏓᏍᏗᏰᏗᏍᎬ	-11.3468
▁ᏗᏝᏗᏍᏗᏱ	-11.3468
▁ᏧᎵᎦᎸᏓ	-11.3468
▁ᏧᏓᏅᏓᏗᏍᏙᏗᏱ	-11.3468
▁ᎠᏓᏅᏖᎸ	-11.3468
▁ᎤᏪᏟᏌᏁ	-11.3468
▁ᎹᎻᎵ	-11.3468
▁ᏂᏚᎾᏁᎶᏛᎾ	-11.3468
▁ᏍᎩᏍᏕᎳ	-11.3468
▁ᏓᏟᏰᎵᏙ	-11.3468
▁ᏕᎦᎧᎮᏍᏗ	-11.3468
▁ᏙᏗᎾᎵᏍᏓᏴᎲᏍᎬ	-11.3468
▁ᏚᏂᏐᏨ	-11.3468
▁ᏛᎾᏛᎦᏂ	-11.3468
▁ᏧᎾᏂᏏᏗᏱ	-11.3468
▁ᏨᏓᏯᎢ	-11.3468
▁ᏥᎪᎵᏰᏍᎬ	-11.3468
▁ᏧᎾᏓᏂᎸᎢᏍᏗᏱ	-11.3468
ᎩᏪᏎᎲᎩ	-11.3468
ᎵᏍᎨᏗᏴ	-11.3468
▁ᎡᎻᎳ	-11.3468
▁ᎢᎦᏗᏍᎦᎶᏗᏱ	-11.3468
▁ᏁᎨᏒᎾ	-11.3468
▁ᏁᏓᏈ	-11.3468
▁ᏂᏨᏴᏁᎸ	-11.3468
▁ᏚᏂᎧᎮᏍᏗ	-11.3468
▁ᎤᏂᏃᎮᏛ	-11.3468
▁ᎤᏩᏨᏴ	-11.3468
▁ᎩᏅᎪᎢ	-11.3468
▁ᏬᎩᏅᏍᏔᏅᎩ	-11.3468
▁ᏯᎵᏖᎸᎮᏍᎬᎾ	-11.3468
▁ᏄᏍᏆᏂᎩᏛ	-11.3468
▁ᏣᏔᎳᏬᏍᎬ	-11.3468
▁ᏯᏓᏅᏍᎬᎾ	-11.3468
▁ᎠᏓᏴᎳᏛᏍᎩ	-11.3468
▁ᎠᏥᏅᏩᏅᎢ	-11.3468
▁ᎢᏖᎳ	-11.3468
▁ᏂᏪᏎᎸᎭ	-11.3468
▁ᏕᎷᎨ	-11.3468
▁ᎢᎬᏩᏛᏛᏁ	-11.3468
▁ᏯᏎᎦᎩ	-11.3468
▁ᏚᏟᏂᏆᏅᏁ	-11.3468
ᎦᎭᎾᏅ	-11.3468
▁ᏘᏰᎸᏂ	-11.3468
▁ᏓᏑᏫᏍᎬ	-11.3468
▁ᏥᏕᏣᎸᏫᏍᏓᏁᎭ	-11.3468
▁ᎠᎦᏔᏛᏍᎩ	-11.3468
▁ᎪᎶᏁᏛ	-11.3468
▁ᎬᏩᏴᎸᎯ	-11.3468
▁ᏥᏄᏩᏁᎸ	-11.3468
▁ᏫᎬᏲᏪᎳᏏ	-11.3468
▁ᎠᏲᏓᏝᎲᎢ	-11.3468
▁ᏳᎵᏃᎯᏰ	-11.3468
▁ᎡᏗᏂᏱ	-11.3468
▁ᏁᏍᏗᏪᏎᎸᎭ	-11.3468
▁ᏛᏂᎾᏄᎪᏥ	-11.3468
▁ᏱᏓᎨᏏ	-11.3468
▁ᎤᏪᏯᎸᏅᎩ	-11.3468
▁ᎠᏍᎫᏕᏒ	-11.3468
▁ᎢᏦᎵᎩ	-11.3468
▁ᏩᏇᏙᎸ	-11.3468
▁ᎤᏂᏔᎳᏬᏍᎬᎢ	-11.3468
▁ᏱᏗᏣᏰᎸᏁᎢ	-11.3468
▁ᎤᎵᏌᎵᏓᏁ	-11.3468
▁ᎢᏳᎾᏛᎾᏕᎩ	-11.3468
▁ᎫᏰᏉ	-11.3468
▁ᏧᏄᏩᎢ	-11.3468
ᏬᏁᏗᏍᎪ	-11.3468
▁ᎥᏇᎵᏎᎸ	-11.3468
▁ᏌᎶᎻ	-11.3468
▁ᏓᎶᎨ	-11.3468
▁ᎠᎾᎵᏍᎩᏍᎬ	-11.3468
▁ᎣᎨᏙᎸ	-11.3468
▁ᎤᏕᏒᏂᎸᎯ	-11.3468
▁ᎤᏩᏂᎦᏢ	-11.3468
▁ᏓᏥᏯᏓᏙᎵᏍᏓᏁᎵ	-11.3468
▁ᏗᎨᎦᏛᏅᎯ	-11.3468
▁ᏙᏛᎾᎴᏂ	-11.3468
▁ᏙᏓᏥᏲᎱᏏ	-11.3468
▁ᏂᏗᎨᏥᎾᏝᎥᎾ	-11.3468
▁ᏯᏂᎷᎬᎾ	-11.3468
▁ᏂᏕᎦᎵᏍᏗᏍᎨ	-11.3468
▁ᏂᏦᎯᏳᎲᏍᎬᎾ	-11.3468
▁ᎠᏂᎷᏨᎭ	-11.3468
▁ᎦᏄᎾᏓᎴᎩ	-11.3468
▁ᏙᎩᎾᏦᏒ	-11.3468
ᎾᏓᏡᎩ	-11.3468
▁ᏗᏐᏂ	-11.3468
▁ᎦᎵᏒᏍᏗᏍᎬ	-11.3468
▁ᏚᎵᏃᎮᏔᏁᎢ	-11.3468
▁ᎢᏣᏓᏟᏌ	-11.3468
▁ᎠᎩᏬᏂ	-11.3468
▁ᎢᎬᏂᎮᏍᏗ	-11.3468
▁ᎤᏓᎷᎸ	-11.3468
▁ᏱᏨᏰᎵᏎᎭ	-11.3468
▁ᎤᎬᏍᏕᎵ	-11.3468
▁ᏅᏓᏳᎵᏍᎪᎸᏔᏅᎯ	-11.3468
▁ᏗᎾᏓᏙᎵᏍᏓᏁᎯ	-11.3468
▁ᎪᏢᏅᎥᏍᎩ	-11.3468
▁ᏂᏕᏣᏛᏁᎮᏍᏗ	-11.3468
▁ᎢᏣᏄᏬᏍᏕᏍᏗ	-11.3468
▁ᏙᏓᏳᏲᏏ	-11.3468
▁ᏍᎩᏯᏛᎦᏁᎸᎯ	-11.3468
▁ᎩᎵᏯᏗ	-11.3468
▁ᏄᎾᏓᏛᎩ	-11.3468
▁ᎠᏓᎴᏒ	-11.3468
▁ᎩᏂᏙᏓ	-11.3468
ᎨᏅᏴ	-11.3468
▁ᎡᏗᎸᏉᏓ	-11.3468
▁ᎤᎾᎵᏍᏓᏴᏁᏃ	-11.3468
▁ᎤᏓᏁᏟᏴᏍᏓᏁᎴ	-11.3468
▁ᏍᎩᏯᏅᏓᏗᏍᎨᏍᏗ	-11.3468
▁ᏕᎫᏓᏛ	-11.3468
▁ᏚᎾᎭᏄᏮ	-11.3468
▁ᏗᎾᏓᏲᏁᎯ	-11.3469
▁ᏗᏂᎬᏓᎨᏂ	-11.3469
▁ᎠᏲᎤᏟ	-11.3469
ᎯᏣᏛᎦᏍᏓ	-11.3469
▁ᎤᏁᎢᎸᏗ	-11.3469
▁ᎠᎩᎵᏬᎢᏍᏗ	-11.3469
▁ᎤᎿᎷᏎ	-11.3469
▁ᏓᏆᏓᏂᎸᎨᏍᏗ	-11.3469
▁ᏴᎨᏥᎪᏩᏛ	-11.3469
ᏠᏯᏍᏗᏍᎨᏍᏗ	-11.3469
▁ᎤᏂᏬᏂᏒ	-11.3469
▁ᏅᏛᏂᏪᏏ	-11.3469
▁ᎤᏂᏲᎴ	-11.3469
▁ᎠᏥᏅᏩᏅᎯ	-11.3469
▁ᏗᎩᏂᏴᏗᏱ	-11.3469
▁ᎠᏛᎩᏍᎩ	-11.3469
▁ᏫᏓᎨᏙᎵ	-11.3469
▁ᏕᎤᎴ	-11.3469
ran	-11.3469
▁ᏫᏄᎾᎵᏍᏓᏏ	-11.3469
▁ᏗᎦᏃᏙᏗᏱ	-11.3469
▁ᏯᏂᎷᎩ	-11.3469
▁ᎾᏆᏛᏁᎵᏙᎸ	-11.3469
ᎬᏲᎵᎭ	-11.3469
▁ᏓᎬᏅᏏ	-11.3469
▁ᎠᏂᏁᏉᎨ	-11.3469
▁ᎤᏬᏪᎶᏗ	-11.3469
▁ᎬᏍᎦᏅᏤᎸ	-11.3469
▁ᎶᏔᏂ	-11.3469
▁ᏧᎾᏓᏅᏬᏗᏱ	-11.3469
▁ᏗᎪᏏᏐᏗ	-11.3469
▁ᎤᎦᏌᏛᎢ	-11.3469
▁ᏃᎦᏛᏅ	-11.3469
▁ᏓᏂᏂᏓᏛ	-11.3469
▁ᎬᏩᏂᏅᏫᏍᏔᏂᏙᎯ	-11.3469
▁ᏓᎩᏲᎯᏎᎸ	-11.3469
ᏓᏂᎸᎨᏍᏗ	-11.3469
▁ᏣᎩᏯᎠ	-11.3469
ᎬᏩᏳᎪᏗ	-11.3469
▁ᏕᎬᏩᏠᏎᎢ	-11.3469
▁ᏧᏭᏓᎴᏍᏗᏱ	-11.3469
▁ᎠᎩᎩᎬ	-11.3469
▁ᎠᏂᏍᏆᏂᎪᏗᏍ	-11.3469
▁ᎢᏁᎾ	-11.3469
▁ᏂᏨᏁᎮᏍᏗ	-11.347
▁ᏗᎫᏓᏙᏗ	-11.347
▁ᏚᎩᏒᎩ	-11.347
▁ᎢᏣᏛᏁᎸᎯ	-11.347
▁ᏓᏍᏆᏚᎸ	-11.347
▁ᎡᎶᏂᎵ	-11.347
▁ᏣᏁᎫ	-11.347
▁ᎠᎾᏟᏃᎮᏍᎬ	-11.347
▁ᎤᏂᎦᎾᏍᏓ	-11.347
▁ᎪᏢᏛᎩ	-11.347
▁ᎠᏍᎦᏲᎯ	-11.347
▁ᏫᏲᏪᎳᏏ	-11.347
▁ᎠᏟᎢᎵ	-11.347
▁ᏚᏁᏅᏒ	-11.347
▁ᏑᏕᏘᏴ	-11.347
▁ᏗᎩᏣᏗ	-11.347
▁ᏗᏂᎦᏘᎴᎩ	-11.347
▁ᏭᏓᏓᎩᏅᏎ	-11.347
▁ᏛᏂᎪᎯ	-11.347
▁ᏦᎨᏅᏒ	-11.347
▁ᎠᏆᎵᏥᏙᏗᏱ	-11.347
▁ᏗᏗᏰᎸ	-11.347
ᏎᎯ	-11.347
▁ᏘᎹᏂ	-11.347
▁ᎢᏍᏗᏙᏓ	-11.347
▁ᏚᏙᏓᏈᏒ	-11.347
▁ᏕᏣᏓᎨᏳᏎᏍᏗ	-11.347
▁ᏫᎦᎢᏒ	-11.347
ᏲᎦᏛᏁᏗ	-11.347
▁ᏚᎵᎬᏩᏢ	-11.347
ᏍᏓᏱᏗᏍᏗᏱ	-11.347
ᏓᏒᏍᏓ	-11.347
▁ᏭᏕᏁᎢ	-11.3471
ers	-11.3471
▁ᎣᏣᎵᎡᎵᏤ	-11.3471
▁ᎤᎸᏫᏒ	-11.3471
▁ᏕᏣᎧᎿᏩᏗᏙᎮᏍᏗ	-11.3471
▁ᎠᏂᏍᏆᏂᎪᏍᎨ	-11.3471
▁ᎢᎬᏩᏍᏗᎭ	-11.3471
▁ᎠᏓᎦᎵᏍᏓᏗᏍᎩ	-11.3471
▁ᎢᏥᎩᎵᏲᎬᎢ	-11.3471
▁ᏓᏅᏩ	-11.3471
▁ᏙᏓᎬᏁᎵ	-11.3471
▁ᏣᎵᏍᏓᏴᏗ	-11.3471
▁ᏚᎪᏄᎶᏎ	-11.3471
▁ᎤᏍᏔᎦ	-11.3471
▁ᎬᏩᏂᏍᏓᏩᏗᏙᎯ	-11.3471
▁ᏗᎤᏁᏤ	-11.3471
▁ᏌᎪᏗ	-11.3471
▁ᎱᎷᏨ	-11.3471
ᏏᏀᎥ	-11.3471
▁ᏚᏃᎩᏎ	-11.3471
▁ᏧᏪᎷᏁ	-11.3471
ᏈᎪᎵ	-11.3471
▁ᏗᏓᏙᏕᏍᏗᏍᎩ	-11.3471
▁ᏧᏅᎨᏫ	-11.3471
▁ᏱᏓᏲᎩ	-11.3471
▁ᏕᎦᎵᏦᏛ	-11.3472
▁ᏗᏂᏙᎬ	-11.3472
▁ᎤᏂᎧᎲ	-11.3472
▁ᏥᏍᎦᏅᎩ	-11.3472
▁ᎤᏅᏂᏍᏗᏱ	-11.3472
ᏔᏍᏗ	-11.3472
ᎾᏞᎬ	-11.3472
▁ᎠᎩᏲᎱᎯᏍᏗᏱ	-11.3472
▁ᎤᎾᏓᏛᏅᎯ	-11.3472
▁ᎢᏥᎧᎵᏣ	-11.3472
▁ᏄᏂᎪᎸᎾ	-11.3472
▁ᎤᏁᎵᏨ	-11.3472
▁ᎢᏣᎵᏍᏓᏴᏗᏍᎨᏍᏗ	-11.3472
▁ᏓᎦᎾᏄᎪᏫᏏ	-11.3472
▁ᎬᏬᎳᏕᏍᎬ	-11.3472
▁ᎤᏓᏅᏘᏌᏅ	-11.3472
▁ᎢᏥᎦᏛᏂᏙᎯᏉ	-11.3472
▁ᏗᎬᏯᏠ	-11.3472
▁ᎭᏠᎠᎯ	-11.3473
▁ᏗᏂᏁᎵᏛ	-11.3473
▁ᏗᎩᏙᏓ	-11.3473
▁ᏓᎬᎷᏤᎵ	-11.3473
▁ᏂᏓᎾᏤ	-11.3473
▁ᏅᏯᏗᎦᎪᏗᏱ	-11.3473
▁ᎣᎩᎵᏦᏩᏛ	-11.3473
▁ᎤᎾᏨᏓᎵ	-11.3473
▁ᏂᏗᏣᏓ	-11.3473
▁ᏗᏍᎩᏲᎯᏏ	-11.3473
▁ᏳᏲᎱᏎᎸ	-11.3473
▁ᎤᏣᏪᏐᎸᏍᏕ	-11.3473
▁ᏅᏓᏳᎶᎯᏍᏗᏱ	-11.3473
▁ᏗᎨᏥᏲᎯᏎᎸᎯ	-11.3473
▁ᏦᏚᎯ	-11.3473
▁ᎠᎵᏍᏆᏓ	-11.3473
▁ᏧᏬᏪᎳᏁ	-11.3473
▁ᏁᏓᏂᎵ	-11.3474
▁ᎢᏣᏕᏗᏱ	-11.3474
▁ᎡᏣᏙᎵᎩ	-11.3474
▁ᎠᎾᏔᏍᎩᏍᎩ	-11.3474
▁ᎨᏥᎩᎵᏲᎢᏍᏙᏗᏱ	-11.3474
▁ᏗᏂᏃᎩᏍᎩ	-11.3474
▁ᎠᏥᏂᏌᏁ	-11.3474
▁ᎨᏯᏔᎯ	-11.3474
▁ᏂᎨᏨᏁ	-11.3474
▁ᎤᏗᏩᏒᎯ	-11.3474
▁ᏗᏥᏅᏏᏓᏍᏗ	-11.3475
▁ᎾᎩᎲᎾ	-11.3475
▁ᏱᏥᏯᎠ	-11.3475
▁ᎢᏓᎻ	-11.3475
▁ᏧᎦᏌᏬᎸ	-11.3475
▁ᏗᏜᏍᏔᏅᎯ	-11.3475
▁ᎧᏃᏍᎦ	-11.3475
▁ᎠᎵᏣᏙᎲᏍᎩ	-11.3475
ᎦᎫᏍᏓᎥ	-11.3475
ᏂᏅᎪᎠ	-11.3475
▁ᎠᎦᏙᎥᎯᏍᏙᏗ	-11.3475
ᎾᎵᏍᏓᏁᏗ	-11.3475
▁ᎯᏌᏙᏯ	-11.3475
▁ᏌᏆᏯ	-11.3475
▁ᎢᏳᏩᎪᏗ	-11.3475
▁ᏕᎰᏢᏅᎭ	-11.3475
▁ᏧᏬᏪᎶᏗ	-11.3475
▁ᏍᎩᏲᏍᏓ	-11.3475
▁ᏥᏃᏍᎦ	-11.3475
▁ᏥᏥᎪᏩᏘᎭ	-11.3475
▁ᎪᎭᏗ	-11.3475
▁ᏓᏕᏏ	-11.3476
▁ᎤᎾᎵᏍᏓᏴᏁᎢ	-11.3476
▁ᎠᏂᏏᎾᏌᏅ	-11.3476
▁ᏧᏙᏍᏙᏗ	-11.3476
▁ᎢᏗᎬᏁᎸᎯ	-11.3476
▁ᏧᎾᏨᏍᏗᏱ	-11.3476
▁ᎤᎾᏓᏅᏓᏕᎢ	-11.3476
▁ᎤᏯᏪᏐᎴ	-11.3476
▁ᎤᎩᏢ	-11.3476
▁ᏳᏃᎵᏤ	-11.3476
▁ᎤᏄᎩᏣᏁ	-11.3476
ᏂᎸᎬᎾ	-11.3476
▁ᎠᏗᏔᏍᎨᏍᏗ	-11.3476
▁ᎰᎯᏳᎲᏍᎦ	-11.3476
▁ᎣᎩᎷᏤᎸ	-11.3476
▁ᏧᏄᎪᏔᏅ	-11.3476
ᏚᎧᎾᎾ	-11.3477
▁ᎠᏥᎶᎥ	-11.3477
▁ᏕᎬᏆ	-11.3477
▁ᎠᎳᏍᎦᎵᏍᎩ	-11.3477
▁ᎠᏓᏴᏍᏔᎩᏍᎩ	-11.3477
▁ᎤᏁᏐᎠᏒᎩ	-11.3477
▁ᏂᏚᏂᏪᏎᎸᎩ	-11.3477
▁ᏣᏍᎦᎸᎩ	-11.3477
▁ᎣᎩᏅᏏᏓᏍᏗ	-11.3477
▁ᏍᏊᏓᎳᎩ	-11.3477
▁ᏂᎦᏖᏍᏗ	-11.3477
▁ᎤᎾᏛᏅᎢᏍᏗ	-11.3477
▁ᎬᏩᏂᏴᏗᏱ	-11.3477
▁ᎠᏓᏛᏗᏍᎩ	-11.3477
▁ᏚᏭᏓᏔᏅᎩ	-11.3477
▁ᎬᏩᎾᏰᏍᎩ	-11.3477
▁ᎭᎴᎲᎦ	-11.3477
▁ᏗᏂᎾᏕᎩ	-11.3477
▁ᏯᏕᎶᎰᏍ	-11.3478
▁ᎠᏖᎵᏙᎩᎯ	-11.3478
▁ᎬᏍᎦᎵ	-11.3478
▁ᎴᎹᎩ	-11.3478
▁ᎢᏣᎵᏏᎾᎯᏍᏗ	-11.3478
▁ᏗᎦᎫᏍ	-11.3478
▁ᏫᏥᎶᎯ	-11.3478
▁ᏧᏂᏄᎪᏫᏍᏗᏱ	-11.3478
▁ᎠᏍᏆᏂᎪᎯᏍᏗ	-11.3478
▁ᎭᎦᏌᏯᏍᏓ	-11.3479
▁ᎻᏗᏂᏱ	-11.3479
▁ᎢᏥᏴᏍᏗᏱ	-11.3479
▁ᏚᏂᏚᎲ	-11.3479
▁ᎣᎪᎯᏳ	-11.3479
▁ᎤᎵᏨᏓᏆᏛ	-11.3479
▁ᏗᏣᎵᏂᎩᏗᏳ	-11.3479
▁ᏚᎭᏁᎦᎸ	-11.3479
▁ᎬᏩᏄᎯ	-11.3479
▁ᎦᏌᎴᏅ	-11.3479
▁ᎢᏯᏋᏁᏗᏱ	-11.3479
▁ᏣᏰᎸᏅ	-11.3479
▁ᏥᏥᏯᎠ	-11.3479
▁ᎤᎾᏛᏅᎢᏍᏔᏁ	-11.3479
▁ᎡᏥᎨᏳᎢ	-11.348
▁ᏯᏆᏛᏁᎸ	-11.348
▁ᎬᎩᏁᏤᎸᎯ	-11.348
▁ᎤᏔᏲᎴ	-11.348
▁ᎡᏥᎦᏙᎥ	-11.348
▁ᎤᏁᏍᏔᎳ	-11.348
▁ᏣᏛᎦᏅᎢ	-11.348
ᏓᏅᏛᎳ	-11.3481
▁ᏄᏟᏂᎬᎬ	-11.3481
▁ᎤᏓᎪᎵᏰᏗ	-11.3481
▁ᏱᎰᏣ	-11.3481
▁ᎠᏥᏂᏌᏅ	-11.3481
▁ᏱᎦᏬᏂᎭ	-11.3481
▁ᎣᏥᏃᎮᏍᎩ	-11.3481
▁ᎤᏂᏍᏆᏂᎪᏔᏅ	-11.3481
▁ᎤᎾᎵᏓᎩᏛ	-11.3482
▁ᎤᏙᏯᏅᎯᏛ	-11.3482
▁ᎤᏓᏅᏓᏕᎢ	-11.3482
▁ᏅᏧᏪᏎᎢ	-11.3482
ᎫᏓᎴᏍᎩ	-11.3482
▁ᏗᎦᏃᎸᏗᏍᎬ	-11.3482
▁ᎠᏓᏬᏍᏗ	-11.3482
▁ᎤᏓᏱᎴᎢ	-11.3482
▁ᎠᎩᏅᏏᏓᏍᏗ	-11.3482
▁ᏳᎷᏨ	-11.3482
▁ᏥᏐᎯ	-11.3483
▁ᎤᏓᏅᎡᎸᎩ	-11.3483
▁ᎤᏂᎾᏰᎯᏍᏗ	-11.3483
ᏕᏲᏅᎯ	-11.3483
▁ᏕᎩᎸᏫᏍᏓᏁᎲ	-11.3483
▁ᎥᎦᏥᎪᎥᎩ	-11.3483
▁ᏒᎦᎾᏲᎪ	-11.3483
▁ᏭᏩᏅᏓᏕ	-11.3483
▁ᏅᏋᏁᎸ	-11.3484
▁ᏧᎾᎵᏍᏓᏴᏗᏱ	-11.3484
▁ᎦᎬᏩᏐᏢᏕᎢ	-11.3484
▁ᏫᎤᎶᏎᎢ	-11.3484
▁ᏧᏏᎳᏛᏙᏗ	-11.3484
▁ᎬᏃᏓ	-11.3484
ᏪᏎᎸᎯ	-11.3484
▁ᎣᎦᏚᎵᏍᎬ	-11.3484
ᏓᏘᎾᎥ	-11.3484
▁ᏕᎦᏃᏣᎸ	-11.3484
▁ᏁᏪᏎᎴᎢ	-11.3484
▁ᎠᏁᎷᎲᏍᎨ	-11.3484
▁ᎢᏥᏯᎥᎢ	-11.3485
▁ᎤᏍᏆᏂᎩ	-11.3485
▁ᎢᏥᎦᏔᎰ	-11.3485
ᏅᏓᏥᏪᏎᎵ	-11.3485
▁ᏂᎦᏪᎠ	-11.3485
▁ᏧᏄᎪᏙᏗᏱ	-11.3486
ᏍᏔᏁᎰ	-11.3486
▁ᎢᏳᏂᏪᏍᏗᏱ	-11.3486
▁ᎢᏣᏛᎪᏗᏱ	-11.3486
▁ᎤᎾᏓᏍᏔᏴ	-11.3486
▁ᎤᎧᎭᏲᏛ	-11.3486
▁ᎤᏩᏇᏅᏔᏁ	-11.3486
▁ᏓᏍᎩᏁᎵ	-11.3486
▁ᏂᎬᏩᏂᏪᏎ	-11.3486
▁ᏥᏯᎥ	-11.3486
▁ᏗᎵᏍᎪᎸᏔᏅᎯ	-11.3486
▁ᎦᎸᏍᏙᏗ	-11.3486
▁ᎯᏥᏧᏣ	-11.3486
ᏌᎩᏒ	-11.3486
▁ᏳᎨᏳᎭ	-11.3487
▁ᎤᏚᏥ	-11.3487
▁ᎭᏙᎴᎰᎯ	-11.3487
▁ᏥᏄᎾᏍᏗ	-11.3487
▁ᎢᏥᎷᏨᎭ	-11.3487
▁ᏗᎵᏍᏚᎶ	-11.3487
▁ᎫᎭᏟ	-11.3487
▁ᏱᏂᏣᏛᏁᎸ	-11.3487
▁ᏧᏂᎷᏫᏍᏔᏁᏗ	-11.3487
▁ᎣᎦᎵᎪᏅ	-11.3487
▁ᎠᏆᏡᏗᏍᎩ	-11.3487
▁ᎤᎾᎵᏍᏓᏴᏅᎯ	-11.3487
▁ᎠᎵᎮᎵᏤᏗ	-11.3487
▁ᎾᎾᏛᏁᎮᏍᏗ	-11.3488
▁ᎠᎦᎫᏴᎡᏗ	-11.3488
▁ᎦᏃᏥ	-11.3488
▁ᏧᎵᏏᎬ	-11.3488
▁ᎠᏔᏲᎯᎮᏍᏗ	-11.3488
▁ᎠᏛᎯᏍᏗᏍᎩ	-11.3488
▁ᎠᏗᏍᎦᎶᏗ	-11.3488
▁ᎤᏤᏥᏍᏗ	-11.3488
▁ᎤᏠᎩ	-11.3488
ᏘᏓ	-11.3489
ᎤᏁᏨ	-11.3489
▁ᏧᏏᎳᏛᏗ	-11.3489
▁ᎤᏂᏰᏨ	-11.3489
▁ᏥᏲᎵᎩ	-11.3489
▁ᏭᏘᏅᏍᏔᏁᎢ	-11.3489
▁ᎤᏇᏓᏢ	-11.3489
ᏗᎦᎴᏲᏤ	-11.349
▁ᏭᏴᏍᏗᏱ	-11.349
▁ᎤᎧᏲᏓ	-11.349
▁ᎦᎷᎩ	-11.349
▁ᏚᏲᎵᎸ	-11.349
▁ᎤᏓᏴᎳᏔᏅ	-11.349
▁ᎤᏂᏁᎢᏍᏗᏱ	-11.349
▁ᎤᏪᏙᎵᏤᎢ	-11.349
▁ᏕᏛᏅ	-11.349
▁ᎤᏁᎳᏗᏍᏗᏱ	-11.349
▁ᎠᏲᎱᏍᎨᏍᏗ	-11.3491
▁ᎤᏘᏅᏎ	-11.3491
▁ᏱᏄᏩᏁᎰ	-11.3491
▁ᏫᏗᏥ	-11.3491
▁ᏚᏪᏐᏤ	-11.3491
▁ᏓᏞᏍᏗ	-11.3491
▁ᎦᎾᏄᎪᏥᎸᎭ	-11.3492
▁ᎨᏥᏰᎸᎯ	-11.3492
▁ᏱᏣᏞ	-11.3492
▁ᎠᏂᏐᏢᎢᏍᏗᏍᎩ	-11.3492
▁ᏕᎦᎶᏛ	-11.3492
▁ᎣᏏᏊ	-11.3492
▁ᎤᎩᎵᏲᎢᏍᏗᏱ	-11.3493
▁ᎡᏥᎦᏔᎭ	-11.3493
▁ᏤᏏᏂ	-11.3493
▁ᎬᎭᏃ	-11.3493
▁ᎡᎦᏔ	-11.3493
▁ᏚᏌᎳᏓᏅ	-11.3493
▁ᎤᏩᎾᏬᏒ	-11.3493
▁ᎾᏅᏁᎰ	-11.3494
▁ᎤᎵᏌᎳᏓᏁ	-11.3494
▁ᎤᎾᏓᏅᏍᏗᏱ	-11.3494
▁ᏗᎧᎿ	-11.3494
▁ᏂᏕᎲᏁ	-11.3494
▁ᎤᏎᎦᏨᎯ	-11.3494
▁ᎡᏥᏁᎸ	-11.3494
▁ᎠᏨᏏᏰᏗ	-11.3495
▁ᎠᏤᎷᎯᏍᏗ	-11.3495
▁ᎠᏂᎦᏘᏴ	-11.3495
▁ᏗᎪᏍᏓᏯ	-11.3495
▁ᏫᏓᏆᎧᎾᏅᎩ	-11.3495
▁ᏚᏅᏩᏅᎩ	-11.3495
▁ᏱᎾᏛᎦ	-11.3496
ᏒᏁᎰ	-11.3496
▁ᎮᎮᏍᏗ	-11.3496
▁ᏚᏂᏲᏎ	-11.3496
▁ᎢᏣᏙᎴᎰᎯ	-11.3496
▁ᎪᏍᏔᏴ	-11.3497
ᏩᏘᏍᎩ	-11.3497
▁ᏥᎧᏍᎨᏂ	-11.3497
▁ᏗᎦᏰᏍᏗ	-11.3497
▁ᎤᎾᏠᎾᏍᏛ	-11.3497
▁ᏗᏍᏕᎵᏍᎩ	-11.3497
▁ᎤᏁᏟᏔᏅ	-11.3497
ᎸᏍᎦ	-11.3498
▁ᎤᏍᏚᏅ	-11.3498
▁ᎬᏩᏂᏴᎲᎩ	-11.3498
▁ᏗᎦᏰ	-11.3498
▁ᏧᏍᎪᎸ	-11.3499
▁ᎠᎫᏤᎵ	-11.3499
▁ᎠᏥᎤᏍᏕᏎ	-11.3499
▁ᎠᏲᏍᎩ	-11.3499
ᏐᏍᏙᏗ	-11.3499
▁ᎠᏗᏅᏓ	-11.35
▁ᏚᎵᏰ	-11.35
▁ᏱᏓᏚ	-11.35
▁ᎠᏍᏓᏱᏗᏍᎩ	-11.35
ᏌᎳᏙᏗᏱ	-11.3501
▁ᎫᎭᎳ	-11.3501
ᏍᎩᏰᎵᏎᎮᏍᏗ	-11.3501
▁ᎠᎩᏁᏤᎸᎩ	-11.3501
▁ᎯᏍᎩᏍᏆ	-11.3502
▁ᎣᎦᏓᏅᏔᏩᏕ	-11.3502
▁ᏧᏍᏕᎸᏗᏱ	-11.3502
▁ᏗᏒᏆᎶᏍᏗ	-11.3502
▁ᎠᏗᏔᏍᎦ	-11.3502
▁ᎠᏂᏣᏗ	-11.3502
▁ᏣᎾᏗᎭ	-11.3503
▁ᏗᎬᏩᏁᎶᏗ	-11.3503
▁ᎤᎬᏍᎪᎸᏁ	-11.3504
▁ᎤᏪᎷᏅ	-11.3504
▁ᎠᏆᏕᏗᏱ	-11.3504
▁ᎠᏑᏫᏍ	-11.3504
▁ᎠᏕᎸᏓᎶᏂᎨ	-11.3505
▁ᏦᏍᏓ	-11.3505
▁ᎠᎵᎮᎵᎪ	-11.3505
▁ᏣᎦᏙᎥᎯᏍᏗᏱ	-11.3505
ᏦᎦᏓᎵ	-11.3505
▁ᎤᎬᎭᎷᏴ	-11.3505
▁ᏣᏍᎦᎩ	-11.3506
▁ᎢᏣᏂᎩ	-11.3506
▁ᏍᎩᎨᏳᎯᏳ	-11.3506
ᏓᏙᎵᏍᏓᏁᎭ	-11.3506
ᎾᏝᎥᎾ	-11.3506
▁ᏚᎾᏓᏂᎸᏨ	-11.3506
▁ᎠᎾᏓᏩᏛᎯᏙᎢ	-11.3507
▁ᎤᏅᏓᏗᏗᏒᎢ	-11.3507
▁ᏓᏓᏁᎳᏗᏒᎢ	-11.3507
▁ᏗᏆᏓᎴᏅᎢ	-11.3507
▁ᏚᏚᎪᏔᏅᎢ	-11.3507
▁ᏚᏠᏒᏎᎢ	-11.3507
▁ᎠᏩᏘᏍᎪᎢ	-11.3507
▁ᎧᏁᎨᎢ	-11.3507
▁ᎤᏓᏏᏁᎢ	-11.3507
▁ᎤᏂᏌᏛᏗ	-11.3507
▁ᏧᎾᏄᎪᏫᏎᎴᎢ	-11.3507
▁ᏕᏣᏓᏘᎾᎥᎢ	-11.3507
▁ᏚᎾᏄᎪᏫᏎᎢ	-11.3508
▁ᎤᏛᎦᏍᏔᏁᎢ	-11.3508
▁ᏗᎦᎵᏦᏛᎢ	-11.3508
▁ᏔᏔ	-11.3509
▁ᏂᎨᏐᎢ	-11.3509
▁ᎠᏍᎦᎢᎮᏰᏃ	-11.3509
▁ᎤᎵᏏᎾᎯᏍᏗ	-11.351
▁ᏳᏫᎦ	-11.351
▁ᎠᏂᎦᏔᎮᏍᏗ	-11.351
▁ᎠᏍᏆᏂᎪᏛ	-11.351
▁ᎠᏥᏯᏅᎲ	-11.3511
ᏒᏓ	-11.3511
▁ᎣᏤᎲᎢ	-11.3511
▁ᎤᎾᏗᏔᏍᏗᏱ	-11.3511
▁ᏥᏚᏁᏤᎴ	-11.3511
▁ᏄᏁᎩᏴ	-11.3511
▁ᎤᏂᏲᎸᎩ	-11.3512
▁ᎾᏆᎵᏍᏓᏁᎸᎩ	-11.3512
▁ᏬᏥ	-11.3512
▁ᎢᎬᏴ	-11.3512
▁ᏧᏛᏒ	-11.3512
▁ᏥᏃᎪᎢ	-11.3512
ᏛᏂᏗᏍᏕᏍᏗ	-11.3513
▁ᏗᎦᏘᏍᏗ	-11.3513
▁ᎠᏥᏍᏛᏗᏍᏙᏗ	-11.3513
▁ᎦᎶᏂ	-11.3513
▁ᎤᎾᏄᎪᎢᏍᏗᏱ	-11.3514
▁ᏂᎤᏍᏗ	-11.3514
▁ᎮᏙᎭ	-11.3514
▁ᏓᏛᎯᏍᏗᏍᎪ	-11.3514
▁ᏧᏅᎪᏤ	-11.3515
ᏯᏛᏁᎮᏍᏗ	-11.3515
▁ᎢᎬᏩᏅᏁ	-11.3515
▁ᏕᏥᎳᏫᎩ	-11.3515
▁ᎠᎩᏰᎯ	-11.3515
ᎬᎭᎷᏰᎢ	-11.3516
▁ᎠᏂᎵᎾ	-11.3516
ᎧᎲᏍᏗᏱ	-11.3516
▁ᎤᏁᏉᎢᏍᏗᏱ	-11.3516
▁ᏚᎾᏔᏅᎩ	-11.3517
▁ᎠᏓᏅᏙᎩᎯ	-11.3517
▁ᏓᏥᎷᏥ	-11.3517
ᏂᎳᏕ	-11.3518
▁ᎤᏂᎶᏐᏅ	-11.3518
▁ᎤᏁᏙᎴᎢ	-11.3519
▁ᏙᏣᏓ	-11.352
▁ᏗᎻᎾ	-11.352
▁ᎦᏆᏛ	-11.352
▁ᏧᏍᎩᏃ	-11.352
▁ᎪᎹᎵᏱ	-11.3521
▁ᎨᏥᏍᏕᎸᏗᏱ	-11.3521
ᏙᏔᏅᎩ	-11.3522
▁ᎠᏂᎦᏔᎯᏳ	-11.3523
▁ᏳᏛᎦ	-11.3523
▁ᏗᏁᎶᏗ	-11.3524
▁ᏯᎩᏰᎸᎭ	-11.3524
▁ᏮᏓᏥ	-11.3524
ᏅᏍᏔᏅᎯ	-11.3524
▁ᎤᎾᏁᎶᏔᏅ	-11.3524
ᏴᏈᏛᏅ	-11.3525
▁ᎠᏓᏁᎳ	-11.3525
▁ᏂᏚᏛᏁᎸ	-11.3525
ᎷᏨᎾ	-11.3525
▁ᏚᏙᎠ	-11.3526
▁ᎤᎾᏣ	-11.3527
▁ᎣᎦᏛᎦᏅᎯ	-11.3527
▁ᎣᎦᏣᏅᎩ	-11.3527
▁ᏄᏪᎡᎢ	-11.3528
▁ᎠᎩᎸᏙᏗ	-11.3528
▁ᎬᎨᏳ	-11.3529
▁ᎤᎾᎴᏅ	-11.3529
▁ᎤᏪᏓᏍᏗᏱ	-11.3529
▁ᎡᏣᏙ	-11.3529
ᏗᏩᏛᎯ	-11.3529
▁ᎤᏁᎸᏙᏗ	-11.353
▁ᎣᏥᏬᏂᏍᎬ	-11.353
▁ᎤᎾᎵᎪᎲ	-11.353
ᎵᏔᏗ	-11.3531
▁ᏚᏂᏲᎱᏒᎩ	-11.3531
▁ᎤᎾᏛᎦ	-11.3531
▁ᏚᏲᏍᏔᏅ	-11.3531
ᏥᏐᏅᏅ	-11.3532
▁ᎾᏆᏛᏅᎢ	-11.3532
▁ᎤᏔᎳᏬᏍᎬᎢ	-11.3532
▁ᎤᏍᎩᏓᏎᎢ	-11.3533
▁ᏚᏪᏲᏁᎢ	-11.3533
▁ᎤᏛᏛᏅᎩ	-11.3533
▁ᎣᎦᏤᎵᎦ	-11.3533
▁ᎤᏪᏁ	-11.3533
ᏛᏛᎲᏍᎨᏍᏗ	-11.3533
▁ᎤᎾᏛᏓᏍᏛ	-11.3534
▁ᎠᏫᎾᎨᏍᏗ	-11.3534
▁ᎤᏁᎳᏛᎢ	-11.3534
▁ᎤᏞ	-11.3534
ᏥᏂᎨᏂ	-11.3535
ᎪᎥ	-11.3535
▁ᎮᏙᎲᎢ	-11.3535
▁ᎤᎧᎵᎢᏍᏗᏱ	-11.3535
▁ᏕᏥᎧᏅ	-11.3535
▁ᏥᏧᏏ	-11.3536
▁ᎤᏂᏰᎸᏗ	-11.3536
▁ᏧᏂᏍᏓ	-11.3536
ᎨᎮᎩ	-11.3536
▁ᎩᏥ	-11.3536
▁ᏥᏤᎾ	-11.3536
▁ᏭᎶᏒᏍᏛ	-11.3537
ᎳᏫ	-11.3538
▁ᎡᏓᏍᏗᏱ	-11.3538
▁ᏕᏓᏓᎪᎲᏳ	-11.3538
▁ᎢᏥᏍᏆᏂᎪᏙᏗᏱ	-11.354
▁ᎢᏓᎵᎮᎵᎩ	-11.354
▁ᎤᏓᏙᎵᏍᏔᏅᎩ	-11.354
▁ᎢᎳᎻ	-11.3541
▁ᏤᏙᎭ	-11.3541
▁ᎤᏃᎮᎸᎯ	-11.3541
ᏓᏁᎸᎭ	-11.3542
▁ᏧᏄᏬᏍᏗ	-11.3542
▁ᎦᏐ	-11.3542
▁ᎤᎵᏓᏍᏔᏅ	-11.3543
▁ᏗᏤᏅᏒ	-11.3543
▁ᎤᏢᎬᎩ	-11.3543
▁ᎤᏩᎫ	-11.3544
▁ᏱᎦᏔᎭ	-11.3544
▁ᎠᏁᎨ	-11.3544
ᎷᏤᎴᎢ	-11.3545
▁ᏗᏣᎵᎢ	-11.3545
▁ᏣᏠᎾᏍᏗ	-11.3545
▁ᏚᏭᎪᏔᏁᎢ	-11.3546
▁ᎦᎵᎡᎵ	-11.3546
ᎯᏐᏗ	-11.3547
▁ᎪᎵᎩ	-11.3548
ᏲᏁᎦ	-11.3548
▁ᎩᎦᎨᏍᏛᏱ	-11.3548
▁ᏓᏘᏁᎲ	-11.3548
▁ᎤᏂᏍᏆᏂᎪᏙᏗᏱ	-11.3549
▁ᎯᎲᎦ	-11.3549
ᎩᎦᏘᏛ	-11.355
▁ᏅᏓᏍᎩ	-11.3551
▁ᏚᏪᏟᏌᏅ	-11.3551
ᎦᎿᏩ	-11.3551
▁ᎤᏂᏄᎪᏤᏃ	-11.3551
▁ᏗᏂᏁᎯ	-11.3552
▁ᎠᎩᏲᏏᏍᎬ	-11.3553
▁ᎠᏲᏍᏙᏗ	-11.3553
ᏬᎥᎯ	-11.3554
ᏃᎯᏎᏗ	-11.3555
ᎿᎷᏒ	-11.3556
▁ᏕᏦᏕᏍᏗ	-11.3556
▁ᎠᎩᎾᏫᏱ	-11.3556
▁ᎣᎦᏗᏔᏍᏗ	-11.3557
▁ᏧᏌᎨ	-11.3557
▁ᏳᏁᎭ	-11.3557
▁ᎠᏯᏫᏍ	-11.3557
▁ᏧᎶᏎᎢ	-11.3558
▁ᏓᏰᏙᎳᏛᎢ	-11.3558
▁ᎤᏍᏓᏩᏛᏎᎢ	-11.3558
▁ᎠᏥᏍᏕᎸᏗᏱ	-11.3559
▁ᏣᏁᏨᎢ	-11.3559
ᎦᏔᎲᏍᎬ	-11.356
▁ᎤᎵᏖᎸᏁᎢ	-11.356
▁ᎤᏰᎸᏒᎩ	-11.356
ᏲᏓᎬ	-11.3561
▁ᎢᎨᎦ	-11.3561
ᏅᏬᏒ	-11.3561
▁ᏥᏕᏥ	-11.3561
▁ᎢᏨᏁᏗᏱ	-11.3561
▁ᎪᏢᏗᏱ	-11.3561
▁ᏧᏓᎴᏅᎢ	-11.3562
▁ᏳᏛᎾ	-11.3563
ᏁᏔᏁ	-11.3563
▁ᏕᎨᏥᏲ	-11.3564
▁ᎠᏔᎴ	-11.3564
▁ᎡᏓᏓᏙᎵᏍᏓᏁ	-11.3564
▁ᎤᎾᏛᏓᏍ	-11.3565
▁ᏃᎦᏍ	-11.3566
▁ᎢᏳᏅᏂ	-11.3567
▁ᎬᏩᏍᏛᏗᏍ	-11.357
ᎶᎦ	-11.357
ᎧᏁᏗ	-11.3571
▁ᏱᏕᎬ	-11.3572
▁ᏧᏪᎳ	-11.3573
▁ᎤᏍᎦᎴᎢ	-11.3574
▁ᎢᏥᏰᎸᎭ	-11.3575
▁ᎤᏲᏍᏔᏅᎯ	-11.3575
▁ᎤᏬᏢᏗᏱ	-11.3576
▁ᎦᎶᏛ	-11.3576
ᎦᏔᎿᎢ	-11.3576
▁ᎤᎾᏓᏅᏖᎸᎩ	-11.3577
ᎵᏍᎪᎸᏓᏁᎰ	-11.3577
ᏣᏓᏅᏛᎾ	-11.3577
▁ᎠᏂᎦᏔᎭ	-11.3578
ᏛᏙᏗᏱ	-11.3579
▁ᏧᏓᎵ	-11.358
ᏱᎵᏙᎸ	-11.358
▁ᏇᎯ	-11.3581
▁ᎤᏩᏂᎸᎩ	-11.3581
ᎬᏂᏛ	-11.3581
ᎤᏙᎯᏳᎭ	-11.3581
▁ᏧᎧ	-11.3582
▁ᏑᏓᎨ	-11.3583
▁ᏚᏂᎲᎢ	-11.3583
▁ᏂᏓᏕᏘᏴᎯᏒᎢ	-11.3583
▁ᎤᏗᎴᎲᏍᎬ	-11.3585
▁ᏓᎩᎸᏫᏍᏓᏁᎰ	-11.3586
▁ᎤᎾᏍᎪᏎ	-11.3586
▁ᎤᏂᏴᎲᎩ	-11.3587
▁ᎢᏧᏍᏗ	-11.3588
▁ᎤᏢᎬᎢ	-11.3588
▁ᏗᏆᏄᏬ	-11.3588
▁ᏚᏬᏏᏌᏁ	-11.3589
ᎪᏢᏔᏅᎯ	-11.3589
▁ᎦᎵᏦᏅ	-11.3589
▁ᏦᏕ	-11.359
▁ᎦᎾᏄᎪᏫᏍᎪ	-11.359
▁ᎣᏏᏉᏍᎪ	-11.3591
▁ᎤᎾᎵᏥᏙᏅ	-11.3591
▁ᎤᎾᎳᏍᎦ	-11.3592
▁ᎤᏑᎶ	-11.3593
ᏎᎵᏔᏁ	-11.3593
▁ᎢᏯᏋᏁ	-11.3594
▁ᏴᎬᎾ	-11.3594
▁ᏥᎸᏉᏗ	-11.3594
▁ᏧᏍᎦ	-11.3595
ᏁᏤᎮᏍᏗ	-11.3595
▁ᎤᏂᏅᏅᎢ	-11.3596
▁ᎤᏂᏁᏨᎯ	-11.3597
▁ᏰᎮᏍᏗ	-11.36
▁ᎬᏩᏕ	-11.36
ᏜᏗᏍᏗ	-11.36
▁ᎧᎾᏍ	-11.3602
▁ᎱᏂᎷ	-11.3602
▁ᏫᏚᎷᏤᎴ	-11.3602
▁ᎦᎶᏍᎨ	-11.3603
▁ᎤᏛᏗᏱ	-11.3603
▁ᎠᎾᏓᏅ	-11.3604
▁ᎾᎾᏛᏁᎲᎾ	-11.3604
ᎵᎮᎵᏍᏙᏗ	-11.3604
▁ᎤᏬᎯᏨᏃ	-11.3605
▁ᏌᏉᎯᏳ	-11.3605
▁ᎠᏓᎶᏂᎨ	-11.3605
ᎤᏅᏗ	-11.3605
ᏌᎻ	-11.3606
▁ᎬᏩᏛᏛᏅᎩ	-11.3606
▁ᎢᏨᏰᎵᏎ	-11.3607
ᎯᏰᎢ	-11.3607
ᏑᎶᏗ	-11.3608
▁ᎤᎩᎸᏗ	-11.3609
▁ᎠᎩᏇᏓᎸᎢ	-11.3609
▁ᏗᎪᎦ	-11.3609
▁ᏕᎦᏍᎩᎸᎢ	-11.3609
▁ᎠᏇᎵᏍᏗ	-11.361
▁ᎤᏁᏙᎸᎢ	-11.361
▁ᏚᎷᎬᎢ	-11.3611
▁ᏑᎾᎴᎢᏳ	-11.3612
▁ᎠᏎᎪᎩᏍ	-11.3612
▁ᎢᏳᏲ	-11.3613
▁ᎢᏣᎵᎮᎵᎬᎢ	-11.3614
▁ᏚᏯᏍᏗ	-11.3614
▁ᎤᏕᎶᎰᎯᏍᏗ	-11.3615
▁ᎤᎶᏏ	-11.3616
▁ᏚᏇ	-11.3616
▁ᎤᏬᎯᏳᏒᎢ	-11.3617
▁ᏄᏂᏪᏎᎴᎢ	-11.3617
ree	-11.3617
ᏥᎳᏫᏎᎲ	-11.3618
ᏓᏫᏍᎦᎨ	-11.3619
▁ᏗᎦᏁᎸᎢ	-11.3619
ᏰᎸᏗᏱ	-11.362
▁ᎯᎩᏍᎪ	-11.3621
▁ᏕᎦᎸᎢ	-11.3621
▁ᎤᏯᏅᎮᎢ	-11.3622
▁ᎤᏚᏓᎳ	-11.3623
▁ᏣᎦᎴ	-11.3623
▁ᎤᏬᏂᏒᎩ	-11.3624
▁ᎠᎩᏍᎦᏅᏨᎢ	-11.3624
▁ᏥᏂᎩ	-11.3624
▁ᎤᏔᎷᎩᏍᎬ	-11.3626
▁ᎠᎵᏍᏇᏚ	-11.3626
▁ᎤᎩᎸᎩ	-11.3628
▁ᏯᎵ	-11.3628
▁ᎤᎵᏏᏅ	-11.3628
▁ᏥᏂᏣᏛᏁᎸ	-11.3628
ᏥᎸᏉᏔᏅᎯ	-11.3628
ᏛᏅᎢᏍᏗᏍᎨ	-11.3628
▁ᎧᏄ	-11.3629
ᏩᏛᎮᎢ	-11.3629
▁ᎠᎦᏑᏰ	-11.363
▁ᏆᎷ	-11.3631
ᏏᎳᏗ	-11.3635
▁ᎤᏦᏍᏔᏁ	-11.3635
▁ᎠᏆᎴᏂᏙᎸ	-11.3635
▁ᏄᎾᎵᏍᏔᏁᎢ	-11.3636
▁ᏓᎩᎸᏫᏍᏓᏁᎲᎢ	-11.3636
▁ᎠᏆᏛᎦᏅᎯ	-11.3636
ᏴᏅᎮ	-11.3636
▁ᎯᎦᏔᎲᎢ	-11.3637
ᎯᎰᎢ	-11.3639
▁ᎯᎩ	-11.3639
▁ᎾᏆᏛᏁᎸᎩ	-11.3639
▁ᎠᏁᎬ	-11.3639
▁ᎦᏯᎸᎢ	-11.364
▁ᎢᏣᎦᏔᏅᏎ	-11.364
ᏂᏁᏨ	-11.364
▁ᏧᏄᏬᎢ	-11.3642
▁ᏧᎦᎴᏅ	-11.3643
▁ᏗᎹ	-11.3644
ᏒᏙᏂ	-11.3644
▁ᏪᏙᎲ	-11.3646
ᏰᏨ	-11.3647
▁ᎠᏈ	-11.3647
ᎦᎨᏗᏳ	-11.365
▁ᏫᏗᎩ	-11.3651
ᎥᏍᎪᎢ	-11.3652
▁ᎥᏝᏍᏗ	-11.3652
▁ᎤᏍᏚᎢᏒᎩ	-11.3653
▁ᎤᎾᏚᎵᏍᎬᎩ	-11.3654
▁ᏤᎦ	-11.3654
ᏕᏍᎩ	-11.3654
ᏌᏁᎢ	-11.3654
ᏄᎪᏫᏒᎭ	-11.3654
▁ᏣᏓᏁᏗ	-11.3655
▁ᎤᏁᎳᎩᏉ	-11.3655
▁ᎤᎵᏍᏆᎵ	-11.3656
▁ᏥᏂᏥ	-11.3656
ᏂᏓᏅᏁᎰ	-11.3659
▁ᎤᏂᏃᎮᎸᎩ	-11.3659
▁ᎣᎳ	-11.366
ᏂᏬᏂ	-11.366
▁ᏚᎴᎯᏌᏅᎢ	-11.3661
▁ᏗᏥᎦᏴᎵᎨᎢ	-11.3661
▁ᎠᏂᎦᏴᎵᎨᎢ	-11.3661
▁ᏧᎦᏴᎵᎨᎢ	-11.3661
▁ᎤᏯᎠ	-11.3661
▁ᎤᏂᎷᏨᎯ	-11.3662
▁ᎠᎪᎵᏰᏍᎩ	-11.3662
▁ᎤᏰᎸᏎᎢ	-11.3664
▁ᎤᎵᏍᏆᏗᏍᏗᏱ	-11.3664
ᏫᏏ	-11.3664
▁ᏧᏂᏥ	-11.3665
▁ᎣᏁᎯ	-11.3665
ᏕᏯᏙᏗ	-11.3665
▁ᎢᏕᎲᎢ	-11.3666
▁ᏗᎯᏍᏗᏱ	-11.3671
ᏓᏢᎩ	-11.3674
▁ᎤᎵᏦᎯ	-11.3674
ᏪᏒᎩ	-11.3674
▁ᎤᏓᏰ	-11.3675
▁ᏈᎵᎩᏱ	-11.3677
▁ᏂᏓᏅ	-11.3679
ᏗᎣᏈ	-11.3681
▁ᎤᏬᎴᎢ	-11.3682
▁ᎤᏚᎢᏍᏔᏅᎢ	-11.3683
▁ᎤᎦᏔᎲᏒᎩ	-11.3683
▁ᏓᎾᏗᏔᏍᎨ	-11.3684
ᎵᏂᎪᎯᏍᏗᏍᎩ	-11.3685
▁ᏚᏂᏅᏨ	-11.3685
▁ᏗᏧᎬ	-11.3686
▁ᏕᏣᎴ	-11.3688
ᏓᏎᎪᎩᏍᏗᏱ	-11.3688
ᏍᏆᏂᎪᏛ	-11.3689
ᏢᏫᏍᏙᏗ	-11.3691
ᏍᏓᏁᎵ	-11.3691
ᎥᏍᎪ	-11.3691
▁ᎢᏯᏛᏁᏗᏱ	-11.3692
▁ᏣᏍᏓ	-11.3693
▁ᎦᏗᎭ	-11.3695
▁ᎤᏂᏁᎯ	-11.3697
▁ᎤᎵᏍᏓᏴᏗᏱ	-11.3698
ᏂᏍᏓᏩᏚᎦ	-11.3701
▁ᎨᎦᎵᏥᏙᏁ	-11.3702
ᏯᏂᏍᎬᎢ	-11.3702
ᎩᎳᎾᎳᏗᏍ	-11.3703
▁ᎠᏓᎴᏂᏍᎪ	-11.3704
▁ᎠᏂᏍᎦᎩ	-11.3705
▁ᎬᏩᏓ	-11.3706
▁ᎤᏪᎵᏒ	-11.3707
ᎵᏰᏗᎭ	-11.3709
▁ᏣᏅ	-11.3709
▁ᎢᏳᎾᎵᏍᏓᏁᏗᏱ	-11.371
▁ᏚᎸᏫᏍᏓᏁ	-11.3711
▁ᎠᏝ	-11.3713
ᏛᏓᏍᏓᏁᎵ	-11.3713
▁ᏕᎦᏚᏩᏗᏒᎢ	-11.3713
▁ᎤᏰᎸᏅᎢ	-11.3714
▁ᏓᎬᏩᎵ	-11.3715
ᏯᏛᏂᏏ	-11.3716
▁ᏭᏴ	-11.3717
▁ᎢᎶ	-11.3718
▁ᎤᏩᏓ	-11.3719
ᏑᏰᏎ	-11.3722
▁ᏗᎨᏛ	-11.3722
or	-11.3724
▁ᏧᏁᏗ	-11.3727
▁ᎡᎪᎢ	-11.3728
▁ᎠᎦᎸ	-11.3728
▁ᏕᎮ	-11.3729
▁ᏃᎴᏍᏉ	-11.3731
▁ᏧᏭᏓ	-11.3734
▁ᎠᏍᏆᏂᎪᏍᎨ	-11.3734
▁ᏥᏂᎦᏪᏍᎪ	-11.3735
ᏨᏒᎩ	-11.3735
ᏕᏗᏴ	-11.3737
ᏩᏯ	-11.3737
▁ᎪᏛᎢ	-11.3738
▁ᎤᎾᏓᏅᎦᎸ	-11.3738
▁ᏧᏂᏁ	-11.374
ᏟᏌ	-11.374
▁ᎠᏂᎦᎵ	-11.3744
▁ᏥᏚᎾ	-11.3744
ᏂᎨᏒᎾ	-11.3746
ᎬᏁᏗ	-11.3748
▁ᎤᏪᎾ	-11.3748
ᏤᏅ	-11.375
▁ᏥᏁᎸᎢ	-11.375
ᏅᎯᏒ	-11.375
ᎯᎠᎾ	-11.3755
ᎤᎬᏫᏳ	-11.3756
ᏥᏉᎳ	-11.376
▁ᏕᎬᏕ	-11.3761
▁ᎨᏣᎵᎮᎵ	-11.3762
▁ᎥᎩᏂᏐᏗ	-11.3766
▁ᏚᏂᏯᏪ	-11.3766
▁ᎠᏟᏍᏕ	-11.3767
▁ᏗᏎᏍᏗ	-11.3768
▁ᎠᏲᏟᎨ	-11.3769
▁ᎤᏣᏗ	-11.377
▁ᎤᏭᏢᏅ	-11.3771
▁ᎤᏂᏍᏆᏂᎪᏎᏃ	-11.3772
▁ᏗᎦᎴᏴ	-11.3774
▁ᎢᏳᏂᏨ	-11.3774
ᏐᎾ	-11.3775
▁ᎠᏍᎦᏅᏨᎢ	-11.378
ᎾᎾᏛᏁᎭ	-11.3783
▁ᏳᏰᎸᏁ	-11.3785
▁ᏭᏏᎳᏛᏁ	-11.3786
▁ᏗᏄᏬᏍᏗ	-11.3789
ᏁᏉᎢᏍᏗᏱ	-11.3791
ᎨᏫᏍᏗ	-11.3796
ᏙᏙᏱ	-11.3797
ᎧᏁᎸᎾ	-11.3799
▁ᎦᏥᏯᎵᏥᏙᏁ	-11.3799
ᏲᎯᏎᏗ	-11.3803
ᏚᏚ	-11.3803
ᎴᎲ	-11.3804
▁ᏱᏁ	-11.3805
▁ᎠᏯᎥᎢ	-11.3807
ᎩᎷᏫ	-11.3807
▁ᏳᎾᎵᎪ	-11.3807
ᏍᏆᎶ	-11.381
▁ᏅᏩᏍᏗ	-11.3811
▁ᎠᏔᎸ	-11.3811
ᎵᏂᏆᏅᏁ	-11.3812
▁ᏆᎩ	-11.3814
▁ᎤᎵᏍᏙᏗ	-11.3815
ᏂᏴᎮ	-11.3816
▁ᎠᎩᎷᏤᎸ	-11.3816
▁ᏣᏯ	-11.3818
▁ᏧᎾᏄᏬᎢ	-11.3818
▁ᏣᏓᏡᏗᏍᎪ	-11.3821
▁ᏧᏂᏗᏱ	-11.3824
▁ᎧᏃᎲᏍ	-11.3826
▁ᏚᏄᏮ	-11.3827
▁ᏭᏩᏌᏙ	-11.3831
ᏁᏛ	-11.3833
▁ᎠᏂᏛ	-11.3837
ᏓᎢᏅᏎᎢ	-11.3842
ᏕᎭᏲ	-11.3842
▁ᎠᏌᏅ	-11.3844
ᏂᎢᏛ	-11.3845
▁ᎢᏨᏯᏅᏓᏗᏍ	-11.3848
▁ᏏᏉ	-11.3848
ᏲᏍᏙᏓᏁᏗ	-11.3848
▁ᎤᏇᏓᎸᎢ	-11.385
ᏍᎪᎯᏧᏈ	-11.3851
ᏓᏂᏐᏗᏱ	-11.3854
ᎪᏯᏛ	-11.3856
▁ᏴᎾ	-11.3858
ᎦᏉ	-11.3858
▁ᏓᏰᎵ	-11.3859
▁ᎦᏙᎩ	-11.386
▁ᎤᏍᏘ	-11.386
ᏩᏗᏙᎯ	-11.386
▁ᎦᎾᎸ	-11.3861
▁ᎨᏙ	-11.3862
ᏓᏂᏙᎦ	-11.3862
ᏓᏛᏁᎸ	-11.3863
ᏨᏯ	-11.3863
ᏁᎦᎸ	-11.3863
▁ᏂᏥᏍᎦᏅ	-11.3864
▁ᏓᏄ	-11.3864
ᏠᎠᏒ	-11.3866
▁ᎠᎩᎪᎵᏰ	-11.3869
ᏲᎤᎵ	-11.387
ᏚᏅᏏᏴ	-11.3871
▁ᎤᎾᎥ	-11.3871
▁ᏍᎩᎵ	-11.3871
▁ᎣᏤᎵ	-11.3872
ᎯᏛ	-11.3873
ᏲᏎᎮᏍᏗ	-11.3877
▁ᏧᏩᏔᏁ	-11.3879
▁ᏓᏳᏓᎴᏅᎩ	-11.3884
▁ᏕᎦᏛᎢ	-11.389
ᏥᏛᎯ	-11.3891
▁ᏰᎮ	-11.3892
ᏥᏍᏛᏗᏍᏙᏗ	-11.3892
ᎶᏔᏅ	-11.3894
▁ᏧᏂᎦᏐᎠ	-11.3894
▁ᏂᏕᎦᏪᏎ	-11.3895
▁ᎤᎵᏁᏨᎢ	-11.3897
▁ᎣᏣᎵᏥᏙᎲᏍ	-11.3897
ᎾᎡ	-11.3901
ᏥᎸᏉᏔᏅ	-11.3901
ᎾᏄᎪᏫᏎᎸᎯ	-11.3903
ᏛᎦᏁᎴ	-11.3905
ᏓᏯ	-11.3906
ᏩᏍᎦ	-11.3907
▁ᎦᎸᎢ	-11.3907
▁ᎣᏣᎵᏍᎦᏍᏙ	-11.3908
▁ᏓᏃᏢ	-11.3909
▁ᎠᏄᏬᏍᏗ	-11.3911
ᏁᏉᏤᏗᏱ	-11.3914
ᎷᏏ	-11.3914
ᏂᏅᏏᏓᏍᏗ	-11.3916
▁ᎠᏍᎦᏂᏍᎩᏂ	-11.3916
ᎦᏙᎥᏒᎯ	-11.3925
ᏌᏙᏴ	-11.3925
ᏂᏆᏘᎮᏍᏗ	-11.3926
ᎸᏉᏙᎢ	-11.3926
▁ᎤᏪᏍᏓᏁ	-11.3928
▁ᏭᏯᏅᎮᎢ	-11.3928
ᏆᎧᎿᏅᎩ	-11.3933
ᏍᏚᎩᏎ	-11.3936
ᏅᏔᏅᎢ	-11.3938
▁ᏍᏊ	-11.3947
ᎵᏙ	-11.3947
▁ᏉᏏ	-11.3947
▁ᎤᏅᏏᏴᎢ	-11.395
▁ᎤᎨᏓᎵᏴᎢ	-11.395
▁ᎧᎳᏩᏗᏒᎢ	-11.395
▁ᎢᏏ	-11.3952
▁ᏬᎩᏂ	-11.3953
ᎶᏌ	-11.3957
ᎪᎵᎬᎾ	-11.3958
▁ᏚᏂᎨ	-11.396
▁ᏱᎦᎨᏎ	-11.3963
▁ᎢᏗᏓᏛᏁ	-11.3963
▁ᏚᎾᏓᎸ	-11.3964
▁ᎤᏓᏣ	-11.3964
ᏍᏗᏰᎬ	-11.397
ᎵᎪᎯ	-11.397
▁ᏅᏓᎩ	-11.3972
ᏓᏅᏬᏗ	-11.3974
▁ᎤᏎᎵ	-11.3975
▁ᎢᏴᏓ	-11.3977
ᏖᏃᎯ	-11.3977
ᏇᎵᏎ	-11.3978
ᎪᏩᏗᎭ	-11.3978
▁ᎤᏛᏛ	-11.3981
▁ᎤᏲᎴᏃ	-11.3981
▁ᎨᎦᏎᎸ	-11.3981
ᎷᏥᎸ	-11.3988
ᏓᏁᎲᎩ	-11.3994
▁ᏓᏍᏆᏂᎪᏗ	-11.3997
ᏂᎾᏫ	-11.3999
ᏢᏔ	-11.4002
ᏃᎮᏍᎨᏍᏗ	-11.4003
▁ᎬᏗᏍᎬᎩ	-11.4008
▁ᎭᏫ	-11.4009
ᎪᏩᏔ	-11.4013
▁ᎢᏥᏔᏲᎯ	-11.4014
▁ᎤᎯᏍᏗ	-11.4018
▁ᎠᏂᏃᎮᏍᎬᎢ	-11.402
ᏍᎩᏯᏅᎡᎸ	-11.4023
▁ᏧᎾᎦ	-11.4025
ᎴᏫᏍᏔᎾ	-11.4027
▁ᏫᎬᏩᏴ	-11.403
▁ᏓᏓᎿᏩᏍᏛᎢ	-11.403
ᎾᏚᎦ	-11.403
▁ᎢᎦᎦᏛᎢ	-11.4031
▁ᎢᏥᎪᎵᏰ	-11.4035
ᎪᎲᏍᏔᏁ	-11.4037
ᎬᏍᎪᎸ	-11.404
ᎯᏰᏃ	-11.404
ᎩᏚᎢᏍᏓᏁᎸ	-11.4043
▁ᎤᏁᎴᎢ	-11.4046
▁ᏓᏍᏆᎵᏍ	-11.4048
ᎧᏁᏍᏗ	-11.405
▁ᏩᏴᏍᏗ	-11.4051
ᏍᏚᎲᏍᎪᎢ	-11.4059
▁ᎤᏛᎯᏍᏗ	-11.4059
ᏃᏎᎭ	-11.4062
▁ᎤᏬᏒ	-11.4063
ᏚᎵᏍᎬᎢ	-11.4064
▁ᏚᏪᎧᎮ	-11.4064
ᎶᏄᎮᏍᎩ	-11.4068
ᏗᏍᎬᎩ	-11.4069
ᏲᎯᏎᎴ	-11.4072
▁ᎢᏣᏓᏄᏴ	-11.4074
ᎦᏙᎥᎯᏍᏗ	-11.4083
ᏍᏗᏂ	-11.4084
ᏗᏉ	-11.4085
▁ᏕᎦᎸ	-11.4089
▁ᎣᏓ	-11.4098
ᏄᏛᏗ	-11.4099
▁ᏧᏐ	-11.4101
ᎨᏴ	-11.4102
ᏪᏛ	-11.4104
ᏓᎬᏩᏍᏓᏩᏛᏛ	-11.4114
ᎾᎷᏒ	-11.4114
▁ᎠᎦᏔᎲᎩ	-11.4129
ᎵᎢᏍᏗ	-11.4131
ᏛᏂᏗᏍᏗ	-11.414
▁ᎤᎾᏨᏎ	-11.4143
▁ᎠᏍᏆᏗ	-11.4146
ᏓᏌᎳᏗᏍᎨᏍᏗ	-11.4146
ᏓᏤᎵᏛ	-11.4149
▁ᏫᎵ	-11.415
ᏍᏆᏂᎪᏗᏍᎩ	-11.4153
ᏪᏎᎮᏍᏗ	-11.4154
ᏯᎩᏍᏗ	-11.4155
▁ᎬᏩᏃᎵᏍ	-11.4157
▁ᎣᎬᏙᏗ	-11.4159
▁ᎤᏂᏰᎸ	-11.4162
ᎦᏔᎯᏳ	-11.4164
ᎦᏘᏅ	-11.4164
ᏰᎵᎯᏍᏗ	-11.4168
▁ᏭᏅ	-11.4168
ᏉᏂ	-11.4168
▁ᎤᏙᎴᎰᏒᎩ	-11.417
ᎬᏁᎲ	-11.4172
▁ᎠᏂᎷ	-11.4176
▁ᏗᏯᏖ	-11.418
ᎷᏤᎸᎭ	-11.4181
▁ᎤᏤᎵᎦᏯ	-11.4185
ᏍᎦᏅᏨᎯ	-11.4186
ᏓᏅᏖᏍᏗ	-11.419
▁ᏕᏥᎾ	-11.4191
▁ᏕᎨᎦᏬᏍ	-11.4191
▁ᎦᎵᏍᏓ	-11.4192
ᏘᏅ	-11.42
ᎦᎸᎢᏛ	-11.4201
ᏤᎸᎩ	-11.4208
ᏗᏍᏗᏱ	-11.421
▁ᎤᏣᏙ	-11.4211
▁ᎤᏩᏯ	-11.4216
ᎦᏚᎩᏱ	-11.4217
▁ᎠᏗᏍᎩ	-11.4221
▁ᎤᏓᏣᎦᎸ	-11.4224
▁ᎤᏂᎪᎲᎢ	-11.4228
▁ᏚᏒ	-11.4229
▁ᏣᏍᎦᏅᎪ	-11.423
▁ᎤᏤᎵᎪ	-11.423
▁ᎠᏂᎦᏔᎲᎩ	-11.4231
▁ᎤᏂᎦ	-11.4232
▁ᏍᏆᏂ	-11.4234
▁ᏚᎧᎵ	-11.4239
ᎥᏍᎬᎢ	-11.424
▁ᏭᏚ	-11.4242
ᏩᏂᎦᎸ	-11.4249
ᏏᎳᏛᏗ	-11.4251
ᏲᎮᎸ	-11.4252
ᏄᎪᎨᏍᏗ	-11.4254
ᏴᏁᏗᏱ	-11.4254
ᏝᎡ	-11.4254
▁ᏴᎦᎬ	-11.4257
ᏍᏛᏅᎯ	-11.4259
ᎦᏔᏙᎥ	-11.4266
▁ᎠᎡ	-11.4269
▁ᎡᎬ	-11.427
▁ᏱᏥᏍᏆᏂᎪ	-11.4272
▁ᏴᏗ	-11.4272
▁ᎠᏅᏗᏍᎪ	-11.428
ᏫᏒᏗ	-11.4284
ᏳᎶᏗ	-11.4284
▁ᏥᏨᏲᏎ	-11.4285
ᏛᏁᎯ	-11.4285
▁ᎤᏂᏲᎮ	-11.4289
ri	-11.4291
▁ᏧᏩᏒ	-11.4293
▁ᏗᎧᎾ	-11.4299
ᏈᏴᎡ	-11.4307
▁ᏱᏥᏩᏛ	-11.4308
▁ᎠᎾᏓᏅᏖ	-11.4313
ᎶᏘ	-11.4313
ᏚᏓᎳᎡ	-11.4326
▁ᎠᏊ	-11.4331
ᎵᏲᎩ	-11.4342
ᏅᏅᎢ	-11.4346
ᎾᎥᎢ	-11.4346
▁ᎬᏆᏓᏅ	-11.4348
▁ᏚᎴᏁᏃ	-11.435
ᎮᏗ	-11.435
ᏥᎷᎩ	-11.4355
▁ᏕᎦᏅᎦᎵ	-11.4357
▁ᏘᎩ	-11.4358
ᎵᏏᎾᎯᏍᏗ	-11.4359
▁ᏧᎾᎵ	-11.4363
ᏄᎪᏫᏍᏗᏱ	-11.4374
▁ᎤᏍᏆᏂᎪ	-11.4375
ᏁᏟᏴᏒ	-11.4377
ᏛᏅᎢᏍᏔᏅᎯ	-11.438
▁ᏴᏫᏯ	-11.4383
▁ᎢᎩᎧ	-11.4386
ᎮᎸ	-11.4386
▁ᎡᎳᏪᏱᏉ	-11.4389
▁ᎢᏳᏓ	-11.4389
▁ᏕᏣᎵ	-11.4397
▁ᎠᏑᏰ	-11.4399
ᏄᏍᏛ	-11.4399
▁ᎠᏓᏅᏍᎨ	-11.4406
▁ᎣᎩᎭ	-11.4409
ᏍᏉᏟ	-11.4409
ᏣᏅᏔ	-11.4411
▁ᎢᏤᏙᎯ	-11.4411
ᏗᏍᏙᏗ	-11.4412
▁ᎡᏍᎩ	-11.4413
▁ᎦᏂᏴᏗ	-11.4413
ᎵᏍᏚᎶ	-11.4416
▁ᎦᏥᏲ	-11.4421
ᏂᏯᏪᏨ	-11.4428
ᏃᎮᏗᏱ	-11.4435
ᏨᏍᏛ	-11.4439
▁ᎠᏎᏛ	-11.4442
▁ᎥᎬᏩ	-11.4445
▁ᎤᏨ	-11.4449
▁ᏱᏂᎦ	-11.4451
▁ᎬᏪ	-11.446
ᏍᏗᏰᏔᏅᎩ	-11.447
▁ᏄᎾᏍᏛᎢ	-11.4472
ᏂᎷᏥ	-11.4474
▁ᏓᎧᎿᏩᏗ	-11.4477
▁ᎦᎶᎯᏍᏗᎢ	-11.4479
ᎦᏔᎰᎢ	-11.4479
▁ᎢᏦᎯᏳᎲᏍ	-11.448
ᎤᏙ	-11.4486
ᏩᏂᎳ	-11.4488
ᏣᎵᎮᎵᎦ	-11.4493
▁ᎤᏩᎧ	-11.45
▁ᎠᏛᏁᎵᏍ	-11.4502
▁ᎤᏚᎵᏍᎬᎢ	-11.4503
ᏥᏯᏂᏍᎨᏍᏗ	-11.4508
ᏟᏍᏙᏗ	-11.4509
ᎨᏳᏒ	-11.4511
ᎪᎸ	-11.4514
ᏣᏛᏅᎢᏍᏓᏁ	-11.4517
▁ᏂᏚᎵᏍᏔ	-11.4519
ᎵᏙᎲ	-11.4519
▁ᎤᎵᏦᏔᏅ	-11.452
ᏢᎬ	-11.452
▁ᏥᎦᏃ	-11.4534
ᎫᎢᏍ	-11.4541
ᎾᏗᏅᏓ	-11.4543
ᎾᏡᏗᏍᎬ	-11.4545
▁ᎤᎾᏑ	-11.4548
▁ᎢᏨᏰ	-11.4549
▁ᎠᏯᏦ	-11.4551
▁ᎤᏲᏏᏍᎨ	-11.4553
ᎳᏗᏍᏛ	-11.4553
▁ᏓᏆᎴ	-11.4553
ᏲᎮᎸᎩ	-11.4554
ᏏᎾᏏ	-11.4554
▁ᎠᎩᏍᏆᏂᎪ	-11.4555
ᎸᏏ	-11.4557
ᏩᏛᎯᏙ	-11.4565
▁ᎢᏣᏠᏯᏍᏙᏗ	-11.4566
▁ᏴᏛ	-11.4572
▁ᎢᏝ	-11.4574
▁ᎤᏴᎸ	-11.4577
▁ᎤᏍᏓ	-11.4578
ᎦᎴᏔᏂ	-11.4591
▁ᎤᎾᏄᎪᏨ	-11.4595
ᎯᎮ	-11.4597
ᏃᎮᏍᎬ	-11.4598
▁ᎠᎨᏳ	-11.4599
▁ᏂᎬᎩ	-11.4601
ᎴᏫᏍᏔᏅ	-11.4602
ᎬᏩᏂᎪᏩᏛ	-11.4604
ᎶᏍᎬ	-11.4608
▁ᎤᏂᏐ	-11.4608
▁ᏗᎧᎿᏩ	-11.4609
ᏄᎵ	-11.4609
▁ᎠᏓᎾᏏᏂ	-11.4611
▁ᏗᎦᏍᎩᎶ	-11.4613
ᏚᎸᏌᏛ	-11.4613
▁ᎬᏩᏍᏓ	-11.4627
ᎵᎪᏁᎸᎯ	-11.4627
▁ᎤᎸᏕ	-11.4629
▁ᎠᎪᎵᏰᏍᎬ	-11.463
ᏰᎮᏍᏗ	-11.4632
▁ᏓᎴᎲᏍᎬ	-11.4632
▁ᏂᎬᏪᏎ	-11.4634
ᏲᎱᏍᎦ	-11.4637
ᎩᏳ	-11.4637
▁ᏗᏂᏁ	-11.4638
ᏍᎦᏍᏓᏁᏗᏱ	-11.4638
ᎾᎫᏴᏗ	-11.4643
▁ᎤᏰᎶᎢᏍᏔ	-11.4646
ᏍᎩᏃ	-11.4654
▁ᏯᏂᎦᏔ	-11.4657
ᏂᎦᎥ	-11.4662
ᏗᎤᏨᏎ	-11.4672
▁ᏕᏧᎪ	-11.4673
▁--	-11.4677
ᎪᎲᏍᎬ	-11.4678
ᏉᎯᏳᎭ	-11.4679
ᏓᏑᏲ	-11.4682
▁ᏱᏤ	-11.4693
ᏫᏎᎸᎯ	-11.4695
ᏎᎪᎩᏒ	-11.4699
ᏩᎯᏍᏔᏅᎯ	-11.4701
ᏃᏴᎵᏍᏗ	-11.4702
▁ᏱᏭᏂ	-11.471
▁ᏭᏗᏅ	-11.4717
▁ᏓᏂᏁᎲ	-11.4719
ᎷᏅ	-11.4723
ᏥᏪᏏ	-11.4724
ᏏᎳᏛ	-11.4735
▁ᏚᎾᏠᎯᏍ	-11.4739
ᏙᏔᏁᎢ	-11.474
ᏲᏎᎢ	-11.4746
▁ᏱᏨᏯ	-11.4756
▁ᎤᎾᏚᎸ	-11.4758
ᏂᎥ	-11.4758
ᎡᎾ	-11.4761
▁ᎮᏙ	-11.4762
▁ᎠᎩᎾᎥ	-11.4768
▁ᏁᎵ	-11.4774
ᏥᏌᎳᏙᏗ	-11.4777
▁ᎤᎾᎴᏅᏗ	-11.4781
ᏟᎶᏍᏗ	-11.4782
ᎾᏰᏍᎦ	-11.4784
ᏥᏴᏔᏂ	-11.4793
ᎦᎷᎦ	-11.4795
ᏓᏁᎸᎩ	-11.4796
ᏪᏎᎵ	-11.4797
▁ᎤᏢᎨ	-11.4798
▁ᎥᏍᎩᏃ	-11.48
ᎨᏓᎵ	-11.4806
▁ᏂᏚᏪ	-11.4808
▁ᏱᏩ	-11.4811
ᎵᏥᏙᏁᎸ	-11.4816
ᎦᏌᏯᏍᏗᏍ	-11.4819
ᏃᎮᏍᎩ	-11.4821
▁ᎨᏥᏁᎸ	-11.4822
▁ᎤᏂᏍᏆᏛ	-11.4825
▁ᎤᏢᏁ	-11.4841
▁ᏚᏫ	-11.4843
ᏞᏒ	-11.4845
▁ᎬᏟ	-11.485
▁ᏣᏢ	-11.486
▁ᎠᏓᏲᏁ	-11.4861
▁ᎤᏂᏁᏤ	-11.4887
ᏣᎦᏎᏍᏕᏍᏗ	-11.4889
ᏥᏁᎰᎢ	-11.4894
ᏣᏲᎭ	-11.4902
▁ᏦᎯᏍ	-11.4912
▁ᏧᏪᏲ	-11.4922
▁ᏧᏪᎧᏁ	-11.4923
ᏫᏍᏗ	-11.4931
ᏅᏙᏗ	-11.4931
▁ᏫᏘ	-11.4932
ᎵᏍᏗᏍᎬ	-11.4937
▁ᏫᎦᎾᏄᎪ	-11.4946
▁ᎠᏍᏗᎩ	-11.4954
▁ᏘᏲ	-11.4957
▁ᎠᎾᏗ	-11.4958
ᏄᎶᏔᏅ	-11.4965
ᏂᎩᏍᏔᏁ	-11.4965
ᏙᎭᏴ	-11.4969
ᎦᎶᎯᏍᏗᏱ	-11.498
▁ᏗᏣᏓᎨᏳ	-11.4984
ᎵᏍᏔᏅᎯ	-11.4985
▁ᏚᏙᏪ	-11.4987
ᏍᎩᎲᏏ	-11.499
ᏑᎶ	-11.4991
ᏘᎭ	-11.4993
▁ᎠᏓᎴ	-11.4995
ᏥᏲᎢᏎ	-11.4996
ᎯᎵᏓᏍᏗ	-11.5
ᎧᏃᏗ	-11.501
ᏴᏙᏗ	-11.5011
▁ᎯᎬ	-11.5013
ᏂᏍᎦᎩ	-11.5014
ᏄᎪᏤ	-11.5016
▁ᎠᏓᏰ	-11.5021
ᎶᏙᏗ	-11.5026
ᏔᏲᎯᎰ	-11.5039
▁ᏗᏂᎳ	-11.504
ᏂᏓᎿᏫ	-11.504
▁ᏱᎦᏰ	-11.5044
▁ᎦᏙᏉ	-11.5046
▁ᎠᏂᏩᏛ	-11.5047
▁ᏧᏓᏅᎦᎸ	-11.5057
ᏓᏥᎶ	-11.5064
ᏲᎲᏍᎬ	-11.5065
▁ᎤᎾᏂᏢ	-11.5072
ᏯᎡ	-11.5082
ᎮᏙᎸ	-11.5087
ᎸᏅᎩ	-11.5094
▁ᎤᏛᏓᏍ	-11.5097
ᏙᎯᏉ	-11.5099
ᏲᎰᏎᏗ	-11.5101
▁ᎢᏥᏁᎸ	-11.5102
▁ᏂᏚᎾ	-11.5106
▁ᏛᎯ	-11.5113
ᏘᎷᎦ	-11.5113
▁ᏯᎭ	-11.5117
ᏘᏂᏒ	-11.5118
▁ᎢᎦᏛᏉ	-11.5119
ᏩᎾᎦᎳᎯᏳ	-11.512
▁ᎠᏌᎹᏗ	-11.5121
ᏂᏆᏘᎭ	-11.5121
ᏃᎿ	-11.5126
▁ᏂᏚᏂ	-11.5134
ᎬᏗᎭ	-11.514
ᏁᎲᎾ	-11.5148
▁ᎭᎢ	-11.5149
ᏓᏅᏙ	-11.5151
▁ᏕᎬᎩ	-11.5156
▁ᎠᎩᏍᎩ	-11.5165
▁ᎤᏂᎧᎵᏨ	-11.517
ᏳᎵᏍᏙᏗ	-11.5178
▁ᎨᏥᏅ	-11.5179
ᏰᎵᏏ	-11.518
▁ᎤᎾᏣᏅ	-11.5181
▁ᏰᏙᎮ	-11.5181
ᏚᎶ	-11.5182
ᏨᎦ	-11.5184
ᏁᏙᎮ	-11.5191
ᎻᎦ	-11.5192
ᏂᏪᏍᎨ	-11.5199
▁ᎢᎯᏯ	-11.5201
ᎶᏒᎯ	-11.5207
da	-11.5209
▁ᎠᎦᎵᏍ	-11.5217
ᎩᏐᏅ	-11.5223
▁ᏯᏉ	-11.5225
ᎦᏘᎴᎦ	-11.5229
ᎪᎯᏳ	-11.5231
▁ᏭᎷᏤᎸ	-11.5232
ᎦᏲᎵᏳ	-11.5233
ᏤᎳ	-11.5238
ᎤᎾᏣᏁ	-11.5255
ᎦᎷᎬ	-11.5257
ᏘᏍᎬ	-11.5263
ᎵᏍᎪᎸᏓᏁᎸ	-11.5264
ᎪᏗᏱ	-11.5264
ᏌᏬᎸ	-11.5272
ᏐᏢᎢᏍᏙᏗᏱ	-11.5273
▁ᏕᏧᎪᏗ	-11.5278
ᏗᎹ	-11.528
ᎶᎯᏎᎸ	-11.5289
ᏴᎳᏒ	-11.5294
ᏍᎪᎸᏨ	-11.5296
ᎳᏑᎶ	-11.5297
▁ᎤᎴᎾ	-11.5298
ᏲᎯᎮ	-11.5302
ᏩᏛᎲᎾ	-11.5302
▁ᎠᎱ	-11.5307
ᏓᏅᏘ	-11.5311
▁ᎤᎫᏴ	-11.532
ᏂᏙᎴ	-11.532
ᎪᏩᏘᏍᎪᎢ	-11.5326
ᏂᏓ	-11.5329
ᏥᏩᎯᏍᏔᏅᎯ	-11.5333
▁ᎤᏑᏰ	-11.5336
▁ᎦᏛᏅ	-11.5345
ᏨᏁᏍᏗ	-11.5352
ᎵᏙᎸᎢ	-11.5353
▁ᏭᏢ	-11.5354
ᎦᎵᏍᏙᏗᎭ	-11.5355
▁ᏥᎶ	-11.5358
▁ᏕᎦᏕ	-11.5359
ᏅᏗᏍᎬ	-11.5363
ᎵᏍᏓᏴᏙᏗᏱ	-11.5374
ᏪᎳᏅ	-11.5379
ᎵᏂ	-11.5381
ᏙᎥᎢ	-11.5389
ᏃᏴᎬ	-11.5389
▁ᎭᎿ	-11.54
ᏲᎮᎴᎢ	-11.5402
▁ᏕᏥᎧ	-11.5406
▁ᎡᏥᎾᏰ	-11.5416
ᏰᎸᏎ	-11.5416
▁ᎤᏍᏓᏩᏗᏒ	-11.5417
ᎨᎯᏒ	-11.5419
ᏙᏛ	-11.542
ᏗᎦᎴᏲ	-11.5427
ᏟᎭ	-11.5428
ᏂᏲᎱ	-11.5439
▁ᎦᎵᏗ	-11.5444
▁ᏫᏕ	-11.5448
ᎵᏖᎸᎲᏍᎦ	-11.5448
ᏏᏔᏕᎢ	-11.5465
▁ᏧᎾᏚᎪᏓᏁᏗ	-11.5465
ᎦᎴᏍᏗ	-11.5469
ᏓᏁᎲᎢ	-11.5476
▁ᎣᎩᏃᎮ	-11.5478
▁ᎠᏐᏢᎢᏍᏙᏗ	-11.5484
ᎩᎡᏗ	-11.5486
ᏓᏟᏴ	-11.5497
▁ᎦᏛᎩ	-11.5502
▁ᎡᏥᎸ	-11.5503
▁ᎠᏆᏗ	-11.5504
ᏅᎡᎯ	-11.5508
ᎷᏤᏗ	-11.551
ᏌᎾ	-11.5516
ᎡᎪᎢ	-11.5518
▁ᎤᏁᎢ	-11.5519
▁ᏅᏓᏣ	-11.552
ᏍᏗᏰᏔᏁ	-11.5531
▁ᎤᏙᏯᏅᎯᏕ	-11.5544
▁ᏗᏠᎯᏍ	-11.555
ᏩᏓ	-11.555
▁ᎢᎾᎨᏉ	-11.5551
▁ᎤᏛᏛᏁᎢ	-11.5557
▁ᏧᏓᏴᎳ	-11.5565
ᎴᏔᏂ	-11.5568
ᏛᏎ	-11.557
ᏴᏓᏆᎶᎥᎩ	-11.5573
ᏳᎢ	-11.5575
▁ᎢᏥᎨᏳ	-11.5575
ᎦᏙᏍᏔᏁᎢ	-11.5575
▁ᎤᏬᎯᏳᎯ	-11.5577
ᏈᎵ	-11.5582
▁ᏧᏂᎯᏍᏗ	-11.5584
ᏎᎵᏛ	-11.5589
ᏄᏣ	-11.559
▁ᎤᏰᎢ	-11.5594
ᏂᎦᎸ	-11.56
ᎯᎠᏃ	-11.5602
▁ᎾᏁ	-11.5603
▁ᎦᎴ	-11.5603
ᎤᏨᏎ	-11.562
ᎾᏛᎩᏍᎪ	-11.5621
ᏇᏗ	-11.5633
ᏄᏪ	-11.5635
▁ᎤᏂᎷᏤᏃ	-11.5638
▁ᎢᏥᏰ	-11.564
ᏍᏕᏓᎵᏴᏍ	-11.5643
▁ᎤᎾᎵᏍ	-11.5643
▁ᎤᎾᎪᎸ	-11.5647
▁ᏔᎴ	-11.565
ᏓᏁᎲᎾ	-11.5652
ᎴᏅᏓ	-11.5653
ᏓᏓᏱ	-11.5654
ᏐᏅᎢᏍᏔᏅᎯ	-11.5659
ᏯᏅᎯ	-11.5659
▁ᎠᏚ	-11.5661
▁ᏓᏍᏆ	-11.5663
ᎡᎰ	-11.5664
ᏰᏅ	-11.5666
▁ᏱᏚᏁ	-11.5678
ᎾᎻ	-11.5681
▁ᏍᎩᏲᏎ	-11.5683
▁ᏖᎾ	-11.5684
ᏏᎳᏛᏙᏗ	-11.5687
ᎷᏯᏍ	-11.5697
ᏓᏅᏔ	-11.5706
ᏂᎨᏥᏪᏎᎴ	-11.571
ᏓᏅᏓᏗᏍᏔᏅ	-11.571
ᏱᏢᏗ	-11.5727
ᏁᎢᏍᏓ	-11.573
▁ᏫᏔ	-11.5736
ᎩᏍᏕᎸᏗᏱ	-11.5737
ᏣᎵᏍᏗᎭ	-11.5737
▁Ꮆ	-11.5738
▁ᏥᎯ	-11.5739
▁ᏭᏂᏴ	-11.5739
ᎴᏗ	-11.5744
ᏲᎲ	-11.5747
▁ᏕᎦᏓ	-11.5749
▁ᎠᏂᎸ	-11.5751
▁ᏯᏆᏓᏅᏔ	-11.5755
▁ᏥᏯᏓᏙᎵᏍᏓᏁ	-11.5756
▁ᏣᏗ	-11.5757
ᏌᎳᏙᏗ	-11.5757
▁ᏕᎯᏯ	-11.5767
ia	-11.5767
ᏯᏫᏍᎨᏍᏗ	-11.577
▁ᏭᏕ	-11.5777
▁ᎦᏥᏁᏗ	-11.5777
▁Ꮚ	-11.578
ᎳᏅᏓᏕ	-11.579
ᏂᎰ	-11.5792
le	-11.5792
▁ᎬᏍᎦᎳ	-11.5795
ᏅᏍᏔᏁᎢ	-11.5797
▁ᎠᎩᏍᎦ	-11.5799
▁ᏗᏥᏴ	-11.5799
ᎵᏍᎪᎸᏔᏅᎯ	-11.5801
▁ᏗᎦᏓᎨᏳᎯ	-11.5803
ᏚᏩᏂᎦᎸ	-11.5806
▁ᎪᎶ	-11.5806
▁ᎤᎪᎳ	-11.5812
▁ᎢᏍᎪ	-11.5812
▁ᎢᏨᏁᎸ	-11.5823
ᏒᏂᎸ	-11.5825
▁ᏓᏲᏣ	-11.5829
▁ᎠᎩᏃᎮ	-11.583
ᏗᏔᏍᎪᎢ	-11.5832
▁ᎢᏓᏓ	-11.5833
▁ᏥᏭ	-11.584
ᏒᏁ	-11.5841
▁ᎤᏔᏲ	-11.5849
▁ᏓᎩᏯ	-11.5851
▁ᏥᎪᏩᏘ	-11.5854
ᏗᏎᎢ	-11.5856
ᏎᏅ	-11.5856
▁ᏗᏣᎶ	-11.5861
▁ᎭᏏ	-11.5863
ᏯᎩᏍᎬ	-11.5869
▁ᏫᎷᏥ	-11.5874
▁ᎨᏥᏯᏅᏗ	-11.5875
ᏤᎴᏍᏗ	-11.5875
ᎯᏍᏔᏁ	-11.5879
▁ᎨᏥᏯᏅ	-11.5879
▁ᏫᎨᏙ	-11.5881
▁ᏓᎩᎧ	-11.5881
ᏣᏯ	-11.5888
ᎪᎥᎯ	-11.5889
▁ᏕᎪᏢ	-11.5889
ᎿᎢᏳ	-11.5892
▁ᎦᎳᏅᏛ	-11.5892
▁ᎣᎩᏴ	-11.5896
ᎪᏢᏙᏗ	-11.5896
ᏥᎪ	-11.5898
ᎧᎭᏲᏔ	-11.5899
▁ᏔᎫᏴ	-11.5901
ᏣᎦᎸ	-11.5904
ᏩᏘᏍᎨᏍᏗ	-11.5925
ᎯᏍᏙᏗᏱ	-11.5925
▁ᎤᏣᏘᏂᏉ	-11.5931
ᎪᎲᎯ	-11.5946
ᏣᎪᏩᏛᏗᏱ	-11.5963
▁ᏆᏂ	-11.5964
ᎬᏩᏟ	-11.5964
▁ᎤᏤᏪ	-11.5969
ᏓᏛᏁᎭ	-11.598
ᏛᏅᎢᏍᏔᏅᎩ	-11.5988
ᎵᎮᎵᏍᏗᏱ	-11.5992
▁ᏧᏭᎪ	-11.5998
ᎲᏍᏗ	-11.6012
ᏍᏔᏴ	-11.6015
ᏂᏴᎭ	-11.6018
▁ᎤᏪᎧᏁ	-11.6019
▁ᎣᏂᎩ	-11.602
ᏯᎪ	-11.6022
ᏓᏕᏲᎲᏍᎨᏍᏗ	-11.6022
ᏄᏮᎢ	-11.6024
ᎧᎲᎦ	-11.6025
▁ᎤᏣᏁ	-11.6027
ᏪᎢ	-11.6031
ᏓᏅᏛᎢ	-11.6039
ᏍᎦᏅᏤᎮᏍᏗ	-11.6041
ᎵᏍᏔᏁᎢ	-11.6043
ᏔᏲᎯᎲ	-11.6048
ᏪᏥ	-11.6051
▁ᎤᎴᏗ	-11.6052
ᎦᏔᎲᏍᏗᏱ	-11.6054
ᎠᏙ	-11.6067
ᎵᎥᏂᎸ	-11.6077
ᏗᏒᏍᏗᏱ	-11.6078
▁ᎤᏅᎢᏍᏗ	-11.6078
▁ᏙᎬ	-11.6079
ᏑᎸᏓ	-11.6082
▁ᎤᏔᎶ	-11.6083
ᏅᏛᎾ	-11.6086
▁ᎠᏨ	-11.609
ᏆᎸ	-11.6099
ᎪᏩ	-11.61
ᏃᎯᎮ	-11.6101
ᎿᎥᎾ	-11.6102
▁ᏛᏣ	-11.6105
▁ᏫᎬᎩ	-11.6108
▁ᎤᏁᏉᏤ	-11.6115
ᏆᏤᎵ	-11.6116
▁ᎧᏬ	-11.6119
▁ᏗᏍᎩᏯ	-11.6119
ᎪᏩᏘᏍᎨᏍᏗ	-11.6124
ᏥᏁᎴ	-11.6125
▁ᏱᏣᏁ	-11.6127
▁ᏗᎦᎵ	-11.613
ᏅᏬᏗ	-11.6131
ᎾᏛᏁᎰᎢ	-11.6132
▁ᎤᎦᎾᏬ	-11.6135
ᏥᎪᏩᏗᎭ	-11.6136
▁ᏧᏂᏯ	-11.6147
ᏣᏁᎳ	-11.6147
ᎦᎸᏉᏗᏳ	-11.6162
ᎡᎮᏍᏗ	-11.6163
▁ᎠᎦᏞ	-11.6166
ᎨᏥᎾᏌᎢ	-11.6167
▁ᎢᏳᎯ	-11.6171
▁ᎢᏳᎵᏍᏓᏁ	-11.6175
ᏓᏓᎴᏓ	-11.6182
▁ᏚᏂᎾ	-11.6185
ᏍᏓᏩᏕᏅ	-11.6187
▁ᏫᏓᏗ	-11.6189
▁ᎤᏂᏥᎸ	-11.619
ᏐᎯ	-11.6192
ᎾᏛᏅ	-11.6197
ᏂᏣᏔ	-11.6201
ᏓᏑᏴᎢ	-11.6201
ᏏᏔᏗ	-11.6202
▁ᎠᏥᎪ	-11.6208
ᏥᏁᏤᎸ	-11.6214
▁ᎢᎠᏓ	-11.6216
▁ᎢᏯᎾᏛᏁ	-11.6216
ᎵᏍᎨᏍᏗ	-11.6219
ᏅᏩᏅ	-11.6223
ᏟᏍᏔ	-11.6228
▁ᎢᎤᏁᏅ	-11.6229
▁ᎠᏓᏂ	-11.6231
▁ᏚᏂᎸᏫᏍᏓᏁ	-11.6236
▁ᏨᏙᏗ	-11.6237
ᏍᏘᏰ	-11.6238
ᏙᏥᏩᏛᎲᎩ	-11.6241
ᏍᏓᏱᏗ	-11.6243
ᏓᏅᏘᏐ	-11.6245
ᏍᏓᏁᎸ	-11.6248
ᏲᎱ	-11.6251
▁ᏤᎵ	-11.6255
ᏲᎲᎢ	-11.6256
▁ᏧᏭ	-11.6259
▁ᏯᎦ	-11.626
ᏳᎸᏉᏗ	-11.6266
ᎦᏍᎩᎶᎩ	-11.6268
▁ᎤᏲᎱᏎ	-11.6269
ᎤᏙᏓ	-11.6272
▁ᏚᎾᏁᎶ	-11.6275
ᏃᏴᎵᏍ	-11.6276
▁ᏅᏩᏓᎴᎢ	-11.6276
▁ᎦᏇᏅ	-11.6277
ᏍᏘᏰᎬᎢ	-11.6285
▁ᏯᏰ	-11.6285
▁ᏴᎦᏰ	-11.6288
ᎬᎭᎷᏴ	-11.6288
ᏏᏁᎩ	-11.6289
▁ᏩᎪᏩᏛ	-11.6291
ᏲᏢᎾᏁ	-11.6291
▁ᎤᏂᎾᏗᏅ	-11.6297
▁ᏓᎾᏓᏅ	-11.6297
▁ᎦᏂᎵ	-11.6297
ᏅᎲᎭ	-11.6298
ᏩᏛᏔᏅ	-11.6301
▁ᎢᏥᎨᏳᎯ	-11.6304
ᎵᎥᏂᎴ	-11.6314
▁ᎤᏲᎰᏎ	-11.6318
▁ᎠᏁᎵ	-11.6327
ᏍᏈᏗ	-11.6329
ᏩᏛᎯᎵ	-11.6329
▁ᎨᎯ	-11.6332
▁ᎫᏢ	-11.6334
ᏳᎲᏍᎩ	-11.6335
▁ᏓᎴᏅ	-11.6336
ᏗᎵᏍᎪᎸᏙᏗ	-11.634
▁ᏬᎩ	-11.634
ᎳᏗᏓᏍᏗᏱ	-11.6353
ᏯᏅᎲᎭ	-11.6354
ᎮᎸᎩ	-11.6358
ᎦᎵᏍᏙᏗᏍᎨᏍᏗ	-11.6362
ᎣᎵ	-11.6364
▁ᎤᏂᏍᎦ	-11.6368
▁ᏥᎾᏆ	-11.6376
▁ᎤᏚᏒ	-11.6377
ᏐᏴᎢ	-11.6379
ᏣᏛᎦᏁ	-11.6383
ᏃᎯᏰ	-11.6383
▁ᏂᎦᎵᏍᏙ	-11.6386
ᏴᏗᏱ	-11.6386
ᎩᎳᏩ	-11.6392
ᎯᏴᎩ	-11.6396
ᏪᎭ	-11.6402
ᏢᏍᎪᎢ	-11.6403
ᎶᎨᏒᎢ	-11.6406
ᏩᏁᎦ	-11.6408
ᎦᏙᏍᏙᏗ	-11.6412
ᎨᏎᏍᏗ	-11.6413
▁ᏗᎪᏱ	-11.6413
▁ᎦᎸᏉᏗᏳᏰᏃ	-11.6414
ᏲᏞᎯ	-11.6414
▁ᏛᎬ	-11.6415
ᏙᎴᎢ	-11.6416
ᏜᏏᏛᎡ	-11.6417
▁ᏩᏓ	-11.6417
ᏎᎰᎢ	-11.6418
ᏍᏓᏩᏛᏛ	-11.642
▁ᎢᏣᏛ	-11.6427
ᏓᏨᏯᏍᏗ	-11.6427
ᎦᏔᎲᎩ	-11.6429
▁ᏪᎮ	-11.6432
ᏔᏕᎩ	-11.6434
ᏓᏍᏕᎸᏗ	-11.6438
ᏅᏓᏗᏍᏗᏱ	-11.6439
▁ᎯᎦᏘ	-11.6439
▁ᏥᏅᏗᎦᎵᏍᏙᏗ	-11.6441
ᏤᎰ	-11.6443
ᎩᎷᎯᏍᏗᏱ	-11.6447
ᏯᎴ	-11.6449
ᎲᎯ	-11.6449
ᏂᏂᏌᏁᎢ	-11.6451
ᏏᎳᏕ	-11.6454
ᏩᏘᏍᎬ	-11.6454
ᎾᏣᎥ	-11.6467
ᏟᏍᏗᏍᎪᎢ	-11.6468
ᎠᏍ	-11.6472
▁ᏤᎳ	-11.6475
ᏘᏁᎪ	-11.6476
▁ᏕᏨᏯ	-11.6477
▁ᏙᏓᏓ	-11.6483
▁ᏓᏳᎾ	-11.649
ᏲᎢᏎᎴ	-11.649
▁ᎠᏏᎾᏌᏅ	-11.6491
ᎡᏒ	-11.6495
ᏓᎴᏍᎨᏍᏗ	-11.6497
ᏒᏂᏍᏗᏱ	-11.6497
ᏏᏍᎨ	-11.6504
▁ᏧᏢᏫ	-11.6504
ᎩᏰᏃ	-11.6504
ᏂᏱᏍᎨ	-11.6513
ᎦᏌᏯᏍᏗᏕᎩ	-11.6518
ᏁᏣ	-11.6519
▁ᏩᎩᏴ	-11.652
▁ᎠᏩᏔ	-11.6524
ᎾᏣᎡᎢ	-11.6524
ᏪᏎ	-11.6527
▁ᎲᏗᏍ	-11.6532
▁ᏂᏗᎬ	-11.6536
ᏍᏔᏁᎴ	-11.6536
ᎬᏫᏳ	-11.6537
▁ᎡᏦ	-11.6552
ᏅᏛᎢ	-11.6553
ᎷᏤᎵ	-11.6562
▁ᏙᏓᎦᏥ	-11.6562
▁ᎦᏅᏬ	-11.6567
▁ᎢᏥᎧᎵᎢ	-11.6571
ᏍᏕᎵᏍᎪ	-11.6576
ᎨᎮ	-11.6577
▁ᎤᏂᏁᏗ	-11.6581
▁ᎠᎾᏗᏒᎯ	-11.6581
ᎵᏰᎢᎶ	-11.6581
▁ᎤᎾᏓᏟᏌ	-11.6581
▁ᎣᎩᏙ	-11.6581
ᏖᎸᎮᏍᎬ	-11.6583
▁ᏕᏣᏓᏠ	-11.6583
▁ᏂᏨᏪᏎ	-11.6585
▁ᎬᏣ	-11.6587
▁ᎯᏍᏆ	-11.6592
ᏰᎢᎵᏙᎲᎢ	-11.6595
ᏥᏅᏍᏗ	-11.6595
ᏘᏌ	-11.6598
▁ᎣᏣᏓ	-11.6599
▁ᏱᏓᏥ	-11.66
▁ᎯᎦᏔᎭᏍ	-11.6601
ᏑᏩ	-11.6602
▁ᎠᎧ	-11.6602
▁ᏱᏓᏆ	-11.6604
▁ᎤᏃᎱ	-11.6606
ᏓᏡᏗᏍᎪᎢ	-11.6606
▁ᎣᏨᏗ	-11.6607
▁ᏗᎻ	-11.6608
ᎸᏁ	-11.6612
ᏛᏓᏍᏔᏂ	-11.6616
▁ᎠᏥᎸᏉᏙᏗ	-11.662
▁ᏥᏂᎦᎵᏍᏗ	-11.662
ᎾᏓᏗᏍᎪ	-11.6621
▁ᏳᏂᎬ	-11.6621
ᎩᏩᏛᏗᏱ	-11.6626
▁ᎤᏔᎷᎩᏍ	-11.6629
ᎸᎥᏍᎬ	-11.6632
▁ᎢᏯᎦ	-11.6633
▁ᏅᏩᏍᏕ	-11.6635
ᎦᎸᎢ	-11.6637
▁ᏗᏓᎯ	-11.6637
▁ᎠᏫᏒ	-11.6637
ᎵᏙᎰ	-11.6642
▁ᎤᏬᎯᏨ	-11.6643
ᏅᏨᎩ	-11.6643
ᎰᏂ	-11.6644
ᎴᏂᏓᏍᏗᏱ	-11.6648
▁ᎾᏆᎵᏍᏓᏁᎸ	-11.6655
ᎦᏧ	-11.6656
▁ᎠᎩᏰ	-11.6656
ᏁᎩᏏ	-11.6657
ᎨᎳᏍᏙᏗ	-11.6658
ᎦᏅᎦᎵᎭ	-11.666
ᎺᎵ	-11.6662
ᏎᎲ	-11.6663
ᎪᎵᏰᏍᎨᏍᏗ	-11.6665
ᎾᏛᏁᎲ	-11.6665
ᏓᏁᎴᎢ	-11.6669
▁ᏳᏙ	-11.667
ᏡᎬᎢ	-11.6672
ᏲᎲᏍᎨᏍᏗ	-11.6675
ᏯᏅᎡᎵ	-11.6675
▁ᏚᎾᎵ	-11.6677
▁ᎢᏓᏙᎴᎰᎯ	-11.6683
ᎵᏍᏓᏴᏁ	-11.6685
▁ᎤᏍᏆᏃᏴ	-11.6685
ᏍᎩᏰᏲᎲ	-11.6686
ᏓᎦᎶᏐᏂ	-11.6686
ᎶᏍᎪ	-11.6688
ᏗᎨᎴ	-11.6689
ᏌᏙᎭ	-11.6691
ᎮᎵᎠᏍᎪ	-11.6694
ᏓᏇ	-11.6694
ᏫᏂᏴ	-11.6694
ᏍᎦᏰᎬᏍᏔ	-11.6695
ᎵᏬᏤ	-11.6695
ᎵᏱᎶᎸ	-11.6698
▁ᎤᏗᏍᎦᏢ	-11.6699
▁ᎤᎵᏍᎪᎸᏔᏁ	-11.6699
▁ᎠᎩᎪᏁᎸ	-11.6699
▁ᎤᏂᎶᏎ	-11.6699
▁ᏚᏂᎧᎲ	-11.6699
▁ᎤᏓᏙᏎᎴ	-11.6699
▁ᏓᎾᏓᏅᏖᏍᎬ	-11.6699
▁ᏳᏂᎪᎮ	-11.6699
ᏙᏓᏈᏕᎾ	-11.67
▁ᎤᏅᏍᎦᎴ	-11.67
▁ᏚᏂᏣ	-11.67
▁ᎣᏍᏗᏁ	-11.6701
ᎦᏓᏅᏓᏗ	-11.6701
ᏁᏤᎴᎢ	-11.6701
▁ᎢᏨᏬᏁᏔᏅ	-11.6703
▁ᏫᏚᏳᎪᏛ	-11.6704
ᏕᏓᏓᎪᎲᏳ	-11.6704
ᎩᎦᎨᏍᏛᏱ	-11.6704
▁ᏗᎦᎸᏫᏍ	-11.6704
ᏒᏗᏱ	-11.6705
▁ᏩᏂᎦᏛ	-11.6706
▁ᏗᏤᏍᏙ	-11.6706
▁ᎠᏂᎦᏔᎮ	-11.6707
ᏗᎦᎪᏗᏱ	-11.6707
▁ᎢᏣᏓᏁᏟᏴᏏᏒ	-11.6708
▁ᏥᎦᎷᎪ	-11.6708
▁ᎠᎾᎢᏎ	-11.6709
▁ᎠᏐᏢᎢᏍᏗᏍᎬ	-11.6711
ᏄᎵᏍᏓᏁᎴ	-11.6711
ᏓᎩᎸᏫᏍᏓᏁᎲ	-11.6712
▁ᎤᏔᎳᏬᏍᎬ	-11.6712
▁ᎤᏂᏂᎬᏎᎲ	-11.6713
ᎠᏡᏗᏍᎩ	-11.6713
▁ᏚᏪᎧᏁᎴ	-11.6713
▁ᎠᏋᏔᏅ	-11.6714
ᎤᏬᏚᏨ	-11.6714
▁ᏂᏚᏂᏪᏎᎴ	-11.6715
▁ᏚᏂᏂᏴᎮ	-11.6715
▁ᏂᎨᎬᏁᎸ	-11.6715
ᎦᎾᏄᎪᏫᏍᎪ	-11.6715
ᏣᏄᏏ	-11.6715
ᎤᏓᏅᏒ	-11.6715
ᏧᏂᎸᏫᏍᏓᏁᎯ	-11.6716
ᎬᏂᏳᏉ	-11.6716
ᏁᎶᏙ	-11.6716
▁ᏓᎩᏏᎳᏛ	-11.6717
▁ᏥᏄᎵᏍᏔᏁ	-11.6718
▁ᎠᎩᏩᏒ	-11.6718
ᏧᏪᏥ	-11.6719
▁ᎤᏄᏮ	-11.6719
▁ᎤᎾᎦᏙᏍᏕ	-11.6719
▁ᎤᏂᏇᏓᎸ	-11.6719
▁ᏚᏠᏱᎴ	-11.672
▁ᎢᎬᏬ	-11.672
ᎠᎳᏑᎶ	-11.672
▁ᏥᏧ	-11.672
ᎡᎳᏂ	-11.6721
▁ᎤᏁᎸᏔᏁ	-11.6721
ᏗᏂᎦᏘᏯ	-11.6721
▁ᏄᏕᏘᏴᎮ	-11.6722
ᏗᎦᏚᎲ	-11.6723
▁ᏚᏫᏞᏫᏒ	-11.6723
ᎣᏏᏉᏍᎪ	-11.6723
ᎤᏔᎷᎩᏍᎩ	-11.6723
▁ᎢᏥᎪᎲ	-11.6724
▁ᏂᎬᏩᏪᏎᎴ	-11.6725
ᎪᏪᎴ	-11.6725
▁ᎾᎾᏛ	-11.6725
ᎶᎥ	-11.6728
ᏧᏙᎢᏛ	-11.673
ᏐᏈᎵ	-11.673
▁ᎠᎵᏍᏓᏴᎲᏍᎬ	-11.6731
ᎠᎨᏴ	-11.6731
ᎵᏍᏙᏔᏅ	-11.6732
ᎯᏙᎲ	-11.6732
▁ᏭᏂᏃᏁ	-11.6733
ᎪᏪᎸᎢ	-11.6734
▁ᎤᏂᏚᎲ	-11.6735
▁ᎾᏆᏛᏅ	-11.6735
▁ᎦᏃᎪ	-11.6737
ᎣᎯᏍᏙᏗ	-11.6737
▁ᏓᎩᎪᎲ	-11.6737
ᎵᏂᎪᎯᏍᏗ	-11.6738
▁ᎤᎵᏍᏇᏚ	-11.6738
▁ᏚᏬᏢᏁ	-11.6738
ᎦᎵᏉᎩ	-11.6738
ᏬᎯᏳᏁ	-11.6739
▁ᎠᏒᏛ	-11.6739
▁ᎤᏪᏙ	-11.6739
ᏯᏫᏍᏗ	-11.6739
▁ᏥᏂᏣᏛᏁ	-11.6739
▁ᏥᏍᏚᏂᎩᏍᏗ	-11.6739
▁ᏕᏥᎳᏫ	-11.674
▁ᏚᏪᏲᏁ	-11.674
ᎤᏛᏁᎢ	-11.6741
ᎾᏗᏔᏍᏗ	-11.6742
ᎦᏪᏍᎬᎩ	-11.6743
▁ᏥᏄᏪᏒ	-11.6744
ᏥᏅᏬᏗ	-11.6744
▁ᎤᏬᏘ	-11.6744
▁ᎤᏁᏙ	-11.6745
▁ᏩᎩᎶᏒ	-11.6745
ᏥᎾᏝᎢ	-11.6746
▁ᏚᏂᎳᏫᏨ	-11.6746
ᏆᎧᎿᏅ	-11.6747
▁ᎠᏛᏍᎨ	-11.6748
▁ᎤᏁᎢᏍᏔᏁ	-11.6749
▁ᏓᎾᎵ	-11.6749
▁ᏕᏦ	-11.675
▁ᏧᎾᏓᏡ	-11.675
ᏅᎪᏨ	-11.6752
ᎤᏟ	-11.6752
ᏗᎧᎿᏩᏛᏍᏗ	-11.6753
▁ᎤᎵᏖᎸ	-11.6753
▁ᎢᎦᏓᏃ	-11.6753
▁ᎤᏃᎯᏳᏗ	-11.6754
ᏰᏫᏒ	-11.6754
ᎬᏂᎨᏒ	-11.6755
▁ᎠᎩᏍᎪ	-11.6755
▁ᎤᎾᏠᏤ	-11.6755
ᏄᎪᎢ	-11.6756
ᏖᏆᎶ	-11.6758
▁ᏓᎪᎲᏍ	-11.6758
ᎪᏫᏎ	-11.6758
ᎵᏍᎪᎸᏓᏁᏗ	-11.6759
ᏂᎪᎵᏰᎥ	-11.6759
▁ᏗᏂᎳᏫ	-11.6759
ᏁᎢᏍᏔᏁ	-11.6759
▁ᏄᏅᏁᎴ	-11.6759
ᏓᏙᎵᏍᏗᎭ	-11.676
ᎶᏄᎮᏗᏱ	-11.676
ᎨᎳᏗ	-11.676
▁ᏂᏣᎵᏍᏔᏅ	-11.676
ᏂᏐᏢᎢᏍᏙᏗ	-11.6761
ᎵᏍᏙᏰᏗ	-11.6761
▁ᏭᏂᏴᎸ	-11.6763
ᎦᏏ	-11.6763
▁ᏫᎬᏆ	-11.6763
ᏲᎰᏒ	-11.6766
ᏲᎱᏒᎯ	-11.6766
▁ᎠᏉᎸ	-11.6767
ᎦᏓᎡᎢ	-11.6767
▁ᏗᎬᏩᏁᎶ	-11.6768
▁ᎤᏘᏴ	-11.6768
▁ᎦᎾᏄᎪᏥᎸ	-11.6768
ᏂᏪᏍᎬ	-11.677
ᎦᏍᎦᏂ	-11.6771
▁ᎾᏎᎵ	-11.6771
▁ᏧᏳᎪ	-11.6772
▁ᏂᏚᏩᏁ	-11.6772
▁ᎡᎩᏁᎸ	-11.6772
▁ᏱᏚᎾᏓ	-11.6772
▁ᏗᎵᏰ	-11.6772
▁ᎤᎾᏘᏅᏍᏗ	-11.6774
▁ᎤᏁᎵᏒ	-11.6774
ᎧᏍᎨᏂ	-11.6774
▁ᏥᏄᎵᏍᏔ	-11.6774
▁ᎭᏕᎶᎰ	-11.6775
▁ᎢᏣᏓᏤᎵ	-11.6775
▁ᎢᏯᎩᏪᏍᏗ	-11.6775
▁ᎦᏅᎪ	-11.6776
▁ᏭᏂᎷᎯᏍᏗ	-11.6776
ᏄᏩᎢᏴ	-11.6776
▁ᎢᏳᏂᏪᏍᏗ	-11.6777
▁ᏧᏄᎪᏙᏗ	-11.6777
▁ᎢᏳᏪᏅᏍ	-11.6777
ᏴᏍᏕᏍ	-11.6777
▁ᎠᏆᎵᎮᎵᏍᏗ	-11.6777
ᏲᎱᏎ	-11.6778
▁ᏇᏗᏂ	-11.6778
▁ᏫᏨᎷᏤᏗ	-11.6779
▁ᎣᎦᎵᏍᏓᏴᏗ	-11.6779
▁ᏗᎨᏥᎢᏍᏗ	-11.678
▁ᎠᏰᏙᎳ	-11.678
▁ᏗᎦᎳᏫᎢᏍᏗ	-11.678
▁ᎤᎾᏄᎪᏫᏍᏗ	-11.678
ᏕᏠᏆᏍᎩ	-11.678
▁ᏧᏍᏆᏅ	-11.6781
▁ᏗᎩᎸᏫᏍᏓᏁᏗ	-11.6781
▁ᎾᏕᏘ	-11.6782
▁ᏧᎬᏩᏟ	-11.6782
ᏯᏘᏃᎮᎸ	-11.6782
ᏍᏔᏯ	-11.6782
▁ᎤᎾᏓᏡ	-11.6782
ᏁᎨ	-11.6783
▁ᎠᏥᏙᎵᏍᏗ	-11.6783
ᏍᏚᎢᏎ	-11.6783
▁ᏗᎧᏃᎮ	-11.6783
▁ᎢᏳᎾᎵᏍᏙᏗ	-11.6784
▁ᏕᎫᎪᏓᏁ	-11.6785
▁ᎠᏍᏆᎸᎲ	-11.6785
▁ᎠᎵᏍᏕᎵᏍᎬ	-11.6786
ᏪᎳᏅᎯ	-11.6786
▁ᏕᎾᏓᎪ	-11.6786
▁ᏚᎸᏫᏍᏓᏁᎮ	-11.6786
ᎿᎷ	-11.6787
ᎿᏍᏕᏢ	-11.6787
▁ᎠᏍᎦᎢᎮ	-11.6787
ᏣᎳᏁ	-11.6787
ᏃᎮᎮᎴ	-11.6787
ᎨᏳᏣ	-11.6787
▁ᎠᏫᎾᎨ	-11.6788
▁ᏣᎾᏗ	-11.6788
ᏥᏍᏆ	-11.6788
ᎨᏅᏕ	-11.6789
ᏁᏓᏥᏛ	-11.679
▁ᏓᏕᏲ	-11.679
▁ᎾᏆᎵᏍᏔᏁ	-11.6791
ᎡᏆ	-11.6791
ᎵᏍᏔᏁᏍᏗ	-11.6792
ᎵᏍᏓᏴᎾᏁᏗ	-11.6792
ᎧᎿᏩᏗᏓ	-11.6792
ᏯᎦᏔᏂ	-11.6793
▁ᏛᎾᏓ	-11.6793
▁ᏒᎯᏰ	-11.6793
▁ᏕᎨᏥᏰ	-11.6793
ᏅᏍᏓᏕᎴ	-11.6794
ᏜᏏᏛᎡᎲᎾ	-11.6795
i	-11.6795
▁ᎤᏓᏴᏎ	-11.6795
ᎦᏛᏂᏙᎯᏉ	-11.6795
ᏝᏪᎯ	-11.6795
ᎨᏢᏔᏅᎭ	-11.6796
▁ᎢᏣᏛᎦᏅ	-11.6796
▁ᎤᎭᎸᏂ	-11.6797
ᏕᏯᏔᏁᎮ	-11.6797
ᏣᎵᎡᎵᏤᏗ	-11.6797
ᏗᏌᏓᏕ	-11.6797
ᎠᏎᏗ	-11.6798
▁ᏕᎬᎦᎿᏩᏗᏙ	-11.6798
in	-11.6798
▁ᎣᎨᏅ	-11.6798
ᎴᏔᏅᎢ	-11.6798
ᎪᏅᏍᏓᎵ	-11.6799
ᏛᏛᎲᎦ	-11.6799
ᎤᏍᏕᏎᎸᎯ	-11.6799
ᏢᏈᏍᏙᏗ	-11.68
ᎵᏍᏔᏴᎲᏍᎬ	-11.68
ᎵᏏᎾᎯᏍᏛᎾ	-11.68
ᏓᎦᎵᏍᏙᏓ	-11.68
ᎣᏍᏛ	-11.68
ᏳᎪᏛᎾ	-11.68
▁ᏩᎾᎦᎳ	-11.6801
li	-11.6801
hi	-11.6801
ᏍᏚᎢᎡᎸ	-11.6801
ᏑᎶᏨᎯ	-11.6801
▁ᎠᎾᎵᏍᏓᏴᏂᏙᎮ	-11.6801
▁ᏚᏢᏫᏎᎴ	-11.6801
aire	-11.6801
ichael	-11.6801
reland	-11.6801
ᎦᏨᏩᏍᏙᏗᏱ	-11.6801
ᎶᏄᎲᎵ	-11.6801
ᎿᎸᏍᏗᏍᎨᏍᏗ	-11.6801
ᏂᏍᏋᎦ	-11.6801
ᏍᏕᎵᏌᏕᏒᎭ	-11.6801
ᏓᏓᎾᏁᎶᏂᎨ	-11.6801
ᏚᎸᎡᎸᎩ	-11.6801
ᏩᏛᎱᎦ	-11.6801
▁Co	-11.6801
▁ᎠᎵᏔᏬᏍ	-11.6801
▁ᎠᎵᏱᎵᏒᎢ	-11.6801
▁ᎠᏥᏂᏌᎲ	-11.6801
▁ᎢᎡᏍᏕᎵᏌᏕ	-11.6801
▁ᎢᏍᏙᏎᎸᎭ	-11.6801
▁ᎢᏨᏰᎳᏗᏙᎸ	-11.6801
▁ᎢᏰᎬᏁᎸᎯ	-11.6801
▁ᎣᎦᏛᏅᎢᏍᏗ	-11.6801
▁ᎤᎧᏲᏐᏅ	-11.6801
▁ᎤᎳᏍᏚᏒ	-11.6801
▁ᎤᎾᏓᏄᏴᏗ	-11.6801
▁ᎤᏁᏄᎳᏍᏔᏁᎢ	-11.6801
▁ᎤᏂᏔᎳᏬᏒᎩ	-11.6801
▁ᎤᏄᏖᏎ	-11.6801
▁ᎤᏍᎫᏓᏁᎦᎸ	-11.6801
▁ᎤᏗᏍᎦᏝ	-11.6801
▁ᎦᏌᏁᎾᏛ	-11.6801
▁ᎨᏤᎳᏗᏙᎮᏍᏗ	-11.6801
▁ᎬᏩᏓᏡᏫᏍᏔᏅᎩ	-11.6801
▁ᎬᏬᏍᏔᏅᎯ	-11.6801
▁ᎭᏓᎦᏖᏙᎢᏍᎨᏍᏗ	-11.6801
▁ᎮᏏᎦᏯ	-11.6801
▁ᎵᏆᏗᎻ	-11.6801
▁ᏂᎠᏂᏪᎭ	-11.6801
▁ᏂᎦᎸᏉᏗᏍᎬᎾ	-11.6801
▁ᏂᎧᏪᏍᎬᎩ	-11.6801
▁ᏂᏓᎷᎸᎥᏍᎬᎾ	-11.6801
▁ᏂᏓᏓᏂᎸᎬᎾ	-11.6801
▁ᏂᏗᎦᎵᏍᏔᏂ	-11.6801
▁ᏂᏥᏪᏍᎪᎢ	-11.6801
▁ᏄᏂᎦᏙᎥᏒᎾ	-11.6801
▁ᏅᏓᎨᏥᏅᏏᏛ	-11.6801
▁ᏅᏓᏍᏛᏴᏁᎵ	-11.6801
▁ᏅᏩᏍᏗᏗᏎᏍᏗᏉ	-11.6801
▁ᏈᏯᏏᏱᏆ	-11.6801
▁ᏍᏆᏎᎵᏓᏁᎸᎢ	-11.6801
▁ᏍᏆᏎᎵᏓᏏ	-11.6801
▁ᏐᎣᏁᎵᏁ	-11.6801
▁ᏓᎦᏥᏁᏉᎢ	-11.6801
▁ᏓᎪᏄᎶᏏᏙᎮᏍᏗ	-11.6801
▁ᏓᎵᏖᎸᏂᏙᎮᏍᏗ	-11.6801
▁ᏓᎾᏦᏍᎬ	-11.6801
▁ᏓᏂᏍᏔᏲᎯᎲ	-11.6801
▁ᏓᏂᏏᎳᏛᎥᏍᎨ	-11.6801
▁ᏓᏆᏚᏫᏍᏔᏅᎩ	-11.6801
▁ᏓᏓᏬᏍᏗᏍᎬᎩ	-11.6801
▁ᏓᏛᎯᏍᏓᏁᎮᏍᏗ	-11.6801
▁ᏔᏓᏅᏗᏍᏓ	-11.6801
▁ᏕᎦᎶᎴᎬᎢ	-11.6801
▁ᏕᏥᏅᎪᎥᏗᏍᎨᏍᏗ	-11.6801
▁ᏕᏥᏅᏫᏍᎨᏍᏗ	-11.6801
▁ᏕᏦᏢᎯᏏ	-11.6801
▁ᏗᎧᏃᏩᏛᏍᏗ	-11.6801
▁ᏗᎩᎸᏫᏍᏓᏁᎯ	-11.6801
▁ᏗᎩᏄᎪᏨ	-11.6801
▁ᏙᏓᎨᏥᏲᎯᏎᎵ	-11.6801
▁ᏙᏗᏂᏁᎸᎢ	-11.6801
▁ᏚᎧᏙᏍᏕ	-11.6801
▁ᏚᎾᏁᏢᏔᏅᏒᎢ	-11.6801
▁ᏚᏂᎦᏘᎸᏎ	-11.6801
▁ᏚᏂᏖᎸᏁ	-11.6801
▁ᏚᏃᏣᎶᏤ	-11.6801
▁ᏠᏆᎹ	-11.6801
▁ᏣᏗᏫᏍᏓ	-11.6801
▁ᏥᏅᏓᎦᎵᏍᏔᏂ	-11.6801
▁ᏧᎦᏎᏍᏗᏕᎩ	-11.6801
▁ᏧᎾᏕᏠᏆᏍᏗ	-11.6801
▁ᏧᏃᏕᏍᏗᏍᎩ	-11.6801
▁ᏫᏙᏓᏨᏯ	-11.6801
▁ᏮᏓᎦᎶᏏ	-11.6801
▁ᏯᏓᏬᏍᎨᏍᏗ	-11.6801
▁ᏱᏄᎵᏍᏔᏃ	-11.6801
▁ᏱᏙᎬᏩᎸᏫᏍᏓᏏ	-11.6801
▁ᏱᏚᏓᏌᏝᎮᏍᏗ	-11.6801
▁ᏱᏚᏪᏘᎸ	-11.6801
▁ᏱᏨᏲᏪᎳᏁᎭ	-11.6801
▁ᏳᎾᏛᏅᎢᏍᏗ	-11.6801
▁ᏳᏍᎦᏅᏨ	-11.6801
▁ᏴᎬᏂᎷᎩ	-11.6801
ᎵᏰᏑᏍᏚᏬ	-11.6801
ᏔᏕᎶᎰᏏ	-11.6801
▁ᎠᎦᏘᏗᏍᏙᏗ	-11.6801
▁ᎠᏍᏈᏅ	-11.6801
▁ᎢᏍᏉᏎᎭ	-11.6801
▁ᎤᎾᏓᏙᎵᏍᏓᏁᎴ	-11.6801
▁ᎤᏓᎵᏁᎯᏕ	-11.6801
▁ᎦᏖᏌᏗ	-11.6801
▁ᎬᏩᏄᎸᏗ	-11.6801
▁ᏂᏚᎿᏍᏕᏢᎾ	-11.6801
▁ᏙᏛᎩᎸᏫᏍᏓᏁᎵ	-11.6801
▁ᏙᏧᏁᏅᏒ	-11.6801
▁ᏥᏂᏴᏁᎭ	-11.6801
▁ᏭᏭᏓᎸ	-11.6801
ᏥᏍᎩᏅᏛᎯ	-11.6801
ᏯᏓᏂᎸᏥ	-11.6801
▁ᎠᎩᏔᏕᎩᎠ	-11.6801
▁ᎠᎾᎵᏙᎩᏯᏍᎩ	-11.6801
▁ᎠᎾᏓᏌᎩᏙᎲ	-11.6801
▁ᎠᏂᎫᏌᏩᎩ	-11.6801
▁ᎠᏂᏫᏄᏣ	-11.6801
▁ᎤᎦᏑᎲᎢ	-11.6801
▁ᎤᎦᏛᎴᎯᏍᏗᏱ	-11.6801
▁ᎤᏓᏏᏂᏕᏅ	-11.6801
▁ᎤᏦᏔᎮ	-11.6801
▁ᎬᏩᏛᎡᎴᏍᏗ	-11.6801
▁ᏂᏥᏲᎯᏍᏗᏍᎬᎾ	-11.6801
▁ᏍᎩᏯᏅᏓᏗᏍᎬᎢ	-11.6801
▁ᏍᎩᏲᎢᏳᎲᎦ	-11.6801
▁ᏑᎧᏔ	-11.6801
▁ᏗᎩᎧᏁᎸᎯ	-11.6801
▁ᏗᎾᏓᏬᏍᎩ	-11.6801
▁ᏗᏓᏙᏪᏙᎥ	-11.6801
▁ᏙᎦᏠᏒᎩ	-11.6801
▁ᏚᎾᏠᏱᎴᎢ	-11.6801
▁ᏣᏍᏕᏅᏨ	-11.6801
▁ᏥᏓᎾᏕᏲᎲᏍ	-11.6801
▁ᏦᎧᏔᏂ	-11.6801
▁ᏧᎾᏓᏟᏴᏗ	-11.6801
▁ᏨᏓᎬᏯᏎᎮᎵ	-11.6801
▁ᏩᏂᎦᏖᎢ	-11.6801
▁ᏱᏚᏛᏓᏍᏓᏁᎴᎢ	-11.6801
ᏍᏇᎵᏰᏗ	-11.6801
▁ᎠᎻᏗᏏ	-11.6801
▁ᎠᎾᏓᎩᎡᎯ	-11.6801
▁ᎠᏇᏙᏅ	-11.6801
▁ᎠᏓᏅᏖᏍᎩ	-11.6801
▁ᎠᏓᏍᏕᎸᏓ	-11.6801
▁ᎢᏨᏂᏌᏛ	-11.6801
▁ᎢᏯᏂᏪᏍᎩ	-11.6801
▁ᎤᏉᏔᏗ	-11.6801
▁ᎤᏖᎸᏁ	-11.6801
▁ᎤᏙᎴᎱ	-11.6801
▁ᎬᏩᎵᏃᎮᏔᏁ	-11.6801
▁ᎯᏯᏛᎥᎦ	-11.6801
▁ᏂᏚᎾᏑᎴᎲᎾ	-11.6801
▁ᏄᎵᏁᏨ	-11.6801
▁ᏄᎸᏉᏔᏅᎾ	-11.6801
▁ᏇᏣᏱᏗ	-11.6801
▁ᏍᎩᎨᏳᎭᏧ	-11.6801
▁ᏓᎦᏓᏅᏏ	-11.6801
▁ᏓᎬᏯᎫᏴᎡᎵ	-11.6801
▁ᏓᏍᏆᎸᎮᎬᎢ	-11.6801
▁ᏕᎱᎪ	-11.6801
▁ᏕᏓᎧᏂᏍᎬ	-11.6801
▁ᏣᏂᎦᏴᎵ	-11.6801
▁ᏥᏂᎦᏛᏁᎭ	-11.6801
▁ᏦᎩᎦᏴᎵᎨᎢ	-11.6801
▁ᏩᏐᏝ	-11.6801
ᏍᏇᏲᎲᎦ	-11.6801
ᏤᏲᎲᏍᎦ	-11.6801
▁ᎠᎩᏔᎳᏬᏍᎬ	-11.6801
▁ᎠᎩᏲᎱᏏᏗ	-11.6801
▁ᎠᏍᏆᎾᎸ	-11.6801
▁ᎢᏲᎦᏛᏁᏗᏱ	-11.6801
▁ᎤᎵᏍᎦᏎ	-11.6801
▁ᎤᏂᏍᏛᏛᎯ	-11.6801
▁ᎤᏓᏁᏟᏴᏍᏔᏁᎴ	-11.6801
▁ᎤᏲᏏᏌᏁᎢ	-11.6801
▁ᏅᏓᏲᏣᏛᏁᎵ	-11.6801
▁ᏍᏇᎵᏎᏗᏱ	-11.6801
▁ᏗᎦᎸᏉᏔᏅᎯ	-11.6801
▁ᏗᏂᎭᏲᎯ	-11.6801
▁ᏗᏂᏏᎲᏍᎩ	-11.6801
▁ᏗᏲᎳᏅᎯ	-11.6801
▁ᏚᏟᎶᏍᏓᏁᎸᎩ	-11.6801
▁ᏥᏫᏗᎨᎦᏘᏅᏍᏔᏁ	-11.6801
▁ᏱᏄᏓᎠ	-11.6801
▁ᎢᏨᏁᏤᎸᎢ	-11.6801
▁ᎤᏁᎳᎥᎯ	-11.6801
▁ᎤᏃᎱᎦᏅ	-11.6801
▁ᎤᏩᎢᏎᎸᎯ	-11.6801
▁ᎪᎸᏌᏛᏗ	-11.6801
▁ᏙᏛᏂᏲᎯᏎᎵ	-11.6801
▁ᏚᏰᎵᎯᏍᏔᏁ	-11.6801
▁ᏧᏕᏲᏗᏱ	-11.6801
▁ᎠᎩᎳᏫᏍᏗᏱ	-11.6801
▁ᎡᎵᏍᏓᎦ	-11.6801
▁ᎾᏂᏴᎬᎾ	-11.6801
▁ᏗᎾᎵᏍᏓᏴᏂ	-11.6801
▁ᏚᏍᏕᎸᎯᎸ	-11.6801
▁ᏫᎷᏨᎭ	-11.6801
▁ᏴᎨᏦᎯᏳᎲᎦ	-11.6801
ᏗᎨᏥᏰᎪᎢ	-11.6801
▁ᎡᏣᏁᎳᏁᎸ	-11.6801
▁ᎤᏕᏯᏔᏁᎸ	-11.6801
▁ᏄᎵᏍᏚᎸᎾ	-11.6801
▁ᏕᎬᏗᏰ	-11.6801
ᏓᏅᏖᏔᏂ	-11.6801
▁ᎠᏂᏇᎵᏏ	-11.6801
▁ᎠᏆᏙᎴᎰᎯᏍᏗᏱ	-11.6801
▁ᎤᏍᏆᎷᎪ	-11.6801
▁ᎻᎴᎳ	-11.6801
▁ᏄᎪᎸᎾ	-11.6801
▁ᏈᏥᏱ	-11.6801
▁ᏍᎩᎦᏘᏰᏍᏗ	-11.6801
▁ᏕᎱᏓ	-11.6801
▁ᏩᏓᏁᏟᏴᏍᏓ	-11.6801
▁ᏫᏴᎨᏥᎷᎩ	-11.6801
▁ᏓᎾᏗᏔᏍᏗᏍᎨ	-11.6801
▁ᏚᏂᎵᏬᏨᎩ	-11.6801
▁ᏚᏬᏑᎴ	-11.6801
▁ᏬᎩᏃᎸᎩ	-11.6801
▁ᏭᏪᏙᎴᎢ	-11.6801
per	-11.6801
ᎯᎬᏍᎪᎸᎥᏍᎨᏍᏗ	-11.6801
▁ᎢᏓᎢᏎᏍᏗ	-11.6801
▁ᎤᎾᏕᏯᏔᏁᎴᎢ	-11.6801
▁ᎤᎾᏗᏒᎸ	-11.6801
▁ᎤᏚᏣᎳᏅᎩ	-11.6801
▁ᏂᏚᎾᎵᏂᎬᎬ	-11.6801
▁ᏄᎵᏍᏔᏂᏙᎴ	-11.6801
▁ᏍᏓᎵᎢ	-11.6801
▁ᏙᏓᏰᏣᏬᏍᏔᏂ	-11.6801
▁ᏚᎵᏘᎾᎥ	-11.6801
▁ᏥᏚᏃᎱᎦᏁ	-11.6801
▁ᏦᏓᎻ	-11.6801
▁ᏧᎳᏏᏗᏱ	-11.6801
▁ᏮᏓᎦᏙᎴᎣᏏ	-11.6801
▁ᎠᎫᏴᎡᏗᏱ	-11.6801
▁ᎤᎾᎵᏛᏔᏅ	-11.6801
▁ᎤᏂᏖᎸᏅ	-11.6801
▁ᏥᎨᏳᎠ	-11.6801
▁ᏩᎦᏘᏅᏍᏙᏗᏱ	-11.6801
ᎩᏲᎱᏎᎲᎩ	-11.6801
▁ᎡᏦᎯᏳᎲᏍ	-11.6801
▁ᎣᏌᏯ	-11.6801
▁ᎤᏙᏣᎸᎢ	-11.6801
▁ᎯᏅᎦᎸ	-11.6801
▁ᏂᏙᏓᎦᏪᏎᎵ	-11.6801
▁ᏗᏋᏅ	-11.6801
▁ᏚᏰᎵᏒ	-11.6801
▁ᎢᏥᎪᎵᏰᎥᎭ	-11.6801
▁ᎤᎾᏣᏪᏐᎸᏍᏙᏗᏱ	-11.6801
▁ᎤᏬᎦᏒ	-11.6801
▁ᎾᏂᎦᏔᎾᎥᎾ	-11.6801
▁ᏣᎷᎯᏍᏗᏱ	-11.6801
▁ᏗᏂᏍᏔᏲᎯ	-11.6801
▁ᏦᎯᏳᎭ	-11.6801
▁ᎠᏂᏃᏟᏙ	-11.6801
▁ᎠᏕᏘᏱᏍᎬ	-11.6801
▁ᎢᎩᏇᏓᎸ	-11.6801
▁ᎦᏨᏩᏍᏔᏅᎯ	-11.6801
▁ᏓᏱᏓᎵ	-11.6801
▁ᏗᎬᏩᎾᏛᎪᏙᏗ	-11.6801
▁ᏙᎩᎾᏗᏔᎲ	-11.6801
▁ᎤᎾᏕᎶᏆᏍᏗᏱ	-11.6801
▁ᏂᏙᏓᎬᏁᎵ	-11.6801
▁ᏄᏂᏍᎦᏅᏨᎾ	-11.6801
▁ᎬᏩᎪᎵᏰᏍᎬ	-11.6801
ᏪᏎᎢ	-11.6801
▁ᎠᎶᎻ	-11.6801
▁ᏓᏍᏕᎵᏍᎬᎩ	-11.6801
▁ᏓᏤᏅᎡᎵ	-11.6801
▁ᏕᎯᏯᏁᎶᏕᏍᏗ	-11.6801
▁ᏳᏂᏬᏂᏌ	-11.6801
▁ᎤᏎᎵᏓᏁᎴᏃ	-11.6801
▁ᎤᏪᎧ	-11.6801
ᏬᏁᏓ	-11.6801
▁ᏕᎧᏃᎮᏍᎬ	-11.6801
▁ᏧᏄᎪᏤᎢ	-11.6801
▁ᎠᎵᏃᎮᏗᏍᎬᎢ	-11.6801
▁ᏂᏨᎾᏛ	-11.6801
▁ᏚᎳᏫᏛ	-11.6801
▁ᎤᏓᏦᎯᏯ	-11.6801
▁ᏗᏧᎪᏗᏍᎩ	-11.6801
▁ᏛᏓᎸᎢ	-11.6801
ᏓᎴᏴᏗᏍᎩ	-11.6801
ᏨᏉᏛᎾ	-11.6801
▁ᎠᏂᎾᎷᏍ	-11.6801
ᎩᎵᏲᏥᏙᎸᎢ	-11.6801
ᎱᏢᏔᏅᎭ	-11.6801
ᏲᎱᎯᏎᎴᎢ	-11.6801
▁ᎾᎾᏓᏛᏍᎬᎾ	-11.6801
▁ᏗᎾᏓᏙᏕᏍᏗᏍᎩ	-11.6801
▁ᏧᏃᏑᎴᏗ	-11.6801
ᏙᏥᎵᏦᏛᎦ	-11.6801
▁ᎤᏅᏘᏛ	-11.6801
▁ᏱᏅᏓᎦᎵᏍᏙᏓ	-11.6801
▁ᎤᎾᏘᏍᏙᏗᏱ	-11.6801
▁ᎧᏁᏉᏥᏎ	-11.6801
▁ᎻᏗᏯᏂ	-11.6801
▁ᏅᏓᏨᏴᏁᎵ	-11.6801
▁ᎠᏰᎴᎩ	-11.6801
▁ᎦᎨᏥᏐᏢ	-11.6801
ᏓᏓᎴᏔᏂ	-11.6801
▁ᎣᏥᏯᎥ	-11.6801
▁ᎤᎾᏓᏓᏍᎩᏌᎲ	-11.6801
▁ᏄᎾᏙᏓᏈᏒ	-11.6801
▁ᏯᏥᏯᏝ	-11.6801
▁ᎠᏂᏂᎩᎸ	-11.6801
▁ᎠᏐᏢᎢᏍᏗᏍᎨᏍᏗ	-11.6801
▁ᎤᏗᏛᎲᎩ	-11.6801
▁ᏄᎵᏌ	-11.6801
▁ᏕᎨᎦᏨᏍᏔ	-11.6801
▁ᏚᎾᎵᏯᏍᏚ	-11.6801
▁ᏛᎬᏯᏘᏃ	-11.6801
▁ᏛᎵᏛᏔᏂ	-11.6801
▁ᏣᎪᏎᎰᎢ	-11.6801
▁ᏧᎾᏛᏒᎯ	-11.6801
▁ᎠᎬᏔᏅᏛ	-11.6801
▁ᎠᏃᏢᏅᎥᏍᎩ	-11.6801
▁ᎠᏍᏚᎢᏛ	-11.6801
▁ᏄᏂᏧᏈᏍᏕᏍᏗ	-11.6801
▁ᏅᏗᎦᏪ	-11.6802
▁ᏗᎬᏩᏂᏯᎢ	-11.6802
▁ᏧᎧᏃᏗᏱ	-11.6802
ᏍᏚᎢᏏ	-11.6802
▁ᎢᏣᏛᎩᏍᎬᎢ	-11.6802
▁ᏅᏗᏛᏁᎵᏒ	-11.6802
ᏨᏯᏛᏛᏂ	-11.6802
▁ᎠᏂᏁᎢᏍᏗᏍᎩ	-11.6802
▁ᏃᎩᏪᏒᎩ	-11.6802
▁ᏓᏳᏂᏄᎪᏨᎩ	-11.6802
▁ᏥᏄᎾᏍᏛᎢ	-11.6802
▁ᏧᎵᏠᏯᏍ	-11.6802
▁ᎤᏟᏃᎮᏔᏁᎢ	-11.6802
▁ᏂᎨᏣᏛᏁᎮᏍᏗ	-11.6802
▁ᎠᎩᏁᏉᏤ	-11.6802
▁ᎦᏴᏓᏗ	-11.6802
▁ᏒᎦᏙᎯ	-11.6802
▁ᎤᏍᏘᏰᎩ	-11.6802
▁ᎦᏢᏍᎩ	-11.6802
ᏕᏯᏔᏁᎭ	-11.6802
▁ᎢᏣᏛᎿᏕᎩ	-11.6802
▁ᎤᏆᎶᎦ	-11.6802
▁ᏂᎦᎷᎶᎬᎾ	-11.6802
▁ᎦᏅᏃᏫ	-11.6802
▁ᏕᎦᏕᏲᎲᏍᎬ	-11.6802
▁ᏣᎦᏥᎶᏍᏔᏅ	-11.6802
ᏣᏓᏅᎡᎸ	-11.6802
▁ᎠᎵᏱᎶᎸᎭ	-11.6802
▁ᎾᏆᎵᏍᏓᏁᎵᏕᎬ	-11.6802
▁ᎧᏂᎨᏂ	-11.6802
▁ᏅᏓᏥᏯᏛᏁᎵ	-11.6802
▁ᏚᎵᏥᏙᏁᎴᎢ	-11.6802
▁ᎤᏄᏬᎥᎯ	-11.6802
▁ᏗᎩᎪᎶᎯ	-11.6802
▁ᏙᎩᏃᏢ	-11.6802
▁ᏰᏦᏎᎮᏍᏗ	-11.6802
▁ᏗᎫᎪᏗᏱ	-11.6802
▁ᎢᏨᏁᏤᎭ	-11.6802
▁ᎡᏣᎵᎡᎵᏤᎮᏍᏗ	-11.6802
▁ᎡᏣᏁᏍᎨᎲᎯ	-11.6802
▁ᎤᎾᎵᏍᏓᏴᏃᏅ	-11.6802
ᏍᏚᎢᎡᎴ	-11.6802
▁ᎠᏆᎵᏂᎬᎬᎢ	-11.6802
▁ᎢᏨᏯᏅᏓᏗᏍᏗᏍᎬᎢ	-11.6802
▁ᏙᏘᏲᎢ	-11.6802
▁ᏧᏁᎩᏳ	-11.6802
▁ᎠᎩᏔᏕᎩᏍᎬ	-11.6802
▁ᏗᏥᏅᏍᎨᏂ	-11.6802
ᏧᎾᏚᎩᏎ	-11.6802
▁ᎢᏣᎵᏂᎬᏁ	-11.6802
▁ᏂᎦᎵᏍᏔᏂᏙᎮᏍᏗ	-11.6802
▁ᏄᏓᏅᏛᎾ	-11.6802
▁ᏧᏓᏅᎵᏰᏓ	-11.6802
▁ᎠᎵᏍᏆᏛᎭ	-11.6802
▁ᎢᏥᎾᏫ	-11.6802
▁ᎨᎩᏍᎦᎩ	-11.6802
▁ᎹᏈᎳ	-11.6802
ᏓᏂᏲᎰᏍᎪ	-11.6802
▁ᎾᏓᏛᏁᎲᎢ	-11.6802
▁ᎤᏂᎾᏰᏒᎩ	-11.6802
▁ᏂᏕᎦᏅᎯᏒᎩ	-11.6802
▁ᏄᎾᏓᏁᏟᏴᏎᎢ	-11.6802
▁ᏓᎳᎳ	-11.6802
ᎳᏫᏎᎮᏍᏗ	-11.6802
▁ᎠᏆᏍᎦᏱ	-11.6802
▁ᏄᏲᎱᏒᎩ	-11.6802
▁ᎢᏣᏛᎩᏍᎨᏍᏗ	-11.6802
▁ᏗᏓᎪᏗᏍᎩ	-11.6802
ᎳᏫᏎᏗ	-11.6802
▁ᎤᏓᏅᏓᏛᎢ	-11.6802
ᎾᎪᏄᎸ	-11.6802
▁ᏥᏓᏓᏂᎸᎪᎢ	-11.6802
▁ᏫᏨᏲᎵ	-11.6802
▁ᏘᏍᏓᏩᏚᎦ	-11.6802
▁ᎾᏂᎦᏔᎿᎥᎾ	-11.6802
▁ᏗᏠᏗ	-11.6802
▁ᎾᏐᏂ	-11.6802
▁ᎢᏏᎳᎻ	-11.6802
▁ᎢᏳᎾᎵᏍᏔᏁᏗ	-11.6802
ᎬᏲᏎᏗ	-11.6802
▁ᏙᏂᏍᎩ	-11.6802
▁ᏫᏚᎾᏘᏃᎮᎸᎩ	-11.6802
▁ᎦᏃᎯᎸᏍ	-11.6802
▁ᏕᎤᎸᏫᏍᏓᏁᎸ	-11.6802
▁ᎤᎧᎵᏦᏅ	-11.6802
▁ᏛᎩᏲᎵ	-11.6802
▁ᎠᏍᎪᎩᏍᎬ	-11.6802
▁ᏁᏙᎲᎾ	-11.6802
▁ᏫᏚᏂᏴᏍᏗᏱ	-11.6802
▁ᎠᏂᏲᎵᎮ	-11.6802
▁ᎤᎾᏦᏍᏔᏁ	-11.6802
▁ᏅᏓᏳᏪᏒᎩ	-11.6802
▁ᏧᎾᎳᏏᏕᏄᎶᏗ	-11.6802
▁ᏬᏥᎦᏛ	-11.6802
ᏢᏥᏰᏍ	-11.6802
▁ᏚᏬᏢᏔ	-11.6802
ᎳᏍᏕᎵᏴᏌ	-11.6802
▁ᏥᎾᏂᎥ	-11.6802
▁ᏱᏩᏍᏔ	-11.6802
▁ᎠᏆᏁᎳᏫᏎ	-11.6802
▁ᎤᏪᏣᏄ	-11.6802
▁ᏧᎾᎳᏏᏕᏅ	-11.6802
ᎫᎪᏓᏁᏗ	-11.6802
▁ᎤᏅᏫᏍᏗᏍᎩ	-11.6802
▁ᏅᏧᏪᏎᎴᎢ	-11.6802
▁ᎠᎪᏩᏘᏍᎩ	-11.6802
ᏗᎩᏴᎩ	-11.6802
▁ᎤᏁᏢᏔᏅᏒᎢ	-11.6802
▁ᎠᏁᏦ	-11.6802
▁ᏍᎩᏯᏛᏓᏍᏓᏏ	-11.6802
▁ᎬᏩᏍᏆᏗᏍ	-11.6802
▁ᎠᎨᎾᏂ	-11.6802
▁ᏧᎵᏍᏆᎵ	-11.6802
ᎵᎯᎮᎢ	-11.6802
▁ᏳᏍᏆᎸ	-11.6802
▁ᎤᏗᎴᎲᏍᎨᎢ	-11.6802
▁ᎤᎵᏒᏍᏔᏁᎢ	-11.6802
▁ᏍᏗᎩᏓ	-11.6802
▁ᎠᎾᏓᎸᏉᏗᏍᎩ	-11.6802
▁ᏕᎦᎦᏙᏍᏛ	-11.6802
▁ᏚᏂᏎᎪᎩᏎ	-11.6803
▁ᎤᏃᏴᎳᏒ	-11.6803
ᎩᏍᏚᎲᎩ	-11.6803
▁ᎠᎢᏗᏢ	-11.6803
▁ᎤᎾᏁᎳᏛ	-11.6803
▁ᏏᏗᎻ	-11.6803
▁ᏥᎦᏙᎦ	-11.6803
▁ᎢᎪᎯᏳᏒ	-11.6803
▁ᏓᏳᏠᎠᏒᎩ	-11.6803
▁ᎢᎨᏓᏍᏗᏱ	-11.6803
▁ᎢᏥᎪᏙᏍᎨᏍᏗ	-11.6803
ᎭᏄᏫ	-11.6803
▁ᏧᏲᏍᏔᏅᎯ	-11.6803
ᎩᎵᏲᎨᏍᏗ	-11.6803
▁ᎢᏨᏲᎵᎦ	-11.6803
▁ᎤᏍᎦᎢᏓ	-11.6803
▁ᏚᏂᏲᏏᏍᎬ	-11.6803
▁ᎠᏉᎵᏨ	-11.6803
▁ᎣᏣᏓᏅᏟ	-11.6803
ᏓᏲᎵᏍᏗ	-11.6803
▁ᏂᏗᏨᎦ	-11.6803
▁ᏚᏥᎸᏒ	-11.6803
▁ᏗᏓᏟᎶᏍᏔᏅ	-11.6803
▁ᎤᎯᏌᏛ	-11.6803
▁ᏕᎤᏲᎯᏎᎴᎢ	-11.6803
ᏍᎦᎳᏤ	-11.6803
▁ᎠᏓᏅᏬᎯᏍᏗᏍᎩ	-11.6803
▁ᏭᏗᏢᏍᏔᏅ	-11.6803
▁ᏓᏥᎾᏄᎪᏫᏎᎵ	-11.6803
▁ᎢᏣᏓᏅᏓᏓ	-11.6803
ᏃᏣᏝ	-11.6803
▁ᏚᏩᎢᏢ	-11.6803
▁ᎢᏥᏁᎢᏍᏗᏱ	-11.6803
▁ᎢᏥᏲᎮᏍᏗ	-11.6803
▁ᎥᎩᏂᎵ	-11.6803
▁ᏕᎭᏘᏁ	-11.6803
▁ᎠᎩᏁᎫ	-11.6803
▁ᎠᏎᎵᏛᏍᎬ	-11.6803
▁ᏱᎯᎦᏔᎮ	-11.6803
▁ᎾᎾᎵᏍᏗᎭ	-11.6803
▁ᎤᏓᏅᎵᏰᏓ	-11.6803
▁ᎠᏯᏂᎭ	-11.6803
▁ᎤᏂᏲᎢᏎᎸᎯ	-11.6803
▁ᎡᏥᎸᏉᏗᏍᎨᏍᏗ	-11.6803
▁ᏕᎦᏆᏛ	-11.6803
▁ᏚᏂᎳᏫᏦᎴ	-11.6803
▁ᎥᏆᏬᏍᏙᏗ	-11.6803
▁ᎤᎾᎵᏍᏔᏴᏅ	-11.6803
▁ᎤᏂᏄᎪᎢᏍᏗ	-11.6803
▁ᎤᏰᎸᏐᎢ	-11.6803
ᎹᎵ	-11.6803
▁ᎠᏉᎯᏳᎲᏍᎨᏍᏗ	-11.6803
▁ᏳᏂᏃᎮᎸ	-11.6803
ᎬᏑᎶᏙᏗ	-11.6803
▁ᎠᎾᎵᏍᏓᏴᎲᏍᎩ	-11.6803
▁ᏫᏍᎩᏩᎯᏏ	-11.6803
▁ᏫᏚᎵᏍᏘᏂᎸ	-11.6803
▁ᎠᎩᏁᎢᏍᏔᏅ	-11.6803
▁ᎠᏓᏓᏱᎮᏍᏗ	-11.6803
▁ᎣᎦᏂᎩᏒᎩ	-11.6803
ᏟᎶᏍᏔᏂ	-11.6803
▁ᎫᏘᏍᎬ	-11.6803
▁ᏫᎬᎷᏤᏗᏱ	-11.6803
▁ᏅᏓᏳᎾᏄᎪᎢᏍᏗ	-11.6803
▁ᏦᏥᏰᎸ	-11.6803
▁ᏚᎾᏂᏏᏁᎢ	-11.6803
▁ᏱᎦᏂᏆᏘᎭ	-11.6803
ost	-11.6803
▁ᏓᏰᏥᎪᎢ	-11.6803
▁ᎠᎾᎵᏍᏔᏴᎲᏍᎬ	-11.6803
▁ᏕᏣᏏᎳᏛ	-11.6803
▁ᎢᏍᎩᎪᏩᏘᏍᎨᏍᏗ	-11.6803
▁ᎤᎾᏁᎶᏔᏁ	-11.6803
▁ᏫᏓᏂᎷᎦ	-11.6803
▁ᏌᎳᏓᏱᎵ	-11.6803
▁ᏓᏉᏙᎥ	-11.6804
▁ᏄᏯᎩ	-11.6804
▁ᏓᏆᎭᏄᏮ	-11.6804
ᏕᎰᏍᎬᎾ	-11.6804
ᏰᎦᏟ	-11.6804
▁ᎦᎾᏜᎢ	-11.6804
▁ᎤᏛᎯᏍᏔᏅ	-11.6804
er	-11.6804
ᏦᎣᏍᏙᏗ	-11.6804
ᏲᎱᏒᎾ	-11.6804
▁ᎢᏨᏍᏓᏩᏕᏅ	-11.6804
▁ᏌᏗᏏ	-11.6804
▁ᏅᏛᎴᏅᏛ	-11.6804
▁ᏗᎾᏓᎯᎯ	-11.6804
▁ᏧᎾᎭᎾᏬ	-11.6804
▁ᎠᏆᏛᏐᏅᎯ	-11.6804
▁ᎤᏛᎸᎮ	-11.6804
▁ᎤᏁᏍᎨᎴ	-11.6804
▁ᏓᏘᎭᏁᎲ	-11.6804
ᎶᏄᎮᎸᎩ	-11.6804
▁ᏓᏳᏗᏩᏏ	-11.6804
▁ᏗᏓᏠᏍᏗ	-11.6804
▁ᎦᎸᎳ	-11.6804
ᎵᏍᏓᏁᎵᏕᎬ	-11.6804
▁ᎣᎦᏁᎳᎩ	-11.6804
▁ᏐᏆᎵ	-11.6804
▁ᎤᏓᏬᎡ	-11.6804
▁ᏫᏗᏍᎩᏯᏅᏏ	-11.6804
▁ᏙᏓᏲᏣ	-11.6804
▁ᎢᎨᎳᏗᏙᎭ	-11.6804
▁ᎢᏣᏓᏄᎸᏗ	-11.6804
▁ᎢᎫᏓᎴᏍᏗᏱ	-11.6804
ᏣᎦᏎᏍᏓ	-11.6804
▁ᏳᏥᏍᎪᎸ	-11.6804
▁ᎢᎤᏂᎷᏨ	-11.6804
▁ᏱᏍᎩᎪᏩᏘᏍᎨᏍᏗ	-11.6804
▁ᏳᏓᏅᏒ	-11.6804
▁ᏕᎦᏯᎸ	-11.6804
▁ᎣᏦᎯᏳᎲᏍᎦ	-11.6804
▁ᏘᎦᎵᏍᏙ	-11.6804
▁ᎢᏰᏨᏁᏗᏱ	-11.6804
▁ᎠᏍᏙᏓ	-11.6804
▁ᎨᏣᎵ	-11.6804
▁ᎭᎵᏍᏓᏴᎲᎦ	-11.6804
▁ᎢᏣᏗᏔᏍᎨᏍᏗ	-11.6804
▁ᏱᏂᎬᏩᏍᏗᏉ	-11.6804
▁ᏥᏂᎬᏁᎭ	-11.6804
▁ᏙᏥᏲᎦ	-11.6804
▁ᏧᏟᏴ	-11.6804
▁ᏗᏂᏂᎨ	-11.6804
▁ᎢᎪᎯᏳᏅ	-11.6805
▁ᎠᏉᎯᏳᎲᏍᎩ	-11.6805
▁ᎡᎳᏆᏘ	-11.6805
▁ᎠᏆᏎᎵᏙᏔᏅ	-11.6805
▁ᎤᏩᏴᏒ	-11.6805
▁ᏚᎾᏠᏱᎸᎩ	-11.6805
▁ᎢᏳᎾᏓᎵ	-11.6805
▁ᏴᎨᏤ	-11.6805
▁ᏗᎬᏩᏂᎾᏝᎢ	-11.6805
▁ᏚᏰᎵᏏᏙᎴᎢ	-11.6805
▁ᏕᏥᏁᏤᎮᏍᏗ	-11.6805
▁ᎠᎦᏘᏅᏍᏗᏱ	-11.6805
▁ᎤᎵᏏᏂᏕᎾ	-11.6805
▁ᏥᏥᏃᎮᎭ	-11.6805
▁ᎤᎾᏓᏅᎡᎸᎩ	-11.6805
▁ᏂᏥᎾᏰᏍᎬᎾ	-11.6805
▁ᏥᎩᎵᎵ	-11.6805
ᏍᏓᏩᏕᎦ	-11.6805
▁ᎠᏆᏣᏅᏓᏕ	-11.6805
▁ᏴᏗᏓᎴᎲᏍᎦ	-11.6805
▁ᏚᏍᏚᏤ	-11.6805
ᎨᎲᏒᎩ	-11.6805
▁ᎡᏣᏓᏅᏛᎵ	-11.6805
▁ᏯᎩᎸᏉᏗ	-11.6805
▁ᏚᏂᏃᎸᎩ	-11.6805
▁ᏍᏆᏕᏁᎸ	-11.6805
▁ᎦᎶᏁ	-11.6805
▁ᏕᏣᏓᏅᏖᏍᏗ	-11.6805
▁ᎢᎬᏴᏁᏗᏱ	-11.6805
▁ᏓᎾᎴᎯᏌᏅ	-11.6805
▁ᏕᏣᏓᎨᏳᏒ	-11.6805
▁ᏕᏣᎸᏫᏍᏓᏁᎮᏍᏗ	-11.6805
▁ᎠᎦᏘᏱ	-11.6805
▁ᏥᏗᎧᎸᎪ	-11.6805
▁ᎢᏥᏫᏅ	-11.6805
▁ᏭᎦᏔᎲᏍᏔᏅ	-11.6805
ᎾᏣᏪᏐᎸᏍᏙᏗ	-11.6805
ᎥᏍᎩᏱᎩ	-11.6805
▁ᎤᎩᎴᏍᏗ	-11.6805
▁ᎤᏙᎵᏍᏙ	-11.6805
▁ᏗᎦᏅᏆᎶ	-11.6805
▁ᎦᏓᏙᎵᏍᏗᏍᎨᏍᏗ	-11.6806
▁ᎠᎾᏙᎴᎰᏍᎨᏍᏗ	-11.6806
▁ᏯᏬᏅ	-11.6806
▁ᎠᏱᏍᎨᏍᏗ	-11.6806
▁ᎢᏗᎬᏓ	-11.6806
▁ᏥᎨᎳᏗᏙᎮ	-11.6806
▁ᎤᏗᎦᎵᏍᏙᏗᏍᎨ	-11.6806
▁ᏭᎵᏰᎢᎶᎸ	-11.6806
▁ᏍᎩᏯᏓᏅᏏ	-11.6806
▁ᎠᏕᏄ	-11.6806
ᏗᏫᏎᏗ	-11.6806
▁ᎢᏥᏂᎬᏎᎲᎢ	-11.6806
▁ᏓᏳᏍᏕᎸᎯ	-11.6806
▁ᎹᏚ	-11.6806
▁ᏭᏂᎧᏁ	-11.6806
▁ᎤᏩᏃᏫᏍ	-11.6806
▁ᎤᏃᏒᏅ	-11.6806
ᏓᏚᎪᏓᏁᎭ	-11.6806
▁ᎢᎬᎾᏕ	-11.6806
▁ᏌᎵᎹ	-11.6806
▁ᎠᏕᎰᎯᏍᏗ	-11.6806
▁ᏗᏣᏠᏱᎸᎩ	-11.6806
▁ᎤᎾᏂᎩᏍᏗ	-11.6806
▁ᎦᎶᏐᏅ	-11.6806
▁ᎨᏣᎵᏍᏕᎸᏙᏗ	-11.6806
▁ᏗᎬᏣᏝᏅ	-11.6806
▁ᎦᏁᏐᎠᏍᎬ	-11.6806
▁ᏧᏪᏲᏅᎯ	-11.6806
▁ᏫᏨᏲᏪᎳᏁᏗᏱ	-11.6806
▁ᏗᎦᎾᎯᏍᏙᏗ	-11.6807
ᏓᏄᏴᏛᎾ	-11.6807
▁ᏚᏅᏫᏍᏔᏅ	-11.6807
ᎪᏪᎵ	-11.6807
▁ᏚᏂᏐᏈ	-11.6807
▁ᏗᏤᎵᏏ	-11.6807
▁ᎠᏥᏌᎳᏓᏅ	-11.6807
▁ᏩᏎᎯ	-11.6807
▁ᏥᎾᏬ	-11.6807
ᎩᎩᎡᎵ	-11.6807
▁ᏅᏩᏛᏁᏍᏗ	-11.6807
▁ᏤᏥᎤᏍᏕᏎᏗᏱ	-11.6807
▁ᎢᏣᏣᏪᏐᎸᏍᏓ	-11.6807
▁ᎣᎩᎾᏟᏃᎮᎸ	-11.6807
▁ᏗᏂᏂᏙᎯ	-11.6807
ᏗᏔᏍᏔᏁ	-11.6807
▁ᏧᎾᏁᎳᏗᏍᏗᏱ	-11.6807
▁ᎢᏨᏲᎢᏳ	-11.6807
▁ᎢᏳᏥᎶᏓ	-11.6807
▁ᏋᏗᏱ	-11.6807
▁ᎠᎬᏂᏗᏳ	-11.6807
▁ᎤᏴᏍᏕᏍᎩ	-11.6807
▁ᏥᏄᏪᏎᎴᎢ	-11.6807
▁ᎯᏁᏒᎭ	-11.6807
ᏃᏪᎳᏁ	-11.6808
▁ᎢᏣᏓᏯᏫᏍᎨᏍᏗ	-11.6808
▁ᏧᏓᎴᏅᏔᏅᎯ	-11.6808
▁ᎢᏨᏯᏛᏁᏗᏱ	-11.6808
ᏥᏲᎤᎯ	-11.6808
▁ᏫᏄᏩᏁᎴ	-11.6808
▁ᎠᎦᏬᎥ	-11.6808
▁ᏄᎾᏍᏕᏍᏗ	-11.6808
▁ᎤᏍᏆᏄ	-11.6808
▁ᎦᏁᎵᏛ	-11.6808
▁ᏚᎾᎵᏂᎬᎬ	-11.6808
▁ᏂᎦᏁᎲᎾ	-11.6808
▁ᏧᏬᏢᏙᏗ	-11.6808
ᏢᏈᏍᎦ	-11.6808
▁ᏗᏣᏚᏙ	-11.6808
▁ᎤᏍᏆᎸᎯᏗᏒᎩ	-11.6808
▁ᏳᏲᏤᎢ	-11.6808
▁ᏕᏨᏰ	-11.6808
ᏍᎦᏞᎢ	-11.6808
▁ᎢᏣᏛᏓᏍᏗᏍ	-11.6808
ᏙᎰᏎ	-11.6808
▁ᏛᎨᏥ	-11.6808
▁ᏥᏚᏙᎠ	-11.6808
▁ᏄᏓᎨᏒ	-11.6808
▁ᎤᏂᏏᏁᎢ	-11.6808
▁ᎤᏂᏑᎵᎪᏤ	-11.6808
▁ᎤᏓᏅᏓᏛᎩ	-11.6808
▁ᎮᎲ	-11.6808
▁ᎠᏅᏍᎬᎢ	-11.6809
▁ᎢᏨᏅᎵ	-11.6809
▁ᏅᏓᏳᏄᎪᏨᎯ	-11.6809
ᎶᏅᎮᎸ	-11.6809
▁ᎯᏫᏅ	-11.6809
ᏅᎪᏣ	-11.6809
▁ᏍᎩᏂᏌᏅᎭ	-11.6809
▁ᎠᏂᎵᏫ	-11.6809
ᏎᏒᎮ	-11.6809
▁ᎢᏤᎳᏗᏙᎭ	-11.6809
▁ᏍᎩᏯᏘᏃᎮᎸᎭ	-11.6809
▁ᏣᎾᏓᎾᏏᏂᏙᎭ	-11.6809
▁ᏥᎦᎷᎯᏍᏗᎭ	-11.6809
▁ᏥᏯᎵᎪᏁᎯ	-11.6809
st	-11.6809
▁ᎢᏣᏛᎪᏗ	-11.6809
▁ᎢᏳᏪᏍᏘ	-11.6809
▁ᏂᏥᏪᏒᎭ	-11.6809
▁ᎡᏙᏙᏱ	-11.6809
▁ᎾᎾᏓᏁᏟᏴᏏᏒ	-11.6809
▁ᎬᎩᎷᏤᏗᏱ	-11.6809
▁ᏓᏂᎾᏌᏛ	-11.6809
▁ᏱᏄᏩᏁᎸ	-11.6809
▁ᏱᏦᎵᎦ	-11.6809
▁ᎣᏣᏓᏙᎵᏍᏓᏁ	-11.6809
ᏴᎳᏎᎢ	-11.6809
▁ᎢᏦᎯᏳᏅ	-11.6809
▁ᏱᏙᎦᏰ	-11.6809
▁ᏕᏨᏁᏍᏗ	-11.6809
▁ᎡᏦᎢᏳᏗᏱ	-11.6809
▁ᎾᏥᏪᏎᎸ	-11.6809
▁ᏦᏥᎦᏔᎭ	-11.6809
▁ᎨᏥᏁᎢᏍᏗᏍᎬ	-11.6809
▁ᎧᏁᎦ	-11.681
▁ᎤᎵᏍᏚᎸᎩ	-11.681
▁ᎤᏂᏴᏔᏂᎯᏍᏗᏱ	-11.681
▁ᎤᎾᏜᏏᏛᎡ	-11.681
▁ᎡᏥᏯᎡᏍᏗ	-11.681
▁ᎠᎩᏁᎢᏍᏗᏱ	-11.681
▁ᎢᏨᎪᏩᏛᏗᏱ	-11.681
▁ᎠᏆᏛᏛᏅ	-11.681
▁ᏦᏞᏍᏗ	-11.681
ᎾᏓᏙᎵᏍᏗᏍᎪᎢ	-11.681
▁ᏚᏃᎸᏎᎢ	-11.681
▁ᏱᏥᏩᏘᎭ	-11.681
▁ᏱᏣᏰᎸᏅ	-11.681
▁ᏫᎯᎶᎯ	-11.681
ᏍᏕᏓᎵᏴᏌ	-11.681
▁ᎨᎪᏢᏅᎯ	-11.681
▁ᏱᎾᏥᎸᏉᏙ	-11.681
ᎮᏗᏱ	-11.681
▁ᏧᏂᎵᎡᎾ	-11.681
▁ᎤᏰᏥᏍᎩ	-11.681
▁ᏯᏆᏛᎦ	-11.681
▁ᎰᎯᏳᎲᎦ	-11.681
▁ᏂᎪᎵᎬᎾ	-11.6811
▁ᎬᏩᏂᏴᎮᎢ	-11.6811
ᏓᏐᎴ	-11.6811
▁ᎢᏥᎷᎨᏍᏗ	-11.6811
▁ᎥᎩᏍᏕᎸᏗᏱ	-11.6811
▁ᏱᎦᏕᎣᏍᎦ	-11.6811
▁ᏥᏰᎸᎥ	-11.6811
▁ᏯᏲᎱᎯ	-11.6811
▁ᎯᏲᏎᎸ	-11.6811
▁ᎠᏯᏖᏂ	-11.6811
▁ᏱᎾᏛᏁᎮ	-11.6811
▁ᎤᎵᏍᏆᏙᏅ	-11.6811
▁ᎢᏨᎷᏤᏗᏱ	-11.6811
▁ᏧᏂᏲᎱᎯᏍᏗ	-11.6811
▁ᎠᎦᎸᏥ	-11.6811
▁ᏂᏯᏛᏂᏏ	-11.6811
ᏅᏮᎦ	-11.6811
ᎩᏠᏫᏍ	-11.6811
▁ᎯᏲᏍᏗᏍᎩ	-11.6811
ᏥᏍᏓᏱᏕᎸ	-11.6811
▁ᏕᏨᏗᏍᎨᏍᏗ	-11.6811
▁ᏕᏥᎸᏉᏕᏍᏗ	-11.6811
▁ᎠᏆᏙᎴᎰᏒ	-11.6811
▁ᏚᏃᎯᏳ	-11.6811
▁ᎤᏬᎯᏳᎯᏍᏛ	-11.6811
ᏐᏈ	-11.6811
ᏠᏱᎸᎩ	-11.6811
▁ᏗᎦᏅᏍᏙᏗ	-11.6811
▁ᎤᏂᏯᏙᎴ	-11.6811
▁ᎢᏯᏆᎵᏍᏓᏁᏗ	-11.6811
▁ᏣᏍᏉᏂᎪᏗ	-11.6811
▁ᏥᎦᏁᎭ	-11.6811
ᏯᏓᏅᏏ	-11.6811
▁ᏕᎦᎶᏍᎬ	-11.6812
▁ᎠᎩᎾᏄᎪᏫᏎᎸᎩ	-11.6812
▁ᎪᏢᏍᎦ	-11.6812
▁ᏗᎨᎪᏍ	-11.6812
▁ᎠᎩᎸᏗᏍᎩ	-11.6812
▁ᎦᏓᏆᏟ	-11.6812
▁ᎠᎾᏓᏁᏟᏴᏏᏒ	-11.6812
ᎦᏑ	-11.6812
▁ᏕᎨᏥᎵᎥᏂ	-11.6812
▁ᎭᏓᏙᎵᏍᏗᏍᎬ	-11.6812
▁ᏣᏓᏅᏖᏗᏱ	-11.6812
▁ᎢᏨᎥᏏ	-11.6812
▁ᎤᎾᏓᏅᏔᏩᏕ	-11.6812
▁ᎠᎵᎮᎵᏤᎰᎢ	-11.6812
▁ᏧᏂᎦᏯᎷᏗ	-11.6812
ᏠᎯᏍᏗᏱ	-11.6812
▁ᎤᎾᏓᏙᎵᏍᏙᏗᏱ	-11.6812
▁ᏫᏄᏒ	-11.6812
▁ᏖᏒ	-11.6812
▁ᏚᏂᎵᏦᏛ	-11.6812
▁ᎠᎩᏟᏲ	-11.6812
▁ᏧᎵᏏᏅᏓ	-11.6812
▁ᏧᏓᏂᎸᎢᏍᏗᏳ	-11.6812
▁ᏕᎯᎦᏔᎭ	-11.6812
▁ᏳᏣᏅ	-11.6812
▁ᏄᏛᏁᎵᏙᎸ	-11.6812
▁ᎤᎶᎩᎳ	-11.6812
▁ᏳᎴᏫᏍᏔᎾ	-11.6812
▁ᎦᏃᏙᏗ	-11.6813
ᎦᏎᏍᏔᏅ	-11.6813
▁ᎠᏆᏎᎵᏔᏅ	-11.6813
▁ᎤᏂᏲᏍᏙᏗᏱ	-11.6813
▁ᎤᏓᏴᏒᎩ	-11.6813
▁ᎢᏣᏗᏔᏍᏗᏱ	-11.6813
ᎶᎩᎯ	-11.6813
▁ᎠᏑᎲᏍᎦ	-11.6813
▁ᎤᎾᏓᏕᏒᏓ	-11.6813
▁ᏥᎦᏘᏏᏗᏢ	-11.6813
▁ᎢᏣᏓᏅᏓᏗᏍᏗᏱ	-11.6813
▁ᎤᎱᏍᏕᏎᎴ	-11.6813
▁ᎤᎵᏍᎫᏮ	-11.6813
▁ᎤᎵᏍᏛᏧᏅ	-11.6813
▁ᎤᎵᏬᎢᏍᏗ	-11.6813
▁ᎤᏅᎦᎳᎲ	-11.6813
▁ᎤᏯᏍᏚᏎᎢ	-11.6813
▁ᎤᏁᏍᎨᎲᎢ	-11.6813
▁ᎤᏰᏣ	-11.6813
▁ᎠᏔᏍᎩᏍ	-11.6813
ᎪᎲᏍᏔᏂ	-11.6813
ᏓᎾᏌᎲᏍᎩ	-11.6813
▁ᏚᏓᏬᎥ	-11.6813
▁ᎢᏣᎴᏂᏓᏍᏗᏱ	-11.6813
ᎱᏩ	-11.6813
▁ᎤᏟᎶᎥᎩ	-11.6814
ᏃᎲᎳ	-11.6814
▁ᏥᏁᏣᏛᏁ	-11.6814
ᏧᎧᎸᏨ	-11.6814
▁ᎢᎬᏩᏂᎩᏍᏔᏁ	-11.6814
▁ᎣᏣᎢᏒ	-11.6814
▁ᏥᎦᏡᎦ	-11.6814
▁ᏥᎦᏘᏯ	-11.6814
▁ᎯᏃᎮᏍᎩ	-11.6814
▁ᎾᏆᎵᏍᏔᏁᎸ	-11.6814
▁ᏤᏣᏛᏅᎩ	-11.6814
ᏤᏙᎭ	-11.6814
ᏬᎯᎵᏴᏍᏓᏁ	-11.6814
▁ᏫᏂᏣ	-11.6814
▁ᎣᎦᏅᏅᎩ	-11.6814
▁ᏗᏑᏫᏍᎩ	-11.6814
▁ᏂᎬᏩᏍᏛ	-11.6814
▁ᏧᏂᏍᏚᏗ	-11.6815
▁ᎢᏥᎷᏤᏗ	-11.6815
▁ᎨᏥᏛᎦ	-11.6815
▁ᏳᏩᏛᎮᎢ	-11.6815
▁ᏭᏗᏅᏎ	-11.6815
▁ᏗᎦᏁᎶ	-11.6815
▁ᏙᏛᎠᎴ	-11.6815
▁ᎤᏩᎦᏘ	-11.6815
▁ᎠᏯᎣᎢ	-11.6815
▁ᎤᎾᏓᏄᎸᏗ	-11.6815
ᎫᏈ	-11.6815
▁ᎤᏂᏁᎢᏍᏗ	-11.6815
▁ᏚᏄᎪᏫᏎ	-11.6815
ᏓᎦᎵᏍᏙᏔᏂ	-11.6815
▁ᏗᏓᏘᏍᏗ	-11.6815
ᏋᏕᏨ	-11.6815
▁ᎢᏳᎾᏕᏘᏴᏛ	-11.6815
▁ᏅᏛᏁᎵ	-11.6815
▁ᏫᏚᎧᎾᏅ	-11.6816
▁ᎤᏁᏌᏴ	-11.6816
▁ᎤᎭᏄᏮ	-11.6816
▁ᎤᎬᎭᏓ	-11.6816
▁ᎤᏴᏍᏕᏓ	-11.6816
▁ᏧᎭᎾᏬ	-11.6816
▁ᎠᎾᎵᎲᎢ	-11.6816
▁ᏓᎪᏩᏘᏍᎬ	-11.6816
▁ᎤᏗᏩᏒᎩ	-11.6816
ᏩᏍᏗᎭ	-11.6816
▁ᎢᏥᎦᏔᎯᏳ	-11.6816
▁ᎡᏤᎵᏎ	-11.6816
▁ᎠᏥᎸᎨᎳᏍᏙᏗ	-11.6816
▁ᏧᏪᏲᎲᏍᎩ	-11.6817
▁ᎡᎩᏩ	-11.6817
▁ᏱᏦᎯᏳᎲᎦ	-11.6817
▁ᎠᏆᏢᏈᏍᏗᏱ	-11.6817
▁ᎣᎾᏫᏱ	-11.6817
▁ᎠᏂᏯᏙᎯᎯ	-11.6817
▁ᎹᏌ	-11.6817
▁ᎤᏂᎪᎵᏰᏗᏱ	-11.6817
▁ᏣᏱᎵᏙᎯ	-11.6817
▁ᎬᏩᏂᏍᎦᎩ	-11.6817
ᏓᎾᏫᏛᏗ	-11.6817
▁ᏂᏍᎩᏴᏁᎸ	-11.6817
▁ᏄᏛᏁᎳ	-11.6817
▁ᏧᏪᏙᎵᏍᏗᏱ	-11.6817
▁ᏚᏯᏅᎮᎢ	-11.6817
▁ᎦᏃᎱᎩᏍᎨ	-11.6817
▁ᏚᏍᏚᎢᏎ	-11.6817
ᏯᏠᎢᏍᏓᏁᎵ	-11.6818
▁ᎥᏘᏍᎩ	-11.6818
ᏚᏁᎢ	-11.6818
▁ᎬᏩᏍᏚᎢᏍᏗ	-11.6818
▁ᏍᎩᏩᎯ	-11.6818
▁ᏫᏂᎬᎦ	-11.6818
▁ᏓᏆᎴᎸ	-11.6818
▁ᎠᎫᏣ	-11.6818
▁ᎠᎵᏍᎩᏍᏗ	-11.6818
ᎾᏟᏃᎮᎸ	-11.6818
▁ᏥᏚᎦᏒᏍᏙ	-11.6818
▁ᎠᏂᎪᏩᏘᏍᎩ	-11.6818
▁ᎭᏅᏓᏓ	-11.6818
▁ᏧᎾᏔᎾ	-11.6818
▁ᏁᏨᏁ	-11.6818
▁ᎦᏓᏫᏔᏅ	-11.6819
▁ᎠᏧ	-11.6819
▁ᏗᏣᏏᎳᏛᏗ	-11.6819
▁ᏧᏩᎿ	-11.6819
▁ᏚᏖ	-11.6819
▁ᏫᏥᏤᎢ	-11.6819
▁ᎢᏣᏙᎴᎰᎯᏍᏗᏱ	-11.6819
▁ᎤᏰᎾᎥ	-11.6819
▁ᎠᏓᎦᏘᏕᎯ	-11.6819
▁ᏱᎨᏩ	-11.6819
▁ᏧᏂᎶᏒ	-11.6819
▁ᎢᏣᏓᏅᏙ	-11.6819
ᏕᎶᏆᎡ	-11.6819
▁ᏒᏍᎦ	-11.682
▁ᎢᏥᎪᏩᏛ	-11.682
▁ᏫᎾᏛᎦ	-11.682
▁ᎢᎩᏍᏕᎵᎭ	-11.682
▁ᎯᎦᏔᎮᏍᏗ	-11.682
▁ᎠᏂᏍᎦᏰᎬᏍᏔ	-11.682
▁ᎦᏃᏟ	-11.682
ᏣᏘᏃᎸᎭ	-11.682
▁ᏗᎦᏚᏗᏱ	-11.682
▁ᎤᎾᏓᏙᎵᏍᏗ	-11.682
▁ᏧᏴᎴ	-11.6821
ᏓᏨᎾᏄᎪᏫᏎᎵ	-11.6821
ᏇᏓᏍᏗ	-11.6821
▁ᎤᏍᏆᎸᎮ	-11.6821
▁ᏤᏙᎸᎢ	-11.6821
▁ᎠᎩᏃᎮᏍᎬᎢ	-11.6821
▁ᏙᎨᏥ	-11.6821
ᎧᎲᏍᎩ	-11.6821
▁ᏑᏥᎶ	-11.6821
▁ᎤᏂᎷᎯᏍᏗ	-11.6821
▁ᏥᏕᏙᎭ	-11.6821
▁ᏯᏃᎯᏳᎲ	-11.6821
ᏏᏏᏍᎩ	-11.6821
▁ᎠᏆᏅᏛ	-11.6822
▁ᎾᏑᎵᎪᎬᎾ	-11.6822
▁ᎢᏕᎮᏍᏗ	-11.6822
▁ᎡᏤᏲᏅᎢ	-11.6822
ᎴᎳᏛᏅ	-11.6822
▁ᎬᏁᏤᎲᎢ	-11.6822
▁ᏚᏃᏪᎸᎢ	-11.6822
▁ᏧᏁᏢᏔᏅᏒᎢ	-11.6822
▁ᎢᏨᏁᎢᏍᏗᏍᎬᎢ	-11.6822
▁ᎤᎾᏓᏁᏟᏴᏒᏒᎢ	-11.6822
▁ᏓᎪᏄᎴᎢ	-11.6822
▁ᏚᏪᏣᎦᎸᎮᎢ	-11.6822
▁ᏧᎾᏄᎪᏤᎢ	-11.6822
▁ᎤᏓᏅᏔᏕᎢ	-11.6822
▁ᏄᏍᏗᏕᎬᎢ	-11.6822
▁ᏗᏣᎵᏂᎪᎯᏍᏙᏗᏱ	-11.6822
▁ᎦᏐᏂ	-11.6822
▁ᎨᏣᏓᏑᏴ	-11.6822
▁ᎠᎦᏬᎡᎢ	-11.6822
▁ᏭᎷᎯᏍᏗ	-11.6822
▁ᏩᏲᎯ	-11.6822
▁ᎬᏩᎨᏳᎯ	-11.6822
ᏥᏍᎦᎢᎭ	-11.6822
▁ᏅᏓᎬᏩᏓᎴ	-11.6822
▁ᎤᎾᏁᏢᏔᏅᏒᎢ	-11.6822
▁ᎻᏌ	-11.6822
▁ᎣᏥᏬᏂ	-11.6823
ᏕᏠᏆᎥ	-11.6823
▁ᎤᎸᏖᎴ	-11.6823
▁ᏱᏥᏩᏘᏍᎪᎢ	-11.6823
▁ᎢᏤᏙᎮᏍᏗ	-11.6823
ᏍᏓᏩᏕᎪᎢ	-11.6823
▁ᎯᎶᏁᎥᎭ	-11.6823
▁ᏭᏅᎪᏤ	-11.6823
▁ᏕᎬᏩᏘᏃᎮᎴᎢ	-11.6823
▁ᎤᏚᎢᏍᏓᏁᎸ	-11.6823
▁ᏭᎳᏛ	-11.6823
ᏝᎲᎦ	-11.6824
▁ᏥᏓᎩᏂᏴ	-11.6824
▁ᏕᎭᏕᏲᎲᏍᎬᎢ	-11.6824
▁ᏓᎾᎵᏍᏓᏴᎲᏍᎨᎢ	-11.6824
▁ᎢᎦᎵᏍᏓᏁᏗ	-11.6824
▁ᏫᎤᏂᎶᏎᎢ	-11.6824
▁ᏚᏄᏬᎡᎢ	-11.6824
▁ᎦᎳᎨᏰ	-11.6824
▁ᏅᏛᎾᎵᏍᏔᏂ	-11.6824
▁ᏙᏓᏳᎸᏫᏍᏓᏁᎵ	-11.6824
▁ᏭᏙᎯᏳᎲ	-11.6824
▁ᎤᎾᏁᎳᏗᏍᏗᏱ	-11.6824
▁ᏅᏓᎦᏛᏁᎵ	-11.6824
▁ᏨᏗᎦᏚᎭ	-11.6824
▁ᏓᎪᏪᎳᏂ	-11.6824
▁ᎠᎻᎳᎻ	-11.6824
▁ᎧᏃᎨ	-11.6824
▁ᏓᏂᎧᎿᏩᏗ	-11.6824
▁ᏫᎷᎩ	-11.6824
▁ᎤᏂᏛᏗᏍᎩ	-11.6824
▁ᏃᎦᏛᏁᎸ	-11.6824
▁ᏧᎾᏓᎵ	-11.6825
ᎵᏯᎻ	-11.6825
▁ᏓᏰᏥᏁᎵ	-11.6825
▁ᎰᎵᏈ	-11.6825
▁ᏍᎩᏁᏥ	-11.6825
▁ᏧᎦᏙᏍᏙᏗ	-11.6825
ᏂᏆᏘᎸ	-11.6825
▁ᏧᏂᏣᏔ	-11.6825
▁ᏚᏂᎵᏬᏤᎢ	-11.6825
▁ᏫᏗᎦᏘ	-11.6825
▁ᎪᎵᎦᏓ	-11.6825
ᏴᎯᏓ	-11.6825
▁ᏂᏚᏂᎨᏳᏒ	-11.6826
▁ᏣᏫᏎᎢ	-11.6826
▁ᏚᏅᏩᏁᎢ	-11.6826
▁ᏧᏂᎷᏤᎸ	-11.6826
ᎪᏪᎸᎾ	-11.6826
▁ᏱᎾᏰᏍᎨᏍᏗ	-11.6826
▁ᏱᏄᎾᏍᏗ	-11.6826
▁ᏗᏩᎾᎨ	-11.6827
▁ᎤᎦᏔᏔᏁᎢ	-11.6827
▁ᎠᏆᏓᏅᏖᏙᏗ	-11.6827
▁ᎢᏍᏛᏯ	-11.6827
▁ᎤᎬᎥᏍᎬ	-11.6827
▁ᏳᎵᏬᏨ	-11.6827
▁ᎤᏓᏙᎵᏣᏘ	-11.6827
▁ᎹᎳ	-11.6827
ᏮᏕᏨ	-11.6827
▁ᎤᏴᏨ	-11.6827
▁ᏅᎩᏗᏂᏅᏌᏗ	-11.6827
▁ᎢᏯᎩᏪᏍᏗᏱ	-11.6827
▁ᎣᎦᎵᏍᏓᏴᏗᏱ	-11.6827
▁ᏚᎦᏔᏍᏔ	-11.6827
▁ᎠᏓᏍᏕᎵᏍᎩ	-11.6827
▁ᏯᏖᎾ	-11.6827
▁ᎢᏳᏅᏁᎯ	-11.6827
▁ᏗᎨᏥᏰᎯ	-11.6827
▁ᎤᏌᎨ	-11.6827
▁ᎨᏥᏃᎮᏍᎬᎢ	-11.6827
▁ᎢᏳᏩᏁᏗ	-11.6828
▁ᎠᏂᎪᏩᏗᏍᎬ	-11.6828
▁ᎬᎫᏍ	-11.6828
▁ᎠᏲᏍᏗᏍᎪ	-11.6828
▁ᎭᎵᏘ	-11.6828
▁ᏚᏯᏙᎮᎴ	-11.6828
▁ᎠᏓᏏᏎ	-11.6828
▁ᎤᏗᎦᎵᏍᏙᏗᏍᎨᏍᏗ	-11.6828
▁ᏓᏎᎯ	-11.6828
▁ᎭᏓᏅᏖᎭ	-11.6828
▁ᎠᏂᏃᎲᏍᎨ	-11.6828
▁ᎤᏂᎿᎥᎢ	-11.6828
▁ᎤᏴᎴᎢ	-11.6828
ᎦᏂᏍᎬ	-11.6828
ᏂᎦᏛᏁᎰᎢ	-11.6828
▁ᏚᏅᏴ	-11.6828
▁ᎬᏩᏕᎰᎯᏍ	-11.6828
▁ᏗᎾᏟ	-11.6828
▁ᏩᏥᎳᎨ	-11.6829
▁ᎤᎾᎳᏍᏓᎡᏗ	-11.6829
▁ᎤᎧᎭᏲ	-11.6829
▁ᎤᎵᏍᏓᏴᏅ	-11.6829
▁ᏄᎾᎵᏍᏔᏁᎲ	-11.6829
▁ᎠᎭᎾᏬ	-11.6829
▁ᏕᎯᏬᏁᏗᏍᎬ	-11.6829
▁ᎤᏗᎴᎬ	-11.6829
▁ᎯᎷᏨ	-11.6829
ᎩᏩᏛᎲᎩ	-11.683
▁ᏱᏅᏗᎦᎵᏍᏙᏗᏍᎨᏍᏗ	-11.683
▁ᎠᎵᏰᎢᎶᎦ	-11.683
▁ᎦᎵᏦᏩᏛ	-11.683
ᏛᏅᎢᏍᏓᏁᏗᏱ	-11.683
▁ᎨᏥᏙᎵᏍᏗ	-11.683
▁ᎢᏳᏏᏗ	-11.683
▁ᎠᏆᏤᎵᎪᎯ	-11.683
▁ᎦᎬᏙᏗ	-11.683
▁ᎤᏂᎧᎭᏲ	-11.683
ᏂᏆᏘᎲ	-11.683
▁ᎤᎸᏁ	-11.6831
▁ᎤᏍᏗᎩᎨ	-11.6831
▁ᏗᎦᏁᎯ	-11.6831
▁ᏗᎦᏥᏯ	-11.6831
▁ᏱᏅᏗᎦᎵᏍᏙᏗᏍᎨ	-11.6831
▁ᏱᏥᎪ	-11.6831
▁ᏚᏑᎦᏢ	-11.6831
▁ᎣᎩᎪᎲᎯ	-11.6831
▁ᏳᏪᎵᏎ	-11.6831
ᏕᎰᏏ	-11.6832
▁ᎡᎵᎻ	-11.6832
▁ᎠᎵᏍᏓᏴᎲᏍᎩ	-11.6832
▁ᎠᏃᏎᎮ	-11.6832
▁ᏱᏂᏙ	-11.6832
▁ᎦᎭᏛ	-11.6832
▁ᎠᏯᏛᎥ	-11.6832
▁ᏱᏄᏅᏁ	-11.6832
▁ᎦᎷᎨᏍᏗ	-11.6832
ᏗᎦᏔᏫᎢᏍᏗᏱ	-11.6832
▁ᏣᏂᏃᎮᎭ	-11.6833
▁ᎨᎪᏣᎴᏛ	-11.6833
ᏄᏬᎥᎭ	-11.6833
▁ᎤᏬᎯᏤ	-11.6833
▁ᎤᏲᎱᏏᏕᎾ	-11.6833
▁ᎤᏬᏍᎩᎵ	-11.6833
▁ᎠᏆᎵᎮᎵᏍᏗᏱ	-11.6833
▁ᏗᏣᏘᏄᎦ	-11.6833
▁ᎠᏆᎵᎮᎵᏨᎩ	-11.6833
ᏓᎵᏅᏟ	-11.6833
▁ᎯᎷᎩ	-11.6833
▁ᏫᏚᏩ	-11.6833
▁ᎤᎵᏏᎲᏎ	-11.6833
ᏂᏍᏚᎩ	-11.6833
▁ᏄᏪᎵᏍ	-11.6834
▁ᏧᏓᏂᎸᎢᏍᏗ	-11.6834
▁ᏗᎦᏆᏘ	-11.6834
▁ᎠᏂᎷᎬ	-11.6834
ᎦᎧᎲᏍᎨᏍᏗ	-11.6834
▁ᎤᏩᏓᎴ	-11.6834
▁ᏓᏐᏴᎢ	-11.6834
▁ᏚᏬᎥᎩ	-11.6834
▁ᎢᎳᏍᏓ	-11.6834
▁ᎤᎵᏛᏔᏁᎢ	-11.6834
▁ᎠᎾᎵᏥᏙᎲᏍᎦ	-11.6834
▁ᏫᏥᎶᎢ	-11.6834
▁ᎤᏗᏍᎦᎶᏗ	-11.6835
ᏓᎤᎦ	-11.6835
▁ᏚᎪᏓᏁᎯ	-11.6835
▁ᎤᏣᎢᏒ	-11.6835
▁ᏓᎫᏩ	-11.6835
▁ᏗᏍᏆᏂᎪᏗᏍᎩ	-11.6835
▁ᏳᏲᎰ	-11.6835
▁ᎡᏥᏲᎭ	-11.6835
▁ᎣᏥᏃᎮᎭ	-11.6835
▁ᎤᎾᎦᏙᏍᏛ	-11.6836
▁ᎠᏒᏛᏓ	-11.6836
▁ᎠᏍᏆᎸᎲᎭ	-11.6836
▁ᎦᎧᎮ	-11.6836
▁ᎢᏗᎹ	-11.6836
▁ᎠᎦᏐ	-11.6836
ᏍᏆᏃᏴᎪ	-11.6836
▁ᏗᎨᎦᎦᏅᏗ	-11.6836
▁ᎤᎵᏦᏔᏁᎢ	-11.6836
▁ᏗᎦᏅᎬ	-11.6836
▁ᏙᏛᏁᎵ	-11.6836
▁ᏳᏗᏔ	-11.6837
▁ᎠᏕᏲᎲ	-11.6837
▁ᎤᎸᏓᎸᎥᏍᎩ	-11.6837
▁ᏙᏓᏨ	-11.6837
ᏕᏁᎵ	-11.6837
▁ᏦᎩᎾᏫᏱ	-11.6837
▁ᎠᏓᏬᏍᏗᏱ	-11.6837
▁ᏄᏦ	-11.6837
▁ᎤᏒᎦᎸᎩ	-11.6837
▁ᏚᏂᏴᎲ	-11.6837
▁ᏗᎬᏩᏂᏐᏢ	-11.6837
ᏟᏂᎬᏁᎰ	-11.6838
▁ᎠᏟᏃᎮᏙᏗ	-11.6838
▁ᎤᎾᏤᎸᎯ	-11.6838
ᎦᏓᎴᏅᎯ	-11.6838
▁ᎤᎿᏬᎡ	-11.6838
▁ᏱᏥᏁᎦ	-11.6838
▁ᎠᏂᏔᏲᎯᎮᏍᏗ	-11.6838
▁ᏖᏒᎭ	-11.6838
ᎶᏇ	-11.6838
▁ᎭᏑ	-11.6838
▁ᏳᏇᏗ	-11.6838
▁ᎠᏃᏢᏍᎬ	-11.6838
▁ᏚᏙᎡᏍᏗ	-11.6839
▁ᏍᎩᏁᎮᏍᏗ	-11.6839
▁ᏘᏅᎵ	-11.6839
ᏖᎳᏛ	-11.6839
ᎵᏂᎪᎯᏍᏙᏗᏱ	-11.6839
▁ᎤᎾᎦᏎᏍ	-11.6839
▁ᏆᏙ	-11.6839
▁ᏱᎦᏗᎭ	-11.6839
▁ᏓᏨᏍᏛ	-11.6839
▁ᎠᏯᏨᏗ	-11.6839
ᎤᏰᎸᏗ	-11.684
▁ᏗᎦᏐᎯ	-11.684
ᏱᎵᏕᎲᎢ	-11.684
▁ᏣᏣᏪᏐᎸᏍᏙᏗ	-11.684
ᏴᎳᏏ	-11.684
▁ᎤᎾᏓᏅᏍᏗ	-11.684
ᏅᏓᎨᏨᏁᎵ	-11.684
▁ᏝᏬ	-11.6841
ᏥᏰᎸᏂ	-11.6841
▁ᎠᏥᏍᏚᏗ	-11.6841
▁ᎤᎾᎵᏍᏓᏴᏅᎩ	-11.6841
▁ᎢᎶᏂ	-11.6841
▁ᎡᎳᎻ	-11.6841
▁ᎢᏨᏃᏁᎸᎯ	-11.6841
▁ᏳᏰᎸᏅ	-11.6841
ᏓᏁᏏ	-11.6841
ᏛᏂᎸᏉᏔᏂ	-11.6841
▁ᏣᏁᏤᏗᏱ	-11.6842
▁ᎠᏂᎶᏍᎬ	-11.6842
▁ᏥᏍᎩᏯ	-11.6842
▁ᎢᏣᏓᏁᎮᏍᏗ	-11.6842
ᏩᎵ	-11.6842
ᎧᎿᏩᏛᎡ	-11.6842
▁ᎤᎵᎥᏂᎸ	-11.6843
▁ᎦᏰᏣ	-11.6843
▁ᎤᎵᏍᎪᎸᏓᏁᎸᎩ	-11.6843
▁ᎤᏍᏚᏞ	-11.6843
▁ᏙᏨᏗᏍ	-11.6843
▁ᎠᎺᏉ	-11.6843
▁ᎻᎵ	-11.6843
▁ᎬᏁᏤᎸᎢ	-11.6843
▁ᏓᏟ	-11.6843
▁ᎾᎾᎵᏍᏗᏍᎪ	-11.6844
▁ᏓᎾᏣ	-11.6844
▁ᎬᏩᏡᏗᏍᎬᎢ	-11.6844
ᏐᏲ	-11.6844
▁ᎤᏯᎷᎦ	-11.6845
ᏆᎴᎳ	-11.6845
▁ᏗᎧᏃᎩᏓ	-11.6845
ᏓᏕᎵᏎ	-11.6845
▁ᏣᎷᏨ	-11.6845
▁ᎡᎩᏍᏕᎸᏗᏱ	-11.6845
▁ᎠᏂᎩᎵᏲ	-11.6845
▁ᎤᏁᎷᏅ	-11.6846
▁ᏓᎩᎧᎭ	-11.6846
▁ᏫᎦᎶᏍᎬ	-11.6846
ᏐᎯᏍᏗ	-11.6846
▁ᏄᏓᏛᏁᎴ	-11.6846
▁ᏱᏓᎩᏯ	-11.6847
▁ᏄᏃᎯ	-11.6847
▁ᏩᏴᎭ	-11.6847
ᏅᎬᏛ	-11.6847
ᏗᎨᎳᏍᏙᏗ	-11.6847
▁ᎢᏳᏂᏁᎫᏥ	-11.6847
▁ᎡᏥᏯᏅᎲ	-11.6847
▁ᎤᏩᏂᎴᎢ	-11.6847
▁ᎠᏛᏁᎮᏍᏗ	-11.6847
▁ᎤᎪᎵᏰᏗᏱ	-11.6848
▁ᏓᏁᎶᏛᎩ	-11.6848
ᏚᏓᎸᏙ	-11.6848
▁ᏥᎨᎲ	-11.6848
▁ᏕᎨᏥᏂ	-11.6848
ᏥᏰᎵᏒ	-11.6848
▁ᎤᎾᏓᏅᏖᏛ	-11.6848
▁ᎦᎷᎪᎢ	-11.6848
▁ᏣᏰᎸᏗ	-11.6849
ᏕᏙᎲᎩ	-11.6849
▁ᎾᏂᏪᎭ	-11.6849
ᎧᏔᏁ	-11.6849
▁ᎠᏌᏍᏛ	-11.6849
▁ᎩᎦᎨᎠᏗᏔᏍᏗ	-11.6849
▁ᏭᏓᎾᏫᏛᎮ	-11.6849
ᎨᎦᏛᏅᎢᏍᏓᏁᎸ	-11.6849
▁ᎠᎦᏍᎦ	-11.6849
▁ᎨᏥᏛᏙᏗᏱ	-11.6849
▁ᎤᏬᏝ	-11.685
▁ᎤᏂᏂᎩᏛ	-11.685
▁ᎤᏂᏍᎦᎢᏍᏗ	-11.685
▁ᏄᎵᏍᏓᏁᎲ	-11.685
▁ᏴᏧ	-11.685
▁ᎤᏍᏆᏗᏍᏗᏱ	-11.685
▁ᎤᎦᏌᏯᏍᏗᏕᎩ	-11.685
▁ᎤᏓᏅᏖᏗᏍᎨᎢ	-11.6851
▁ᏧᏂᏒᏍᏗᏱ	-11.6851
▁ᎠᎵᏌᎳᏗᏍᎬ	-11.6852
▁ᏥᎧᎸ	-11.6852
▁ᎦᏢᏗ	-11.6852
▁ᏧᎦᏅ	-11.6852
▁ᏗᎤᎷᏨ	-11.6852
▁ᏍᏔᎵ	-11.6852
ᎳᏑᎳᎩ	-11.6853
ᏥᏯᏫᏍᎬ	-11.6853
ᎰᎻ	-11.6853
▁ᎤᎾᏨᏏ	-11.6853
ᎦᎪᎯᏳᏗ	-11.6854
▁ᎤᏂᎪᎵᏰᎥ	-11.6854
▁ᎤᏅᎪᏨ	-11.6854
▁ᏱᏍᎩᏃᎯᏎ	-11.6854
▁ᏚᏂᏂᏴᎲ	-11.6854
ᏌᏛᏅᎩ	-11.6854
▁ᎤᎾᏎᎸ	-11.6854
ᏓᏙᎵᏣᏘᏳ	-11.6854
▁ᎣᎩᏍᎦᏅᏨᎢ	-11.6854
▁ᏗᏌ	-11.6855
ᏫᏗᏍᎩ	-11.6855
▁ᎤᏂᏲᎸᎯ	-11.6855
▁ᏥᏚᎾᏚ	-11.6855
▁ᏱᏣᏚᎵᎭ	-11.6856
▁ᏄᏓᏪᏎᎴ	-11.6856
ᏓᏁᎶᏗ	-11.6856
▁ᎢᏣᏓᏅᏓᏛ	-11.6857
▁ᎣᏥᏁᎦ	-11.6857
▁ᏗᎪᏢᏙᏗ	-11.6857
▁ᎦᏥᎪᎥ	-11.6857
▁ᎤᎾᏚᎸᏅᏗ	-11.6857
▁ᏚᏑᏰᏎ	-11.6857
▁ᏥᏄᏍᏙ	-11.6857
▁ᏕᏥᎨᏳᏒ	-11.6857
ᎫᏴᎡᎸ	-11.6857
▁ᏂᏥᏃᎯ	-11.6857
▁ᏇᏓᏁᎳᎻᏱ	-11.6858
▁ᏧᏂᎧᎿᏩᏛᏍᏗᏱ	-11.6858
ᏘᏅᏍᏗᏱ	-11.6858
ᎵᏐᏍᏗ	-11.6858
ᏱᎵᏓᏍᏗᏱ	-11.6858
▁ᏂᏣᎵᏍᏓᏁᎲᎢ	-11.6858
▁ᎤᎾᏏᏁ	-11.6858
▁ᎤᏗᏔᎮᎢ	-11.6858
▁ᏄᎾᏛᎿᏕᎬᎢ	-11.6858
▁ᏕᎦᎸᏫᏍᏓᏁᎸᎢ	-11.6858
▁ᏥᏮᎦᏙᎢ	-11.6858
▁ᎤᏬᏁᏔᏅᎢ	-11.6858
▁ᎤᏁᎳᏫᏎᎲᎢ	-11.6858
▁ᏨᏓᎸᎢ	-11.6858
▁ᎠᎩᏰᎸᏗᏱ	-11.6858
▁ᏣᏛᏁᎸ	-11.6858
▁ᎠᏅᏬᎳᏕᏍ	-11.6859
ᎵᏔᏕ	-11.6859
ᎭᏄᏩ	-11.6859
▁ᎤᏲᎰᏒ	-11.6859
▁ᎢᏣᎵᎪᎯ	-11.6859
▁ᏓᏂᏐ	-11.6859
▁ᎬᏃᏌᏍᏗ	-11.6859
▁ᏭᏩᎦᏘᏗᏒᎢ	-11.686
▁ᏓᏂᏬᏂᏍᎬᎢ	-11.686
▁ᏂᏣᎵᏍᏔᏅᎩ	-11.686
▁ᏚᏂᎳᏫᏨᎩ	-11.686
ᏅᏨᎾ	-11.686
▁ᎤᏩᏛᏛ	-11.686
▁ᏥᏄᏪᏒᎩ	-11.6861
▁ᏱᏄᎵᏍᏓ	-11.6861
▁ᏚᎸᏫᏍᏓᏁᎭ	-11.6861
▁ᎠᏥᏍᏙᏗ	-11.6861
▁ᎢᏣᎢᏒᎢ	-11.6861
▁ᏧᎶᎯᏍᏗ	-11.6862
ᏛᏁᎵᏍᎩ	-11.6862
▁ᎤᏁᎵᏒᎩ	-11.6862
ᏅᎥᏏ	-11.6862
ᏣᎦᏔᎲᏛ	-11.6862
▁ᎤᏁᎲ	-11.6862
▁ᎤᎾᎵᏖᎸᏅᎩ	-11.6862
▁ᎴᏈ	-11.6863
▁ᎠᏓᎴᏂᏍᎩ	-11.6863
▁ᎤᏓᏅᏖᏗᏍᎬ	-11.6863
▁ᎤᎾᏓᏴᎳᏛ	-11.6864
ᎾᏍᏆᎶᏍ	-11.6864
▁ᏚᎾᏓᏡᎬ	-11.6864
▁ᏍᎩᏅᎦᎸ	-11.6864
▁ᎠᎦᎸᎢᏛ	-11.6864
▁ᏚᏬᏁᏔᏁᎢ	-11.6864
▁ᏓᏍᏔᏅᏅ	-11.6864
ᏍᏚᎶᏙᏗ	-11.6864
▁ᏗᏣᎸᏫᏍᏓᏁᏗᏱ	-11.6865
▁ᏕᎩᎸᏫᏍᏓᏁᎸ	-11.6865
▁ᎤᏗᏞᎦ	-11.6865
ᏏᏕᏅ	-11.6865
▁ᏚᏁᏒ	-11.6865
ᎵᏍᏆᏗ	-11.6866
▁ᏫᏚᎾᎧᎿᏅ	-11.6866
▁ᎠᎹᏢᏗ	-11.6866
▁ᎬᏩᎾᏝᎢ	-11.6866
▁ᏴᏛᎾ	-11.6866
ᎦᏛᎴᏒ	-11.6866
▁ᎬᏬᏎᎸᎩ	-11.6866
▁ᎬᏩᏂᎪᏩᏛᏗ	-11.6867
▁ᏤᏆᏂ	-11.6867
ᎵᏍᏙᏗᏱ	-11.6867
ᏏᏔᏗᏍᏗᏱ	-11.6867
▁ᎠᏲᏁᎦ	-11.6867
▁ᏥᏍᏓᏱ	-11.6867
▁ᏗᏗᏙᏗ	-11.6867
ᏴᏔᏅ	-11.6868
▁ᏍᎩᏃᎯᏏ	-11.6868
▁ᏱᏚᎸᏫᏍᏓᏁ	-11.6869
▁ᎦᏬᏂᏍᏗ	-11.6869
▁ᎠᏂᏲᎯᎲ	-11.6869
ᏤᎵᎯᏍᎪ	-11.6869
▁ᎤᏅᏁᎸ	-11.6869
▁ᎤᎵᏍᏕᎸ	-11.6869
▁ᏫᏚᎧᎿᏅ	-11.6869
▁ᎪᏍᏛᏂᏍᏗ	-11.6869
ᎪᎲᏍᏔᏅ	-11.6869
ᎠᏗᏒ	-11.687
▁ᏱᏍᎩᏃᏁᎴ	-11.687
▁ᏭᏂᎦᏐᎠ	-11.687
▁ᎤᏍᎫᏕ	-11.687
▁ᏧᎪᏅ	-11.6871
▁ᎢᏣᏓᎳ	-11.6871
ᏛᏓᏍᏓᏁᏗᏱ	-11.6871
▁ᏓᎩᎪᎲᎩ	-11.6872
▁ᏕᎫᎪᏗᏍᎬ	-11.6872
▁ᎤᏂᏔᏲᏎᎴ	-11.6872
▁ᎤᎾᏓᏅᎦᎸᏛ	-11.6872
▁ᎤᎾᎷᏒ	-11.6872
▁ᎤᏍᏚᎩᏎ	-11.6873
▁ᏂᏣᏛᏁᎲᎾ	-11.6874
▁ᎤᏛᏗᏕᎨ	-11.6874
ᎯᏄᎪᎢ	-11.6874
▁ᎠᏓᏲᏁᏗ	-11.6874
ᏂᏪᏍᎨᎢ	-11.6874
▁ᎠᎾᏙᎴᎰ	-11.6875
ᏥᏅᎦᎸᎡ	-11.6875
▁ᎪᏪᎳᏅ	-11.6876
▁ᎤᏂᏲᎰᎢ	-11.6876
▁ᎤᏓᏓᏍᎬ	-11.6877
▁ᏚᏰᎵᎯᏍᏔᏅ	-11.6877
▁ᏗᎪᏪᎳᏅᎯ	-11.6877
▁ᏫᏚᏠᏎ	-11.6877
ᏘᏳ	-11.6877
▁ᏳᏚᎵᏍᎬᎾ	-11.6878
▁ᏚᎾᏙ	-11.6878
▁ᎨᏥᏰᎸᎢ	-11.6879
▁ᏍᎩᏯᏅᏛ	-11.6879
▁ᏱᎾᎩ	-11.6879
ᏗᎦᎴᏲᏨ	-11.6879
ᏠᎠᏒᎩ	-11.6879
▁ᎮᏙᎲ	-11.6879
ᏍᏙᏗᏍᎨ	-11.6879
▁ᎤᏓᎢᏅ	-11.688
ᎵᎲᏲᎵ	-11.688
▁ᏣᏴᏍᏗ	-11.688
▁ᎠᎾᏕᎲᏍᎨ	-11.688
▁ᎤᏂᎪᏁ	-11.6881
▁ᏱᏙᎨᏗ	-11.6881
▁ᎡᏥᏍᎦᏅᏤ	-11.6881
▁ᎤᎾᎵᏍᎪᎸᏔᏅᎯ	-11.6882
▁ᎢᏳᏪᏍᏗᏱ	-11.6882
▁ᏚᏟᎶᏍᏓᏁᎴᎢ	-11.6882
▁ᏕᏚ	-11.6882
▁ᎢᏣᎨᏳᏅ	-11.6883
▁ᏩᎩᎶᏒᎩ	-11.6883
▁ᎠᎩᏰᏨ	-11.6883
▁ᏭᏍᏆ	-11.6884
ᏙᎯᏳᎲᎦ	-11.6884
▁ᎭᏗᏛ	-11.6884
▁ᎤᎾᏁᎶᏔᏅᎩ	-11.6884
▁ᏤᏅᏍᏗᏱ	-11.6885
▁ᎠᏍᏆᎵ	-11.6885
ᏨᏌ	-11.6885
▁ᎣᏥᎩᎵᏲᎬ	-11.6885
▁ᎠᏆᏕᏗ	-11.6885
▁ᎤᏓᏍᏕᎸᏗ	-11.6885
▁ᎤᎦᏘᏗᏍᏗᏱ	-11.6885
▁ᎪᎯᏍᏗᏍᎩ	-11.6885
▁ᎤᎾᎵᏍᎪᎸᏔᏅ	-11.6886
▁ᎢᎵᎻ	-11.6886
▁ᎤᏴᏥ	-11.6886
▁ᎠᏛᏃ	-11.6887
▁ᏧᏌᎴᏅ	-11.6887
▁ᏫᎲᎦ	-11.6887
▁ᎤᏲᏍᏔᎾ	-11.6887
▁ᎠᏟᏂᎬᏁ	-11.6887
▁ᎠᏓᎨᏗᏱ	-11.6887
▁ᏥᏫᎾ	-11.6888
ᏰᎢᎸᏍᏗᏱ	-11.6888
▁ᎤᎦᎿᏂ	-11.6888
▁ᏕᏥᎵᎷ	-11.6889
▁ᏱᏂᎬᎦ	-11.6889
▁ᏲᎩᎾ	-11.6889
▁ᎾᎾᏛᏁᎮ	-11.6889
▁ᏳᏬᎵᏤ	-11.6889
▁ᏥᏅᏗᎦᎵᏍᏙᏗᏍᎨ	-11.689
ᏣᏘᏃᎯᎮᏍᏗ	-11.689
▁ᏤᏥᏃ	-11.6891
ᏍᏔᏩᏕ	-11.6891
▁ᎠᎪᏢᏅ	-11.6891
▁ᎪᏙᎯ	-11.6891
▁ᎤᏫᏒ	-11.6892
▁ᎠᏂᏁᏉᏍ	-11.6892
ᏚᎾᏚᏫᏍᏔᏁᎢ	-11.6892
▁ᏯᏛᎦ	-11.6893
▁ᏗᏓᎨ	-11.6893
▁ᎧᏁᏉᎨᎢ	-11.6894
▁ᏓᏂᏅᎬ	-11.6894
ᎵᏥᏙᏁᎲᎢ	-11.6895
▁ᎠᏯᎡᎢ	-11.6895
▁ᎤᏅᏕᏨ	-11.6895
▁ᎠᎾᎢᏎᎢ	-11.6896
▁ᏥᏙᏓᎦ	-11.6896
▁ᏳᏰᎸᎭ	-11.6896
▁ᎤᏘᏃᎴᎢ	-11.6896
▁ᎤᏁᎢᏍᏔᏁᎢ	-11.6897
ᏘᏁᎪᎢ	-11.6897
▁ᎤᎩᏓᏟ	-11.6897
▁ᎤᏍᏗᏰᎬ	-11.6898
▁ᎢᏣᏓᏁᏟᏴᏏᏒᎢ	-11.6898
▁ᏥᏄᎵᏍᏔᏁᎢ	-11.6899
▁ᎤᎵᏠᏯᏍᏛ	-11.6899
▁ᎤᎾᎵᏖᎸᏅ	-11.6899
▁ᏥᎦᎷᎪᎢ	-11.69
▁ᎢᏥᎩᎬ	-11.69
▁ᎤᏞᎩ	-11.6901
ᏴᏜ	-11.6901
▁ᏧᎦᎿᏁ	-11.6901
▁ᎤᏁᏉᏤᎢ	-11.6901
ᏡᎦ	-11.6901
▁ᏱᏂᏣᎵᏍᏓᏁ	-11.6902
ᏚᏪᎧᏁᎢ	-11.6902
▁ᏧᏂᏁᏗᏱ	-11.6902
▁ᏗᏘᏲᎯᎯ	-11.6902
▁ᏕᎨᎶ	-11.6903
▁ᎤᏪᎲᎢ	-11.6903
▁ᏙᏓᏈᏕᎾ	-11.6904
▁ᎠᏥᏁᏗᏱ	-11.6905
▁ᎤᏪᎷᎩ	-11.6905
▁ᎠᎾᎵᏥᏙᎲᏍᎩ	-11.6905
ᏥᏍᏕᎵᏍᎬ	-11.6905
▁ᏓᏂᏍᎦᎢ	-11.6906
▁ᎠᏐᏢᎢᏍᏗᏍᎬᎢ	-11.6906
▁ᎤᎾᏖ	-11.6906
▁ᏥᏫᎯ	-11.6906
▁ᎠᎿᎥᎢ	-11.6906
ᎦᎴᏂᏙᎭ	-11.6906
▁ᏣᏍᏆᏂᎪᏙᏗᏱ	-11.6907
▁ᏄᏅᏁᎴᎢ	-11.6907
ᎵᏍᏓᏁᎸᎩ	-11.6908
▁ᎤᏁᎸᏔᏁᎢ	-11.6908
▁ᎤᏃᏢᏅᎯ	-11.6909
▁ᎤᏍᏆᎸᎭ	-11.6909
▁ᎬᏩᎯᏍᏗᏱ	-11.6909
▁ᏗᏄᎪᏗᏍᎩᏱ	-11.6909
ᎾᏍᏉ	-11.6909
▁ᏑᎠ	-11.6909
ᎷᎳ	-11.691
▁ᏧᏔᎾ	-11.691
▁ᎤᏂᏲᏍᏔᏁ	-11.691
▁ᏕᎪᏢᏒᎩ	-11.691
ᎶᏒᏍᏙᏗᏱ	-11.691
▁ᎣᎯᏍᏗ	-11.6911
▁ᏤᎪᎢ	-11.6912
▁ᎤᏍᏆᏂᎪᏔᏅ	-11.6912
▁ᏂᏓᏅᏁᎲ	-11.6912
▁ᎠᏂᏱᏙ	-11.6912
▁ᏧᏬᏢᏁ	-11.6912
▁ᎤᏪᏘᏁᎢ	-11.6913
ᏍᏆᏗᏍᏗᏍᎩ	-11.6913
▁ᏙᎧ	-11.6913
ᏥᏯᏁᎶᏗ	-11.6914
▁ᎠᏂᎱ	-11.6914
▁ᏄᎾᎵᏍᏓᏁᎲ	-11.6915
▁ᎠᏓᎴᏂᏍ	-11.6915
▁ᏫᏚᏯ	-11.6916
▁ᎭᎧ	-11.6916
▁ᎤᏲᎱᎯᏎᎸᎯ	-11.6916
▁ᎡᏣᏛᎦᏁᎸ	-11.6916
▁ᏗᎧᏅ	-11.6916
▁ᏚᏪᏯ	-11.6917
▁ᎤᎾᏏᏅ	-11.6917
ᏂᏐᏗ	-11.6918
▁ᏚᏅᏒᎩ	-11.6918
▁ᏗᎪᏒ	-11.6919
▁ᏗᏌᏂ	-11.6919
▁ᏥᏚᏲᏎ	-11.6919
▁ᎤᎾᎵᏗᎩ	-11.692
▁ᎦᎶᏐᎲᏍ	-11.692
▁ᏳᏁᏐ	-11.692
▁ᏱᏅᏩᏍᏗᏗ	-11.692
▁ᎾᎬᏁᎸᎭ	-11.692
▁ᎦᏓᏅᏖᏍᎪ	-11.6921
ᏘᎶᏛ	-11.6921
▁ᏍᏆᏛᎦᏁ	-11.6921
▁ᎤᏂᏃᎴ	-11.6921
▁ᎠᎩᏍᏚ	-11.6922
▁ᎢᏧᏓ	-11.6922
▁ᎤᏓᏅᏙᎩᎯ	-11.6922
▁ᎤᎷᏤᎸᎯ	-11.6922
▁ᏂᎦᏅᏅ	-11.6923
▁ᏂᏓᎬ	-11.6923
▁ᏱᏮ	-11.6923
ᏰᎵᏎᏗ	-11.6923
▁ᏚᏟᎶᏍᏓᏁᎴᏃ	-11.6923
ᏍᏛᏗᏍᏗ	-11.6923
ᎦᏥᏲᏎᎸ	-11.6924
▁ᎢᎦᏅᎯᏛ	-11.6924
▁ᎮᎲᎢ	-11.6924
ᏌᏙ	-11.6925
▁ᎠᏂᎫ	-11.6925
ᎷᎸᏁ	-11.6925
▁ᏧᏔᏂ	-11.6925
▁ᎤᎩᏥ	-11.6926
ᏏᏙᎴ	-11.6926
▁ᏧᎪᏄᎶ	-11.6926
▁ᎠᏯᎡᏍᏗ	-11.6926
ᎵᏍᏓᏴᎾᏁᏗᏱ	-11.6927
ᏕᎬᏲᎯᏏ	-11.6927
▁ᏧᎸᏉᏗ	-11.6928
▁ᎠᎵᏍᏓᏴᎲᏍᎬᎢ	-11.6929
▁ᏚᏆᎵ	-11.693
▁ᎢᎬᏩᎷᏤᎴ	-11.693
▁ᎢᎬᏩᏁᏗᏱ	-11.6931
▁ᏚᏂᏃᎩᏒ	-11.6931
▁ᎤᏅᏎᏍᏗ	-11.6931
ᏡᏔᏅ	-11.6931
▁ᎯᏴᎭ	-11.6931
▁ᏫᎬᏍᏗ	-11.6932
▁ᎤᎾᏟᎶᎥ	-11.6932
ᏂᏴᎲᎩ	-11.6932
▁ᏚᏂᏢᎬᎢ	-11.6932
▁ᏕᏣᎸᏫᏍᏓᏁᎸᎢ	-11.6932
ᎦᏬᏍᎪᎢ	-11.6932
▁ᎠᏄᎯᏍᏗᏍᎬᎢ	-11.6933
▁ᏚᏍᎫᏓᏛᎢ	-11.6933
▁ᎠᏒᎨᏍᏗ	-11.6933
ᏓᏡᏗᎭ	-11.6933
▁ᏚᏭᎪᏔᏅᎢ	-11.6933
▁ᎤᏃᎯᏳᏁᎢ	-11.6933
▁ᏧᏂᎷᏤ	-11.6933
▁ᏚᏄᎪᏔᏅᎢ	-11.6933
ᏪᏒᏛ	-11.6934
▁ᏗᏓᎾᏅᎢ	-11.6934
ᎧᎪ	-11.6934
▁ᎠᏁᏙᎮᏍᏗ	-11.6934
▁ᏓᏅᏗᏍᎬᎢ	-11.6934
▁ᎤᏮᏔᏅᎩ	-11.6934
▁ᎠᏥᎢᏍᏗᏱ	-11.6934
▁ᏓᏂᏍᏓᏲᎯᎲᎢ	-11.6935
ᎤᏂᏃᏕᏅ	-11.6935
ᏂᏱᏍᎩ	-11.6936
ᏔᏁᎸᎯ	-11.6936
▁ᎢᎤᎷᏤ	-11.6936
▁ᏛᏨ	-11.6937
▁ᏬᏱ	-11.6937
▁ᎠᏛᏍᎨᎢ	-11.6937
ᏂᏙᎸᎯ	-11.6938
ᎵᏣᏙ	-11.6939
ᏗᏔᎲᎭ	-11.6939
▁ᏫᎦᎾᏄᎪᎢ	-11.694
▁ᎤᏕᏘᏱᏍᎬ	-11.6942
ᏁᏡᏅ	-11.6942
▁ᏄᏅᏁᎸᎩ	-11.6943
▁ᎠᎩᏢᎬ	-11.6943
▁ᎢᏳᏍᏗᏓᏂ	-11.6944
▁ᏧᎪᏩᏛᏗ	-11.6945
ᎳᏗᏍᎪ	-11.6945
ᏩᏘᎭ	-11.6945
ᏛᏂᎲ	-11.6946
ᎭᎵᏙᎩ	-11.6947
▁ᏗᎦᏲᏥ	-11.6947
▁ᏧᎾᏄᏬᏍᏗ	-11.6947
ᏓᏨᏁᎵ	-11.6948
ᏓᏁᎰᎢ	-11.6948
ᎦᏌᏬᎢ	-11.6948
▁ᎣᎩᎦᎵᏍᏓᏗᏍ	-11.6949
▁ᏱᎦᎷᎩ	-11.6949
▁ᏚᎾᏦᏎ	-11.695
▁ᏓᏰᏍ	-11.695
▁ᎢᏲᎩ	-11.6951
▁ᎠᎾᎵᏍᏓᏴᏗᏍᎬ	-11.6951
▁ᏗᎦᎷᏫᏍᏔᏁ	-11.6952
▁ᏭᏯᏅᎲᎩ	-11.6952
▁ᎠᏲᏍᏗᏍᎬ	-11.6952
▁ᏂᎦᏪᏏ	-11.6952
ᏯᏅᎮᎢ	-11.6952
▁ᎤᏄᏮᎢ	-11.6952
▁ᏧᏴᏫ	-11.6953
▁ᎤᏃᏴᎩ	-11.6953
▁ᎠᎩᏂᎬᏎᎲ	-11.6954
▁ᏓᏕᏲᎲᏍᎨᎢ	-11.6954
▁ᏂᏥᏴ	-11.6955
ᏍᏔᏁᏗ	-11.6955
▁ᎠᏆᎫᏴ	-11.6955
▁ᎤᏥᏍᏛ	-11.6955
▁ᏗᎧᏃᎩᏍᏗᏱ	-11.6956
▁ᎠᏯᏙᎵ	-11.6956
▁ᎠᏂᎦᎾ	-11.6957
▁ᎦᏌᎴ	-11.6957
ᏏᏙᎮ	-11.696
▁ᎠᎩᏁᎸᎯ	-11.696
▁ᏗᎧᎵᎢ	-11.6961
▁ᎤᏃᎮᎸᎩ	-11.6961
ᏂᏕᏅ	-11.6961
▁ᎤᏅᏓᏛ	-11.6961
ᏅᏆᎶ	-11.6962
ᎨᎬᏁᎵ	-11.6962
▁ᏕᎨᏥᏅᏩ	-11.6963
▁ᏚᏪᎧᏁᎢ	-11.6963
▁ᏓᏂᎳᏫᎬ	-11.6963
▁ᎤᎦᎾᏬᏍᎬ	-11.6964
▁ᎠᏆᏚᎸᎲ	-11.6964
▁ᏣᏂᏅᎩ	-11.6964
▁ᎠᏥᎦᏘᏗᏍᏗᏱ	-11.6964
ᎪᎸᏏ	-11.6965
▁ᏥᏂᎦᎵᏍᏗᏍᎪ	-11.6965
▁ᎢᏣᏓᏅᏛᎢ	-11.6965
▁ᎤᏰᏟ	-11.6965
ᎦᏄᎳᏥ	-11.6965
▁ᎤᏓᏅᏁᎢ	-11.6966
▁ᏱᎬᏅ	-11.6966
▁ᎤᏍᎩᏓᏒᎢ	-11.6966
▁ᏂᏣᏪᏎᎸ	-11.6966
ᏴᏎᎸᎩ	-11.6967
ᏢᏔᎮ	-11.6968
▁ᎪᎯᏳᏙᏗ	-11.6968
ᏓᏉ	-11.6968
ᏑᏢᏛ	-11.697
▁ᏣᎩᏎ	-11.697
▁ᎠᎾᏕᎲᏍᎬᎢ	-11.697
▁ᎤᏃᎯᏳᏒᎢ	-11.6971
▁ᎣᎩᏰᎸ	-11.6972
▁ᎤᏪᎴ	-11.6972
▁ᎡᎯᏍᏗᏳ	-11.6973
▁ᎤᏍᏘᎬ	-11.6973
ᏐᏅᏤᎸᎩ	-11.6973
▁ᎨᏥᎸ	-11.6973
▁ᎤᏅᏥ	-11.6974
▁ᎠᎾᏓᏅᏖᎵᏙ	-11.6975
▁ᎠᎩᏍᏛᏗᏍᎬᎢ	-11.6975
ᎳᏍᏙᏗ	-11.6975
▁ᎤᏂᎾᏗᏅᏎ	-11.6975
ᏃᎮᎵ	-11.6975
▁ᏕᎶ	-11.6975
▁ᏗᎪᏍᏓᏱ	-11.6976
▁ᏣᎦᏛ	-11.6976
ᏛᎦᏅᎢ	-11.6977
ᏒᏍᏙᏗ	-11.6977
▁ᎤᏓᏴᏍᏗᏱ	-11.6978
▁ᎠᎩᏩᏛᎲᎩ	-11.6978
▁ᎫᏇ	-11.6979
ᎦᏘᏲᎢ	-11.698
▁ᎤᏬᏱ	-11.6981
▁ᎤᏬᏛ	-11.6983
▁ᎠᎾᏔ	-11.6983
▁ᎠᎫᏬᏰ	-11.6983
ᎦᏁᏍᏓᎳᏗ	-11.6983
▁ᏱᏚᏩᏛᎮ	-11.6984
▁ᎠᏍᎧ	-11.6984
ᎾᏋᏁᎸ	-11.6984
▁ᎯᏰᎵ	-11.6985
▁ᎯᏰᎶ	-11.6985
▁ᏓᎩᏏ	-11.6985
ᏚᎢᏍᏓᏁ	-11.6985
▁ᎤᏓᎴᏅᎯ	-11.6985
▁ᏚᎾᏘᏃᎸ	-11.6986
▁ᎠᏂᎩᎵᏲᎬᎢ	-11.6986
▁ᏂᏪᏏ	-11.6986
ᎾᏰᎯᏍᏛ	-11.6989
ᏓᏦᏍᎬ	-11.699
ᏍᏢᏂᏍᏔᏅ	-11.699
▁ᏯᏃᎵ	-11.699
ᏯᏛᏅ	-11.6991
▁ᎯᎩᏒ	-11.6991
▁ᎤᎳᏏ	-11.6992
▁ᏥᏯᎠ	-11.6992
▁ᏓᎾᏁᎶᎲᏍ	-11.6993
▁ᏓᏂᏃᎩᏍ	-11.6993
▁ᎤᏰᎯᏍᎩᏂ	-11.6994
▁ᎤᏔᏲᏎᎸᎩ	-11.6994
▁ᎡᎵᏏ	-11.6994
▁ᎠᏝᎲ	-11.6996
▁ᏚᎸᏌᏓ	-11.6997
▁ᏯᏆᏚᎵᎭ	-11.6997
▁ᎡᏗᎨᏳᎢ	-11.6998
▁ᏚᏓᏓᎴᏔᏁ	-11.6998
ᏛᎿ	-11.6999
▁ᏓᏂᏁᎵ	-11.7
ᎦᎾᏬᎯᏍᏗ	-11.7001
ᏗᎬᏩᎧᏃᏗ	-11.7001
▁ᏗᎦᏃᏣ	-11.7001
ᏙᏳ	-11.7002
▁ᏓᏤ	-11.7002
ᏓᏏᏒ	-11.7004
ᎸᏉᏔᏅᎩ	-11.7004
▁ᏣᎯᏍᏗᏱ	-11.7004
▁ᎢᏳᏩᏁᎸ	-11.7006
ᏟᏃᎮᏔᏁ	-11.7006
ᎵᏍᏙᏔᏁ	-11.7006
▁ᎠᎵᎬ	-11.7006
▁ᏚᏘᏃᎴ	-11.7006
ᎵᏍᏓᏁᎵᏒ	-11.7007
▁ᎠᏓᏪᎵᎩᏍᎬᎢ	-11.7008
▁ᎢᏥᏁᏗᏱ	-11.7008
▁ᎡᎭᏏ	-11.7009
▁ᎠᏆᏓᏤᎵᎦ	-11.7009
▁ᎥᏘ	-11.701
▁ᎤᎵᏦᏛᎢ	-11.701
▁ᎤᏁᎷᎬᎢ	-11.701
▁ᎦᏑ	-11.701
▁ᏧᏂᎬ	-11.7011
ᏱᎩᎵ	-11.7012
▁ᏫᏚᎷᏤᎸ	-11.7013
▁ᏐᎭ	-11.7013
ᎢᏍᏔᎾ	-11.7014
ᏦᏩ	-11.7015
▁ᎠᏇᏙᎸ	-11.7016
▁ᏧᏲᎰ	-11.7017
▁ᏂᎦᏔᎲᎾ	-11.7017
▁ᎤᏓᏙ	-11.7017
▁ᎪᎵᎦ	-11.7017
▁ᎠᏋᏂ	-11.7017
▁ᏱᏄᏍᏕᎢ	-11.7018
ᏁᏢᏙᏗᏱ	-11.7018
▁ᎤᏍᏕᏓᎵᏴ	-11.7018
ᏣᏛᎩᎭ	-11.7018
▁ᏓᏲᎩ	-11.7019
ᎧᏒᎢ	-11.702
▁ᏱᏥᎦᏔᎮᎢ	-11.7021
ᏁᏙᎰ	-11.7022
▁ᏙᎨ	-11.7022
▁ᎤᏂᏬᏂᎯᏍᏗᏱ	-11.7023
ᏓᏂᏱ	-11.7023
▁ᎤᏂᎯᏍᏗ	-11.7023
▁ᏂᎬᏁᎰ	-11.7023
ᎬᏍᎪᎸᏁ	-11.7023
ᎾᏕᎨ	-11.7024
▁ᏓᏥᏁ	-11.7025
▁ᎾᎾᏛᏁᎭ	-11.7025
▁ᎤᏍᏗᏰ	-11.7026
▁ᎣᏨᏗᏍᎬ	-11.7027
▁ᎤᎾᏓᏙᎵᏍᏔᏁ	-11.7027
ᏥᏂ	-11.7027
▁ᎣᎩᎸᏉᏗ	-11.7027
▁ᎤᎾᏤᎵᎪ	-11.7027
▁ᎢᏤᎮᏍᏗ	-11.7027
▁ᎦᏓᎥᎢ	-11.7028
▁ᏗᎦᎵᏍᏙᏗ	-11.7028
▁ᎤᎾᎵᎪᏒᎢ	-11.7029
▁ᏚᏂᏰᎵᏒ	-11.7031
ᏤᏯᏙᏤᎮᏍᏗ	-11.7031
▁ᎪᎪ	-11.7032
ᎢᎲ	-11.7032
▁ᎤᏁᎳᏛ	-11.7032
ᏑᏯᎩᏍᏗ	-11.7033
▁ᏥᏃᎮᏍᎬᎢ	-11.7033
ᏗᎦᎵᏍᏙᏗᎭ	-11.7034
▁ᏂᏕᎤᏍ	-11.7035
▁ᏓᏃᏎᎰ	-11.7035
▁ᏂᏣᏛᏁᎰ	-11.7035
▁ᎤᎾᏗᏓ	-11.7037
▁ᎢᏣᎵᎪ	-11.7037
ᏍᏔᏲᏍᏙᏗ	-11.7038
▁ᏄᏬᏚᏒ	-11.704
ᏦᎯᏳᎲᎦ	-11.7041
ᎤᏏ	-11.7041
ᏓᎪᎾᏛ	-11.7041
ᎦᏎᏍᏙ	-11.7042
▁ᎦᏛᎬᎦ	-11.7042
ᏱᏉᏍᎩᏂ	-11.7042
▁ᎦᏆ	-11.7042
▁ᏱᏚᏩᏛᎲ	-11.7044
▁ᎤᏂᏃᏁᎴ	-11.7045
▁ᏂᏙᏔᏘ	-11.7046
▁ᎤᏔᏃ	-11.7048
▁ᏍᎩᏯᏕᎶᏆᎡ	-11.7048
▁ᏙᎦᏘᏁ	-11.7049
▁ᏅᏩᏓ	-11.7051
▁ᏓᏲᏥ	-11.7051
▁ᎦᏅᎵᏰ	-11.7052
▁ᏯᎩᏍᏆᎸᎡ	-11.7052
▁ᎠᎩᏁᏨᎩ	-11.7053
▁ᏃᏥᎥ	-11.7053
ᏓᏁᎶ	-11.7054
▁ᎦᎷᏥ	-11.7054
ᏰᎶᎴ	-11.7054
▁ᏂᏨᏪᏎᎸ	-11.7056
▁ᏫᎬᏪᎧᏁ	-11.7056
▁ᏫᎬᏩᏂᏴ	-11.7056
▁ᎪᏢᏒᎩ	-11.7057
ᏅᎦᎸᏗ	-11.7058
ᏅᏁᎭ	-11.7059
ᏯᏍᏛ	-11.706
ᏂᏍᏚᏁ	-11.7062
ᏲᏏᎭ	-11.7063
ᏯᎦᏎᏍᏗ	-11.7063
ᎾᎵᎩᏛ	-11.7063
▁ᎦᎴᏂᏙᎲ	-11.7064
▁ᏓᏓᎯ	-11.7064
▁ᏤᎮᏍᏗ	-11.7064
ᏲᏅᎵ	-11.7065
▁ᏱᏓᏂᏁᏟᏴ	-11.7068
ᏰᏍᏔᏁᎢ	-11.7069
▁ᏣᎳ	-11.707
▁ᎠᏥᏁᎸᎯ	-11.707
▁ᎤᎶᎯᏍᏗᏱ	-11.7071
ᎵᏴᏌ	-11.7072
▁ᏙᏤ	-11.7073
▁ᎤᏅᏁᎢ	-11.7073
▁ᎤᏲᎷ	-11.7073
▁ᏥᎶᏃ	-11.7073
▁ᎬᏩᏂᏃᎮᏗ	-11.7076
ᏓᏅᏓᏗᏍᏔᏅᎯ	-11.7077
▁ᏤᏙᎰ	-11.7078
▁ᎤᏁᏉᎡ	-11.7078
▁ᏗᏁ	-11.708
ᏃᏍᎩᏎ	-11.708
▁ᏄᏩᏁᎲ	-11.7081
ᏪᎵᏏ	-11.7081
▁ᎨᏌ	-11.7081
ᎵᏉᎩ	-11.7082
▁ᎤᏂᏄᎸᏅ	-11.7082
▁ᏁᏩᏔᎵᏃ	-11.7082
▁ᏂᏍᏛ	-11.7084
▁ᎠᏲᎵᏃ	-11.7084
▁ᏗᏦᏢ	-11.7084
▁ᏗᎦᏅᏬᎢ	-11.7085
▁ᏙᏓᏆᏍᎬᎢ	-11.7085
▁ᏂᎦᏛᏁᎰᎢ	-11.7086
ᏚᏓᏴᎳᏛ	-11.7088
▁ᏧᏁᎯ	-11.7089
▁ᎤᎾᏓᏅᏖᏔᏁ	-11.7091
▁ᎢᏥᎦᎵᏍᏓᏗᏍ	-11.7091
▁ᎢᎬᏩᎵᏍᏓᏁ	-11.7091
ᏁᎥᏏ	-11.7092
▁ᎠᎵᏍᏕᎵᏍ	-11.7093
ᎫᏴᎲᎾ	-11.7094
ᏂᎨᏒ	-11.7094
▁ᏁᎵᏍᎬᎾ	-11.7094
ᏥᏁᎪᎢ	-11.7095
ᏛᏗᏍᎨᏍᏗ	-11.7095
▁ᏂᎦᏥᏴᏁᎸ	-11.7095
ᏔᏲᏎᎮ	-11.7095
▁ᎤᏃᎭ	-11.7098
▁ᏕᎨᏲᎲᏍᎨ	-11.7099
ᏒᎲᏍᏗᏱ	-11.7099
ᏓᏰᏠ	-11.71
▁ᎤᎦᏙᎥᏒ	-11.71
ᏣᏃᏁᎵ	-11.7101
▁ᏚᏂᏔᎴ	-11.7102
ᏚᏳᎯᏛ	-11.7102
▁ᏤᎲᎢ	-11.7103
▁ᏧᎾᏙᏅ	-11.7104
▁ᎤᏲᎰᎢ	-11.7105
▁ᏱᏔ	-11.7108
▁ᏚᏫᏒ	-11.7109
ᎣᎸ	-11.7109
▁ᎠᎦᏯ	-11.711
ᏲᎱᏍᎬ	-11.711
ᎰᎯᏍᏗ	-11.7112
▁ᎤᏪᎳᏗᏍ	-11.7112
ᏓᏛᎢ	-11.7112
ᏁᏙᎭ	-11.7114
ᏏᏓᏍᏗ	-11.7114
▁ᎯᏰᏌᏛ	-11.7114
ᎬᏇᎯᏍᏗᎭ	-11.7114
▁ᎠᏥᎪᎵᏰᎥ	-11.7115
ᏅᏍᎬᎾ	-11.7117
ᏤᏍᏙᎩᎯ	-11.7117
▁ᎳᏏ	-11.7117
▁ᎪᏱ	-11.7118
▁ᎦᏬ	-11.7118
▁ᏅᏂ	-11.7119
▁ᎤᎾᎵᎮᎵᏤᎢ	-11.712
ᎨᏠᎮ	-11.7121
▁ᎤᏩᏛᎲᎩ	-11.7122
▁ᎦᏁᎵᏒ	-11.7122
ᏁᏟᏴᏍᏔᏁ	-11.7122
▁ᏕᎤᎴᏔᏅᎢ	-11.7124
ᏔᎷᎩᏍᎬ	-11.7125
ᏩᏛᎯᏓᏍᏗ	-11.7125
▁ᏩᎦᏘ	-11.7125
ᏍᏓᏩᏗᏙ	-11.7125
▁ᎬᏩᎾᏓᏅᎡ	-11.7125
▁ᏂᎦᎵᏍᏗᏍᎨᎢ	-11.7126
▁ᏄᏂᏪᏒᎢ	-11.7126
▁ᎤᏂᎾᏝᎾᎥ	-11.7126
ᏍᎪᎵᏰᎥ	-11.7128
ᎵᏎᎭ	-11.7129
▁ᎠᏉᎯᏳᏅ	-11.7129
ᏌᏙᏯ	-11.7131
▁ᎵᏓ	-11.7133
▁ᎢᏥᏪᏍ	-11.7133
▁ᎤᏬᏰ	-11.7134
▁ᎤᏂᏩᏛᎲ	-11.7134
▁ᎠᏢᏗ	-11.7136
▁ᏱᏝ	-11.7136
▁ᎤᎦᏖᏃ	-11.7137
▁ᏣᏲ	-11.7138
▁ᎠᎩᏌ	-11.7139
▁ᎦᏄᎪᎢ	-11.7139
▁ᎤᎾᏗᏔᎲ	-11.7143
▁ᎠᏆᎩᎸ	-11.7145
▁ᏗᎬᏅ	-11.7145
ᎴᏎᎢ	-11.7147
▁ᏱᏅᎨᏣ	-11.7147
ᏥᏰᎸᎾᏁᎰᎢ	-11.7147
ᏓᏬᏍᏙᏗ	-11.7148
▁ᎤᏂᎩᏒᎢ	-11.7148
▁ᎤᏰᏥ	-11.715
▁ᏱᏕᏍᏗ	-11.7151
ᏔᏂᎴ	-11.7151
▁ᏚᎸᏫᏍᏓᏁᎸᎩ	-11.7153
▁ᎤᏍᏕᎸᏗ	-11.7154
▁ᎢᎦᏛᏁᏗ	-11.7157
▁ᎤᏁᎵᏎᎢ	-11.716
▁ᎤᎾᏌ	-11.716
ᎦᎵᏍᏓᏛ	-11.7161
ᏘᎭᏁ	-11.7162
▁ᎤᎷᏤᏗ	-11.7164
▁ᎨᏥᏍᏗ	-11.7168
▁ᏱᏗᏍᎩ	-11.7169
▁ᏣᏓᏅᏘ	-11.7171
▁ᎠᎪᎵᏰᏍᎨ	-11.7171
ᎧᏁᎬ	-11.7174
ᏗᎧ	-11.7174
▁ᏚᏕᏲᏅ	-11.7174
ᏓᏙᎵᎨᏍᏗ	-11.7175
▁ᎡᏥᎷᏤᎸ	-11.7176
ᎪᏪᎶᏗ	-11.7178
▁ᎤᏥᏯ	-11.7178
▁ᏩᏗ	-11.7184
▁ᎤᎧᎭ	-11.7186
▁ᏓᏘᏁ	-11.7187
ᎷᏓ	-11.7187
▁ᎤᏂᏍᎫᏕᏒ	-11.7189
ᏯᏛᎦᏁᎵ	-11.719
▁ᎤᏪᎶ	-11.7193
ᏌᏕᎢ	-11.7193
▁ᏗᏥᏰᎸᎢ	-11.7197
▁ᏱᏧ	-11.7199
ᏉᏎᏗ	-11.72
▁ᎠᎪᏎᎴ	-11.72
▁ᎾᏆᎵᏍᏓᏁ	-11.72
ᏓᏅᏔᏩᏕᎬ	-11.7202
ᎭᏁᎦᎸ	-11.7203
▁ᎠᏗᏔᏍᏗᏱ	-11.7204
▁ᏣᎬᎩ	-11.7204
▁ᎤᏁᎩᏒ	-11.7206
ᏣᎳᎩ	-11.7206
ᎬᏂᏐᏗᏱ	-11.7206
▁ᎦᏰᏌᏛᎢ	-11.7207
ᏲᎯᎭ	-11.7207
ᎹᎩ	-11.7208
ᏫᏍᎦ	-11.7208
ᎾᏬᏍᏔᏁᎢ	-11.7212
▁ᏗᎬᏩᏁ	-11.7213
ᎾᏌᎢ	-11.7213
▁ᎤᏁᎦᎸᎢ	-11.7216
ᎪᎰᏍᎬ	-11.7217
▁ᏚᏲᎴ	-11.7217
▁ᏲᎪ	-11.7219
▁ᏂᎦᏪᏒ	-11.7222
▁ᎤᏛᏗ	-11.7223
▁ᎠᏓᏅᏖᏍᎨᎢ	-11.7224
ᎦᎾᎦᏘ	-11.7227
ᏓᏱᎭ	-11.7232
▁ᏕᎰ	-11.7232
ᎧᎯᏴᎩ	-11.7232
▁ᏙᎦᏠᎯᏍ	-11.7234
▁ᎤᏕᏒᏅ	-11.7235
▁ᎬᎳ	-11.7236
▁ᏚᎸᏌᏛᎢ	-11.7238
▁ᎠᏁᎵᏍᎨᎢ	-11.7239
▁ᏳᏘ	-11.7241
▁ᏓᎾᏛ	-11.7242
▁ᎠᏢᏛ	-11.7242
▁ᏂᎦᎷᎬ	-11.7244
▁ᏄᏛᎾᏕ	-11.7244
▁ᏧᏁᏨᏃ	-11.7246
▁ᏕᎦᏅᏅᎢ	-11.7246
ᎮᎯ	-11.725
▁ᏚᏪᏘ	-11.7252
▁ᎤᏂᏁᏨᎢ	-11.7252
ᏅᏍᏙᏗᏱ	-11.7252
▁ᏳᏔᎳᏬ	-11.7252
ᏎᎲᎢ	-11.7252
ᏣᏙᎴᎰᎯᏍᏗᏱ	-11.7254
▁ᎦᎸᎥ	-11.7258
▁ᎤᏂᏁᎸ	-11.7263
ᎩᎡᎭ	-11.7264
▁ᎤᏂᏰᎸᏒ	-11.7267
▁ᎡᎪ	-11.7267
▁ᎦᎳᎩ	-11.7267
▁ᎤᎶᏒᎢ	-11.7268
▁ᎠᎵᏍᎪᎸᏙᏗᏱ	-11.7269
ᏕᎰᎯᏍᏙᏗᏱ	-11.7274
▁ᎠᎾᏁ	-11.7275
▁ᎣᎬᏔᏅ	-11.7278
ᏂᏜ	-11.7279
ᎨᏍᎩ	-11.7281
ᎿᏬᏍᏗ	-11.7282
ᏲᏎᎸ	-11.7282
▁ᏴᎬᏩ	-11.7282
ᏂᏨᏁᏍᏗ	-11.7283
ᏥᎪᎵᏯ	-11.7283
ᏲᏍᏗᏍᎩ	-11.7283
ᏘᏍᎬᎾ	-11.7287
▁ᏱᎾᎾᏛᏁᎰ	-11.7289
▁ᏥᏂᎦᏪᏍᎬ	-11.729
ᏨᏗᏍᎨᏍᏗ	-11.7293
ᏂᏏᏅᎩ	-11.7293
▁ᏲᎨ	-11.7294
ᎦᏙᏴ	-11.7294
ᎠᏴ	-11.7295
ᏱᏐ	-11.7296
▁ᎣᏣᏓᏙᎵᏍᏗᏍ	-11.7297
ᏥᏂᏐᏗᏱ	-11.7298
ᎵᏩᏛᎡᎲᎢ	-11.7298
ᏳᎦ	-11.7301
ᏨᏁᎰ	-11.7302
▁ᎫᎭ	-11.7303
▁ᎠᏁᏙᎮᎢ	-11.7303
ᏃᎯᏯ	-11.7305
▁ᎢᏣᏓᏑᏴ	-11.7307
ᏅᎨᎢ	-11.731
▁ᎤᎵᏍᏔᏁ	-11.7313
▁ᎠᏗᏔᏍᎬ	-11.7313
ᏥᏏ	-11.7314
▁ᎤᏂᎷᏤᎭ	-11.732
ᏚᏅᏁᎴ	-11.7321
ᏙᎴᎰᎯᏍᏙᏗ	-11.7322
ᏦᏴ	-11.7324
ᏝᏅᎯ	-11.7324
▁ᎪᏍᏗᏳ	-11.7325
ᏙᎯᏏ	-11.7325
ᎬᏍᏉ	-11.7325
ᏓᏍᎦ	-11.7326
▁ᏥᏯᏙᎵ	-11.7328
▁ᏧᏂᏙ	-11.7329
▁ᎠᎩᏍᏆᏛ	-11.7329
▁ᎡᏙᎰ	-11.7329
ᎫᏴᎡᎮᏍᏗ	-11.733
▁ᎠᏥᏔᏲᏎ	-11.7337
ᏓᏂᎸᏤ	-11.7337
▁ᏱᏍᎩᏯ	-11.7338
ᏛᎲᏃ	-11.7341
▁ᏙᎢ	-11.7341
ᎵᏃᎮᏗᏍᎨᏍᏗ	-11.7342
ᏍᏔᏁᏍᏗ	-11.7343
▁ᎬᎩᎸᏉᏗ	-11.7351
▁ᎦᏰᏗ	-11.7352
ᏍᎦᏍᎪ	-11.7352
▁ᏳᏃᎯᏳ	-11.7353
ᎩᎪᏩᏛ	-11.7355
ᏄᏪᏎᎢ	-11.7361
▁ᎢᏫ	-11.7363
▁ᎠᏂᎳᎨᏴ	-11.7364
ᏰᎾ	-11.7366
▁ᎤᏪᎧᎮ	-11.7366
▁ᏚᏬᏎᎴ	-11.7367
▁ᏚᎾᏗᏩᏍᎨ	-11.7368
▁ᏳᏯ	-11.7368
▁ᏂᎦᏛᏅᎢ	-11.737
▁ᎢᏳᏩᏁ	-11.7371
▁ᎤᏚᎵᏍᎨᎢ	-11.7372
▁ᏙᏍᎩ	-11.7374
▁ᎢᏨᏗᏍᎪ	-11.7377
▁ᎤᏪᏅᎡ	-11.7378
▁ᏳᎾᏚᎵᏍ	-11.7379
ᏍᎪᏎ	-11.7379
▁ᎠᏂᏁᎩ	-11.7381
ᎾᏟᎴ	-11.7384
▁ᎦᎵᎭ	-11.7384
ᎩᏂᎬᎦ	-11.7386
ᏩᏕᎩ	-11.7388
▁ᎤᏴᏔᏁ	-11.7388
▁ᎬᏩᏓᏅᏘ	-11.7389
▁ᏱᎾᏅ	-11.739
ᏅᎾᏉ	-11.7397
▁ᏧᏍᎪᏍ	-11.7398
▁ᏚᎾᎵᏂᎪ	-11.74
ᏓᏴᏍᏗ	-11.7401
ᎴᎪᎢ	-11.7401
▁ᎤᎾᎵᏍᎦᏍᏙ	-11.7401
ᏍᏔᏁᎯ	-11.7402
ᎦᏙᏍᏙ	-11.7403
▁ᏛᎵ	-11.7403
ᏣᏛᎦᏁᎸ	-11.7405
▁ᏱᏂᏨᏁ	-11.7407
ᎬᏙᏗ	-11.7408
▁ᎢᏥᎦ	-11.7409
▁ᏥᎩᏁᎸ	-11.7414
▁ᏍᎩᎾᎾᏂ	-11.7415
ᏒᏍᏗᏱ	-11.7416
▁ᏫᏥᎷᏤᎸ	-11.7417
ᏁᏟᏴᏎ	-11.742
ᏃᎸᏔᏅᎩ	-11.7422
ᏗᏎ	-11.7422
▁ᏒᏟ	-11.7422
▁ᎠᎾᏁᎷᎩ	-11.7423
▁ᎤᏕᏒ	-11.7425
▁ᎠᏂᏌ	-11.7426
▁ᏚᏂᏅᏁ	-11.7428
ᎾᏗᏍᎪ	-11.7431
ᏯᏛᎩᎭ	-11.7437
ᏙᏓᏋ	-11.7437
ᏘᏲᎸ	-11.7438
ᎾᎥᎾ	-11.744
▁ᏓᏳᏪ	-11.7443
▁ᎤᎸᏅ	-11.7445
ᏯᏘᏄᎦ	-11.7448
▁ᏯᎩᏍᏕᎵ	-11.7448
▁ᏩᎩᎶᎯ	-11.7449
ᎢᏎᏗ	-11.7453
▁ᏙᏥᏩᏛᎲ	-11.7454
ᎵᎥᏂ	-11.7454
▁ᏧᏂᏴ	-11.7454
▁ᏱᏗᎩ	-11.7456
ᎨᎵ	-11.7457
▁ᎬᎩᏰᎸ	-11.7458
ᎦᏌᏯᏍᏗ	-11.7458
▁ᎤᏩᏥ	-11.746
ᎣᏐᏅ	-11.7464
ᎪᏢᏁᎢ	-11.7466
ᎵᏎᎯ	-11.7467
ᏁᏤᎸᎩ	-11.7468
▁ᎤᏲᏨᎩ	-11.7468
ᎯᏨ	-11.7469
▁ᎢᏨᏃᏁᎸ	-11.747
▁ᏂᎤᏪᏎ	-11.747
▁ᏥᏄᏛᏁᎴ	-11.7474
▁ᏗᎨᎩ	-11.7476
▁ᏓᏂᎯᏯᏍ	-11.7477
ᎳᏁᎸ	-11.7478
ᏂᏙᎭ	-11.7485
▁ᎢᏳᎾᏛᏁᎸ	-11.7487
▁ᎤᎴᏅᏔᏅ	-11.7488
ᏴᏍᎪᏳᏁ	-11.7491
▁ᎦᏛᎢ	-11.7493
▁ᎠᏂᎲᏍᎨ	-11.7494
▁ᏂᏨᏃᏁ	-11.7496
▁ᎦᏙᎥ	-11.7496
ᏍᎦᎢᎮ	-11.7496
ᏚᏓᎴᏍ	-11.7496
ᏩᎾᎨ	-11.7502
ᏭᎪ	-11.7504
ᏙᎲᎾ	-11.7505
▁ᏘᎪ	-11.7507
▁ᎠᏆᏚᎵᏍᎬᎢ	-11.7508
ᏪᏅᏎ	-11.7509
ᎤᏂᏴ	-11.7511
ᎭᏯᎸ	-11.7511
ᏯᏔᎲ	-11.7511
▁ᏦᏥᏩᎾᎦᎳ	-11.7513
▁ᏧᏪᏰ	-11.7515
ᏥᏅᎵ	-11.7515
ᎵᏖᎸᏂᎴ	-11.752
▁ᎤᎿᎸᏤ	-11.7522
▁ᎦᎵᏍᏓᏴᎲᏍᎬ	-11.7523
ᎬᏓᏃᏍ	-11.7523
▁ᎤᎦᏘᏗᏍ	-11.7525
ᎡᏥᏍᏓᏩᏕᎩ	-11.7526
▁ᎠᏍᏓᏱᏗᏍᏗ	-11.7528
ᏩᏂ	-11.7529
ᎸᏔᏅᎯ	-11.753
▁ᏗᏣᏓᏅᏙᎩ	-11.7531
ᏕᎶᏆᎥ	-11.7534
ᏗᎦᎸᏉᏗ	-11.7538
ᏩᏔᎰ	-11.7544
▁ᎷᎦ	-11.7547
▁ᏧᏂᎭ	-11.7549
▁ᎤᏍᎦᎸ	-11.7549
▁ᏧᎦᎾ	-11.7551
ᎪᏪᎸ	-11.7553
ᎵᎦᎵᏴ	-11.7556
▁ᎬᏍᎦ	-11.7558
ᎦᏔᎿᎥᎾ	-11.7558
▁ᎬᎵ	-11.756
▁ᎤᏲᎮᏍᏗ	-11.756
ᎫᏍᏛᏗ	-11.7561
▁ᎠᎾᏓᏱ	-11.7561
▁ᏛᎾᎢ	-11.7566
ᏱᎵᏙᎯ	-11.7567
ᎬᎾᏬᏙᏗᏱ	-11.7567
▁ᎤᏲᏉᏍᎩᏂ	-11.757
▁ᏓᎾᏘᏁ	-11.757
▁ᏣᏍᏆᏂᎪ	-11.7574
ᏢᏔᏅᎯ	-11.7575
▁ᎠᏍᏓᏲ	-11.7582
▁ᎤᏩᎯ	-11.7583
▁ᏧᏩᏅ	-11.7585
ᎦᎿᏅ	-11.7586
▁ᏣᎾᎢ	-11.7587
ᏓᏁᏘ	-11.7587
▁ᎧᏂ	-11.7588
▁ᏂᏗᎩ	-11.759
▁ᎨᏥᎪᎵᏰᏗ	-11.7601
ᏡᎩ	-11.7602
ᏘᏁᏏ	-11.7604
ᏆᏒᎦᎸ	-11.7604
▁ᎤᏩᏒᎯ	-11.7607
ᎦᎵᏯ	-11.7607
▁ᏣᏚᎳ	-11.761
▁ᎣᏥᏅ	-11.761
▁ᎢᎦᎯ	-11.7615
ᏏᏲ	-11.7616
ᏓᎴᏍᏗ	-11.7617
ᎵᏃᎮᏔᏅᎩ	-11.7618
ᎧᏁᎢ	-11.7619
▁ᎤᎵᏂ	-11.7623
ᏴᏈᏛ	-11.7624
ᎯᏳᎲᎦ	-11.7628
▁ᏱᎪᎯᏳᎲ	-11.7629
ᏒᏓᏅ	-11.763
ᎴᏍᏗᏱ	-11.7633
▁ᏕᎦᏁ	-11.7634
ᏰᏙᎳᏛᏅ	-11.7634
▁ᏩᏥᏯᏅ	-11.7637
▁ᎠᏓᏔᎶᎯ	-11.764
▁ᏗᎦᎬ	-11.764
ᏚᏂᎸᏫᏍᏓᏁᎰᎢ	-11.7643
▁ᎤᏍᏕᎸᎮ	-11.7643
▁ᎤᏬᏢᎾᏁ	-11.7649
ᎳᎩ	-11.765
ᎥᏍᎬᎾ	-11.7652
▁ᏚᏅᏏ	-11.7653
▁ᏱᏗᏥᏳᎪᏓᏁ	-11.7655
ᏂᎬᎬᎢ	-11.7656
▁ᏙᏓᎦᏅ	-11.7658
ᏂᏐᏗᏱ	-11.7659
▁ᏗᏕ	-11.766
▁ᎣᎩᏂᏙ	-11.7668
ᏂᏴᏍᏗ	-11.7672
▁ᎡᏥᏃᏁ	-11.7673
ᎧᎾᏂ	-11.7678
▁ᎠᏍᏚᎩ	-11.7678
▁ᏧᎬᏩᎴ	-11.7679
▁ᏂᎠ	-11.7681
ᏚᏛᏛᏅᎩ	-11.7681
▁ᎦᏥᏔᏲᏎ	-11.7684
ᎩᏍᎬᎢ	-11.7685
▁ᎦᎪᏗᏱ	-11.7689
ᏟᏫᏛᏗ	-11.7689
▁ᏂᏍᎩ	-11.7689
ᎪᎵᏰᏍᎪᎢ	-11.7691
ᎡᎸᎢ	-11.7692
▁ᎦᏒ	-11.7696
ᎬᏍᎪᎸᏅᎢ	-11.7699
▁ᎤᏁᏅᎢᏍᏗ	-11.7699
ᏢᏙᏗᏱ	-11.7708
ᎦᎵᏍᏗᏍᎩ	-11.7709
ᎫᏴᎲ	-11.7711
▁ᎠᏢᏈᏍᏗ	-11.7712
ᎫᏤᎵ	-11.7713
▁ᏧᏂᏢᎩᎢ	-11.7714
ᏌᏬᎢᎲ	-11.7718
ᏯᏓᏱ	-11.772
▁ᎦᎵᏥᏙᎲᏍ	-11.7722
▁ᎤᏅᏗᏱ	-11.7725
▁ᎠᎾᏓᏟᏏ	-11.7731
ᏆᏗᏅᏛ	-11.7732
ᏂᏍᎩᏴᎦ	-11.7736
▁ᏕᎤᏅ	-11.7737
▁ᏓᏂᏱ	-11.7737
ᏍᏆᏗᏍᏗᏱ	-11.774
ᎠᏆᏚᎵ	-11.7746
ᏯᏙᎮᎮᏍᏗ	-11.775
▁ᏭᏕᎵᎨ	-11.7754
ᎶᏁᎢ	-11.7758
ᎵᏙᎮᏍᏗ	-11.7758
▁ᎤᏙᏩᏗᏍ	-11.7758
ᎾᏗᏅᏒᎩ	-11.7758
ᎿᏕᎬ	-11.7759
▁ᏣᏚᎵᏍᎬᎢ	-11.7762
ᏅᏎᏃ	-11.7763
ᏗᏍᎦᎳᏁ	-11.7764
▁ᏭᏖᎳ	-11.7764
ᏲᏞᏒ	-11.7764
ᏛᏎᎢ	-11.7767
ᏯᏅᎯᎸ	-11.7768
▁ᎤᏕᏯ	-11.7769
▁ᏥᏳᎯᏃ	-11.777
ᏛᏁᎴᎢ	-11.7773
▁ᏩᏴ	-11.7774
▁ᎠᏍᎦᏰᎬᏍ	-11.7774
ᏚᎢᏍ	-11.7776
ᎾᏏᏗ	-11.7777
▁ᎬᏩᏂᎾᏄᎪᏫᏒ	-11.778
ᏫᏱ	-11.778
ᏙᏓᏆᏛ	-11.778
▁ᎠᎩᏰᎸᏒ	-11.7781
▁ᎬᏍᎬ	-11.7795
▁ᏣᏕᎲᏍ	-11.7797
▁ᏞᎩ	-11.7802
▁ᎠᏆᎵᏃᎮᏔᏅ	-11.7804
▁ᎨᏣᎪᏩᏛᏗ	-11.7805
▁ᏰᏙ	-11.7807
ᏂᎷᏣ	-11.7808
▁ᎠᎾᏁᏍᎨ	-11.7811
▁ᏣᏂᎧᏔᎮ	-11.782
ᏩᏛᎡᏗᏱ	-11.7823
▁ᎢᏨᏴᏁ	-11.7824
ᏲᎸᎩ	-11.7824
▁ᏚᎪᎲᏃ	-11.7825
ᎬᎾᏉ	-11.7829
ᏥᎵᎥᏂᎵ	-11.783
▁ᏯᏆᏓᏅᏓᏗᏍ	-11.7832
▁ᎠᎪᎲ	-11.7835
▁ᎤᏪᎳ	-11.7836
▁ᎠᏥᏴ	-11.7836
▁ᏂᎦᎵᏍᏗᏍᎬᎢ	-11.7838
▁ᏧᎶᏁ	-11.7838
▁ᏚᎾᏠᏒ	-11.7839
ᏕᎪᏢᎾ	-11.784
ᏘᏍ	-11.7844
▁ᎤᏍᏗᎢ	-11.7845
▁ᏥᏅᏏᏓᏍᏗᏃ	-11.7845
▁ᎢᏤᎵᏎ	-11.7846
▁ᏥᏓᏓ	-11.7853
ᏢᏔᎲ	-11.7854
ᎾᏁᏍᎩ	-11.7856
ᎫᏴᎡᏗ	-11.7864
▁ᏗᎦᎳᏗᏍ	-11.7867
▁ᏓᏂᏢ	-11.7868
▁ᎠᏍᎪᏒ	-11.7873
ᏠᎲ	-11.7874
ᏓᏍᏓᏴᏗ	-11.7875
▁ᏗᎲᎢ	-11.7877
ᏱᎲᎢ	-11.7879
ᏈᏴ	-11.7881
ᏌᏆᎴᎸ	-11.789
▁ᏓᎦᏙ	-11.7893
ᏏᏙᎸ	-11.7896
▁ᎦᏍᎩ	-11.7897
ᎦᏚᏢ	-11.7901
▁ᎤᏲᎴᎢ	-11.7901
ᏥᎦᏖᏃᎭ	-11.7903
▁ᎡᏥᎩᎵᏲᎢᏍᏗᏍ	-11.7906
ᏎᏛ	-11.7906
ᎦᏔᏂᎴ	-11.7907
▁ᎠᏥᎪᎵᏰ	-11.7907
ᏂᏴᏙᏗ	-11.7913
ᏓᏦᎲ	-11.7915
▁ᎤᏂᎦᏙᎥᎯᏍᏗ	-11.7918
▁ᏙᎤᏁᏅ	-11.7919
ᏥᏚᎢᏍᏓᏁᎸ	-11.7921
ᏄᏬᎥ	-11.7923
▁ᎤᏔ	-11.7926
▁ᏧᎾᏓᎯᏍᏗ	-11.7932
▁ᏄᎨᏳᏎ	-11.7933
▁ᏓᏂᎾ	-11.7934
▁ᎤᏩᎨᏫᏒ	-11.7935
▁ᎬᏩᏒ	-11.7936
▁ᎠᎴᏂᏓᏍᏗ	-11.7937
▁ᏕᎯᏁ	-11.7939
▁ᏗᎦᎳ	-11.794
ᎳᎨᏯᏛ	-11.7945
▁ᎤᏓᏠᏍ	-11.7948
ᎵᏓᏍᏙᏗ	-11.7953
▁ᎬᏯᏛᏁ	-11.7955
ᏅᎵᏰᎥ	-11.7955
ᎧᎭᏲ	-11.7958
▁ᎧᏅᏂᏍᎩᏉ	-11.7965
▁ᎢᎸᏍᎩᏉ	-11.7967
▁ᎢᏣᏪᏍᏗ	-11.7967
▁ᏍᏆᎵᏍᎪᎸᏓ	-11.7969
▁ᏕᏥᏁ	-11.7969
ᎩᎵᏲᎢᏍᏗᏍᎬᎢ	-11.7969
ᏥᏯᎵᏍᎪᎸᏓᏁ	-11.797
▁ᏧᏃᎯᏳᏗ	-11.7971
▁ᎦᏰᎪ	-11.7975
▁ᏫᏚᏂᏲᎯᏎ	-11.7975
▁ᎠᏂᎧᎵ	-11.7981
ᏂᎾᏰᏍᎬ	-11.7984
ᏐᏗᏱ	-11.7985
▁ᏕᎦᎵ	-11.7988
▁ᎨᏦᎯᏳ	-11.7988
▁ᏚᏃᏒ	-11.7989
ᏯᏘᏃᎯᏏ	-11.799
ᏍᏆᏛᎯ	-11.7993
ᎦᎵᏍᏓᏗᏍᏗᏱ	-11.7995
ᏚᎩᏍᏗ	-11.7996
ᎳᏗᏍᎨᎢ	-11.7997
ᎸᏨ	-11.8005
▁ᎤᏂᏟᏌᏅ	-11.8005
▁ᎤᏓᎵᏓᏍ	-11.8006
▁ᏚᎩᏎ	-11.8008
ᏲᏅᎯ	-11.8012
▁ᏕᎦᏂᏱᏍ	-11.8013
ᎧᎿᏩᏗᏙᎮᏍᏗ	-11.8016
ᏬᏁᏗᏍᎨ	-11.8017
▁ᎢᏣᏙᎴᎰ	-11.8019
▁ᏏᎻ	-11.8025
ᏗᎷᏥ	-11.8026
▁ᎤᎾᏙᎴᎰᏒᏃ	-11.8026
ᏨᏁᏗᏱ	-11.8026
▁ᏱᏕᏣ	-11.8029
ᎦᏔᎮᎢ	-11.8032
ᏓᏁᏢ	-11.8037
▁ᏣᏓᏅᏖ	-11.804
▁ᎢᏳᎵᏍᏔᏁ	-11.8041
▁ᎤᎾᏕᏯᏙᏗ	-11.8051
▁ᎡᏥᏍᏕᎸ	-11.8053
ᏓᏁᎢ	-11.8054
ᏏᏛ	-11.8057
ᎾᏓᏛᏁᏗᏱ	-11.8058
▁ᎤᎶᏒᏍᏓᏁ	-11.8063
▁ᏥᏫᎦ	-11.807
ᎬᏩᏓᎴᏅᏛ	-11.8073
▁ᎯᏃᎮᏍᎬ	-11.8078
ᏯᏂᏍᎨᏍᏗ	-11.8078
▁ᏓᎧ	-11.8081
ᏥᏍᏈ	-11.8084
ᏥᎾᏌᎢ	-11.8093
▁ᎾᏗᏍ	-11.8094
▁ᎬᏩᏂᎩ	-11.8097
▁ᎤᎵᏍᏙᏰ	-11.8097
ᎾᏓᏨᏯᏍ	-11.81
▁ᏚᏅᏅ	-11.8102
▁ᎨᏦᎯᏳᏗ	-11.811
ᎦᎷ	-11.811
ᏤᎶᎯ	-11.8111
▁ᎠᎩᏥ	-11.8112
▁ᏍᏆᏛᏓᏍᏓ	-11.8119
ᏣᏛᏁᎮᏍᏗ	-11.8121
ᎾᎵᏖᎸᏂ	-11.8122
ᎶᏁᎥ	-11.8123
▁ᏗᏥᏁᎸ	-11.8129
ᏈᏃ	-11.8138
▁ᎤᏓᎸᏉ	-11.8142
ᏂᏯᏫᏍᎬ	-11.8145
ᎩᎸᏂ	-11.8145
▁ᎤᏁᎳᏗᏍᏗ	-11.8147
ᏴᏍᎪᎢ	-11.8148
ᎥᎭ	-11.8152
▁ᏘᎧᎵ	-11.8153
ᏂᏅᏫᏍᏗᏍᎩ	-11.8153
ᏥᏲᎭ	-11.8157
ᏔᏟ	-11.816
ᎧᎵᎢᏍᏔᏅ	-11.816
ᎾᏄᎪᎨᏍᏗ	-11.8164
▁ᎤᏌᏛ	-11.8171
ᎾᏓᏛᏁᎭ	-11.8175
▁ᎣᎨ	-11.8175
▁ᎠᏆᏓᏅᏘ	-11.8179
ᏲᎱᏎᎸ	-11.8187
▁ᎤᏩᏛ	-11.8188
▁ᏗᏤᎷ	-11.8188
ᏚᏙᎥ	-11.82
ᎾᏓᏂᎸᏤ	-11.8201
ᏘᏲᎯ	-11.8204
▁ᎠᏓᎩᎡ	-11.8206
▁ᏰᎵᎠ	-11.8214
ᏅᏫᏍᏗᏍᎨ	-11.8221
▁ᎠᏥᏐᏅ	-11.8221
▁ᎢᏨᎪ	-11.8222
▁ᎤᏔᏕᎩᏍᎨ	-11.8226
ᏙᎴᎰᎯ	-11.8227
ᎩᎷᏨᎩ	-11.8227
▁ᎭᎸ	-11.8229
ᏕᏙᏛ	-11.823
ᏥᏍᏢ	-11.8233
▁ᏚᏄ	-11.8235
ᎵᏎᏗ	-11.8242
ᎾᏰᏍᎬᎢ	-11.8244
▁ᏳᏴ	-11.8249
ᏯᎩᏍᎪ	-11.8252
ᎷᎸᎥᏍ	-11.8253
▁ᎠᎾᏡᏗ	-11.8254
ᏥᏁᎢᏍᏗᏍᎬ	-11.8255
ᎫᏍᏙ	-11.8256
ᏲᎯᏍᏗᏱ	-11.8267
ᏰᎸᎰ	-11.8269
ᏏᎾᏍᏛ	-11.8271
▁ᏳᎾᏅ	-11.8272
ᎬᏔᏅᎯ	-11.8273
▁ᎤᎵᎬᏚ	-11.8276
ᏙᏯᏅᎯᏕᎢ	-11.8282
ᎮᎸᎯ	-11.8284
▁ᎢᏍᏗᎪ	-11.8285
ᎯᏙᎸ	-11.8288
▁ᎤᎾᏘ	-11.8289
p	-11.8295
▁ᎣᏂᏍᎩᏂ	-11.8302
▁ᏓᏁᎶᏛ	-11.8311
ᎸᏒᎢ	-11.8312
ᎬᏩᎶᏔᏅ	-11.8317
ᏛᏁᎰᎢ	-11.8319
ᏕᏏ	-11.8323
▁ᎦᎸᏅ	-11.8325
▁ᎠᎩᏛ	-11.8325
ns	-11.8327
▁ᎧᏁᏉᎨ	-11.8329
ᏥᏫ	-11.8333
ᎸᏉᏔᏅ	-11.8335
▁ᎤᏪᎵᏎᎢ	-11.8339
▁ᎦᏙᎬᎢ	-11.8341
▁ᏗᏔᎴ	-11.8348
▁ᏏᏂ	-11.8353
▁ᏥᏕᎲ	-11.8362
ᏆᎵᏍᏓᏁ	-11.8364
▁ᏂᎬᏅᎩ	-11.8364
ᎮᎭ	-11.8366
ᏲᎲᎩ	-11.8367
ᎦᏥᏯᏓᏙᎵᏍᏓᏁᎭ	-11.837
▁ᎠᎪᎵᏰᏍᎪ	-11.8376
▁ᎠᏲᎪ	-11.8377
▁ᏓᎪᏩᏘᏍᎨ	-11.8382
ᎦᎶᏙᏗ	-11.8391
▁ᎠᏙᎴᎰ	-11.8396
▁ᎠᎩᎬ	-11.8397
ᏗᎦᏄᎪᎪ	-11.84
ᏗᏅᏓ	-11.8401
▁ᏅᏙᎯ	-11.8401
ᏆᏓᎾᏰᏍ	-11.8403
ᏂᏏᏁ	-11.8407
ᎦᏅᏓᏓ	-11.8407
ᏒᎨ	-11.8408
ᎧᎸᎩ	-11.8409
ᏘᎾᏫᏛᎯ	-11.8411
ᎬᏍᎦᎳ	-11.8413
▁ᎠᏎᏍᏗ	-11.8417
ᏍᏓᏩᏗᏙᎭ	-11.8418
ᏬᎡ	-11.8422
ᏨᏁᎸ	-11.8422
▁ᎤᏍᎪᏎ	-11.8428
▁ᏚᏏᎳᏛᎢ	-11.8432
ᎾᏕᎶᏆᏍᏗ	-11.8433
ᎯᎸᏍᏗ	-11.8435
▁ᏫᏓᏯᏂᏍ	-11.8439
ᎾᏲᎪ	-11.8439
▁ᎬᏬᎯᏳᎲᏍᎨ	-11.8443
▁ᎦᏙᎨᎢ	-11.8443
ᎬᏍᎦᎸ	-11.8445
▁ᏙᏓᏥᏃᎩ	-11.8445
▁ᏔᎵᏉ	-11.8457
▁ᏂᏥᎦᏔ	-11.846
▁ᏯᏍᎦᎢᎮ	-11.8461
▁ᎦᏂᎩ	-11.8463
ᏯᎪᎦ	-11.8464
▁ᏒᏃ	-11.8466
▁ᎤᏱᎶ	-11.8474
ᎸᎾᏉ	-11.8486
ᏁᏒ	-11.849
▁ᎦᏕᎶᎣᏍ	-11.8491
ᏅᎦᎸᎮᎢ	-11.8493
▁ᎬᏩᏯᎢ	-11.8494
▁ᏧᎾᏁᎳ	-11.85
▁ᏗᏓᎴᎲᏍᎨ	-11.8501
ᏕᎮᏍᏗ	-11.8502
ᏩᏂᏌᏁ	-11.8506
▁ᎢᏥᏰᎸᏒ	-11.8509
ᏛᏅᎢᏍᏙᏗ	-11.851
ᎧᎳ	-11.851
▁ᏗᏣᏛ	-11.8516
ᎾᏩᏛ	-11.8518
▁ᎣᎩᏃ	-11.8523
▁ᏧᏬᏚ	-11.8527
▁ᎤᏲᎭ	-11.8529
ᏕᏨᎩ	-11.853
▁ᎤᏂᏔᏲ	-11.8536
ᏘᏍᏓᏁᎯ	-11.8537
ᎩᏙᎵᏍᏗᏱ	-11.8538
▁ᏓᏰᏥ	-11.854
▁ᎤᎾᎴᏗ	-11.8541
▁ᏚᎦᏙᏍᏔᏁ	-11.8544
ᎦᏙᎥᏒ	-11.8555
▁ᎤᎵᏃᎯᏰ	-11.8557
ᎯᎦᏔᎭᏍᎪ	-11.856
▁ᏭᎪᎲ	-11.8562
ᏓᎩᏅ	-11.8567
ᏤᎸᏍᎦ	-11.8569
▁ᎤᏂᎦᏯᎷ	-11.8572
▁ᏯᏂᏁ	-11.8574
ᎪᏛᎢ	-11.8582
ᏥᏅᏏᏛ	-11.8583
▁ᎤᏂᏁᏎ	-11.8583
▁ᏴᎦᏥᏍᎦ	-11.8584
ᎾᏓᏂᎸᏨ	-11.8588
▁ᎤᏩᏌᏆ	-11.859
ᎪᏂᎭ	-11.8596
ᏯᏙᎯᎯ	-11.8602
ᏓᏅᎦᎸ	-11.8605
▁ᏴᏫᏍᎩᏂ	-11.8606
ᎳᏅᏓᏕᎸ	-11.8611
ᎲᏍᏔᏅ	-11.8614
▁ᏚᏃᏢ	-11.8614
▁ᏕᎩᏂᏴ	-11.8621
▁ᏱᏂᎦᎵᏍᏗ	-11.8627
ᎩᏁᏥ	-11.8628
▁ᏚᏏᏔᏕ	-11.8633
▁ᏓᏂᏃᎮ	-11.8638
ᏉᏑᎴ	-11.8645
▁ᎤᎨᎢ	-11.8646
ᎧᏁᏥ	-11.865
ᏔᏲᏎᎸ	-11.8664
ᎯᏓᏍᏗᏱ	-11.8675
ᎩᏯᎷᎦ	-11.8678
ᎪᎮ	-11.8681
▁ᎬᏴ	-11.8685
ᎵᎮᎵᏥ	-11.8697
ᏕᎲᎦ	-11.8699
ᏥᏬᏁᏔᏅ	-11.8701
ᏲᎱᏎᎸᎯ	-11.8702
ᎬᏎ	-11.8704
ᎳᏑᎸ	-11.8708
▁ᏯᏇᎵ	-11.8709
ᏑᎦᏢ	-11.8714
▁ᎤᏤᎸᏅ	-11.8715
ᏍᏚᏣ	-11.8718
ᎷᏤᎰᎢ	-11.872
ᏕᎳ	-11.8722
ᏍᏓᏴᏗ	-11.8725
ᏂᎴᎢ	-11.8727
ᎦᏘᏗ	-11.8733
▁ᏱᏥᏲᏍ	-11.8738
▁ᎤᏬᏪᎳ	-11.8745
▁ᏓᏥᏃ	-11.8746
ᏲᏍᏙᏓ	-11.8748
ᏛᏓᏍᏔᏅ	-11.8749
ᎵᏍ	-11.875
▁ᏚᏄᎪ	-11.8753
ᎾᎴᏫᏍᏔᏁ	-11.8755
▁ᏭᏂᏴᏍᏗ	-11.8763
ᏬᎥᎢ	-11.8774
ᎩᎡᎴ	-11.878
▁ᏓᏂᏁ	-11.8784
▁ᏳᏝ	-11.8796
▁ᏧᎪᎲ	-11.8797
ᏂᏗᏍᏗ	-11.8797
▁ᎤᎵᎮᎵᏤᎸ	-11.88
▁ᎤᎵᏍᎨ	-11.8803
ᏥᏯᏅᎲ	-11.8805
ᏂᏎᎢ	-11.8806
▁ᏧᏅᏙᏗ	-11.8811
▁ᎠᏆᏍᏗ	-11.8813
ᏬᏂᏍᎩ	-11.8814
ᏰᎸᏍᎨ	-11.8814
▁ᏧᏂᏁᏤ	-11.8815
▁ᏨᏛ	-11.8818
▁ᎠᏓᏯᏅ	-11.8823
▁ᎤᎾᎵᏍᎪᎸᏙᏗ	-11.8825
▁ᎠᎫᎩ	-11.8825
▁ᎢᏳᏩᎦ	-11.8827
▁ᎬᏯᏛᏁᎸ	-11.8828
▁ᎠᏥᎪᏗ	-11.883
▁ᏳᏚ	-11.883
ᏚᎴ	-11.8833
ᏛᎯᏍᏓ	-11.8834
▁ᏗᏏᎳᏛ	-11.8837
ᏯᏙᎳᏛ	-11.8841
▁ᏣᏛᏗ	-11.8843
ᎦᏡᏓ	-11.8845
ᎢᏍᏓᏁᏗᏱ	-11.8849
▁ᏂᎨᏥ	-11.8852
▁ᏣᎶ	-11.8853
▁ᎥᎩᏁᎸ	-11.8855
▁ᎨᏥᏁ	-11.8866
ᎬᏁᏗᏱ	-11.8869
ᎦᎵᏴ	-11.887
ᎯᏯᏍᏗ	-11.8881
ᎯᏎᎴ	-11.8881
ᏁᎳᏗ	-11.8885
▁ᎤᏥᏈ	-11.8888
ᎴᏫᏍᏗᏍᎨ	-11.889
ᏫᏍᏔᏁ	-11.8891
▁ᎡᏣᎵ	-11.8905
ᏥᎷᏤᎸ	-11.8907
▁ᏗᏣᎵ	-11.8907
▁ᎤᏂᏲᎰᏎ	-11.8915
ᎵᏍᏓᏴᏁᎢ	-11.892
▁ᎬᏆᏕ	-11.8922
ᏓᎴᎲᏍᎩ	-11.8926
ᎵᏃᎮᏍᎬᎢ	-11.8929
ᏅᏤ	-11.8934
ᏅᏎᎢ	-11.8937
ᏂᎦᎵᏍᏓ	-11.8937
▁ᎨᏥᏰᎸ	-11.8938
ᏛᎦᏁᏗᏱ	-11.8939
▁ᏍᏆᏓᏅ	-11.8941
▁ᏄᏧᏈᏍ	-11.8945
ᏓᏁᎮᎢ	-11.895
ᏥᏁᏟᏴᏒ	-11.8961
▁ᎤᎵᏠᏯᏍ	-11.8963
ᎧᏘ	-11.8964
ᎷᏤᎲ	-11.8965
ᎵᏁᏌ	-11.8966
▁ᎤᏃᎮ	-11.8966
ᎸᏃᏘᎭ	-11.8967
▁ᏗᏂᏲᎵᏉ	-11.8974
ᏍᎪᏯ	-11.8985
▁ᏳᏂᏁ	-11.8989
▁ᎠᏂᎾᏰ	-11.9005
▁ᏧᏘᏲ	-11.9005
ᏓᏙᎵᏍᏙᏗᏱ	-11.9006
▁ᏱᏂᏣᏛ	-11.9013
▁ᎤᏪᏙᎵᏨ	-11.9018
ᎬᏩᎪᎲ	-11.902
▁ᎦᏁᏟᏴ	-11.9022
▁ᏫᎦᏅ	-11.9029
ᎩᎸᏉᏛᎢ	-11.9038
▁ᏒᏕ	-11.904
▁ᎾᎾᎵᏍ	-11.9041
ᎠᏍᎦᎦ	-11.9047
ᏟᏃᎮᏙᏗ	-11.905
ᎫᏱᏍᎨᏍᏗ	-11.905
▁ᏥᏓᎾ	-11.9053
ᏪᏙᎵᏨᎩ	-11.9053
ᎪᏗᏍᎩ	-11.9054
▁ᎦᎧᎲ	-11.9058
▁ᏥᏅᏩᏍᏗ	-11.9059
ᏓᏅᏓᏗᏍᏗᏱ	-11.9061
ᏛᏓᎴᎲᏍᎩ	-11.9069
ᎵᏍᏓᏴᎲᏍᎨᎢ	-11.9073
ᏥᏍᏕᎸᏗᏱ	-11.9074
ᏂᎶᏌ	-11.9083
▁ᎤᏒᏂ	-11.9085
▁ᏙᏛᏃ	-11.9086
ᏠᎯᏍᏔᏅ	-11.9091
ᏆᏕᏘᏴᎲ	-11.9096
▁ᎤᏂᏣ	-11.9098
ᎾᏚᎵᏍᎨᏍᏗ	-11.9101
ᏂᏯᏍᏗ	-11.9106
ᏣᏪᏐᎸᏍᏙ	-11.9107
ᏁᎳᏗᏍᎨ	-11.9111
ᏁᏍᏓᎳ	-11.9113
ᎾᎩᏪᏒ	-11.9115
▁ᎠᎩᎷᏤᏗ	-11.9116
ᏂᎨᏳ	-11.9118
ᏆᏲᏗ	-11.9119
ᎩᎧᏏ	-11.9119
ᏘᏂᏙᎯ	-11.9123
▁ᏚᏂᏲᏒ	-11.9123
ᎬᏩᏂ	-11.9124
▁ᎬᏙ	-11.9128
ᏅᎦᎵᏍᎬᎢ	-11.9137
ᎦᏂᏴᏛ	-11.914
ᏓᏲᏁᎯ	-11.9153
ᎾᏄᎪᎬ	-11.9155
ᏍᎦᏃᎸ	-11.9158
▁ᏂᎬᏂᏏ	-11.9163
ᏘᏍᎪ	-11.9163
▁ᎤᎵᏬᏨᎢ	-11.9164
ᏰᎵᏎᎭ	-11.917
ᏆᏂᏏ	-11.9177
ᏟᏌᏅᎩ	-11.9178
▁ᏚᏙᎥᎩ	-11.9186
ᏍᎩᎦᏔᎭ	-11.9187
▁ᏛᎾᎵᏍᏓᏴ	-11.9194
▁ᎤᏓᏂᏴ	-11.9195
ᎵᏤᏗᏱ	-11.9198
▁ᏂᎬᏴ	-11.92
▁ᎦᏗᏔ	-11.92
▁ᎠᏥᏍᏚ	-11.9202
▁ᎤᏂᏯᎸ	-11.9209
▁ᏙᏓᏥᏯ	-11.9212
▁ᎦᏰᏥᏙ	-11.9214
▁ᎠᎩᏍᏙ	-11.9222
ᏕᏯᏙ	-11.9237
ᏱᎴ	-11.9241
ᎯᏍᏗᏍᎨᏍᏗ	-11.9246
ᎾᏓᏅᏖᎸ	-11.9247
ᏕᏔᏅᎯ	-11.9252
ᎩᏐᏢ	-11.9255
ᏙᎮᎯ	-11.9255
▁ᎤᎦᏔᎲ	-11.9256
▁ᎤᏛᏂᏗ	-11.926
▁ᎤᏍᎦᏍᏓᏁ	-11.9263
▁ᎬᎩᏯ	-11.9273
▁ᎢᏥᏙᎾ	-11.9275
ᏔᎳᏬ	-11.9278
▁ᎤᎪᎮᏃ	-11.9284
ᏩᏛᏍᏗ	-11.9287
▁ᏄᎾᏛ	-11.9288
ᏂᏚᏪᏎᎸᎩ	-11.9288
▁ᎤᎵᏘᏎ	-11.9289
▁ᎠᎩᏩᏛᏗ	-11.929
▁ᏂᏚᎾᏓ	-11.9292
ᎭᏂᏍᏔᏅ	-11.9292
▁ᏫᏗᎨ	-11.9293
ᏓᏁᎵ	-11.9294
ᏑᎵᎪᎬ	-11.9294
ᏯᏛᏗ	-11.9298
ᏂᏎ	-11.9298
▁ᎭᎦᏔ	-11.9298
▁ᎧᏁᎢᏍᏗᏍᎨ	-11.9308
ᎡᎮ	-11.9315
ᏕᏋᎯᏍᏗ	-11.9317
▁ᏓᏥᎶᏍ	-11.9317
ᏙᏯ	-11.9318
▁ᏓᏳᏁ	-11.9326
▁ᏂᎬᏅᎢ	-11.9327
ᏍᎩᏲᏎᎭ	-11.9339
▁ᎠᎵᏍᎪ	-11.9346
▁ᎠᏢᏈᏍ	-11.9354
ᏄᎮᎵ	-11.9359
▁ᎤᎵᏍᎪᎸᏙᏗ	-11.9361
ᏣᏁᎵ	-11.9366
ᏥᏯᏬᎥ	-11.9369
▁ᏱᎦᏥ	-11.9378
▁ᎠᎾᏅ	-11.9381
▁ᎤᏬᏎ	-11.9383
ᎦᎵᏍᏔᏅ	-11.9384
ᏱᎵᏙᎭ	-11.939
ᏍᎪᎸᏓᏏ	-11.9394
▁ᎯᏃᏁᎸ	-11.9394
ᏓᏰᏅ	-11.9395
▁ᎠᏂᎦᏗ	-11.94
▁ᏱᏚᏩ	-11.9414
ᎦᏛᎴᎯ	-11.9416
ᎵᏍᎪᎸᏓᏁᎸᎩ	-11.942
▁ᏕᏍᎩᏯ	-11.9428
▁ᎤᏂᏲᎯᏍᏔ	-11.9432
ᎧᎿᏩᏛᏍᏗ	-11.9432
ᏥᎪᎵᏰᏗᏱ	-11.9433
ᏖᎳᏗᏍᏗ	-11.9433
ᎸᏉᏗᏍᎨᏍᏗ	-11.9446
ᎵᏏᏅᏗ	-11.9446
▁ᎡᏣᏛ	-11.9449
▁ᏥᏚᏄᎪ	-11.9451
▁ᎠᎾᎵᏥᏙᏂᏙ	-11.9454
▁ᎢᏣᎫᏱᏍ	-11.9455
ᏓᏥᎩᏏ	-11.946
▁ᎣᏥᏃᎮ	-11.9468
▁ᎡᎶᎯᏉ	-11.9472
ᎮᏍᎬᎾ	-11.9476
▁ᏍᎪᏂ	-11.9476
ᏰᎩ	-11.9479
ᏂᏔᏲᎴ	-11.9481
ᏰᎸᎾᏁᏗ	-11.9488
ᎦᏔᎲᎢ	-11.9492
▁ᏫᏓᎾ	-11.9493
▁ᎯᏩᏛ	-11.9496
ᎯᏎᎸᎢ	-11.9501
▁ᎤᏍᏆᎳ	-11.9511
ᏓᎴᎲᏍᎨ	-11.9514
ᎾᏉᎯ	-11.9518
ᏰᎲᎾ	-11.952
▁ᏣᏄᏬ	-11.9521
▁ᏧᏍᏆᏂᎪᏙᏗ	-11.9526
▁ᏘᏲᎯ	-11.9528
ᏓᎦ	-11.9532
▁ᏳᏔᏲᏎ	-11.9535
ᎷᎬᎾ	-11.9537
▁ᎡᏣᏚ	-11.955
▁ᏱᏂᎦᎵᏍ	-11.9551
ᏟᏴᎭ	-11.9554
ᎣᎦᏂᎩᏒ	-11.956
ᎨᏰᎢ	-11.9567
▁ᎦᎾᏍ	-11.9569
ᏂᏍᏘᏰᎬ	-11.9569
ᏁᏙᎯ	-11.957
▁ᏚᎵᏦ	-11.9571
▁ᎤᏂᏍᏘᏰ	-11.9583
ᏣᏓᏱᎸ	-11.9587
ᏱᏙ	-11.9592
ᏩᏛᎡᎮ	-11.9592
▁ᎠᎵᏍᎩ	-11.9596
▁ᎠᎸᎯ	-11.9597
▁ᎬᏩᏛᏓᏍᏓᏁ	-11.9598
▁ᎠᎧᏔ	-11.9599
▁ᏥᏯᏓᏅᏖᏍ	-11.9599
ᏧᏣ	-11.9605
ᎦᏙᏍᏕᎢ	-11.9606
ᎯᏍᏗᏍᎩ	-11.9607
ᏗᏔᏍᏗᏱ	-11.9607
ᏥᏂᏴ	-11.9609
ᏚᏓᎳ	-11.9617
ᏥᏓᏍᏗ	-11.9618
ᏦᎣ	-11.9629
▁ᏥᏂᏨ	-11.963
▁ᏯᎦᎵ	-11.9645
▁ᎯᏍᏕᎸᏗ	-11.9648
▁ᎤᎧᏙᏍ	-11.9653
▁ᎠᏓᏙᎵᏍ	-11.9663
▁ᎤᏂᏁᎦ	-11.9663
ᏯᎷᎦ	-11.9664
ᏤᎮᏍᏗ	-11.9668
▁ᎢᎦᏓᏅᏓᏗᏍᏗ	-11.9671
ᎦᏘᏰᎢ	-11.9691
ᏅᏗᏍᎪᎢ	-11.9697
▁ᎠᏕᎵ	-11.9697
▁ᏧᏳ	-11.9703
▁ᎠᏆᏦ	-11.9704
▁ᏚᏃᏴ	-11.9708
▁ᏍᎩᏰᎸ	-11.9712
▁ᎠᏂᎶᏏᏙ	-11.9714
ᏛᏛᏅᎩ	-11.9714
ᏓᏙᎵᏍᏓᏁᎮᏍᏗ	-11.9717
▁ᏚᏪᎧ	-11.9718
ᎾᎦᏔᎲᏍᎬ	-11.972
ᏴᎩᏛ	-11.9724
▁ᏧᎵᏍᏚ	-11.9726
▁ᏚᏂᏅ	-11.9728
▁ᏄᏪᎡ	-11.973
▁ᏣᏩᎯ	-11.9744
▁ᏱᏣᏛᏓᏍᏔ	-11.9748
ᎯᏍᏗᎭ	-11.9748
pi	-11.9751
▁ᎤᏰᎶᎢᏍ	-11.9752
ᏦᏱ	-11.976
ᏕᏙᎭ	-11.9769
ᏓᎨᏛ	-11.9776
▁ᎲᎾ	-11.9781
▁ᎠᎾᏕ	-11.9785
ᏎᎩ	-11.9785
ᏃᎯᏏ	-11.9786
▁ᏱᎦᎷᏤ	-11.9787
ᏥᏁᏤᎸᎯ	-11.979
ᏰᎸᏅ	-11.9793
▁ᎠᏍᎦᏅ	-11.9799
ᎷᎯᏍᏓᏁ	-11.9811
ᏂᏩᏛᎯᏙ	-11.9817
ᏤᎵᎦᏯ	-11.9821
▁ᎤᏭᏢ	-11.9824
ᎾᏗᏅ	-11.9829
ᎾᏁᏍᎨᏗ	-11.9834
ᏯᏑᏰᏛ	-11.9835
▁ᎠᏂᎦᏔ	-11.9847
ᏃᎩᏍᏔᏂ	-11.9849
▁ᎠᎩᏁᎵᏍ	-11.9849
ᏂᏲ	-11.9851
ᏬᏯᏁᏎᎢ	-11.9853
▁ᎬᏩᎾᏓ	-11.9861
ᏕᏍᎬᎢ	-11.9861
ᏫᏌ	-11.9864
ᏲᏍᏙᏗᏱ	-11.9868
ᏥᏲᎢᏳᏓᏁᎭ	-11.9875
▁ᏚᎵᏍᏚ	-11.9878
ᎸᏍᎨᎢ	-11.9878
ᏬᏂᎯᏍᏗᏱ	-11.9882
▁ᎤᏂᎷ	-11.9884
▁ᎦᎳ	-11.9892
ᏐᏯᏍᏗ	-11.9902
▁ᎠᎩᏁᏤ	-11.9907
ᏌᎳᏗ	-11.9913
ᏩᎯᏎᎴᎢ	-11.9919
▁ᏂᎨᏣ	-11.992
ᏓᏗᏍᏗᏱ	-11.9923
ᏞᏤ	-11.9923
▁ᎾᎯ	-11.9926
▁ᎠᏂᏯᏫᏍ	-11.9932
ᎸᎥᏍᎩ	-11.9934
ᎦᏄᎪᎬᎢ	-11.9934
▁ᎤᏁᎳᏗᏍ	-11.9936
▁ᏚᏒᏁ	-11.9936
ᎩᏂᏆᏘᎯ	-11.9936
ᏁᎵᏔᏅ	-11.9939
ᎪᎳᏗᏴ	-11.9941
ᎾᏕᎪᎢ	-11.9942
▁ᎢᏥᎦᎵ	-11.9946
▁ᏧᏬᏎ	-11.9947
ᏙᎾᎥ	-11.9948
ᏙᏢᏒᎢ	-11.9951
ᏒᎦᎳ	-11.9953
ᏛᏔᏁ	-11.9953
▁ᏓᎦᏂ	-11.9956
▁ᏓᏍᏆᏂᎪ	-11.9959
ᏲᎦᏘ	-11.9959
▁ᎨᎪ	-11.9959
ᏆᏚᎵᎭ	-11.9962
ᏩᎪᏗ	-11.9962
▁ᎤᏍᏆᎸᏗ	-11.9968
▁ᎤᏔᏍᎩ	-11.9969
▁ᎠᎩᏲᏏ	-11.9973
▁ᎤᏂᎶᎯᏍᏗ	-11.9974
ᏥᎸ	-11.9978
▁ᏨᏗᎦ	-11.9985
ᎪᏎᎮᏍᏗ	-11.9987
▁ᏥᎨᏣ	-11.9987
ᎧᎵᏣ	-11.9987
▁ᏧᏲᎱᏎ	-11.9989
▁ᏗᎦᎶᎯᏍᏗ	-11.9993
ᎵᏂᎪᎯᏍᏓ	-11.9994
▁ᎬᏩᏲ	-11.9998
▁ᏥᎧᏁᎢᏍᏗ	-12.0006
ᎧᏅᎩ	-12.0011
ᏓᏂᎸᎦ	-12.0013
ᏛᏍᎬ	-12.0019
ᎴᎲᏍᎬᎩ	-12.0023
▁ᏯᏋ	-12.0024
ᎵᎰᎢ	-12.0027
▁ᎢᏳᏛᏁ	-12.0029
▁ᎤᏲᎱᏎᎸ	-12.0033
ᎸᎡᎸ	-12.0035
▁ᏥᎦᎳ	-12.0036
ᏥᎪᎥ	-12.0038
ᏭᎾ	-12.0041
ᏁᎵᏍᎨ	-12.0044
ᏥᏩᏛᏓ	-12.0045
ᏓᏅᏒᎭ	-12.0047
ᏩᏕᎨ	-12.0048
▁ᎢᏣᏗᏔ	-12.0048
ᏣᏖ	-12.005
▁ᎤᏏᎳᏛ	-12.0051
ᏏᏃᎴ	-12.0057
ᏴᎭᎦ	-12.0057
ᎪᎸᏒ	-12.0057
ᏓᏅᎡᏗᏱ	-12.0061
ᏲᏍᏙᏓᏁᎸᎩ	-12.0065
ᎩᎵᏲᎢᏍᏙᏗᏱ	-12.0065
▁ᎬᏭᎯᏍᏗᏍ	-12.0068
▁ᎣᏆ	-12.0074
ᏃᎭᏝ	-12.0078
▁ᏣᏓᏅᎦᎸ	-12.008
▁ᎣᎦᎵᏍᏔᏴ	-12.0081
ᎦᎵᏱ	-12.0089
▁ᎠᎩᏁᏤᎸ	-12.009
ᎶᏍᎨᏍᏗ	-12.0097
▁ᏳᎾᏚᎵ	-12.01
ᎴᏅᏗᏱ	-12.0106
▁ᎠᎾᏛᎩ	-12.0106
▁ᎠᏂᎶᏍᎨ	-12.0111
ᏍᏆᎳᎯ	-12.0112
▁ᎣᏍᏕᏙ	-12.0115
ᏘᏃᎸᎩ	-12.0117
▁ᎥᏓᏗ	-12.0119
ᏚᎸᏛ	-12.012
ᏘᏃᎯᏏ	-12.0123
▁ᏓᎬᏯ	-12.0123
▁ᎣᏎ	-12.0123
ᏓᎢᏅ	-12.0131
ᏁᎪ	-12.0132
ᏘᎶ	-12.0139
▁ᏧᎾᏓᏁᎳ	-12.0144
ᎫᏏ	-12.0145
ᏕᏘᏴᏛ	-12.0145
▁ᏧᏃᎯᏳ	-12.0149
ᏓᎪᏩᏘᎭ	-12.0154
ᏣᎸᏫᏍᏓᏁᎮᏍᏗ	-12.0158
▁ᎠᎦᏘᏃᎮ	-12.0161
ᎵᏍᏓᏁᏗ	-12.0163
ᏁᎶᎯ	-12.0166
ᎵᏒᎩ	-12.0166
ᎩᏂᏴᎲ	-12.0169
▁ᏗᏰ	-12.0174
▁ᏳᎾᏗᏅ	-12.0176
▁ᎢᏣᎴ	-12.0181
▁ᎪᎯᏴ	-12.0184
ᏗᎦᏔᎭ	-12.0185
ᏪᎶ	-12.0192
ᏲᎵᎦ	-12.0194
ᏰᏍᎩ	-12.0206
ᏂᎪᏩᏛ	-12.0206
ᏓᎴᏅᏓ	-12.0209
▁ᎠᎯᏯ	-12.0211
ᏦᎯᏳᎲᏍᎦ	-12.0213
ᏂᎪᎯᏍᏗᏍᎨᏍᏗ	-12.022
ᏫᎨᏙᎲ	-12.023
▁ᎤᏓᏦ	-12.0232
ᏅᎦᎸᏙᏗ	-12.0234
ᎾᏓᏡᎬ	-12.0236
ᏪᏍᏗᏱ	-12.0237
▁ᎠᏍᏆᏂᎪᏗᏍ	-12.0238
ᏙᎳᏛᏗ	-12.0239
ᏍᏆᏂᎪᏙᏗ	-12.024
▁ᎢᎾᎯ	-12.0241
ᏍᏗᎧ	-12.0242
ᏤᎲᎾ	-12.0246
▁ᏱᎨᎦ	-12.0249
▁ᏧᎫᏴ	-12.0258
ᏂᎾᏌᏁ	-12.0258
ᎦᏘᏯ	-12.026
ᎼᏏ	-12.0261
▁ᎤᎾᏞ	-12.0265
▁ᎭᎵᏍᏓᏴ	-12.027
ᏅᏍᏓᏕ	-12.0273
▁ᎦᎾᏄᎪᏫᏎ	-12.0273
ᏗᏕᎬᎢ	-12.0279
ᎾᎿ	-12.0286
ᏒᏗᏍᎬ	-12.0286
ᏂᏩᏛᎲ	-12.0288
▁ᏂᏛᏁ	-12.0292
▁ᎤᏓᏙᎵᏍᏙᏗ	-12.0292
ᏣᏢ	-12.0298
ᎵᎮᎵᎩ	-12.0302
ᎵᎪᏔᏅ	-12.0306
ᏲᎩ	-12.0308
▁ᎠᏓᏁ	-12.0309
ᎪᎯᏳᏗᏱ	-12.0313
ᏚᎳ	-12.0321
ᏂᏍᎪ	-12.0322
ᏡᏗᎭ	-12.0325
ᎾᏓᏴᎳᏛ	-12.0328
ᏁᏍᎨᏍᎩ	-12.0331
ᏂᎳᎨᏯᏛ	-12.0335
ᏂᎩᏏ	-12.0338
ᎩᏂᏴᏎᏍᏗ	-12.0338
ᎵᎥᏂᎵ	-12.034
ᎮᎴᎢ	-12.0341
▁ᎠᎾᏓᏴᎳ	-12.0344
▁ᏞᎦᏉ	-12.0346
ᏖᎳᏗ	-12.0347
▁ᎤᎵᏘ	-12.0347
▁ᏓᏂᏅ	-12.0349
▁ᏫᏚᏃᏁ	-12.035
▁ᏯᏂᎸᏉ	-12.0355
ᏕᏯᏙᏗᎭ	-12.0364
▁ᎭᏓᏅᏖ	-12.0365
ᎵᏍᏔᏴᎾ	-12.0367
ᎨᏳᏒᎾ	-12.0369
▁ᏅᏓᏳᏂ	-12.0369
ᏁᎵᏒᎢ	-12.037
ᏗᏤᎾ	-12.0371
▁ᎥᎠᎩ	-12.0373
▁ᎯᏃᎯ	-12.0374
▁ᎠᏋᎨᏫ	-12.0379
▁ᏫᏄᏩ	-12.038
ᏖᏆᎶᎯ	-12.038
ᏂᏬᏂᎭ	-12.0386
ᎯᏍᏓᏱ	-12.039
ᏯᏙᎯᎲ	-12.0391
ᏂᏍᏙᏗᏱ	-12.0393
ᏙᏂ	-12.0397
ᏑᎴᏗ	-12.04
▁ᎠᏂᏰ	-12.0401
ᏍᏚᎮᎢ	-12.0405
▁ᏭᏗ	-12.0409
▁ᎠᏓᎨ	-12.041
▁ᎤᏒᎴ	-12.041
ᏍᏛᏗᏍᎬᎢ	-12.0411
▁ᏣᏁᎯ	-12.0411
ᎨᏯ	-12.0416
▁ᏚᎦᏙᏍ	-12.0419
ᏍᎩᎶ	-12.042
ᏲᏏᏍᎨᎢ	-12.0421
▁ᎢᏥᎶᏁ	-12.0423
ᏕᏯᏙᏓ	-12.0434
▁ᎦᏂᏱᏍ	-12.0438
▁ᏥᏂᏣᎵᏍ	-12.0438
ᏣᏓᏑᏯ	-12.0449
ᏁᎵᏍᎪ	-12.0452
lo	-12.0454
▁ᎩᏄ	-12.0457
▁ᎬᏩᎸᏉᏗ	-12.0458
▁ᎤᎾᎵᏍᎩ	-12.0462
▁ᏂᏍᎩᏴ	-12.0464
ᎬᏅᎢ	-12.0467
ᏪᏐᎸᏍᏗ	-12.047
ᏓᏥᎷᏥ	-12.0471
▁ᎢᏕᏙ	-12.0471
ᏥᎸᏉᏗ	-12.0471
ᎵᏍᏔᏁᏗ	-12.0482
▁ᏧᏂᎸᏉᏗ	-12.0484
ᎾᏗᎾ	-12.0485
▁ᏛᎪ	-12.0489
▁ᏥᏃᎮ	-12.0491
ᎮᎵᏍᎬᏉ	-12.0492
ᏄᎪᎬᎢ	-12.0494
▁ᎠᎾᏓᏛᎥ	-12.0503
▁ᎢᏣᏍᏗ	-12.0508
▁ᏣᏁᏤ	-12.0509
ᎧᎿᏅᎩ	-12.0512
▁ᏗᏥᏲᎯ	-12.0513
▁ᏧᏢᏗ	-12.0514
ᏲᎯᏎᎴᎢ	-12.0517
▁ᎢᏙᎯᏳᎲᏍ	-12.0525
▁ᎬᏩᏂᎩᎵᏲᎢᏍ	-12.054
▁ᎠᎩᎵᏓᏍ	-12.0545
ᎸᏅᎭ	-12.0546
ᎵᎪᎲ	-12.0549
ᏌᎴᏓ	-12.055
ᏄᎪᏫᏍᎦ	-12.0553
ᏣᏓᏂᎸᎩ	-12.0556
ᏍᏕᎸᎡᏗᏱ	-12.0556
▁ᎠᎾᏙ	-12.0558
▁ᎠᏂᏃᎮᎵᏙ	-12.0559
ᎾᏟᏃᎮᏗ	-12.056
▁ᎠᏘᏲ	-12.0561
▁ᏣᏍᏕᎸ	-12.0564
ᎾᏯ	-12.0565
ᏄᏙᎬ	-12.0569
ᏫᎠ	-12.0571
▁ᏚᏩᏍᎦ	-12.0572
▁ᎠᎩᏯ	-12.0586
▁ᎤᎸᏒ	-12.0589
ᎭᎷᎨ	-12.0592
ᏚᎾᏛ	-12.0593
▁ᎠᎩᎷ	-12.0603
ᏃᏁᎸ	-12.0606
ᎸᎡᎴ	-12.0621
▁ᏛᎤ	-12.0623
ᏲᏌ	-12.0624
ᎵᏌᎳᏓᏅ	-12.0624
▁ᏍᏆᎳ	-12.0631
ᏓᏒᏂ	-12.0632
ᏩᏐ	-12.0632
ᎯᏥᎨ	-12.0641
ᎾᎴᏗ	-12.0642
▁ᎤᎾᎦᏌᏯᏍ	-12.0644
ᎵᏗᏍᎩ	-12.0645
ᏢᏗᏍᎨ	-12.0646
ᏂᏲᎸ	-12.065
▁ᎤᏃᎯ	-12.0651
ᎯᎶᎥ	-12.066
ᏍᏓᎥ	-12.0661
ᏴᏅ	-12.0664
ᏂᏲᎯᏍᏙᏗ	-12.0665
ᎴᏉ	-12.0666
▁ᎦᎳᏅ	-12.0667
ᏔᎲᎾ	-12.0667
▁ᎠᎩᏍᏕᎸᏗ	-12.067
▁ᎤᏂᎿᎸ	-12.0671
▁ᏚᎧᏁ	-12.0671
ᏦᎯᏍᏗ	-12.0676
▁ᎣᎩᏍᏛᏗᏍ	-12.0679
▁ᎭᎵᏍᏓᏴᎲᏍ	-12.0679
ᏣᎧᏂᏍᎬ	-12.068
ᏥᎸᎯ	-12.0682
ᎧᎾᏩᏗᏙ	-12.0682
ᏍᎪᏎᎢ	-12.0691
▁ᏫᏥᏂ	-12.0691
▁ᎡᏦᎢᏳ	-12.0692
ᎵᏍᏓᏴᎲᏍᎬᎢ	-12.0694
la	-12.0695
▁ᏥᎦᏬᏂ	-12.0695
ᏥᏍᎪᎵ	-12.0698
▁ᏄᏟᏂᎬ	-12.0703
ᏓᏥᏩᏛᎯᏃ	-12.0704
▁ᏓᏥᏯᏛ	-12.0705
ᏣᏅᏓᏗᏍ	-12.0711
ᏥᏳ	-12.0716
▁ᎠᏔᏲᎯ	-12.0717
ᏥᏲᎵᎭ	-12.0718
ᎪᏓᏁᎸ	-12.072
▁ᎾᏂᏪ	-12.0722
ᏥᏎᎪᎩ	-12.0723
ᎾᏕᎬᎢ	-12.0723
▁ᎯᏁᏤ	-12.0724
▁ᏓᏂᏬᏂ	-12.0724
▁ᎢᏳᎾᏛᏁ	-12.0726
ᎦᏘᏰ	-12.0727
▁ᏱᎪᎵ	-12.0727
▁ᏱᎪᎯᏳ	-12.0729
▁ᎡᏥᏄᎪ	-12.0729
ᎦᏖᏃᎭ	-12.0731
ᏂᎨᏳᎯ	-12.0733
ᎵᎪᎢ	-12.0736
▁ᏗᎦᏔ	-12.0741
▁ᎠᎵᏖᎸᎮᏍ	-12.0742
ᏄᎪᏥ	-12.0744
▁ᏥᏂᏣ	-12.0746
ᏘᏂ	-12.0749
ᏗᏓᎴᎲᏍᎪᎢ	-12.0752
ᏨᏯᏍᏗ	-12.0758
▁ᏱᎦᏢ	-12.0759
▁ᏓᏂᎳᏫ	-12.0761
▁ᎤᏃᎯᎸ	-12.0761
▁ᎠᏂᎦᏖᏃ	-12.0761
▁ᎠᏑᏰᏍ	-12.0763
ᎵᎮᎵᏨᎯ	-12.0766
ᎵᏍᏓᏴᏔᏂ	-12.0767
▁ᎤᏂᏱ	-12.0768
ᎩᎵᏲᎢᏍ	-12.0772
ᏂᎩᏒᎩ	-12.0774
▁ᎤᏩᏙᏗ	-12.0774
ᏕᎰᏍᎨᏍᏗ	-12.078
ᎾᏫᏛᎮ	-12.078
▁ᎤᏂᏲᎵ	-12.0782
ᏍᎩᎳ	-12.0783
ᎴᎦ	-12.0785
ᏣᎦᎸᎮ	-12.0788
ᎶᏁᏗ	-12.0807
ᎬᏩᎶ	-12.0809
ᎩᎵᏲᎬᎢ	-12.0812
▁ᏧᏓᏅᏖ	-12.0813
▁ᏓᎨᏥ	-12.0813
ᎾᏙᎴᏆᏍᎬ	-12.0813
ᏩᏘᏍᎪ	-12.0815
ᏓᏍᎦᎨᏍᏗ	-12.0815
ᎵᏍᎪᎸᏓᏁᎴ	-12.0818
▁ᎠᏡᏗᏍ	-12.083
ᏆᎵᏍᎪᎸᏓᏁ	-12.0837
▁ᏚᏂᏚ	-12.084
ᎠᏁ	-12.0856
▁ᎠᏯᏖ	-12.0858
ᎤᏅᏎ	-12.0862
▁ᏗᏓᏂ	-12.0865
ᏓᏪᎵᎩᏍ	-12.0867
ᏩᏗᏒ	-12.0867
▁ᎤᏂᏍᎪᎸ	-12.0869
▁ᎦᎸᏉᏗᏳᏍᎩᏂ	-12.0869
ᏣᎷᏤᎵ	-12.0871
ᏰᎸᏁ	-12.0871
▁ᏓᎾᏘ	-12.0881
ᏥᏍᎬ	-12.0882
ᏍᏛᏗᏍᏗᏱ	-12.0883
ᎸᏫᏍᏓᏁᎭ	-12.0888
ᏏᏔᏕ	-12.0891
ᏥᏍᎦᏅᏤᎸ	-12.0892
▁ᎤᎾᏕᎰ	-12.0893
ᏦᎯᏳᏅ	-12.0894
ᏒᎦᎶᏗ	-12.0895
ᏂᏒᎩ	-12.0906
ᏓᏙᎵᏍᏓᏁᎯ	-12.0915
ᏂᎪᏩᏘᏍᎨᎢ	-12.0917
ᏄᏛᏁᎴᎢ	-12.0917
▁ᎣᎩᏍᏛᏗᏍᏗ	-12.0918
▁ᏥᏫᎬ	-12.0918
▁ᎢᏤᏯᏔ	-12.0924
▁ᏓᏳᏩ	-12.0928
ᏂᎨᏴ	-12.0928
ᎯᏴᏁᎸ	-12.0928
ᏓᎪᎲᏍᏗ	-12.0928
ᎥᏍᎩ	-12.0939
ᎾᎵᏍᏓ	-12.0942
▁ᏓᎧᎿᏩᏗᏙᎮ	-12.0952
▁ᎬᏩᏍᏕᎸᎯᏙ	-12.0952
ᎷᏨᎯ	-12.0954
ᎱᏍᏕᏎᎸ	-12.0955
ᏍᏔᏁᎲ	-12.0958
▁ᎢᏳᏅᏁ	-12.0961
▁ᎤᏍᏆᎸᎡ	-12.0969
ᏋᏁᎸᎩ	-12.097
ᎾᎦᏔᎲ	-12.097
▁ᏗᎦᏂᏴ	-12.0972
ᏗᏓᎾ	-12.0973
ᏐᏢᎢᏍᏗᎭ	-12.0974
▁ᎨᏥᎾᏄᎪᏫ	-12.0976
ᎦᏯᎷᏗ	-12.0976
ᏂᎶᏍᎨᏍᏗ	-12.0976
ᏓᎴᎿ	-12.0979
▁ᎡᏣᎵᏍᎪᎸᏓᏁ	-12.0981
▁ᎥᎤ	-12.0984
ᏛᏗᏕᎬ	-12.0987
▁ᏧᏭᏓᎴ	-12.0992
ᏓᏔᎶᎯᏍᏗ	-12.0992
ᏍᎦᏅᎪᎢ	-12.1003
ᏄᏂ	-12.1006
▁ᎠᏂᏬᏂᏍᎨ	-12.1013
ᎾᏓᏛᏁᎮᏍᏗ	-12.1014
▁ᎠᎩᏍᎬ	-12.1014
ᏍᏓᏏ	-12.1018
ᎴᎲᏍᎦ	-12.102
▁ᎠᏂᏍᏆᏂ	-12.1023
ᏙᎵᏍᏗᏱ	-12.1023
▁ᎫᏔ	-12.1026
▁ᎤᎴᏫᏍ	-12.1028
▁ᎤᏂᏃᎸᏔ	-12.103
ᏄᎪᏫᏎ	-12.103
ᎶᎢᏍᏗᏱ	-12.1032
ᏬᏂᏎᎢ	-12.1037
ᏳᏨ	-12.1056
ᏘᏒᎴᎢ	-12.1057
▁ᏧᎾᏁᏍᎨ	-12.1062
▁ᎤᎪᎯ	-12.1062
▁ᏥᏕᎦᏓ	-12.1065
ᏬᏅ	-12.1065
ᏂᎶᏒᎯ	-12.1069
ᏢᏗᏍᎪᎢ	-12.107
▁ᎢᏨᏯᎵᏥᏙᏁ	-12.1077
▁ᎠᎾᎦ	-12.1078
ᎩᎷᏤᎸ	-12.1083
▁ᎤᎵᏖᎸᏂ	-12.1085
ᏩᏛᏛ	-12.1085
ᏣᏓᏅᎦᎸᏛ	-12.1086
ᏑᎦᎸ	-12.1086
ᎵᏂᎬᎬ	-12.1092
▁ᏕᎦᎶ	-12.1094
▁ᎾᏋᏁ	-12.1096
ᏂᏧ	-12.1097
▁ᏚᎾᏕ	-12.1097
ᎵᎪᏁᎸᎩ	-12.1101
▁ᏓᏑ	-12.1104
▁ᏱᏂᎦᏪ	-12.1106
▁ᏳᏕᎶᎰ	-12.1109
▁ᏣᎸᏉᏗ	-12.1109
▁ᏕᏣᎸ	-12.111
ᏙᎣ	-12.1113
▁ᎤᏓᏍᏕ	-12.1115
▁ᎤᏗᎦᎵᏍᏙ	-12.1116
▁ᎤᏓᎪᎾᏛ	-12.1123
▁ᎢᏯᏥ	-12.1123
▁ᏱᏭ	-12.1125
ᏥᏍᏕᎸᎯ	-12.1125
ᎦᎵᏍᏓᏗᏍᎩ	-12.1127
ᏕᏗᏱ	-12.1128
ᎵᏍᏓᏴᎲᎦ	-12.1129
ᏗᏅᏎ	-12.1134
ᏜᏍᏛ	-12.1135
ᏓᏍᏕᏓᎵᏴᏍᎩ	-12.1138
▁ᎬᏩᏍᎦ	-12.1141
ᏍᏆᎵᏎ	-12.1142
ᎩᎸᏉᏔᏅ	-12.1145
ᏐᏢᏙᏗ	-12.1148
ᏘᏃᎮᏗᏱ	-12.1148
▁ᎤᏗᏍᎦᎳ	-12.1158
ᏮᎩ	-12.116
ᏕᏍᏗᏱ	-12.1161
ᎦᏓᎡ	-12.1164
ᎵᏌᎳᏓᏅᎩ	-12.1165
▁ᏛᏥ	-12.1166
▁ᏧᎷᏤ	-12.1167
ᎵᎬᏚ	-12.1178
▁ᏕᎦᏥᏯ	-12.118
▁ᎬᏩᏯᏫ	-12.1183
ᏓᏖᎸᎮᏍ	-12.1185
▁ᎢᎦᏚᏓᎴᏍ	-12.1189
ᎵᏃᎮᏙᏗᏱ	-12.1191
ᏕᏍᏔ	-12.1192
▁ᏭᏕᎵ	-12.1196
▁ᎠᏂᏯᎡ	-12.1204
ᎾᏓᏂᎸᎢᏍᏗ	-12.1209
ᎠᏯᎨ	-12.1211
▁ᎩᎦᎨᏃ	-12.1211
▁ᎢᏣᏠᏯᏍ	-12.1215
▁ᎠᎵᏍ	-12.1215
ᏅᏨ	-12.122
▁ᏗᏧᎪᏓ	-12.1221
ᏃᎮᎴᎢ	-12.1228
▁ᎤᏂᏁᏉ	-12.1232
ᏚᏂ	-12.1233
ᏑᎴᏍᏗ	-12.1234
▁ᏧᏚᎢᏍᏓᏁ	-12.1239
ᎦᏪᏍᏗ	-12.124
ᏟᎶᎡᎸ	-12.1241
▁ᏩᏂᏴ	-12.1243
▁ᎠᎩᎾᏄᎪᏫᏍᏗ	-12.1249
▁ᏳᏩᏛ	-12.125
▁ᎤᎾᏙᏢ	-12.125
▁ᏴᏥ	-12.1253
ᏥᏬᏁᏙᏗ	-12.1253
▁ᎪᏒ	-12.1254
ᏒᎸᎩ	-12.1258
ᎦᎾᏅᎪ	-12.1258
ᏓᏬᎢ	-12.1261
▁ᏚᏂᎧᏁ	-12.1266
▁ᏳᏄ	-12.127
ᏔᎶᏒ	-12.1271
ᎾᏁᎴ	-12.1273
ᏓᎷᏯᏛ	-12.1274
ᏕᏍᏗᏍᎨᏍᏗ	-12.1277
ᏲᏏᏌ	-12.1279
ᏩᏘᏃ	-12.1283
ᏂᎰᎢ	-12.1284
ᏳᏩᏂ	-12.1285
ᏚᎨ	-12.1287
ᏪᏌᏆᎴ	-12.1287
ᎩᎳᎾᎳ	-12.1289
ᎪᏩᏘ	-12.1297
ᏯᏪᎦ	-12.1301
▁ᏕᏥᎸᏫᏍᏓᏁ	-12.1303
ᏥᏯ	-12.1304
▁ᏯᏴ	-12.1305
▁ᎤᎾᎦᎸ	-12.1307
ᏓᏰᎨᏍᏗ	-12.1313
ᎵᏂᎪᎯᏍᏔᏅ	-12.1314
▁ᎠᎩᏫ	-12.1315
ᏟᏴᎮᎢ	-12.1317
ᏍᎪᎳ	-12.1319
▁ᏚᏂᏣᎦ	-12.1319
ᎾᏝᎾᎥᎢ	-12.132
ᎦᏔᎲᏒᎩ	-12.1321
ᎤᏙᎯᏳᏗ	-12.1323
ᏗᏔᎲᎩ	-12.1324
ᏅᏓᏗᏍᎪ	-12.1328
ᏂᏴᎩ	-12.1331
▁ᎡᏚ	-12.1331
ᎦᏙᎨ	-12.1332
▁ᏳᏁ	-12.134
▁ᎢᏧᎳᎭᏉ	-12.134
▁ᎤᏥᏍᏓ	-12.1341
ᏥᎪᏗ	-12.1343
ᎪᏁᎶ	-12.1344
ᏗᏍᎦᎶᏗ	-12.1354
▁ᎾᎾᏛᏁ	-12.1359
ᎦᏪᎠ	-12.136
ᎾᏄᎪᏫ	-12.1361
ᎦᏔᎾᎢ	-12.1362
▁ᎢᎫ	-12.1363
▁ᏗᏓᎾ	-12.1363
ᏓᏴᏍᏕᏍᏗ	-12.137
▁ᏓᏂᏔ	-12.1373
▁ᎦᏄᎪ	-12.1373
▁ᎠᎾᎵᏍᏓᏴᏗᏍ	-12.1374
▁ᏦᎸ	-12.1376
▁ᏘᏏ	-12.1378
ᏯᏍᏛᎾ	-12.1378
▁ᎤᏂᏄᎸ	-12.138
ᏁᏍᎨᎭ	-12.1381
ᏍᎫᏓᏛ	-12.1381
▁ᎤᎦᏌ	-12.1385
ᎸᏫᏍᏓᏁᎸ	-12.1391
ᏍᎩᏓᏒᎢ	-12.1391
▁ᎠᏢᏆᏍ	-12.1394
▁ᏧᏥᏍ	-12.1394
ᏐᏢᏗᎭ	-12.1395
ᏗᏯᎥ	-12.1399
ᎶᎸᎯ	-12.1403
ᏩᏕᏁᎴᎢ	-12.1405
ᏅᏗᏍᏗ	-12.1407
ᎪᎪ	-12.1407
▁ᎤᎾᏘᏲ	-12.1408
▁ᏍᎩᏯᏕᎶᏆ	-12.1411
ᏃᎮᏢ	-12.1413
▁ᎤᎦᏛᎾ	-12.1413
▁ᎨᎶ	-12.1418
ᎳᏑᎳ	-12.142
ᏏᏅᎯ	-12.1423
▁ᏓᎦᏢ	-12.1424
▁ᎠᎾᎵᏍᎪᎸᏗᏍ	-12.1427
ᏓᏅᎵᏰ	-12.143
▁ᏂᏙᏓ	-12.143
ᎪᎰᏍ	-12.1433
▁ᎤᎸᏌ	-12.1433
ᏚᎢᏍᏔᏅ	-12.1435
▁ᏣᏚᏓᎴ	-12.1436
ᏍᏉᏟᎢ	-12.1436
ᎯᏍᏓᏁᎯ	-12.1436
▁ᏚᏓᏂᎸᏤ	-12.1437
ᏓᏅᏒᎯ	-12.1438
▁ᎠᏆᏛᎦ	-12.1438
ᏔᎴᏐ	-12.144
ᏩᏁᎲ	-12.1441
ᎪᏢᎭ	-12.1446
ᏈᎦ	-12.1449
▁ᏴᎨᏣ	-12.145
ᏔᏛ	-12.145
▁ᎠᎪᏍᏓ	-12.1456
ᎦᏘᎸᏍᏗ	-12.1457
▁ᎡᏍᏓ	-12.1457
▁ᏥᏅᏒ	-12.1458
ᏨᏁᎸᎢ	-12.146
▁ᏕᎫᎪᏗ	-12.1462
ᏫᏚᏓᎢᏅ	-12.1464
▁ᏧᏓᏄ	-12.1464
▁ᎤᏂᏍᏆ	-12.1464
ᏍᎦᎴ	-12.1469
ᏥᏍᏕᎸ	-12.1469
ᏲᏍᏗᏍᎨᏍᏗ	-12.1472
ᏁᎢᏍᏓᏁᎭ	-12.1475
ᏯᏙᏤᎮᏍᏗ	-12.1475
ᎬᏬᎵ	-12.1478
ᎾᏞᏒ	-12.1479
ᎦᏠᏯᏍ	-12.1479
ᏲᏤᎢ	-12.1482
▁ᏳᎵ	-12.1482
ᎳᏍᏓᎡ	-12.1484
ᏄᏍᏕᎢ	-12.1484
▁ᏓᏫᏍᎦ	-12.1486
ᏁᏟᏴᎡᏗ	-12.1487
▁ᎱᏰ	-12.1488
ᏓᏙᎵᏍᏔᏁᎢ	-12.1494
ᏉᏗᏍᎬ	-12.1496
ᎴᏂᏙᎸᎢ	-12.1499
ᏛᏓᏍᏓᏁᎴ	-12.15
▁ᎤᏍᏢᏂᏍ	-12.1502
ᏗᏥᏂᏴ	-12.1502
▁ᎤᏁᎵᏤ	-12.1506
ᏂᏍᏗᎭ	-12.1506
▁ᎤᎦᏎᏍᏗ	-12.1507
ᏪᏎᎮᎢ	-12.151
ᏍᏆᏙᎾ	-12.1512
▁ᏱᏫᏨ	-12.1512
▁ᏚᏟᎶᏍᏓᏁᎴ	-12.1513
ᎤᏍᏆᏂᎩ	-12.1514
▁ᏗᏂᎧ	-12.1515
▁ᎠᎩᏐᏅ	-12.1517
▁ᎯᏅᏁ	-12.1519
▁ᎬᏬᏎ	-12.1524
ᎱᏁ	-12.1526
▁ᎤᎾᎵᏍᏗ	-12.1527
ᏯᏅᏓᏗᏍᎪ	-12.1529
▁ᎨᏣᏁᎢᏍᏗ	-12.153
ᎩᏂᏴᏗ	-12.1533
▁ᏕᏍᏓ	-12.1534
▁ᏧᎾᎵᎪ	-12.1536
▁ᎤᏂᏄᎪᏤ	-12.1537
ᏬᎯᏳᏅ	-12.1539
▁ᏚᏛ	-12.1539
▁ᏣᎧᎵᎢ	-12.154
ᎵᏍᏗᏍᎨᏍᏗ	-12.154
▁ᏚᏭᎪᏓᏁ	-12.1541
ᏍᏔᏁᎮ	-12.1541
ᎱᏍᏕ	-12.1543
▁ᎤᏔᏕ	-12.1544
▁ᏚᎾᏂᏏ	-12.1545
▁ᏱᎦᏅ	-12.1549
ᎪᎸᏛ	-12.155
▁ᏂᏍᏋᏁ	-12.155
ᏛᏁᎸᎩ	-12.155
ᏑᎴᎥ	-12.1553
▁ᏂᏍᎩᏪᏎ	-12.1554
ᎤᏃᎴ	-12.1556
ᏓᎦᏘᎴ	-12.1557
▁ᎤᎾᎴᎿᏫᏍ	-12.1557
ᏌᏙᏰ	-12.1558
▁ᏄᏩᎾ	-12.1562
▁ᎤᎵᏍᏕᏍᏔ	-12.1563
▁ᏕᏥᏅᎦᎵ	-12.1564
ᎩᏁᏟᏴᏏ	-12.1566
▁ᏗᏩᎾᎦᎳ	-12.1567
▁ᏚᎾᏚᏫᏍ	-12.157
ᏰᎵᏒᎩ	-12.157
ᎭᏲᎮ	-12.1572
ᏘᏃᎵ	-12.1575
ᏡᏓ	-12.1578
ᎦᏎᏍᏔ	-12.1578
▁ᎤᎾᏚᎵ	-12.1578
▁ᏓᎧᎿ	-12.158
▁ᎢᏓᎴᏂᏙ	-12.1581
▁ᎤᏍᏙ	-12.1582
ᏴᏌ	-12.1585
▁ᏚᎾᏄᎪᏫᏎ	-12.1585
ᎯᏎᎭ	-12.1586
ᏍᏓᏩᏕᏒᎭ	-12.1587
▁ᎤᏕᏯᏙ	-12.1587
▁ᎦᎵᏆ	-12.159
ᏲᏍᏔ	-12.1592
▁ᏂᏥᏯ	-12.1593
▁ᏓᎵᏂᎪᎯᏍᏗᏍ	-12.1594
ᏁᏅᏒᎩ	-12.1595
ᏙᎵᏍᏓ	-12.1595
ᏂᎬᏎᎲᎢ	-12.1597
ᏍᎩᎳᏛ	-12.1597
ᎫᏓᎴᏏ	-12.1598
▁ᎤᎭᏲ	-12.1598
ᏍᎩᏓᏒ	-12.1599
ᏄᏍᏕ	-12.16
▁ᎤᎾᏓᏛᏁ	-12.16
ᏍᎫᏕᏍᎬ	-12.16
▁ᏂᏓᏛ	-12.1601
ᎧᎵᎵ	-12.1602
ᎾᏅᏅᎩ	-12.1605
▁ᎠᏂᏏᎾ	-12.1606
ᏲᏎᎲᎩ	-12.1607
ᏫᏍᏗᏍᎩ	-12.1608
▁ᎯᎪᎥ	-12.161
ᏍᏕᎸᏙᏓ	-12.1612
▁ᎯᏍᎫ	-12.1613
ᎿᏩᏗᏒ	-12.1613
▁ᎾᏅᏁ	-12.1614
▁ᏳᏣᏅᏓᏕ	-12.1615
ᎨᏳᏐ	-12.1616
▁ᏓᎩᎸᏫᏍᏓᏁ	-12.1617
▁ᏥᏩᏂ	-12.1617
ᏍᎪᏂᎯ	-12.1618
ᏦᏕ	-12.162
▁ᎠᏓᏄᏖᏲ	-12.1624
▁ᏩᏂᏴᎯ	-12.1625
▁ᏄᏛᎾ	-12.1626
ᎵᏍᎦᏍᏙᏔᏂ	-12.1626
ᎪᏩᏛᎡᏗ	-12.1628
▁ᎠᎫᏬ	-12.1628
▁ᎤᏕᏘᏱ	-12.1628
▁ᎠᏂᎦᏘᏗᏍ	-12.1628
ᏗᏙᎵᎩ	-12.1632
ᏓᏅᏓᏗᏍᏓ	-12.1634
▁ᏱᏅᏩ	-12.1635
ᏙᏩᏗᏍ	-12.1642
ᏄᎸᎲ	-12.1642
▁ᎦᏃᎯᎵ	-12.1642
ᏍᏗᏰᏕ	-12.1643
▁ᏥᏄᏛᏁ	-12.1643
ᏂᎨᎯᏙᎴᎢ	-12.1644
▁ᎠᎩᏲᎰ	-12.1644
▁ᏓᏕᏙ	-12.1645
ᏰᎶᎸ	-12.1645
▁ᎠᏋᎨ	-12.1648
ᎩᏍᏕᎸᎯᏙᎸ	-12.1651
ᏓᏛᏁᎲᎩ	-12.1652
▁ᏚᎴᏔᏁ	-12.1654
▁ᏫᎾᎩ	-12.1655
ᏓᏂᎸᎪᎢ	-12.1655
▁ᏄᎾᏓ	-12.1656
ᎭᏂᎸ	-12.1659
“	-12.166
▁ᎨᏠ	-12.166
ᎬᏩᏛᏗ	-12.1662
▁ᎠᏇᎷ	-12.1664
ᎬᏂᏍᏗ	-12.1665
ᏐᎴᏍᏗ	-12.1668
ᏓᏂᏯᏛ	-12.1671
ᎦᎴᏅᏔᏅ	-12.1672
ᏛᏗᏍᎬ	-12.1674
ᏥᎦᏘᏴ	-12.1678
ᏣᏚᎵᏍᎨᏍᏗ	-12.1679
▁ᏙᏦ	-12.1679
ᏞᏎ	-12.1681
▁ᎢᏣᎨᏳ	-12.1682
ᏒᎴᎢ	-12.1683
ᏣᏅᏓᏕ	-12.1685
ᎾᏘᏲ	-12.1685
ᏤᎰᎢ	-12.1685
▁ᎤᏂᏲᎰ	-12.1687
ᏩᎾᎦᎶ	-12.1688
ᎨᏙᎰ	-12.1689
▁ᏱᏂᏨ	-12.1689
ᏧᏁᏍᎨᎮᎢ	-12.169
▁ᏱᏄᎾ	-12.169
ᏚᏂᎳᏫᏤ	-12.169
ᎭᏛᏁᎭ	-12.1692
ᎼᏂ	-12.1692
ᎤᏛᏎᎢ	-12.1694
ᎾᏫᏛᎯ	-12.1695
ᏍᎪᎸᏙᏗ	-12.1696
ᎧᏁᏗᏱ	-12.1696
ᎪᏓᏁᎯ	-12.1697
ᏓᏟᎶᏍᏗᏍᎬ	-12.1697
ᏁᎫᏥᏛ	-12.1698
ᎦᏕᎶᎣᏍ	-12.1698
ᏧᏓᎴᏅ	-12.1698
ᎵᏍᏇᏚ	-12.1698
▁ᎤᎾᏠᎾᏍ	-12.1699
▁ᎦᏃᎭᎵᏙ	-12.1699
▁ᏄᏍᏆᏂ	-12.1699
ᎣᎨᏅ	-12.17
ᏂᎨᏐ	-12.17
▁ᎢᎤᎾᏨᏎ	-12.17
▁ᎠᎾᎵᏍᏓᏴᎲᏍᎪ	-12.17
▁ᎨᏣᏡᏗᏍᎬ	-12.17
▁ᏚᎧᎿᏩᏗᏙᎮ	-12.17
▁ᏧᎩᏥᏍᎪ	-12.17
ᏘᏅᏍᏓ	-12.17
▁ᎤᏅᏩᏁ	-12.17
▁ᎠᎾᎵᏅᏢ	-12.17
▁ᏭᎩᎸᏁ	-12.17
▁ᎤᏍᎦᏅᏥᏙᎸ	-12.17
▁ᎤᏁᎢᏍᏓᏁᎸ	-12.17
ᎬᏬᏎᎸᎩ	-12.17
▁ᏧᏲᏏᏍᎨ	-12.17
▁ᏚᏂᏰ	-12.1701
ᎪᏍᏛᏂᏍᏗ	-12.1701
▁ᏂᏚᏛᏁᎴ	-12.1701
▁ᏙᏗᎧᏂᏍᎬ	-12.1701
▁ᏥᏂᎨᏎ	-12.1701
▁ᎤᎾᎴᏫᏍ	-12.1701
ᏥᎬ	-12.1702
ᎪᎯᏳᎲᏍᎪ	-12.1703
▁ᎢᏥᎾᏰᏍᎬ	-12.1704
ᏓᏰᏙᎳᏛ	-12.1705
▁ᎢᏗᎪ	-12.1705
ᏴᎡᎴ	-12.1705
ᏍᎩᎾᎾ	-12.1705
ᏥᏍᏓ	-12.1705
ᏍᎩᏅᎦᎸ	-12.1705
▁ᎠᎩᎵᏲᎬ	-12.1705
▁ᎠᎩᏯᎥ	-12.1706
ᏚᏍᏆᏃᏴ	-12.1706
▁ᏓᎾᏟ	-12.1706
ᏓᏍᏔᏅᏅ	-12.1707
ᏚᎳᏑᏝ	-12.1707
ᏍᏚᎸ	-12.1707
ᏕᎾᏓᎪᎲᏳ	-12.1707
ᏧᏓᎴᏁ	-12.1708
▁ᏫᎬᏩᏴᏔᏁ	-12.1708
ᏄᏩᏂᏌᏅ	-12.1708
ᎤᏁᎫ	-12.1708
▁ᏫᏓᎧᏁ	-12.1708
ᏄᎾᏓᎴ	-12.1708
ᎠᎾᏓᎪᎾᏗᏍᎬ	-12.1708
ᏚᏳᎪᏛ	-12.1708
▁ᎤᏁᎳᏫᏎᎲ	-12.1709
▁ᏭᏩᎦᏘᏗᏒ	-12.1709
▁ᏥᏮᎦᏙ	-12.1709
▁ᎤᏘᏃᎴ	-12.1709
▁ᏄᎾᏛᎿᏕᎬ	-12.1709
ᎤᏂᎶᏒ	-12.171
ᏥᎪᎥᏍᎦ	-12.171
ᎤᏁᎢᏍᏔᏅ	-12.171
▁ᏨᏓᎸ	-12.171
ᎤᎾᏛᎪᏗᏱ	-12.171
ᏎᎦᏨ	-12.1711
▁ᎠᏂᏔ	-12.1711
▁ᏚᏪᎧᏁ	-12.1711
ᏙᏓᎦᏥ	-12.1712
▁ᏕᎦᎸᏫᏍᏓᏁᎸ	-12.1712
ᎤᎵᏍᏙᏔᏅ	-12.1712
▁ᏕᏥᎧᎿᏩᏗᏒ	-12.1712
▁ᎤᎾᏡ	-12.1713
▁ᏧᏔ	-12.1713
▁ᎣᏥᏃᎮᏍᎬ	-12.1713
▁ᎤᏅᏓᏗᏗᏒ	-12.1713
▁ᏧᎾᏄᎪᏫᏎᎴ	-12.1713
ᎤᎵᏍᎨᏓ	-12.1714
▁ᏗᏆᏓᎴᏅ	-12.1714
ᎶᏄᎮᏗ	-12.1714
ᏍᎩᏃᎯᏏ	-12.1714
▁ᏓᏓᏁᎳᏗᏒ	-12.1714
ᏦᎴᏍᏗ	-12.1714
ᏓᏳᎶᏒ	-12.1715
▁ᎠᎾᏓᏩᏛᎯᏙ	-12.1715
ᎤᎦᏃᏩ	-12.1715
▁ᏱᎪᎵᎨ	-12.1715
ᎠᏂᎪᏕᏍᎩ	-12.1715
▁ᎤᏛᎦᏍᏔᏁ	-12.1715
ᎠᎦᏴᎵ	-12.1715
ᎤᎵᏍᏆᎸᏗ	-12.1715
ᏚᎾᏙᎥ	-12.1716
ᎾᏛᏁᏗᏱ	-12.1716
ᎠᏥᎸᏉᏗᏳ	-12.1716
ᎡᎳᏆᏗ	-12.1716
ᏗᎵᏍᏓᏴᏗᏱ	-12.1716
ᏠᎨᏏ	-12.1716
ᎢᏧᎳᎭ	-12.1717
ᎤᎾᏄᎪᏫᏎᎢ	-12.1717
▁ᏂᏚᏅᏁᎴ	-12.1717
ᏕᎤᏙᎥ	-12.1717
▁ᎣᎩᎪᎲ	-12.1717
ᏣᎪᏍᏗ	-12.1717
▁ᏗᏣᎸᏫ	-12.1717
ᏗᎧᎿᏩᏗᏙᎯ	-12.1717
ᎩᎸᏗ	-12.1718
ᏳᏩᏁᎦ	-12.1718
ᏍᏛᏗᏍᎨ	-12.1718
ᎡᏆᎭᎻ	-12.172
ᎢᎪᎯᏓ	-12.172
ᏂᎪᎯᎸᎾ	-12.172
▁ᏚᏠᏒᏎ	-12.172
ᏂᏤᎷᎯ	-12.172
▁ᎤᏓᏙᎵᏍᏓᏁᎴ	-12.172
▁ᎤᏃᏍᎩᏒ	-12.1721
ᎾᏫᏛᏛ	-12.1721
ᎨᏥᏍᏕᎸᏗ	-12.1721
▁ᎤᏍᏆᏂᎪᏔᏁ	-12.1721
ᎦᏰᎬᏍᏔ	-12.1722
ᏂᎬᎾᏛ	-12.1722
▁ᎧᏁᎨ	-12.1722
ᏴᎯᎲ	-12.1722
▁ᏕᏣᏓᏘᎾᎥ	-12.1723
ᏟᏂᎬᏁᎸ	-12.1723
ᎤᏁᎦ	-12.1723
ᏩᏘᏍᎬᎾ	-12.1723
ᏃᏈᏏ	-12.1724
ᏄᏂᏪᏎᎢ	-12.1724
ᏛᏅᎢᏍᏔᏁ	-12.1724
ᏧᎬᏩᎶᏗ	-12.1725
▁ᎬᏩᏕᏁᎴ	-12.1726
ᏍᎩᏯᏘᏃ	-12.1726
ᎦᏙᎬᎩ	-12.1726
▁ᎩᎾᎵ	-12.1727
ᎮᏙᎮ	-12.1727
▁ᏲᏣ	-12.1727
▁ᏱᏂᎬᏩ	-12.1727
▁ᎤᏓᏙᎵᏣ	-12.1728
▁ᎠᏥᏰᎸᎾᏁᎴ	-12.1729
▁ᎾᏥᏪᏎᎴ	-12.1729
▁ᎠᏂᎷᎨ	-12.173
ᏩᎶᏏ	-12.173
ᏠᏎᎢ	-12.173
▁ᎬᏩᎪᎮ	-12.173
▁ᎤᏗᏔᎮ	-12.173
▁ᏚᏚᎪᏔᏅ	-12.1731
▁ᏧᏂᎦᏴᎵ	-12.1731
ᎮᏂᎵ	-12.1731
▁ᏓᏂᏬᏂᏍᎬ	-12.1731
ᎾᏛᏁᎮ	-12.1732
ᏓᎵᏂᎪᎯᏍᏙᏗ	-12.1733
ᏚᏬᏁᏔᏁᎢ	-12.1734
ᎠᏕᎳ	-12.1734
▁ᎢᏣᏓᏙᎵᏍ	-12.1735
ᎦᎵᏍᏗᏍᎪᎢ	-12.1735
ᎤᏁᎬ	-12.1736
ᏩᎯᏍᏗ	-12.1736
ᎤᏲᏨ	-12.1736
ᏋᎨᏫ	-12.1736
ᎢᏳᏍᏘ	-12.1736
ᏥᎨᏳ	-12.1736
ᎩᏍᏕᎸᎯᏓᏍᏗ	-12.1736
▁ᏂᏍᏆᏛᏁ	-12.1736
ᎤᎶᏒ	-12.1736
ᎠᏥᎸ	-12.1737
▁ᎤᏂᏲᏠᎯᏎᎸ	-12.1737
▁ᎾᏆᏛᎿᏕᎬ	-12.1737
▁ᏂᎦᏥᏪᏎᎸ	-12.1737
ᏔᏛᎩ	-12.1738
▁ᏭᏣᏅ	-12.1738
ᏅᎢᏍᏔᏅᎯ	-12.1738
▁ᎤᎾᏚᎵᏍᎪ	-12.1738
▁ᎡᎦᎫᏴ	-12.1739
▁ᎠᎵᏍᏆᏗᏍᎬ	-12.1739
ᏓᏙᎵᏣᏘ	-12.1739
▁ᏓᏠᏱᎲ	-12.1739
ᏣᎬᏫᏳᎯ	-12.1739
ᎦᏎᏍᏛ	-12.1739
ᎮᎵᎠ	-12.1739
▁ᏗᎦᏙᎨ	-12.174
▁ᏫᏓᏆᎧᎾᏅ	-12.174
▁ᎤᏕᏁᎴ	-12.174
ᎵᏱᎵᏕ	-12.174
▁ᏚᏍᏓᏩᏛᏎ	-12.1741
ᎠᏓᏅᏙ	-12.1741
ᎬᏩᎷᏤᏗᏱ	-12.1742
▁ᎴᎻ	-12.1742
▁ᎤᏁᏙᎴ	-12.1742
▁ᎯᎦᏍᎦᏂ	-12.1743
ᎵᏥᏙᏁᎭ	-12.1743
ᏧᏓᎴᏅᏓ	-12.1743
ᏯᏘᏅᏍᏗ	-12.1744
▁ᏭᏂᏴᎴ	-12.1744
ᎵᏍᎦᏂᏍᏛ	-12.1744
ᎾᏓᎵᏁᎯᏕ	-12.1744
ᎤᎵᎮᎵᏍᏗ	-12.1745
▁ᎤᏪᏙᎴ	-12.1745
ᎦᎾᏏᏍᎩ	-12.1746
▁ᎤᏓᏏᏁ	-12.1746
ᎬᏬᎯᏳ	-12.1747
▁ᏓᏰᏙᎳ	-12.1749
ᎠᎩᎪᏩᏛᏗᏱ	-12.1749
▁ᏱᏄᏩᏁ	-12.1749
▁ᎤᎾᏓᏙᎵᏍᏓᏁᎸ	-12.1749
▁ᎤᎩᏨ	-12.1749
ᏦᏓᎸ	-12.175
ᎬᏆᏛᎦᏁ	-12.175
ᎦᎾᏬᏍᎬ	-12.175
▁ᎤᏂᏍᏆᏂᎪᏒ	-12.175
ᏓᏪᎳᎩᏍᎬ	-12.175
ᏍᏓᏱᏛᎩ	-12.175
ᏏᏙᏂ	-12.1751
▁ᎧᏁᏨ	-12.1751
▁ᎣᏤᎲ	-12.1751
▁ᏄᎵᏂᎬ	-12.1752
ᏔᎵᏁ	-12.1752
ᏏᎾᏌᏅ	-12.1752
ᎬᏗᏍᎨᎢ	-12.1753
ᏲᎱᏏᏕᎾ	-12.1753
▁ᎡᏥᎾᏰᏍ	-12.1753
▁ᏚᏬᏢᏅ	-12.1754
ᎾᏂᎩᏒ	-12.1754
▁ᎤᎾᎦᏎᏍᏛ	-12.1755
▁ᎦᏃᎸᎥᏍ	-12.1755
ᏍᏚᏞ	-12.1755
ᎦᏅᎾ	-12.1755
ᎧᏲᏓ	-12.1755
▁ᎤᏁᏟᏴ	-12.1755
ᏍᎩᎾᏛ	-12.1755
▁ᎤᎵᏨᏓᏆ	-12.1755
ᎵᏠᏯᏍᏕᏍᏗ	-12.1756
▁ᎥᏥᏯ	-12.1756
▁ᎠᏩᏘᏍᎪ	-12.1756
▁ᏦᎯᏳᏎᏍᏗ	-12.1756
ᏃᎯᎸᏍᏔ	-12.1757
▁ᎤᏬᏪᎳᏅ	-12.1757
ᏨᏏᏰᏗ	-12.1757
▁ᏓᎾᏕᏲᎲᏍ	-12.1758
ᏆᏓᏅᏖᎸ	-12.1758
▁ᏣᎵᏂᎩ	-12.1758
ᏴᏓᏆᎶᏍᎬ	-12.1758
ᏅᏍᎦᎸ	-12.1759
▁ᎢᏳᏕᏘᏴ	-12.1759
▁ᏧᏂᎷᏫᏍᏔᏁ	-12.1759
ᏙᎴᏆᏍ	-12.1759
▁ᎠᎦᎫᏴᎡ	-12.1759
ᏴᏓᏆᎶᏍᎩ	-12.176
▁ᏧᏃᏪᎳᏅ	-12.176
▁ᏧᎷᏫᏍᏔᏁ	-12.1761
ᏁᏍᎨᏍᎬᎢ	-12.1761
ᏗᎦᎶᏗ	-12.1761
ᏄᎯᏍᏗᏍᎬ	-12.1761
ᎵᏍᏗᏰᏓᏁ	-12.1761
▁ᏄᎾᏛᏁ	-12.1762
ᏩᏗᏎᎢ	-12.1762
ᎶᏍᎪᎢ	-12.1763
▁ᎬᏩᏛᎦᏁᎸ	-12.1763
ᏁᎳᏕᎢ	-12.1763
ᎤᎵᎮᎵ	-12.1764
ᏍᎦᏅᏥᏙᎸᎢ	-12.1764
ᎵᏏᎲᏎ	-12.1764
▁ᏗᎦᎳᏫ	-12.1764
▁ᎭᏙᎴᎰ	-12.1765
▁ᏙᎩᎾᏍᎩᏓᏒ	-12.1765
▁ᎤᎸᏓᎸᎥᏍ	-12.1765
ᏍᎩᏙᎵᎩ	-12.1765
ᎵᏃᎮᏗᏍᎬ	-12.1766
▁ᎠᏂᏐᏢᎢᏍᏗᏍ	-12.1766
▁ᎤᎵᏍᎪᎸᏔᏅ	-12.1766
▁ᎤᎾᎳᏍᏓᎡ	-12.1767
ᎦᏔᏂᎸ	-12.1767
▁ᎢᎧᏁᏨ	-12.1767
ᎬᎭᎸᏛ	-12.1767
▁ᎤᎧᏲᏛ	-12.1768
ᏬᏍᎩᎵ	-12.1768
ᏑᎵᎪᏨᎩ	-12.1768
▁ᏄᏂᏪ	-12.1768
▁ᏚᏅᏩᏅ	-12.1769
▁ᎭᎵᎮᎵ	-12.1769
ᏚᎪᏔᏅ	-12.1769
▁ᎤᏂᏍᎦᎴ	-12.1769
ᎾᏕᎲᏍᎬ	-12.177
▁ᏕᏥᎧᎿᏩᏗ	-12.177
▁ᏧᏂᏲᎱᏒ	-12.1771
ᎫᎪᏓ	-12.1771
ᏓᎴᏍᎬᎢ	-12.1771
▁ᏚᏂᎧᏅ	-12.1771
▁ᏭᏗᏅᏒ	-12.1771
▁ᎾᏥᏪᏎ	-12.1773
▁ᎤᏗᎴᎲ	-12.1773
ᎦᏟᎮ	-12.1773
ᏓᎾᏏᏂ	-12.1773
▁ᎢᏥᎩᎵᏲᎢᏍᏗ	-12.1773
▁ᎬᏯᎵᏃᎮᏙᏗ	-12.1773
ᏗᎩᏯᏍᏗ	-12.1774
▁ᏚᏑᎦ	-12.1775
ᏓᏁᏣᏍᏚᎶ	-12.1776
ᎾᏄᎪᏥ	-12.1776
▁ᎣᎾᏫ	-12.1776
▁ᎠᏂᏔᏲᎯᎮ	-12.1777
ᎷᎸᏗᏱ	-12.1777
ᏗᎴᎩ	-12.1777
▁ᎠᏍᏆᏂᎪᎯ	-12.1777
ᏛᏓᏍᏓᏁᎮ	-12.1777
▁ᎻᏗᏂ	-12.1777
▁ᏫᎨᏥᏯᏅ	-12.1778
ᎾᏓᏑᏰ	-12.1778
▁ᎬᏩᏂᏴᎲ	-12.1778
ᏘᎿᏫᏛ	-12.1778
ᎾᏙᏓᏆ	-12.1778
▁ᎤᏓᏱᎸ	-12.1778
▁ᎢᎯᏴᏁᏗ	-12.1778
▁ᏳᏗᏛ	-12.1778
▁ᎨᏥᏌ	-12.1779
ᎷᏫᏍᏓᏁᏗ	-12.1779
▁ᏫᏥᎷᏨ	-12.1779
▁ᏗᎪᏑᎴᏗ	-12.1779
ᎬᎭᎷᏯ	-12.178
ᏰᎸᏍᏗ	-12.178
▁ᎢᏣᏓᏅᏔᏩᏕ	-12.1781
ᏍᏆᎾᎳᏗᏍᏗ	-12.1781
ᏓᎪᏄᎶ	-12.1781
▁ᏄᏂᎬᏫᏳ	-12.1782
ᏂᏄᎪᏤᎢ	-12.1782
ᎷᎯᏍᏔᏅ	-12.1782
▁ᏗᏣᎵᏂᎪᎯᏍᏙᏗ	-12.1782
ᏫᏍᏓᏁᏗ	-12.1782
ᎾᎦᎵᏍᎩ	-12.1782
▁ᏫᎦᎶ	-12.1783
ᏓᏘᏍᏗ	-12.1784
▁ᎡᎳᏆ	-12.1784
ᏂᏢᎩ	-12.1784
▁ᎾᏯᏛᎡ	-12.1785
▁ᏄᎬᏫ	-12.1785
ᎪᏪᎵᎯ	-12.1785
ᎦᏕᎣᏍᎦ	-12.1786
ᎦᎵᏍᏔᏂᏒ	-12.1786
▁ᏗᏣᏓᎴᏅ	-12.1786
ᏭᎷᏤᎢ	-12.1786
ᎵᏏᎲᏒᎩ	-12.1787
ᏂᏙᎾᎡ	-12.1787
ᎭᎷᏰ	-12.1787
ᏍᏉᏂᎪᏗ	-12.1788
ᏓᏅᏍᎨ	-12.1789
▁ᎠᏂᏥᎸᏍ	-12.1789
ᎡᏒᎭ	-12.1789
ᏭᏂ	-12.1789
ᏬᎯᏤ	-12.1789
ᎦᎫᏴᏓᏁᏗ	-12.179
▁ᎠᏂᎳᎨ	-12.179
ᏓᏴᎳᏔᏅ	-12.179
▁ᎤᏣᎴᏍ	-12.179
▁ᎠᎩᏍᏛᏗ	-12.179
ᎸᎪᏫᏍ	-12.179
▁ᏗᎪᏢᏔᏅ	-12.1791
▁ᎤᎾᏄᎪᏥ	-12.1791
▁ᏧᏪᏙᎵᏍᏗ	-12.1791
▁ᏙᏗᏍᎩᏯᏘ	-12.1791
▁ᏫᎨᏥᏲᎵ	-12.1791
▁ᎡᏥᏙᎵᏍᏗ	-12.1791
ᏕᏘᏴᏌᏗᏒ	-12.1791
ᎦᏯᎷᎥᏍᎩ	-12.1791
ᏅᏧᎵᏍᏙᏔᏅ	-12.1792
ᏅᎵᏰᏗ	-12.1792
▁ᎤᏬᏯᏁ	-12.1792
ᏪᎵᏎᎢ	-12.1792
▁ᎠᏆᎴᏂᏓᏍᏗ	-12.1792
▁ᎬᎩᏁᏉᏤ	-12.1792
ᏙᏣᏁ	-12.1792
ᏫᏌᏅ	-12.1792
▁ᎢᏧᏅᏁᏗ	-12.1793
ᏘᏅᏎ	-12.1793
▁ᏧᏍᏆᏂᎪ	-12.1793
▁ᏭᏔᎷ	-12.1793
▁ᏚᎦᏒᏍ	-12.1793
▁ᏧᎸᏫᏍᏓᏁᎸ	-12.1793
ᏥᎵᏦ	-12.1793
▁ᎬᏬᎳᏕᏍ	-12.1794
▁ᏱᏕᏣᏓ	-12.1794
ᎦᎵᏂᎪᎯ	-12.1794
ᎵᏍᏓᏴᎲᏍᎩ	-12.1794
ᏔᎧᏅᎦ	-12.1795
ᏲᏗ	-12.1795
▁ᏓᎭᏬᎢ	-12.1795
▁ᏁᏓᏂ	-12.1795
▁ᏕᎭᏕᏲᎲᏍ	-12.1795
▁ᎡᎻᏂᏓ	-12.1795
▁ᏕᏣᏓᏘᎾ	-12.1796
ᏁᏟᏴᏍᏓ	-12.1796
ᏄᎪᏫᏍᎩ	-12.1796
▁ᎠᎫᎢᏍᏗᏍ	-12.1796
ᏍᏛᏗᏍᏔᏅ	-12.1796
ᎵᏓᎩᏛ	-12.1796
ᏥᏍᏓᏱᏕᎵ	-12.1796
ᏲᏤᎾ	-12.1796
ᏛᏛᏅᎩᏃ	-12.1797
ᎷᏤᎢ	-12.1797
ᏍᏓᏲᏒ	-12.1797
ᏢᏆᏍᏙᏗ	-12.1797
ᏅᎫᏛᎢ	-12.1797
▁ᎢᏯᎩᏳᏍ	-12.1798
ᏯᏘᏅᏍᏔ	-12.1798
▁ᎿᏛ	-12.1798
ᏓᏁᏣᏍᏚ	-12.1798
▁ᎤᎦᎾᏏ	-12.1798
▁ᏱᏄᏛᏁ	-12.1798
ᏩᎯᏎᎸ	-12.1798
▁ᎤᏎᎦᏨ	-12.1799
▁ᎦᏕᎶ	-12.1799
ᏪᏐᎸᏍᏔ	-12.1799
▁ᎤᏒᎦᎸ	-12.1799
ᏓᎸᎥᎦ	-12.1799
ᏞᏫᏒ	-12.1799
▁ᏱᏗᏧᎪ	-12.1799
ᏚᏫᏍᏛ	-12.1799
▁ᏕᏣᎧᎿᏩᏗᏙ	-12.1799
▁ᏥᏕᎪᏪ	-12.1799
▁ᎠᏥᎤᏍᏕᏎᎸ	-12.1799
ᎴᏂᏍᎨ	-12.18
ᏆᎧᎾᏅ	-12.18
▁ᏗᏂᎧᎿᏩᏗ	-12.18
ᎵᏍᏓᏴᎲᏍᎪᎢ	-12.18
ᎢᏓᏙᎴᎰ	-12.1801
▁ᏚᏟᏂᏆ	-12.1801
ᎤᏗᏛᎲ	-12.1801
ᏙᏑᎵ	-12.1801
ᏓᎿᏍᏆᎶᏍᏗ	-12.1801
▁ᎤᎵᎩᏳᏍ	-12.1801
▁ᏂᏙᏓᎬᏩ	-12.1801
ᎱᏣᏬᎳᏛ	-12.1801
▁ᎠᏂᎧᏔᎲ	-12.1801
▁ᎠᏓᏅᏖᎯᎶ	-12.1801
▁ᎢᎦᎤᏘᏍᏛ	-12.1801
▁ᎤᎧᏲᏐᏁ	-12.1801
▁ᎤᎵᏍᎩᏃᏘᏍ	-12.1801
▁ᏗᎦᎦᏠᏱᎯ	-12.1801
▁ᏙᏔᏍᏔᏰ	-12.1801
▁ᏚᎳᏑᎴ	-12.1801
▁ᏚᎾᏁᎳᏗᏙᎴ	-12.1801
▁ᏥᎬᏩᏂᏛᏔᏁ	-12.1801
▁ᏧᏃᎸᏔᏂᏙᎰ	-12.1801
▁ᏭᏗᏍᎦᏝᏁ	-12.1801
ᎢᏗᎬᏤᎵᏛ	-12.1801
ᎦᎴᏯᏍᎪ	-12.1801
ᎦᏌᏯᏍᏛᎾ	-12.1801
ᎨᎪᏪᎶᏔᏅᎯ	-12.1801
ᎩᎷᏫᏍᏔᏏ	-12.1801
ᎭᎴᏫᏍᏔ	-12.1801
ᎳᏅᏓᏗᏏ	-12.1801
ᎵᏂᎬᏁᎭ	-12.1801
ᎵᏍᎫᎭᏴ	-12.1801
ᎵᏍᏇᏔᏬ	-12.1801
ᎵᏍᏕᎸᏙᏔᎾ	-12.1801
ᎺᎵᎩᏌᏕᎩᏃ	-12.1801
ᎾᏙᎯᏳᎾᏁᏗ	-12.1801
ᏁᏍᏓᏝᎲ	-12.1801
ᏂᏅᎦᎴᎰᏅ	-12.1801
ᏂᏗᏥᏲᏕᏍᏗᏍᎬᎾ	-12.1801
ᏃᎯᎵᏣᏁ	-12.1801
ᏅᏔᏗᏘᏍᎬ	-12.1801
ᏓᎦᏕᎶᎣᏏ	-12.1801
ᏓᏓᎵᏁᎯᏕ	-12.1801
ᏓᏓᏏᎾᎲᏍᏙᏗ	-12.1801
ᏓᏕᏘᏴᎮᎬ	-12.1801
ᏔᏕᎦᏅᎩ	-12.1801
ᏕᎦᎵᎩᎡᎮᎢ	-12.1801
ᏙᏛᎪᏄᎶᏏ	-12.1801
ᏚᏂᏍᏔᏲᎳ	-12.1801
ᏣᎵᏂᎪᎯᏍᏔᏂ	-12.1801
ᏥᏥᏃᎯᏍᏓ	-12.1801
ᏥᏮᏗᎦᎶᏏ	-12.1801
▁Po	-12.1801
▁ᎠᎦᎫᏴᏓᏁᎮᏍᏗ	-12.1801
▁ᎠᎦᏔᏔᏅᎥᏍᎩ	-12.1801
▁ᎠᎧᏖᏃᎮ	-12.1801
▁ᎠᎾᏁᎳᏗᏍᎪᎢ	-12.1801
▁ᎠᎾᏁᏢᏔᏂᏒᎢ	-12.1801
▁ᎠᎾᏓᎪᎾᏘᏗᏍᎬ	-12.1801
▁ᎠᏂᎻᏗᏯᏂ	-12.1801
▁ᎠᏂᏫᏅᎨᏌᏂ	-12.1801
▁ᎠᏃᏢᏅᎥᏍᎬᎢ	-12.1801
▁ᎠᏆᏓᏙᎵᏍᏔᏅ	-12.1801
▁ᎠᏍᎪᏂᏗᏢ	-12.1801
▁ᎠᏒᎾᏘᎶᎥᎯ	-12.1801
▁ᎠᏛᏒᎥᏍᎩ	-12.1801
▁ᎠᏜᏩᏍᏗᏍᎨᏍᏗ	-12.1801
▁ᎠᏩᏂᎦᎳ	-12.1801
▁ᎡᎵᎣᏈᎦ	-12.1801
▁ᎢᎤᏄᎪᏨ	-12.1801
▁ᎢᎨᏣᎵᏍᏓᏁᏗ	-12.1801
▁ᎢᏍᎩᏃᏁᎵᎸ	-12.1801
▁ᎢᏍᎩᏌᏛᎥᏍᎦ	-12.1801
▁ᎢᏍᏛᎨᏳᎢ	-12.1801
▁ᎢᏣᏚᎸᏗᏱ	-12.1801
▁ᎢᏣᏠᎾᏍᏛ	-12.1801
▁ᎢᏥᎾᏝᎾᎥ	-12.1801
▁ᎢᏨᏰᎳᏗᏙᎮᏍᏗ	-12.1801
▁ᎢᏨᏰᏯᏔᏅᎢ	-12.1801
▁ᎢᏯᏟᎶᎥᎯ	-12.1801
▁ᎢᏰᏣᏛᏁᏗ	-12.1801
▁ᎢᏲᏨᏴᏁᏗᏱ	-12.1801
▁ᎣᎦᎵᏥᏙᏗᏱ	-12.1801
▁ᎣᏁᏏᏉᎳ	-12.1801
▁ᎤᎦᏎᏍᏕᎢ	-12.1801
▁ᎤᎵᏍᏔᏴᏃᏁᏍᏗ	-12.1801
▁ᎤᎷᏦᏅᎯ	-12.1801
▁ᎤᎾᎦᎰᏍᏔᏅ	-12.1801
▁ᎤᎾᏙᎴᎨᏎ	-12.1801
▁ᎤᏁᏧᏥᏛ	-12.1801
▁ᎤᏂᎪᎯᏙᎸᎯ	-12.1801
▁ᎤᏂᎪᏁᎶᎯᏌᏘ	-12.1801
▁ᎤᏂᏍᏈᏍᏓ	-12.1801
▁ᎤᏂᏐᏢᎢᏍᏔᏅ	-12.1801
▁ᎤᏂᏔᎳᏬᏎᎢ	-12.1801
▁ᎤᏃᎱᎦᏂᎸ	-12.1801
▁ᎤᏓᏂᎳᎨ	-12.1801
▁ᎤᏓᏑᏰᎢ	-12.1801
▁ᎤᏓᏥᏃᎯᏍᏔᏅ	-12.1801
▁ᎤᏓᏩᏗᏍᏛ	-12.1801
▁ᎤᏖᎸᏅ	-12.1801
▁ᎤᏚᏓᏛᏗᏱ	-12.1801
▁ᎤᏟᏴᏍᎩᎸᎮ	-12.1801
▁ᎤᏧᏈᏍᏙᏒᎯ	-12.1801
▁ᎤᏴᏍᏓᎡᎢ	-12.1801
▁ᎧᎾᎸᎢᏍᏗ	-12.1801
▁ᎨᏣᏔᏲᏎ	-12.1801
▁ᎨᏤᎳᏗᏙᎭ	-12.1801
▁ᎨᏥᏐᏠᎸᎢ	-12.1801
▁ᎨᏥᏔᏲᏎᏗ	-12.1801
▁ᎬᏩᎦᏌᏯᏍᏕ	-12.1801
▁ᎬᏩᎵᏠᏯᏍᏗ	-12.1801
▁ᎬᏩᏂᎾᏄᎪᏫᏎᎮᏍᏗ	-12.1801
▁ᎬᏩᏂᏲᏥᏙᎸ	-12.1801
▁ᎬᏩᏍᏓᏩᏙᎯ	-12.1801
▁ᎭᏆᏥᏂ	-12.1801
▁ᎭᏓᏅᏗᏍᏗᏍᎨᏍᏗ	-12.1801
▁ᎻᎱᏤᎵ	-12.1801
▁ᎻᏏᎴᎻ	-12.1801
▁ᎻᏚᏎᎵ	-12.1801
▁ᏁᏣᏛᏁᏍᏗᏉ	-12.1801
▁ᏂᎦᏅᎦᎸᎲᎾ	-12.1801
▁ᏂᎦᏥᏪᏎᎭ	-12.1801
▁ᏂᏓᎦᎵᏍᏔᏂ	-12.1801
▁ᏂᏕᏣᏓᏛᏁᎮᏍᏗ	-12.1801
▁ᏂᏗᏣᏓᏕᎵᏎᎲᎾ	-12.1801
▁ᏂᏗᏣᏢᏫᏎᎲᎾ	-12.1801
▁ᏂᏗᏥᏁᎲᎾ	-12.1801
▁ᏂᏥᏯᎳᏍᏛ	-12.1801
▁ᏄᎾᎵᎮᎵᏣᏛᎾ	-12.1801
▁ᏄᏂᎷᎶᏤᎲᎾ	-12.1801
▁ᏄᏙᎯᏳᏒ	-12.1801
▁ᏅᎤᏪᏎᎸᎩ	-12.1801
▁ᏅᏋᏁᎵᏙᎸᎢ	-12.1801
▁ᏅᏓᎦᏪᏏ	-12.1801
▁ᏅᏓᏍᎩᏴᏁᎵ	-12.1801
▁ᏅᏓᏳᎾᎵᏍᏓᏁᎵ	-12.1801
▁ᏅᏓᏳᏍᏗᏗᏒᎩ	-12.1801
▁ᏅᏛᏂᏙᎾᎢ	-12.1801
▁ᏈᏗᏂᏱ	-12.1801
▁ᏍᎩᏯᎵᎡᎵᏍ	-12.1801
▁ᏍᎩᏯᏐᎥᎦ	-12.1801
▁ᏍᏆᏕᎲᏏ	-12.1801
▁ᏐᎵᎼᏅ	-12.1801
▁ᏓᎦᎳᏐᏫᏏ	-12.1801
▁ᏓᎨᎯᏛᏔᏂ	-12.1801
▁ᏓᎩᏯᏪᏥᏙᎸ	-12.1801
▁ᏓᎬᏁᏉᎢ	-12.1801
▁ᏓᎬᏍᏓᏩᏗᏙᎵ	-12.1801
▁ᏓᎾᏓᏁᏟᏴ	-12.1801
▁ᏓᎾᏕᏒᎲᏍᎨᎢ	-12.1801
▁ᏓᎾᏦᎭᏱᎮ	-12.1801
▁ᏓᏁᏙᎲᎩ	-12.1801
▁ᏓᏂᏂᎩᎸ	-12.1801
▁ᏓᏂᏥᏍᏔᎳᏍᎬ	-12.1801
▁ᏓᏍᎩᏯᏠᏥ	-12.1801
▁ᏓᏓᏘᏁᎲᎢ	-12.1801
▁ᏓᏥᎴᏐᏂ	-12.1801
▁ᏓᏥᏍᏔᏩᏕᏏ	-12.1801
▁ᏓᏥᏔᏲᎵ	-12.1801
▁ᏓᏨᏲᏎᎵ	-12.1801
▁ᏓᏲᏍᏓᏁᎳᏗ	-12.1801
▁ᏕᎤᎸᏫᏍᏓᏏ	-12.1801
▁ᏕᎨᎦᏓᏂᎸᏨ	-12.1801
▁ᏕᎩᎾᏦᏒ	-12.1801
▁ᏕᎬᏒᎲᏍᎬᎢ	-12.1801
▁ᏕᎬᏩᏓᏂᎸᏨᎩ	-12.1801
▁ᏕᎬᏯᎫᏴᏓᏁᎮᏍᏗ	-12.1801
▁ᏕᎬᏯᏠᎢᏍᏓᏁᎸ	-12.1801
▁ᏕᎭᏅᏓᏗᏍᏗᏍᎨᏍᏗ	-12.1801
▁ᏕᎯᏯᏓᏂᎸᏨᎭ	-12.1801
▁ᏕᏍᏗᏂᏴᎮᏍᏗ	-12.1801
▁ᏕᏥᎦᎿᏩᏗᏒ	-12.1801
▁ᏕᏥᎦᏌᏬᎢᎲᎢ	-12.1801
▁ᏕᏥᎳᏫᏦᎯᎲ	-12.1801
▁ᏕᏥᏄᎪᏫᏍ	-12.1801
▁ᏗᎦᎵᏯᏅᎯᏛ	-12.1801
▁ᏗᎨᏥᏅᏍᏕᏎᎸᎯ	-12.1801
▁ᏗᎩᎾᏓᏛᏙᏗ	-12.1801
▁ᏗᎫᏩᎭᏄᏫ	-12.1801
▁ᏗᎾᏓᏅᏫᏍᎩ	-12.1801
▁ᏗᏂᎳᏍᏓᎳᏩᏗᏒ	-12.1801
▁ᏗᏓᏙᏕᎯᎯ	-12.1801
▁ᏗᏓᏟᎶᏍᏗᏍᎩ	-12.1801
▁ᏗᏗᏂᏃᎩᏍᎨᎢ	-12.1801
▁ᏗᏴᎦᎴᏴᏓ	-12.1801
▁ᏘᏑᏫᏍ	-12.1801
▁ᏘᏰᎵᎯᏍᏓ	-12.1801
▁ᏙᎦᏓᏲᎵᎸ	-12.1801
▁ᏙᏓᎦᏥᏯᏟᎶᏍᏔᏂ	-12.1801
▁ᏙᏓᏦᎵᏍᏔᏂ	-12.1801
▁ᏙᏘᏴᏔᏂᎵ	-12.1801
▁ᏙᏛᎠᎴᎯᏌᏂ	-12.1801
▁ᏚᎳᏑᏞ	-12.1801
▁ᏚᎵᏖᎸᏁ	-12.1801
▁ᏚᎷᏆᏗᏅ	-12.1801
▁ᏚᎾᏁᏍᏓᏝᎰᎢ	-12.1801
▁ᏚᎾᏐᏓᎸ	-12.1801
▁ᏚᎾᏦᎭᏱᎸ	-12.1801
▁ᏚᏂᎷᏫᏍᏔᏁᎲ	-12.1801
▁ᏚᏌᏬᎴ	-12.1801
▁ᏚᏍᏆᎸᏔᏅ	-12.1801
▁ᏚᏟᎷᏆᏗᏅᏎ	-12.1801
▁ᏚᏟᏆᏗ	-12.1801
[...]
