<unk>	0
<s>	0
</s>	0
,	-2.74493
▁the	-2.98369
.	-3.30214
▁and	-3.35688
▁of	-3.67682
▁to	-4.14368
▁that	-4.34816
▁in	-4.36003
▁a	-4.39943
▁And	-4.43502
▁he	-4.4474
▁I	-4.53548
s	-4.61395
;	-4.75365
:	-4.8057
▁unto	-4.81231
▁his	-4.86725
▁him	-4.87458
▁is	-4.90685
▁be	-4.98625
▁for	-4.98779
▁it	-5.03174
▁they	-5.03879
▁not	-5.04903
▁shal	-5.06337
▁was	-5.06845
l	-5.1036
▁with	-5.12138
▁them	-5.17334
▁	-5.20405
▁said	-5.24627
▁you	-5.30839
?	-5.40341
ing	-5.4105
▁all	-5.43489
ed	-5.4599
▁God	-5.51581
▁ye	-5.57626
▁me	-5.60001
▁as	-5.61519
▁from	-5.63648
’	-5.65165
t	-5.66609
▁thou	-5.67225
▁on	-5.7071
▁my	-5.71788
▁are	-5.72543
▁have	-5.76611
▁but	-5.77322
▁when	-5.78644
▁were	-5.80335
▁had	-5.8517
▁Lord	-5.85792
▁which	-5.86786
▁their	-5.91639
▁man	-5.91783
▁“	-5.9207
▁The	-5.9308
▁one	-5.95096
▁out	-5.95477
”	-5.97453
▁this	-5.98163
▁will	-5.99964
▁up	-6.00599
▁we	-6.01555
▁He	-6.03194
▁by	-6.03582
▁into	-6.06516
▁thy	-6.08739
▁thee	-6.11675
▁there	-6.15636
▁But	-6.167
'	-6.17297
▁came	-6.18971
▁her	-6.19893
▁who	-6.20634
▁at	-6.21196
▁Jesus	-6.21556
▁things	-6.29213
d	-6.29343
▁your	-6.31984
▁also	-6.32497
▁upon	-6.34681
▁us	-6.37075
▁no	-6.38425
▁come	-6.38943
▁For	-6.39295
▁she	-6.40133
▁do	-6.42968
▁if	-6.46095
▁hath	-6.48741
▁an	-6.52135
▁made	-6.5321
▁went	-6.55337
▁day	-6.59722
▁down	-6.62016
▁people	-6.63357
▁so	-6.6339
▁saying	-6.6422
▁say	-6.65058
▁our	-6.668
▁go	-6.67294
▁even	-6.67485
▁men	-6.67695
▁before	-6.6798
▁or	-6.71238
▁did	-6.73338
▁these	-6.73544
▁may	-6.74403
▁what	-6.74862
▁Christ	-6.75731
-	-6.75943
!	-6.77757
▁know	-6.78709
ly	-6.79287
eth	-6.7943
▁make	-6.81285
▁after	-6.82107
▁every	-6.84028
cause	-6.84392
▁let	-6.85191
▁through	-6.8594
▁son	-6.88236
▁away	-6.90193
▁Wilbur	-6.9043
▁would	-6.91113
▁am	-6.91377
▁land	-6.91524
▁therefore	-6.91983
▁good	-6.92537
▁then	-6.92696
▁over	-6.92762
▁hand	-6.93572
▁children	-6.93792
▁like	-6.94203
▁about	-6.95665
▁two	-6.96192
▁house	-6.97394
▁Moses	-7.00606
▁put	-7.01434
▁called	-7.01555
▁earth	-7.02671
y	-7.03861
▁should	-7.04874
▁see	-7.05109
th	-7.05779
▁name	-7.06141
▁any	-7.06241
▁father	-7.06626
▁where	-7.0765
▁now	-7.0824
▁great	-7.08639
▁saw	-7.09101
▁been	-7.09274
▁days	-7.11059
▁heard	-7.11472
▁many	-7.12238
▁against	-7.1296
▁whom	-7.13685
▁took	-7.13876
e	-7.14776
▁saith	-7.1581
▁more	-7.15826
▁When	-7.17486
▁time	-7.18876
▁give	-7.20411
▁take	-7.22793
▁pass	-7.23231
▁Israel	-7.23302
▁Now	-7.2441
▁life	-7.24736
▁forth	-7.24875
▁again	-7.26109
▁another	-7.26215
▁brethren	-7.26913
▁heaven	-7.27669
▁some	-7.28162
st	-7.28213
▁himself	-7.29515
se	-7.30251
▁way	-7.30836
▁A	-7.31393
▁word	-7.32387
▁might	-7.32486
▁how	-7.32964
▁world	-7.33354
▁water	-7.34022
▁sons	-7.34107
▁eat	-7.35157
▁own	-7.35288
▁first	-7.35303
▁Then	-7.35485
▁other	-7.35963
▁little	-7.36541
▁behold	-7.36897
f	-7.38723
▁place	-7.38859
▁old	-7.38971
▁among	-7.39011
▁back	-7.39406
▁law	-7.39631
▁They	-7.40633
▁brought	-7.4066
▁Father	-7.41506
▁What	-7.43765
m	-7.45085
▁than	-7.45357
▁years	-7.46177
▁could	-7.46254
▁It	-7.46978
▁brother	-7.47186
▁gave	-7.48097
▁She	-7.4836
▁Jacob	-7.48541
▁sent	-7.49011
▁Egypt	-7.49915
▁accord	-7.50407
▁Spirit	-7.51313
▁Pharaoh	-7.52254
▁love	-7.52569
▁found	-7.527
▁night	-7.52778
▁cast	-7.54105
▁set	-7.54167
▁disciples	-7.5477
▁faith	-7.55113
▁dead	-7.55132
▁wife	-7.55139
▁Abraham	-7.5562
▁Mr	-7.55736
▁under	-7.57096
▁voice	-7.57106
▁yet	-7.57654
▁having	-7.58599
▁glory	-7.59155
▁being	-7.59531
▁hast	-7.59733
▁O	-7.60135
▁work	-7.60195
▁Charlotte	-7.61195
▁long	-7.61829
▁together	-7.62188
▁done	-7.62244
▁bring	-7.62279
▁answered	-7.62286
▁speak	-7.62598
▁spake	-7.62712
▁three	-7.62714
▁can	-7.62908
r	-7.62977
▁Joseph	-7.63238
▁heart	-7.63747
▁Thi	-7.64258
▁much	-7.64928
▁city	-7.65374
▁hear	-7.65549
▁fire	-7.67127
▁going	-7.67659
▁off	-7.68089
▁Son	-7.68143
▁eyes	-7.68379
▁right	-7.69669
▁only	-7.70037
▁neither	-7.70913
▁both	-7.7136
▁flesh	-7.72059
▁given	-7.72117
▁without	-7.72261
▁left	-7.72637
▁same	-7.72659
▁asked	-7.72859
▁thereof	-7.73252
▁nor	-7.73312
I	-7.73494
▁head	-7.7352
▁seven	-7.74298
▁while	-7.74392
▁blood	-7.74998
▁well	-7.75241
▁face	-7.75808
▁thing	-7.77463
▁LORD	-7.78609
▁evil	-7.80477
▁sat	-7.81147
▁words	-7.81425
▁get	-7.81725
▁mother	-7.81739
est	-7.82013
▁hands	-7.82178
▁th	-7.82187
▁art	-7.82376
very	-7.82838
▁So	-7.82994
▁death	-7.83012
er	-7.8372
▁kingdom	-7.84961
▁Let	-7.85018
▁just	-7.85886
▁Thou	-7.86282
▁unti	-7.86289
▁Jews	-7.87102
▁bear	-7.87754
▁light	-7.87976
▁nothing	-7.8899
▁ever	-7.88997
▁s	-7.89256
a	-7.89516
▁stood	-7.91053
ose	-7.91134
▁new	-7.92858
▁gold	-7.93858
▁themselves	-7.9387
▁Paul	-7.93876
▁ground	-7.9388
▁tree	-7.9433
▁keep	-7.94363
▁lay	-7.94423
▁side	-7.95098
▁sea	-7.95139
▁Zuckerman	-7.9578
▁Be	-7.96502
▁We	-7.96698
▁woman	-7.96779
▁Behold	-7.96783
▁seen	-7.96947
▁looked	-7.97052
▁Fern	-7.97556
soever	-7.9779
▁There	-7.97832
▁morning	-7.97956
▁In	-7.98093
re	-7.98327
▁Ye	-7.98439
▁sin	-7.9894
▁Jerusalem	-7.99018
▁Peter	-7.99018
▁feet	-7.99018
▁here	-7.99723
▁chief	-7.99776
▁want	-8.00387
▁thine	-8.0056
▁cometh	-8.01002
ll	-8.01208
▁certain	-8.01317
▁body	-8.0146
▁end	-8.01702
▁hundred	-8.02617
▁bread	-8.02773
▁knew	-8.02865
▁such	-8.02871
▁fear	-8.03054
▁power	-8.03445
▁pig	-8.04227
▁live	-8.0465
▁Who	-8.05197
▁sheep	-8.0525
▁whole	-8.05338
▁holy	-8.06059
▁fell	-8.06068
▁began	-8.06081
n	-8.06305
▁toward	-8.06468
▁Aaron	-8.06865
▁told	-8.06918
▁John	-8.07685
▁must	-8.07692
▁servant	-8.08391
▁S	-8.08869
▁receive	-8.09065
▁multitude	-8.092
▁works	-8.09262
▁written	-8.09345
▁die	-8.09446
▁high	-8.1007
▁become	-8.10202
▁believe	-8.10668
▁peace	-8.10714
▁seed	-8.11308
▁five	-8.12764
▁coming	-8.12782
▁How	-8.12842
▁servants	-8.12925
▁truth	-8.13622
▁near	-8.14495
▁mouth	-8.15216
▁spirit	-8.15282
▁four	-8.15287
▁white	-8.15486
een	-8.15528
▁find	-8.16171
▁witness	-8.16257
▁grace	-8.16275
▁tell	-8.17702
▁tabernacle	-8.17965
▁each	-8.18093
▁drink	-8.18432
▁concern	-8.19032
▁around	-8.19042
▁pray	-8.19932
▁Isaac	-8.20862
▁still	-8.20863
▁commanded	-8.20976
▁got	-8.21532
▁web	-8.2176
▁part	-8.21997
▁full	-8.22687
▁hour	-8.22698
▁Charley	-8.22758
▁sight	-8.22771
▁child	-8.23707
▁betw	-8.23726
▁spoken	-8.23728
—	-8.23959
▁think	-8.24194
▁F	-8.24494
▁My	-8.24774
▁received	-8.24936
▁hard	-8.25659
▁round	-8.25692
▁laid	-8.25758
▁stand	-8.26103
ther	-8.26365
▁though	-8.26391
▁temple	-8.26661
▁mine	-8.26665
▁bega	-8.26703
▁door	-8.26716
▁walk	-8.26803
▁field	-8.2766
▁never	-8.2767
▁seek	-8.27936
▁has	-8.28194
▁altar	-8.28671
▁manner	-8.28671
▁river	-8.28686
▁always	-8.29691
▁send	-8.297
▁too	-8.29745
▁last	-8.30724
▁daughter	-8.30782
▁righteousness	-8.31777
▁died	-8.3309
▁save	-8.33697
▁living	-8.3388
▁Holy	-8.33891
▁became	-8.33892
▁king	-8.34038
▁stone	-8.34933
▁money	-8.34955
▁young	-8.35057
▁C	-8.35908
▁Wherefore	-8.3605
▁Arable	-8.36119
▁angel	-8.36216
▁don	-8.36232
▁cried	-8.37142
▁taken	-8.3725
▁look	-8.37489
▁cause	-8.37679
▁gospel	-8.38252
▁judgment	-8.38352
▁priest	-8.38395
▁enter	-8.38864
▁rest	-8.38991
▁few	-8.3933
▁known	-8.39549
▁You	-8.39762
▁All	-8.40733
▁mind	-8.41246
▁mercy	-8.41662
▁second	-8.41665
▁Gentiles	-8.41668
▁gone	-8.41685
▁blessed	-8.41832
▁ask	-8.42168
▁Do	-8.42229
▁hold	-8.42385
▁bare	-8.42714
▁His	-8.42828
▁kill	-8.42856
▁call	-8.43052
▁ten	-8.43605
▁un	-8.43778
▁opened	-8.44185
▁entered	-8.44434
ce	-8.45077
▁believed	-8.45462
▁lord	-8.4549
▁looking	-8.45689
▁hope	-8.46239
▁Go	-8.46315
▁Templeton	-8.46435
▁show	-8.47147
ter	-8.47176
▁Pharisees	-8.47755
▁didn	-8.47814
▁As	-8.47902
▁big	-8.48842
▁walked	-8.49362
▁born	-8.50033
▁something	-8.50108
▁wood	-8.50519
▁Esau	-8.51366
▁twelve	-8.51366
▁wise	-8.51368
▁gathered	-8.516
▁minister	-8.52184
▁daughters	-8.52574
▁third	-8.52648
▁raised	-8.52737
▁able	-8.53086
▁thought	-8.53398
▁small	-8.53905
▁above	-8.53947
▁cannot	-8.53954
▁lest	-8.53958
▁sure	-8.5396
▁none	-8.5398
▁delivered	-8.54209
▁sake	-8.54272
▁boy	-8.54278
▁year	-8.54483
▁dwell	-8.54655
▁righteous	-8.55118
▁whe	-8.55187
▁yourselves	-8.55263
▁barn	-8.55264
▁country	-8.55269
▁Avery	-8.55412
▁Where	-8.55707
▁prophets	-8.56084
▁car	-8.56527
▁judge	-8.56582
▁cattle	-8.56596
▁food	-8.56596
▁Why	-8.5667
▁That	-8.56737
▁ran	-8.56828
▁followed	-8.56905
▁beast	-8.5701
▁priests	-8.57776
▁dark	-8.57927
▁women	-8.57946
▁mount	-8.57951
▁anything	-8.57982
▁To	-8.5814
▁offering	-8.58545
▁angels	-8.59171
▁half	-8.59317
▁fall	-8.60127
▁sun	-8.60281
▁fine	-8.60633
▁filled	-8.60811
▁fruit	-8.61103
▁fish	-8.61621
▁joy	-8.62108
▁true	-8.62115
▁strong	-8.62117
p	-8.62152
▁midst	-8.62159
▁Every	-8.62163
▁most	-8.62225
▁soul	-8.6257
▁church	-8.63525
▁home	-8.6354
▁remember	-8.63543
▁indeed	-8.63543
▁elders	-8.63707
▁friend	-8.64023
▁serve	-8.64709
▁covenant	-8.64992
ness	-8.65172
es	-8.65181
▁far	-8.65204
▁turned	-8.65408
▁Simon	-8.66463
▁silver	-8.66465
▁Egyptians	-8.66664
▁returned	-8.66681
▁lived	-8.66819
▁turn	-8.67089
▁sins	-8.68404
▁standing	-8.68639
▁Smith	-8.69471
▁sabbath	-8.69472
▁Lurvy	-8.69484
▁ready	-8.69522
▁One	-8.69569
rose	-8.69892
▁thousand	-8.7
▁waters	-8.71391
▁fathers	-8.71396
▁T	-8.71601
en	-8.72018
▁sign	-8.72357
▁Cherokee	-8.72572
▁alone	-8.72577
▁why	-8.72583
▁myself	-8.72585
▁prophet	-8.73176
▁sleep	-8.73602
▁Some	-8.7401
▁kept	-8.74159
▁darkness	-8.74179
ve	-8.74589
▁spider	-8.74769
▁ears	-8.74864
▁cut	-8.75584
▁passed	-8.76029
▁feast	-8.76303
▁wind	-8.76416
ers	-8.76431
▁others	-8.76469
le	-8.7723
▁eternal	-8.77411
▁better	-8.77414
▁sitting	-8.77419
▁along	-8.77544
▁saved	-8.77722
▁month	-8.78086
▁walking	-8.78157
▁fast	-8.78247
▁rat	-8.79043
▁wilderness	-8.79078
▁wisdom	-8.79078
▁straightway	-8.79083
▁departed	-8.79263
▁hair	-8.79643
▁husband	-8.79745
▁loved	-8.79856
an	-8.79926
▁reason	-8.8024
us	-8.80563
▁Abram	-8.80773
▁till	-8.80782
▁Come	-8.80827
▁ark	-8.80891
▁seem	-8.80933
▁whatsoever	-8.81044
▁leave	-8.81472
▁commandment	-8.8151
▁seeing	-8.81663
▁need	-8.82199
▁except	-8.82499
▁wine	-8.82507
▁foot	-8.82583
▁top	-8.82679
out	-8.82876
▁within	-8.83057
▁kind	-8.83085
▁air	-8.83126
▁mountains	-8.83301
You	-8.8368
▁write	-8.83697
▁help	-8.83734
▁six	-8.83786
▁clean	-8.84008
▁afraid	-8.84251
▁beginning	-8.84251
▁behind	-8.84251
▁next	-8.84251
▁try	-8.84266
▁linen	-8.84269
▁watch	-8.84621
▁nations	-8.85034
▁follow	-8.85173
▁its	-8.85318
hall	-8.85445
▁boys	-8.85588
▁saints	-8.86047
erily	-8.8605
▁knowledge	-8.86053
▁Take	-8.86071
▁appeared	-8.86213
If	-8.86312
▁goose	-8.8637
▁bed	-8.86635
▁tent	-8.87382
▁deep	-8.87797
▁present	-8.87855
▁ought	-8.87855
▁fulfilled	-8.87856
▁rather	-8.87861
▁scribes	-8.8801
▁visit	-8.89213
▁meet	-8.89283
▁sick	-8.89682
▁David	-8.89707
▁thyself	-8.89707
▁Laban	-8.89707
▁authority	-8.89707
▁twenty	-8.8971
▁Bless	-8.89716
▁wilt	-8.89721
▁meat	-8.90731
▁wrath	-8.91594
▁pure	-8.91602
▁baptized	-8.91621
▁soldiers	-8.91837
▁E	-8.9213
▁red	-8.92171
▁sh	-8.92421
▁yea	-8.92574
▁leaves	-8.92685
▁eye	-8.92817
▁destroy	-8.93053
▁Chap	-8.93512
▁congregation	-8.93517
▁blue	-8.93521
▁No	-8.93665
▁At	-8.93845
▁teaching	-8.93892
▁generations	-8.94183
▁throne	-8.94454
▁blind	-8.95014
in	-8.95527
▁apostles	-8.9582
▁master	-8.96507
▁woods	-8.96863
▁smell	-8.96996
▁rain	-8.97064
▁Canaan	-8.97458
▁bound	-8.97472
▁Galilee	-8.97478
▁cold	-8.97479
▁replied	-8.9748
▁sit	-8.97561
▁wherein	-8.97571
▁cup	-8.97573
▁soon	-8.97617
▁held	-8.97626
▁garments	-8.9797
▁cross	-8.97978
al	-8.98061
▁Indians	-8.98131
▁rock	-8.98522
▁dog	-8.98561
or	-8.98685
▁deliver	-8.99101
▁ball	-8.99497
▁deal	-8.99514
▁sockets	-8.99532
▁worthy	-8.99584
▁beloved	-8.99655
▁therein	-8.9976
▁evening	-8.99919
▁thence	-9.00442
▁knoweth	-9.0052
ous	-9.00606
▁table	-9.00611
on	-9.00687
▁preach	-9.00786
▁arose	-9.01211
▁nigh	-9.01274
▁knowing	-9.01521
▁enough	-9.01602
▁straw	-9.01602
▁salvation	-9.01607
▁Noah	-9.01608
▁thus	-9.01659
▁free	-9.01709
drew	-9.0222
▁M	-9.02432
▁P	-9.02579
▁mountain	-9.0275
▁suffer	-9.02846
▁signs	-9.02925
▁named	-9.02968
▁curtain	-9.0373
▁milk	-9.0373
▁testimony	-9.0373
▁firstborn	-9.03734
▁everything	-9.03749
▁Bear	-9.03759
▁hanging	-9.03892
it	-9.03896
▁almo	-9.03999
▁desire	-9.04049
▁cubits	-9.04147
▁boat	-9.04865
▁sister	-9.04867
▁cloud	-9.0488
▁matter	-9.04883
▁p	-9.04941
What	-9.05331
one	-9.05349
▁answer	-9.05376
▁hearts	-9.05579
▁book	-9.0569
▁honor	-9.05894
▁Pilate	-9.05903
▁Even	-9.05906
▁alive	-9.05906
▁broken	-9.0593
▁ate	-9.0593
▁Therefore	-9.05931
▁By	-9.06007
▁lifted	-9.06172
▁forty	-9.06409
▁demons	-9.06479
▁once	-9.06513
▁court	-9.0708
▁nation	-9.07142
▁perfect	-9.07165
▁doeth	-9.07432
▁gather	-9.07717
▁abide	-9.08034
▁Rachel	-9.08126
▁since	-9.08149
▁warm	-9.08163
▁Jud	-9.08203
▁oil	-9.08361
▁dream	-9.08403
▁lie	-9.08635
ion	-9.09071
▁sacrifice	-9.092
▁B	-9.09476
able	-9.10019
▁working	-9.10185
▁Judah	-9.10404
▁camp	-9.10414
▁moved	-9.10494
▁greater	-9.10698
▁re	-9.10947
▁teach	-9.11336
▁tongue	-9.11739
▁lot	-9.12007
cross	-9.12157
▁wait	-9.12302
▁times	-9.12555
▁enemies	-9.12724
▁After	-9.12724
▁verily	-9.12724
▁Mary	-9.12733
▁carried	-9.12735
▁preached	-9.13193
▁sound	-9.13651
▁Yea	-9.13677
▁war	-9.13791
▁promise	-9.13884
▁service	-9.14033
as	-9.14124
sought	-9.14416
o	-9.14431
▁dwelt	-9.15105
▁felt	-9.15105
▁crate	-9.15107
▁grew	-9.15109
▁faithful	-9.15122
▁already	-9.15122
▁sold	-9.15147
▁mighty	-9.15659
▁Of	-9.15701
less	-9.16272
▁prison	-9.16376
▁apple	-9.16538
▁ear	-9.16659
S	-9.16943
▁break	-9.17124
▁kings	-9.17338
▁smoke	-9.17343
▁loud	-9.175
▁eight	-9.17503
▁presence	-9.17544
▁sweet	-9.17544
▁taught	-9.17544
▁making	-9.17545
▁thirty	-9.1758
▁early	-9.17659
▁led	-9.17929
▁multitudes	-9.17974
It	-9.18447
▁journey	-9.18516
▁point	-9.1899
▁synagogue	-9.19047
▁N	-9.19311
▁understand	-9.19464
▁worship	-9.19693
▁corn	-9.19993
▁black	-9.20023
▁summer	-9.20042
▁purple	-9.20044
▁Sarah	-9.20044
▁hearken	-9.20044
▁lead	-9.20066
▁dry	-9.2009
▁lost	-9.20115
ies	-9.20857
▁killed	-9.20941
▁trees	-9.20963
▁goeth	-9.21426
▁rich	-9.22117
▁close	-9.22236
▁stones	-9.22374
▁please	-9.22442
▁ourselves	-9.22608
▁resurrection	-9.22608
▁least	-9.22608
▁stopped	-9.22659
ment	-9.2276
▁Are	-9.22842
▁burnt	-9.22902
▁rings	-9.23036
▁lo	-9.23623
▁open	-9.24099
▁sword	-9.24128
▁fellow	-9.24137
▁egg	-9.24245
▁measure	-9.24267
▁build	-9.24341
▁offer	-9.24572
▁read	-9.24628
▁buy	-9.24719
▁Herod	-9.25239
▁herself	-9.2524
▁Littlefish	-9.2524
▁else	-9.2524
▁branches	-9.25246
▁road	-9.25261
▁really	-9.25268
▁Have	-9.25322
▁brass	-9.25439
▁blessing	-9.2571
▁vain	-9.25725
▁speaketh	-9.25801
▁boards	-9.26106
▁horses	-9.26124
▁souls	-9.27097
▁grass	-9.27828
fore	-9.27841
▁strength	-9.27921
▁fifty	-9.27942
▁wives	-9.27942
▁shirt	-9.27942
▁quit	-9.27945
▁bought	-9.27967
▁green	-9.27974
▁younger	-9.28078
▁arise	-9.28125
▁clothes	-9.28128
▁See	-9.28133
▁rulers	-9.28627
▁f	-9.28675
▁names	-9.28676
▁On	-9.2958
▁gift	-9.29725
▁bless	-9.29825
▁prayer	-9.29835
▁return	-9.30308
▁speaking	-9.30345
▁Thu	-9.30417
▁continue	-9.30649
▁Satan	-9.3072
▁buried	-9.3072
▁apart	-9.3072
▁beyond	-9.30721
▁poor	-9.30732
▁hot	-9.30791
▁neck	-9.30791
▁finished	-9.3083
▁morrow	-9.30861
▁healed	-9.30902
▁means	-9.31712
ation	-9.31813
▁houses	-9.32316
▁order	-9.32547
ty	-9.32609
▁generation	-9.32617
▁gate	-9.32628
▁feel	-9.33101
▁manifest	-9.33166
ur	-9.33244
▁false	-9.33444
▁scarlet	-9.33577
▁Teacher	-9.33579
▁James	-9.33579
▁Nation	-9.33588
▁spread	-9.33603
▁Give	-9.33606
▁fled	-9.33631
▁room	-9.33652
▁age	-9.33715
▁started	-9.3384
h	-9.33849
▁eating	-9.33928
▁judged	-9.34037
▁fat	-9.34116
▁t	-9.34362
w	-9.34443
▁play	-9.3461
▁run	-9.34708
▁number	-9.34981
body	-9.35095
▁use	-9.3531
i	-9.3541
▁weak	-9.36001
▁rejoice	-9.36321
▁beautiful	-9.36518
▁grey	-9.36518
▁wrought	-9.36518
▁famine	-9.36519
▁dust	-9.36539
▁east	-9.36556
▁outside	-9.36562
▁soil	-9.36583
▁front	-9.36615
▁abideth	-9.3664
▁appointed	-9.36649
▁Lot	-9.36803
▁pillars	-9.3716
el	-9.37235
ng	-9.37329
▁pieces	-9.37443
▁wanted	-9.38141
▁horse	-9.38567
▁friends	-9.38569
▁Indian	-9.38572
▁board	-9.38701
▁sharp	-9.38823
Well	-9.38964
▁crown	-9.39113
▁low	-9.392
▁pen	-9.39351
▁draw	-9.39515
▁wrong	-9.39546
▁Fair	-9.39549
▁caught	-9.39549
▁tried	-9.39549
▁Leah	-9.39551
▁pick	-9.39565
▁south	-9.39571
▁gain	-9.39632
▁Did	-9.39646
▁climbed	-9.39658
▁Thy	-9.39667
▁shew	-9.39743
▁gods	-9.39795
▁Don	-9.39823
▁sinners	-9.39902
▁bit	-9.39935
▁thanks	-9.40169
▁bad	-9.40556
ward	-9.40679
▁praise	-9.40846
▁H	-9.4112
▁Is	-9.41179
▁mean	-9.41292
▁stay	-9.41764
rom	-9.41819
rs	-9.42043
▁length	-9.4221
▁comfort	-9.42241
ar	-9.42514
▁speech	-9.42651
▁sorrow	-9.42666
▁kiss	-9.42674
▁hungry	-9.42676
▁shame	-9.4268
▁past	-9.42684
▁worshipped	-9.42727
▁b	-9.42729
▁fallen	-9.42736
▁happened	-9.42855
▁putt	-9.42979
▁dur	-9.43027
▁animals	-9.43039
▁burned	-9.43067
▁vessels	-9.4307
▁Th	-9.43323
▁giveth	-9.43523
▁places	-9.43837
is	-9.43916
▁heavens	-9.4473
▁tomb	-9.44869
A	-9.45105
much	-9.45274
▁anoint	-9.45474
▁rise	-9.45883
▁unclean	-9.45884
▁Wolf	-9.459
▁asleep	-9.459
▁counsel	-9.459
▁crucified	-9.459
▁itself	-9.459
▁ephod	-9.459
▁circumcision	-9.459
▁swim	-9.459
▁garden	-9.459
▁devil	-9.459
▁dis	-9.45902
▁trough	-9.45903
▁pay	-9.45903
▁justified	-9.4591
▁writing	-9.4591
▁course	-9.45967
▁King	-9.45992
▁met	-9.46046
with	-9.46312
▁raise	-9.46392
▁seventh	-9.4641
▁often	-9.46509
at	-9.46825
▁catch	-9.46874
▁burn	-9.48011
▁piece	-9.48253
▁bow	-9.48365
taking	-9.48373
▁command	-9.48686
▁lift	-9.48831
▁exceeding	-9.49142
▁office	-9.49185
▁Philip	-9.49233
▁abroad	-9.49233
▁Rebekah	-9.49233
▁winter	-9.49237
▁guard	-9.49238
▁shut	-9.49239
▁moment	-9.4925
▁Judas	-9.49251
▁tired	-9.49251
▁prepared	-9.4932
am	-9.49341
▁covered	-9.49512
▁closed	-9.49537
▁talked	-9.49555
▁shoes	-9.49564
▁hid	-9.49701
▁hit	-9.49752
▁offered	-9.49782
▁suffered	-9.49894
▁Not	-9.50182
▁seat	-9.50735
▁doing	-9.50934
▁care	-9.51101
▁commandments	-9.51197
▁Lo	-9.51311
ir	-9.51323
▁scripture	-9.51679
▁coat	-9.51685
ever	-9.51915
gotten	-9.52094
▁wash	-9.52111
▁perish	-9.52134
▁town	-9.52202
▁best	-9.52207
▁foolish	-9.52665
▁guess	-9.52681
▁beseech	-9.52681
▁staves	-9.52682
▁large	-9.52682
▁passover	-9.52682
▁wept	-9.52683
▁built	-9.52693
▁sky	-9.52693
▁reward	-9.52694
▁immediately	-9.52695
▁conceived	-9.52712
▁Amen	-9.52735
▁crowd	-9.5278
▁Put	-9.52793
▁eaten	-9.52835
▁pleased	-9.52944
▁ago	-9.52952
▁couldn	-9.52958
▁touched	-9.53057
▁believeth	-9.53061
▁crying	-9.53086
▁R	-9.53096
▁legs	-9.53208
▁understanding	-9.5331
▁members	-9.53502
▁flocks	-9.53614
▁spring	-9.53641
▁calling	-9.54032
▁tongues	-9.5418
▁season	-9.5478
▁smite	-9.55015
ful	-9.55064
▁edge	-9.5515
▁image	-9.55173
▁captain	-9.55204
▁parable	-9.55225
▁tribe	-9.55239
▁D	-9.55614
▁hearing	-9.55643
▁building	-9.55754
ting	-9.5603
▁bright	-9.56069
▁short	-9.56083
▁reign	-9.56113
▁quiet	-9.5617
▁subject	-9.56246
▁straight	-9.56251
▁breastplate	-9.56253
▁patience	-9.56253
▁fornication	-9.56253
▁salute	-9.56253
▁slay	-9.56253
▁fence	-9.56254
▁Adam	-9.56254
▁empty	-9.56266
▁does	-9.56274
▁quickly	-9.5628
▁churches	-9.56298
▁beheld	-9.56368
▁divided	-9.56372
▁troubled	-9.5645
c	-9.5651
▁inside	-9.56516
▁riches	-9.56793
▁loveth	-9.56961
▁forward	-9.57068
▁e	-9.57682
▁prayed	-9.57884
▁committe	-9.58442
ri	-9.58475
▁depart	-9.58698
g	-9.58825
▁duke	-9.5894
▁creature	-9.58953
▁flock	-9.58965
of	-9.59341
▁grow	-9.59455
▁d	-9.59506
▁carry	-9.59509
▁repent	-9.59809
▁rod	-9.59869
▁wild	-9.59878
▁strange	-9.59898
▁forgive	-9.59901
▁ox	-9.59941
▁spoke	-9.59955
▁incense	-9.59956
▁knife	-9.59956
▁spiritual	-9.59956
▁account	-9.59957
▁stick	-9.59958
▁glorified	-9.5996
▁Sodom	-9.59964
▁Lamb	-9.59969
▁deny	-9.59988
▁circumcised	-9.59998
giving	-9.60002
▁truck	-9.60004
▁yard	-9.6006
▁poured	-9.60139
▁st	-9.60157
▁pulled	-9.60169
▁foundation	-9.60182
▁thereon	-9.60357
ittim	-9.60359
▁receiveth	-9.60395
▁breadth	-9.60399
▁bowed	-9.60426
▁sore	-9.60542
▁less	-9.60847
▁besought	-9.61057
▁wet	-9.61489
▁wax	-9.61675
▁o	-9.62344
▁creek	-9.62741
▁pit	-9.62756
▁disciple	-9.62825
▁stranger	-9.62856
ped	-9.63186
▁touch	-9.63392
▁cry	-9.63407
▁glad	-9.63664
▁lawful	-9.63736
▁broke	-9.63768
▁council	-9.63802
▁Barnabas	-9.63802
▁iniquity	-9.63802
▁whither	-9.63803
▁cities	-9.63803
▁brown	-9.63817
▁Woe	-9.63832
▁snake	-9.6386
▁lad	-9.63863
▁exceedingly	-9.63935
▁Whi	-9.63962
▁stretched	-9.64007
▁charged	-9.64055
▁longer	-9.64106
▁learned	-9.64149
▁nine	-9.64149
▁hated	-9.64196
▁beat	-9.64275
im	-9.64295
▁manifested	-9.64369
ted	-9.64436
▁stars	-9.64495
▁knowest	-9.64514
▁worketh	-9.64652
and	-9.64676
▁purpose	-9.64784
▁sac	-9.64927
▁gifts	-9.65204
▁greatly	-9.65273
ear	-9.66165
▁hurt	-9.66232
▁skin	-9.66474
▁afternoon	-9.66691
▁heads	-9.66692
▁tail	-9.66704
▁wheel	-9.66805
▁garment	-9.66816
▁finger	-9.66841
▁ruler	-9.6686
▁line	-9.67
ch	-9.67103
▁reach	-9.67227
▁multiply	-9.67273
for	-9.6732
▁obey	-9.67368
▁Jackson	-9.67802
▁couple	-9.67803
▁teeth	-9.67803
▁spent	-9.67804
▁bondage	-9.67805
▁self	-9.67806
▁Which	-9.67809
▁created	-9.67815
▁swear	-9.67821
▁trouble	-9.68057
▁touching	-9.68277
▁wonders	-9.68281
sar	-9.68314
▁birds	-9.68598
▁eggs	-9.69346
day	-9.69797
▁rocks	-9.69802
ity	-9.69959
▁months	-9.70259
▁hole	-9.70972
▁appear	-9.7107
▁Jew	-9.71127
▁act	-9.715
▁rule	-9.71584
▁count	-9.71833
▁wall	-9.71834
▁loose	-9.71844
▁thin	-9.71961
▁Abimelech	-9.71969
▁bottom	-9.71969
▁conscience	-9.71969
▁unleavened	-9.71969
▁Elijah	-9.71969
▁twin	-9.71969
▁moon	-9.71974
▁story	-9.71976
▁sinned	-9.71986
▁household	-9.71988
▁suddenly	-9.71996
▁goats	-9.71996
▁sell	-9.72011
▁With	-9.72015
▁risen	-9.72015
▁someone	-9.72108
▁weight	-9.723
▁spirits	-9.72444
red	-9.72667
▁destroyed	-9.72889
▁watched	-9.72981
▁skins	-9.73204
▁sides	-9.73507
▁ones	-9.7351
▁drinking	-9.74082
▁talk	-9.74271
ake	-9.74378
▁ways	-9.7447
▁h	-9.74513
▁faces	-9.7475
▁c	-9.74823
▁state	-9.75155
He	-9.75617
Oh	-9.75719
▁feed	-9.75875
▁shoulder	-9.75905
▁double	-9.76088
▁secret	-9.7617
▁abound	-9.76175
▁Levi	-9.76313
▁hither	-9.76314
▁raiment	-9.76317
▁glorify	-9.76317
▁space	-9.76317
▁vineyard	-9.76318
▁afar	-9.76318
▁hail	-9.76319
▁trail	-9.76319
▁Ridge	-9.7632
▁pigpen	-9.76322
▁possible	-9.76327
▁wrote	-9.76332
▁adultery	-9.76343
▁creep	-9.76344
▁flies	-9.76357
▁arrived	-9.76358
▁forgiven	-9.76358
▁maid	-9.76363
▁cat	-9.76371
▁golden	-9.76418
▁scattered	-9.7642
▁witnesses	-9.76447
▁parts	-9.76499
▁officers	-9.76619
▁lose	-9.76674
▁talking	-9.76778
▁An	-9.76818
ory	-9.76945
▁g	-9.77024
▁breath	-9.77027
▁mayest	-9.77162
▁Her	-9.77537
▁ends	-9.77542
▁eateth	-9.77559
▁willing	-9.77689
▁heavenly	-9.77696
▁synagogues	-9.78092
ah	-9.78602
▁feared	-9.78694
▁fight	-9.7887
▁heed	-9.79255
▁Can	-9.79387
ill	-9.79429
▁charge	-9.79605
▁beasts	-9.79638
▁bottle	-9.79695
▁root	-9.79817
▁pleasure	-9.79822
▁pillar	-9.79871
rew	-9.79959
▁song	-9.80152
▁rope	-9.80243
▁won	-9.80266
either	-9.80281
▁remain	-9.80329
▁report	-9.80522
▁start	-9.80738
▁move	-9.80761
▁confess	-9.80854
▁inherit	-9.80857
▁Benjamin	-9.80862
▁Isaiah	-9.80862
▁array	-9.80862
▁daily	-9.80862
▁haply	-9.80862
▁likewise	-9.80862
▁remembrance	-9.80862
▁womb	-9.80862
▁running	-9.80863
▁Timothy	-9.80863
▁mystery	-9.80863
▁happy	-9.80863
▁marry	-9.80864
▁pretty	-9.80864
▁inheritance	-9.80868
▁sail	-9.80871
▁brake	-9.80881
▁amazed	-9.80905
▁sixth	-9.81109
ish	-9.81187
▁bones	-9.81216
▁camels	-9.81332
▁washed	-9.8144
▁feeling	-9.81635
▁heareth	-9.81825
▁lives	-9.82317
ance	-9.82458
▁today	-9.827
▁nose	-9.82956
▁thinking	-9.8305
z	-9.83525
▁—	-9.8373
men	-9.83756
▁snow	-9.84458
▁candlestick	-9.84575
▁neighbor	-9.84598
▁village	-9.84603
▁lamb	-9.84617
▁ship	-9.8473
adventure	-9.84915
Yes	-9.85014
▁bury	-9.85143
▁fashion	-9.85172
▁establish	-9.85197
▁store	-9.85211
▁thank	-9.85258
ry	-9.85416
▁possess	-9.8544
▁curse	-9.85482
▁stumble	-9.85547
▁flee	-9.85556
▁late	-9.85588
▁naked	-9.85606
▁ashamed	-9.85624
▁dominion	-9.85624
▁middle	-9.85624
▁smote	-9.85624
▁iron	-9.85624
▁precious	-9.85625
▁devour	-9.85625
▁Saviour	-9.85625
▁vail	-9.85625
▁further	-9.85627
▁Perry	-9.85628
▁hire	-9.85633
▁direction	-9.85667
▁decided	-9.85667
▁sware	-9.85672
▁lying	-9.8568
▁slowly	-9.85711
▁tied	-9.85763
▁hardened	-9.85772
▁sort	-9.85773
▁anger	-9.8578
▁anyone	-9.85823
▁horns	-9.85857
▁borne	-9.8598
▁hence	-9.86032
▁fourth	-9.86133
▁liveth	-9.86189
▁letters	-9.86439
▁strangers	-9.86894
▁notice	-9.86913
▁Here	-9.87011
▁heat	-9.87439
▁commit	-9.87617
▁wear	-9.8828
▁perceive	-9.88283
▁drive	-9.88287
▁question	-9.89044
▁form	-9.89159
▁Salut	-9.89432
▁arm	-9.89499
▁begin	-9.89499
▁Hebrew	-9.8961
▁cubit	-9.89637
▁corner	-9.89703
▁sanctif	-9.89917
▁clear	-9.90022
▁worry	-9.90124
▁stop	-9.90502
▁fair	-9.90624
▁Macedonia	-9.90624
▁Spearfinger	-9.90624
▁behalf	-9.90624
▁ignorant	-9.90624
▁marriage	-9.90624
▁school	-9.90624
▁thither	-9.90624
▁tidings	-9.90624
▁Saul	-9.90625
▁idea	-9.90625
▁loaves	-9.90625
▁struck	-9.90625
▁breakfast	-9.90625
▁supper	-9.90628
▁elect	-9.90629
▁cheer	-9.90633
▁reproach	-9.90633
▁Arise	-9.9064
▁handmaid	-9.90655
▁getting	-9.907
▁wide	-9.90716
▁Art	-9.90765
▁idols	-9.9096
▁knees	-9.91126
▁bonds	-9.9122
▁either	-9.91275
▁stayed	-9.91308
▁fully	-9.91358
▁north	-9.91448
▁hate	-9.91966
▁treasure	-9.92536
nto	-9.9255
▁sacrifices	-9.92896
▁tables	-9.93101
ate	-9.93151
k	-9.93408
▁needs	-9.93604
▁join	-9.93908
▁cover	-9.93941
▁labor	-9.94204
▁bearing	-9.94257
▁goods	-9.94461
▁demon	-9.94487
▁accuse	-9.94506
the	-9.94712
▁affliction	-9.94724
▁flood	-9.94775
▁governor	-9.94776
▁window	-9.94825
▁possession	-9.94851
▁week	-9.94855
▁host	-9.94901
▁bird	-9.94909
▁color	-9.94948
▁afterward	-9.95018
▁grave	-9.95241
How	-9.95315
But	-9.95316
▁L	-9.95388
▁strip	-9.95417
▁regard	-9.95423
▁proceed	-9.95437
▁change	-9.95657
▁forbid	-9.95679
▁wicked	-9.95723
▁grievous	-9.95763
▁chose	-9.95852
▁Claire	-9.95887
▁Jordan	-9.95887
▁Washington	-9.95887
▁abode	-9.95887
▁centurion	-9.95887
▁company	-9.95887
▁dawn	-9.95887
▁language	-9.95887
▁neighbour	-9.95887
▁nought	-9.95887
▁parents	-9.95888
▁families	-9.95888
▁different	-9.95888
▁fourteen	-9.95888
▁chair	-9.95891
▁business	-9.95891
▁Cain	-9.95894
▁repentance	-9.95895
▁subjection	-9.95904
▁spoil	-9.95908
▁Most	-9.95916
▁cock	-9.95922
▁tiny	-9.95929
▁shot	-9.95946
▁robe	-9.95995
▁marvelled	-9.96014
▁fill	-9.96045
▁spin	-9.9608
▁reckoned	-9.96149
▁Look	-9.96235
▁hunting	-9.96243
▁nights	-9.96272
▁covering	-9.96366
▁height	-9.96462
▁served	-9.96617
▁lusts	-9.96734
▁journeyed	-9.96797
ily	-9.96957
▁faint	-9.96961
▁declare	-9.96987
▁corners	-9.96997
▁following	-9.97267
▁watching	-9.97368
▁scriptures	-9.97451
ug	-9.97461
▁falling	-9.97663
▁gates	-9.97784
ic	-9.97924
▁G	-9.98009
he	-9.9832
▁star	-9.99958
▁tribulation	-10.0028
▁apostle	-10.0049
▁learn	-10.0055
▁Br	-10.0058
The	-10.0071
▁pain	-10.0072
That	-10.0087
▁profit	-10.0097
▁utter	-10.0099
▁leaven	-10.0113
ary	-10.0117
▁fly	-10.0122
▁refuse	-10.0124
▁plain	-10.0132
▁natural	-10.0133
▁voices	-10.0135
▁Te	-10.0136
▁Again	-10.0144
▁Brethren	-10.0144
▁Nazareth	-10.0144
▁baptism	-10.0144
▁beneath	-10.0144
▁geese	-10.0144
▁Grace	-10.0144
▁drove	-10.0144
▁woe	-10.0144
▁Know	-10.0145
▁respect	-10.0145
▁shook	-10.0145
▁yellow	-10.0145
▁price	-10.0146
▁pool	-10.0146
▁abundantly	-10.0147
▁Nay	-10.0148
▁bigge	-10.0149
▁wish	-10.0149
▁wheat	-10.015
▁sorry	-10.015
▁revealed	-10.0158
▁rent	-10.0158
▁noise	-10.016
▁pond	-10.016
▁row	-10.017
▁con	-10.0179
▁talents	-10.0182
▁tears	-10.0188
▁clothed	-10.019
▁remained	-10.0196
ge	-10.0217
▁persons	-10.0229
▁Asia	-10.0232
wo	-10.0235
▁wouldest	-10.0237
▁lines	-10.0286
▁creatures	-10.0298
▁holding	-10.0377
ors	-10.0383
▁pipe	-10.0393
▁perceiv	-10.0412
▁rush	-10.0488
▁trust	-10.0502
age	-10.0553
▁hide	-10.0576
▁oath	-10.0616
▁vision	-10.0621
▁cave	-10.0622
▁fowl	-10.0624
▁miracle	-10.0625
▁male	-10.0625
▁serpent	-10.0626
▁widow	-10.0632
▁border	-10.0632
▁ram	-10.0632
▁hill	-10.0639
▁post	-10.0644
▁m	-10.0662
▁ring	-10.0671
▁cook	-10.0684
▁W	-10.0685
▁Dr	-10.0686
▁letter	-10.0686
▁redeem	-10.0689
ne	-10.0693
▁escape	-10.0713
▁reap	-10.072
▁several	-10.0723
▁dirt	-10.0723
▁swam	-10.0732
▁per	-10.0732
▁Antioch	-10.0733
▁Crockett	-10.0733
▁Ishmael	-10.0733
▁Reuben	-10.0733
▁Sarai	-10.0733
▁cunning	-10.0733
▁everlasting	-10.0733
▁heavy	-10.0733
▁leaving	-10.0733
▁truly	-10.0733
▁Sinai	-10.0733
▁drank	-10.0733
▁slew	-10.0733
▁astray	-10.0733
▁nature	-10.0733
▁sitteth	-10.0733
▁colonel	-10.0733
▁sanctuary	-10.0733
▁Howbeit	-10.0733
▁Shechem	-10.0733
▁grain	-10.0733
▁tarried	-10.0733
▁sanctified	-10.0735
▁interpretation	-10.0735
▁bitter	-10.0735
▁oxen	-10.0735
▁married	-10.0736
▁chosen	-10.0737
▁mark	-10.0738
▁fishes	-10.074
▁render	-10.0741
▁dirty	-10.0742
clock	-10.0744
▁wings	-10.0745
▁sown	-10.0747
▁pail	-10.0748
▁farm	-10.0752
▁exalted	-10.0753
▁jumped	-10.0754
▁mourning	-10.0756
▁wipe	-10.0757
▁weeping	-10.0764
▁loosed	-10.0767
ite	-10.0769
▁lower	-10.0777
▁sailed	-10.0787
▁calleth	-10.079
▁counted	-10.0793
ants	-10.0798
hick	-10.0806
▁hiding	-10.0813
▁comforted	-10.0813
▁burning	-10.0815
▁borders	-10.0834
▁reading	-10.0841
▁meeting	-10.0887
b	-10.0897
▁turning	-10.0919
▁doest	-10.0952
▁prayers	-10.0963
▁roll	-10.0991
▁Ha	-10.101
▁Oh	-10.1011
ris	-10.1049
▁meal	-10.1084
▁spiders	-10.1116
▁cloth	-10.1159
▁offerings	-10.1186
man	-10.1189
▁thoughts	-10.121
ay	-10.1223
▁cabin	-10.1241
▁fig	-10.1246
▁lust	-10.1259
▁exhort	-10.1261
▁r	-10.1269
Charlotte	-10.13
Now	-10.1301
▁lack	-10.1306
▁salt	-10.1309
laid	-10.1316
▁patient	-10.1344
▁slow	-10.1347
▁overcome	-10.135
▁glass	-10.1356
ollow	-10.1357
▁Asmeret	-10.1358
▁English	-10.1358
▁Ephesus	-10.1358
▁Hittite	-10.1358
▁Nahor	-10.1358
▁Simeon	-10.1358
▁cellar	-10.1358
▁harlot	-10.1358
▁lips	-10.1358
▁yield	-10.1358
▁Damascus	-10.1358
▁godliness	-10.1358
▁honey	-10.1358
▁common	-10.1358
▁family	-10.1358
▁compassion	-10.136
▁grant	-10.136
▁beaten	-10.136
▁inso	-10.136
▁yesterday	-10.1361
▁deer	-10.1361
▁je	-10.1363
▁doesn	-10.1364
▁asses	-10.1367
▁thorns	-10.1368
▁tempted	-10.1375
▁shortly	-10.1378
▁goes	-10.138
▁planted	-10.139
▁wor	-10.1395
▁chains	-10.14
▁goodness	-10.1401
▁speaker	-10.1408
▁herds	-10.1408
▁Hear	-10.1409
▁soft	-10.1415
▁cows	-10.142
▁pale	-10.1428
ra	-10.1438
▁lamps	-10.144
▁bowls	-10.144
▁frogs	-10.1442
▁breaking	-10.1478
▁arms	-10.1485
▁lambs	-10.1492
▁sayest	-10.1494
▁de	-10.1519
▁hell	-10.1538
te	-10.1556
▁withal	-10.1563
▁ass	-10.1564
▁pro	-10.1571
▁steppe	-10.1574
▁apples	-10.1627
▁Shem	-10.1642
nt	-10.1666
▁heal	-10.1671
▁commun	-10.1711
▁west	-10.1729
▁hat	-10.1803
▁judges	-10.1811
▁fruits	-10.1829
▁desert	-10.1858
▁cr	-10.1877
▁person	-10.1882
▁girdle	-10.1908
▁stream	-10.1915
▁blanket	-10.1922
▁Greek	-10.1923
▁girl	-10.1929
▁bringing	-10.1934
ia	-10.1942
▁prisoner	-10.1943
▁says	-10.1946
▁glorying	-10.1953
▁haste	-10.1955
Good	-10.1959
▁flow	-10.1971
▁steal	-10.1976
▁hunt	-10.199
▁race	-10.2007
▁hung	-10.2007
▁flat	-10.201
▁stumbling	-10.2024
▁Almighty	-10.2024
▁America	-10.2024
▁anxious	-10.2024
▁bodies	-10.2024
▁bridegroom	-10.2024
▁coffee	-10.2024
▁cousin	-10.2024
▁damsel	-10.2024
▁disobedient	-10.2024
▁enemy	-10.2024
▁necessary	-10.2024
▁obedience	-10.2024
▁prosper	-10.2024
▁screamed	-10.2024
▁silence	-10.2024
▁uncircumcision	-10.2024
▁diligence	-10.2024
▁trumpet	-10.2024
▁doctor	-10.2024
▁harvest	-10.2024
▁slain	-10.2024
▁Stephen	-10.2024
▁overlay	-10.2024
▁Haran	-10.2024
▁divers	-10.2024
▁rising	-10.2024
▁Nancy	-10.2025
▁lawyer	-10.2025
▁scratch	-10.2025
▁pasture	-10.2025
▁acceptable	-10.2025
▁calf	-10.2025
▁boldness	-10.2025
▁temptation	-10.2026
▁spare	-10.2026
▁trade	-10.2027
▁lodge	-10.2027
▁doorway	-10.2029
▁carefully	-10.203
▁axe	-10.2031
▁worse	-10.2031
▁floor	-10.2034
▁Sure	-10.2037
▁removed	-10.2039
▁ceased	-10.204
▁Sir	-10.2041
▁Man	-10.2041
▁thick	-10.2041
▁hypocrites	-10.2042
▁defiled	-10.2043
▁quietly	-10.2046
▁henceforth	-10.2046
THE	-10.2047
▁goslings	-10.2049
▁obtained	-10.2049
▁spit	-10.2056
▁onto	-10.2057
▁consider	-10.2063
▁stared	-10.2078
▁promised	-10.2084
▁sacrificed	-10.2084
▁wearing	-10.2088
▁tall	-10.2088
▁barely	-10.2093
▁Greeks	-10.2126
▁ex	-10.2132
▁comes	-10.2134
▁widows	-10.214
▁rebuke	-10.2159
▁needed	-10.2193
▁Sen	-10.2193
▁seeth	-10.2237
▁prove	-10.2241
▁St	-10.226
▁sad	-10.2291
▁sing	-10.2356
ched	-10.2365
▁telling	-10.2376
score	-10.2431
u	-10.2462
▁occasion	-10.2472
▁Re	-10.2497
▁happen	-10.2526
ain	-10.2533
ive	-10.2544
▁ill	-10.2552
▁liked	-10.2554
No	-10.2575
▁burden	-10.2589
▁Get	-10.2612
rolled	-10.262
▁revelation	-10.2622
▁leg	-10.2625
▁region	-10.2627
▁hang	-10.2628
▁paper	-10.2632
▁supplication	-10.2632
▁shepherd	-10.2636
▁Egyptian	-10.2642
▁sack	-10.2643
▁beside	-10.2664
F	-10.2679
though	-10.2685
▁inhabit	-10.2693
▁interest	-10.2694
▁condemn	-10.2695
▁betray	-10.2696
▁pull	-10.2697
▁owner	-10.2702
▁defile	-10.2707
▁release	-10.2718
▁despise	-10.2718
▁crow	-10.2719
▁taste	-10.2719
▁proud	-10.2724
▁eleven	-10.2728
xcept	-10.2738
▁ghost	-10.2738
▁Lazarus	-10.2738
▁Manasseh	-10.2738
▁Sadducees	-10.2738
▁Sequoyah	-10.2738
▁confidence	-10.2738
▁countenance	-10.2738
▁doctrine	-10.2738
▁dumb	-10.2738
▁fifteen	-10.2738
▁multiplied	-10.2738
▁ointment	-10.2738
▁recompense	-10.2738
▁roof	-10.2738
▁tarry	-10.2738
▁thief	-10.2738
▁awoke	-10.2739
▁substance	-10.2739
▁trial	-10.2739
▁loins	-10.2739
▁vine	-10.2739
▁Hagar	-10.2739
▁crep	-10.2739
▁digged	-10.2739
▁contrary	-10.2739
▁gander	-10.2739
▁intend	-10.2739
▁forehead	-10.2739
▁dump	-10.2739
▁fellowship	-10.2739
▁Zion	-10.2739
▁understood	-10.2739
▁continually	-10.274
▁unrighteousness	-10.274
▁ungodly	-10.274
▁heap	-10.274
▁wickedness	-10.2741
▁Hello	-10.2741
▁loss	-10.2741
▁exactly	-10.2742
▁rejected	-10.2743
▁somewhere	-10.2744
▁stedfastly	-10.2744
▁fruitful	-10.2745
▁ashes	-10.2746
▁stirred	-10.2746
▁later	-10.2747
▁everywhere	-10.2747
▁descended	-10.275
▁prevailed	-10.2753
▁kindness	-10.2753
▁wrapp	-10.2753
▁dying	-10.2757
time	-10.2757
▁hunger	-10.2757
▁increased	-10.2758
▁manure	-10.2764
▁loops	-10.2765
▁bars	-10.2767
▁string	-10.2778
▁final	-10.2779
▁divide	-10.2786
▁rejoiced	-10.2788
▁condemned	-10.2788
▁special	-10.2789
▁add	-10.2792
▁chariots	-10.2795
▁aside	-10.2808
▁cleanse	-10.2817
▁fore	-10.2823
▁desired	-10.2846
▁fasten	-10.286
▁dreamed	-10.2878
unto	-10.2896
▁Well	-10.2931
▁powers	-10.2935
▁seasons	-10.2948
▁sleeping	-10.2954
▁bell	-10.3004
ine	-10.3025
▁Du	-10.305
▁parted	-10.3073
▁praying	-10.3108
ad	-10.3161
ke	-10.3207
▁sp	-10.3214
▁laying	-10.3219
▁mo	-10.3236
▁favor	-10.3245
ard	-10.3266
▁desir	-10.3276
▁shed	-10.3302
▁trap	-10.3306
O	-10.3361
▁forget	-10.3363
▁case	-10.3395
▁custom	-10.3396
▁drunk	-10.3404
▁lamp	-10.3407
▁frog	-10.3407
▁vessel	-10.3408
ated	-10.3415
▁soldier	-10.3417
▁teacher	-10.3419
les	-10.3447
what	-10.3451
▁prophesy	-10.3452
▁swing	-10.3455
▁fetch	-10.3459
▁stretch	-10.3466
▁suck	-10.3467
▁Say	-10.3471
▁Rabbi	-10.3472
that	-10.3476
bee	-10.3476
ent	-10.3479
▁endure	-10.3482
▁complete	-10.3486
▁commend	-10.3495
▁rivers	-10.3496
▁content	-10.3498
Many	-10.3504
▁branch	-10.3506
▁Babylon	-10.3508
▁Baptist	-10.3508
▁Capernaum	-10.3508
▁Moreover	-10.3508
▁Nevertheless	-10.3508
▁Remember	-10.3508
▁Titus	-10.3508
▁chicken	-10.3508
▁travail	-10.3508
▁Festus	-10.3508
▁epistle	-10.3508
▁hidden	-10.3508
sarea	-10.3508
▁cherubims	-10.3508
▁moving	-10.3508
▁excellent	-10.3508
▁void	-10.3508
▁famous	-10.3508
▁particular	-10.3508
▁broad	-10.3508
▁compass	-10.3508
▁colt	-10.3508
▁oak	-10.3508
▁Edom	-10.3508
▁bidden	-10.3508
▁sang	-10.3508
▁prophecy	-10.3508
▁dropped	-10.3508
▁distance	-10.3509
▁denied	-10.3509
▁palm	-10.3509
▁stuff	-10.3509
▁nay	-10.3509
▁tender	-10.3509
▁single	-10.3509
▁size	-10.3509
▁jealousy	-10.351
▁crawled	-10.351
▁worth	-10.351
▁husbandmen	-10.351
▁rubb	-10.351
▁beforehand	-10.351
▁stead	-10.351
▁Abel	-10.3511
▁shaken	-10.3511
▁kindred	-10.3511
▁bind	-10.3512
▁determined	-10.3512
▁wander	-10.3512
▁driven	-10.3514
▁Homer	-10.3515
▁portion	-10.3515
▁pitcher	-10.3516
▁required	-10.3516
▁fit	-10.3525
▁remaineth	-10.3527
▁pitched	-10.353
▁pocket	-10.353
▁separate	-10.3532
▁hateth	-10.3536
▁escaped	-10.3536
▁bowl	-10.3538
▁youngest	-10.3539
▁stool	-10.3539
▁Just	-10.354
▁changed	-10.3543
▁anybody	-10.3543
▁publicans	-10.3553
▁betrayed	-10.3554
▁withered	-10.3559
▁workers	-10.356
▁hooks	-10.3561
▁likeness	-10.3562
▁beans	-10.3563
▁Per	-10.3568
▁fugitives	-10.3569
ure	-10.3582
ier	-10.3599
▁standeth	-10.3603
▁findeth	-10.3609
▁preacher	-10.3615
▁greatest	-10.3618
reached	-10.3621
▁numbered	-10.3623
▁builded	-10.3637
▁gotten	-10.3646
▁waited	-10.3653
▁sounded	-10.3654
▁hosts	-10.366
▁Hebrews	-10.3668
il	-10.3674
▁tribes	-10.3734
▁shoulders	-10.3737
▁en	-10.3773
▁Zuckermans	-10.3803
▁La	-10.3805
▁wr	-10.3806
▁co	-10.3878
id	-10.3905
▁masters	-10.3919
▁seal	-10.402
▁thousands	-10.4046
op	-10.4051
▁wonder	-10.4135
elah	-10.4155
ened	-10.4192
▁thread	-10.4224
▁game	-10.423
▁shadow	-10.4236
▁basket	-10.4238
▁animal	-10.4242
pa	-10.4242
▁laugh	-10.4243
▁elder	-10.4243
▁Pharisee	-10.4243
▁sinner	-10.4245
▁shekel	-10.4247
▁band	-10.425
▁pour	-10.4251
▁bond	-10.4251
▁herb	-10.4264
C	-10.4283
Can	-10.4284
▁doubt	-10.4288
▁plow	-10.4289
▁interpret	-10.429
▁deed	-10.4293
▁Heth	-10.4294
▁accept	-10.4294
▁proclaim	-10.4298
▁reckon	-10.4299
▁press	-10.4304
▁weep	-10.4308
to	-10.4317
▁ride	-10.4321
▁cease	-10.4321
▁prepare	-10.4322
▁restore	-10.4323
▁observe	-10.4324
▁memorial	-10.4327
▁pleasant	-10.4328
ncle	-10.4341
▁stomach	-10.4341
▁Calhoun	-10.4341
▁Dorian	-10.4341
▁Ephraim	-10.4341
▁Finally	-10.4341
▁Gomorrah	-10.4341
▁Goshen	-10.4341
▁High	-10.4341
▁Lichen	-10.4341
▁Solomon	-10.4341
▁asunder	-10.4341
▁buttermilk	-10.4341
▁creation	-10.4341
▁female	-10.4341
▁longsuffering	-10.4341
▁slept	-10.4341
▁twice	-10.4341
▁yourself	-10.4341
▁consent	-10.4341
▁idle	-10.4341
▁spend	-10.4341
▁baby	-10.4341
▁Christmas	-10.4341
▁crieth	-10.4341
▁dried	-10.4341
▁destruction	-10.4341
▁alms	-10.4341
▁steward	-10.4341
▁wroth	-10.4341
▁dinner	-10.4341
▁stove	-10.4341
▁birthday	-10.4341
▁dash	-10.4342
▁stolen	-10.4342
▁fun	-10.4342
▁corruption	-10.4342
▁mill	-10.4342
▁expect	-10.4342
▁trespasses	-10.4342
▁kine	-10.4342
▁thanksgiving	-10.4343
▁astonished	-10.4343
▁puffe	-10.4344
▁ministration	-10.4344
▁discern	-10.4344
▁merciful	-10.4344
▁error	-10.4346
▁grown	-10.435
▁thirst	-10.435
▁sixty	-10.435
▁whispered	-10.435
▁persuaded	-10.4353
▁drawn	-10.4354
▁pushed	-10.4358
▁wonderful	-10.4358
▁warned	-10.4359
▁fo	-10.4362
▁belly	-10.4366
▁pile	-10.4367
▁sow	-10.437
▁listening	-10.4371
▁partakers	-10.4376
▁due	-10.4376
▁Rabbit	-10.438
▁attention	-10.4381
▁supposed	-10.4382
▁blow	-10.4383
▁laughed	-10.4384
▁highest	-10.4384
▁Canaanites	-10.4391
▁net	-10.4397
▁sufferings	-10.44
▁sprinkl	-10.4408
▁bath	-10.4414
▁dwelleth	-10.4416
▁miles	-10.4417
▁reported	-10.4421
▁cap	-10.4423
mo	-10.4428
▁West	-10.4437
▁...	-10.4442
▁shekels	-10.4444
▁dozen	-10.4444
▁carrying	-10.4448
▁drunken	-10.445
▁forest	-10.4455
▁anointed	-10.4455
▁handle	-10.446
▁burdens	-10.4461
▁tomorrow	-10.4466
▁canst	-10.4467
▁rams	-10.4489
all	-10.4489
ach	-10.4495
ied	-10.4503
▁heir	-10.4543
v	-10.4545
▁str	-10.4552
▁dukes	-10.4579
▁Andrew	-10.4583
reby	-10.4617
ree	-10.4653
▁showing	-10.4672
▁rested	-10.4674
ably	-10.4722
▁minded	-10.4724
▁lights	-10.4764
ant	-10.4779
li	-10.484
▁sometime	-10.4853
▁gun	-10.4867
wn	-10.4871
▁claim	-10.4888
▁tro	-10.4907
ring	-10.4926
nd	-10.4971
▁yours	-10.4983
▁sha	-10.4993
ew	-10.4999
um	-10.5011
minded	-10.5011
▁fillet	-10.5073
▁worked	-10.5081
▁Me	-10.5118
ments	-10.5127
▁lion	-10.5136
▁log	-10.5141
▁hatchet	-10.5142
▁dress	-10.5157
▁chamber	-10.5165
▁pot	-10.5177
where	-10.5177
bye	-10.5191
Look	-10.5192
Let	-10.5193
which	-10.5193
And	-10.5197
▁sojourn	-10.52
▁travel	-10.5201
▁veil	-10.5205
▁swallow	-10.5208
▁appoint	-10.5216
▁humble	-10.5229
▁fighting	-10.5229
▁nice	-10.5237
▁plann	-10.5239
▁direct	-10.5245
▁Pr	-10.5248
▁unrighteous	-10.5248
erhaps	-10.5249
▁equal	-10.5249
▁fulfil	-10.525
▁trip	-10.525
▁suggest	-10.525
▁Agrippa	-10.525
▁Axe	-10.525
▁Featherstone	-10.525
▁Iscariot	-10.525
▁Lamech	-10.525
▁Martha	-10.525
▁Midian	-10.525
▁Wasseton	-10.525
▁Zebedee	-10.525
▁abiding	-10.525
▁absent	-10.525
▁choice	-10.525
▁crucify	-10.525
▁desolate	-10.525
▁exercise	-10.525
▁fought	-10.525
▁group	-10.525
▁kitchen	-10.525
▁laurel	-10.525
▁pencil	-10.525
▁resist	-10.525
▁savour	-10.525
▁smooth	-10.525
▁stories	-10.525
▁sweat	-10.525
▁trembling	-10.525
▁underneath	-10.525
▁Also	-10.525
▁leap	-10.525
▁swine	-10.525
▁Ephron	-10.525
▁angry	-10.525
▁defence	-10.525
▁atonement	-10.525
▁fulness	-10.525
▁merry	-10.525
▁Sidon	-10.525
▁lean	-10.525
▁kid	-10.525
▁token	-10.525
▁Ross	-10.525
▁dragon	-10.525
▁blew	-10.525
▁lightning	-10.525
▁Enoch	-10.525
▁pluck	-10.5251
▁Wayah	-10.5251
▁uttermost	-10.5251
▁coast	-10.5251
▁dangerous	-10.5251
▁Master	-10.5251
▁condemnation	-10.5251
▁lake	-10.5251
▁Hamor	-10.5252
▁New	-10.5252
▁sentence	-10.5252
▁horsemen	-10.5252
▁dew	-10.5252
▁shake	-10.5253
▁motion	-10.5253
▁Ham	-10.5253
▁prize	-10.5253
▁sober	-10.5254
▁snare	-10.5255
▁box	-10.5257
▁whereby	-10.5257
▁radiant	-10.5258
▁fields	-10.5259
▁flame	-10.526
▁shone	-10.526
▁mention	-10.526
▁span	-10.526
▁murmured	-10.5265
▁easy	-10.5265
▁locusts	-10.5265
▁robbers	-10.5265
ixt	-10.5268
▁shouted	-10.5268
▁consumed	-10.5269
▁Edith	-10.527
▁terrific	-10.527
▁Hav	-10.5275
▁favoured	-10.5277
▁inter	-10.5278
▁cleansed	-10.5278
▁failed	-10.5281
▁refused	-10.5283
▁instead	-10.5285
▁everybody	-10.5287
▁pressed	-10.5297
▁wondered	-10.5298
▁force	-10.5306
▁Beer	-10.5313
▁tenth	-10.5332
▁plagues	-10.5334
▁established	-10.5334
▁shine	-10.5336
▁party	-10.5344
▁streets	-10.5344
▁brush	-10.5347
not	-10.5392
▁formed	-10.5392
▁blankets	-10.5393
▁Je	-10.5409
▁opening	-10.5428
un	-10.5439
▁shape	-10.5448
▁villages	-10.5453
▁Beth	-10.5457
▁strive	-10.5478
▁walls	-10.5478
▁aim	-10.5485
joined	-10.5488
▁fingers	-10.5492
▁goest	-10.5504
me	-10.5519
▁nuts	-10.5533
em	-10.5543
ver	-10.5603
most	-10.566
▁Dan	-10.5666
if	-10.572
▁fact	-10.5746
ns	-10.5763
cy	-10.5772
▁step	-10.5806
▁husbands	-10.5837
od	-10.5845
▁Ch	-10.5848
▁winds	-10.5857
▁vi	-10.5858
ank	-10.5867
▁par	-10.5885
aw	-10.5888
thrown	-10.5918
▁bade	-10.5923
old	-10.5945
ery	-10.5968
ol	-10.5982
▁knee	-10.6021
ling	-10.6025
head	-10.6047
math	-10.6078
▁gr	-10.609
▁earthquake	-10.6133
loved	-10.6137
▁plant	-10.6139
▁thigh	-10.6139
▁dance	-10.6141
formed	-10.6143
▁knop	-10.6144
▁nest	-10.6145
ned	-10.6145
▁ordinance	-10.6146
▁prince	-10.6146
▁thunder	-10.6147
▁minute	-10.6147
▁cow	-10.6147
▁street	-10.6148
▁figure	-10.6153
▁shoe	-10.6154
▁ninet	-10.6158
▁br	-10.6159
▁corrupt	-10.6182
Do	-10.6187
Why	-10.6193
Don	-10.6196
There	-10.62
▁den	-10.6209
▁healing	-10.6209
▁mad	-10.6211
led	-10.6213
seat	-10.6217
▁awake	-10.6225
▁agree	-10.6229
▁increase	-10.623
▁earnest	-10.6236
▁suppose	-10.6237
▁jail	-10.6249
eople	-10.6249
sheba	-10.625
▁fool	-10.625
▁Amalek	-10.625
▁Ananias	-10.625
▁Bethany	-10.625
▁Jethro	-10.625
▁Magdalene	-10.625
▁Mamre	-10.625
▁Peace	-10.625
▁Philadelphia	-10.625
▁Philistines	-10.625
▁Samaria	-10.625
▁Silas	-10.625
▁Tahlequah	-10.625
▁apparel	-10.625
▁aught	-10.625
▁bacon	-10.625
▁believing	-10.625
▁bundle	-10.625
▁coupling	-10.625
▁dishonor	-10.625
▁enjoy	-10.625
▁fault	-10.625
▁fifth	-10.625
▁fountain	-10.625
▁liberty	-10.625
▁lieutenant	-10.625
▁ministry	-10.625
▁moreover	-10.625
▁plenty	-10.625
▁thrice	-10.625
▁tribute	-10.625
▁Hivite	-10.625
▁strife	-10.625
▁JE	-10.625
▁barren	-10.625
▁bosom	-10.625
▁Speak	-10.625
▁firmament	-10.625
▁important	-10.625
▁midnight	-10.625
▁taches	-10.625
▁shining	-10.625
▁staff	-10.625
▁curious	-10.625
▁swimming	-10.625
▁trick	-10.625
▁weather	-10.625
wels	-10.625
▁remission	-10.625
▁cool	-10.6251
▁meekness	-10.6251
▁George	-10.6251
▁Though	-10.6251
▁fog	-10.6251
▁mix	-10.6251
▁Terah	-10.6251
▁bunch	-10.6251
▁decomposers	-10.6251
▁potatoes	-10.6252
▁choose	-10.6252
▁torn	-10.6252
▁armies	-10.6252
▁darkened	-10.6253
▁testified	-10.6253
▁dove	-10.6253
▁nakedness	-10.6254
▁exhortation	-10.6255
▁approved	-10.6255
▁Love	-10.6256
▁seize	-10.6256
ueen	-10.6256
▁upright	-10.6256
▁busy	-10.6257
▁Seven	-10.626
▁Henry	-10.626
▁upper	-10.626
▁boldly	-10.6261
▁hay	-10.6261
▁Perhaps	-10.6261
▁ripe	-10.6261
▁endureth	-10.6263
▁butler	-10.6265
▁overcometh	-10.6266
▁contain	-10.6266
▁boots	-10.6267
▁Pig	-10.6268
▁agreed	-10.627
▁accomplished	-10.6271
▁guide	-10.6271
▁spices	-10.6278
Run	-10.6278
▁separated	-10.6279
▁pack	-10.628
▁Sit	-10.6282
▁listened	-10.6284
▁sand	-10.6285
▁dragg	-10.6285
▁searched	-10.6289
▁swallowed	-10.6298
▁lieth	-10.6299
▁proclaimed	-10.6303
▁pants	-10.6303
laver	-10.6313
▁suit	-10.6315
▁J	-10.6319
▁hunters	-10.6324
▁clothing	-10.6328
▁judgeth	-10.6329
▁falleth	-10.6337
▁thunders	-10.6354
▁baskets	-10.6376
▁deeds	-10.638
▁perished	-10.638
▁teachers	-10.6394
▁sacks	-10.6398
mp	-10.6398
ered	-10.6402
▁washing	-10.641
owed	-10.6412
▁prisoners	-10.6416
▁ha	-10.6417
▁hoped	-10.6433
nder	-10.6434
▁mud	-10.6449
▁neighbors	-10.6475
▁beam	-10.6478
hu	-10.6495
▁Wil	-10.6533
▁Pa	-10.6557
ight	-10.6566
▁fishing	-10.6602
▁simple	-10.6616
▁ministering	-10.6637
▁dwelling	-10.6652
ig	-10.6677
▁Ga	-10.6682
▁promises	-10.6711
land	-10.6736
▁dreams	-10.6737
▁haven	-10.6745
rash	-10.6754
▁matters	-10.6755
▁clouds	-10.6755
ans	-10.6771
▁share	-10.679
▁thrones	-10.6812
▁kinds	-10.688
▁cake	-10.6883
▁Cap	-10.6961
dded	-10.6965
▁finish	-10.7066
▁rode	-10.7071
▁sakes	-10.7099
ot	-10.7101
▁wave	-10.7107
▁declar	-10.7126
ue	-10.7128
morrow	-10.7137
ee	-10.7143
▁bl	-10.7177
▁Wa	-10.7179
ches	-10.7201
▁tin	-10.724
▁bank	-10.7246
▁Ca	-10.7246
▁captive	-10.725
▁habitation	-10.725
▁effort	-10.7253
▁virgin	-10.7255
▁plague	-10.7259
ked	-10.7259
▁mile	-10.726
▁drop	-10.726
▁breast	-10.7262
▁flower	-10.7265
▁scribe	-10.7267
▁mourn	-10.7271
▁path	-10.7271
▁climb	-10.7273
ware	-10.7278
▁marvel	-10.7279
▁search	-10.7281
pleasing	-10.7292
▁ru	-10.7296
▁rail	-10.7303
foot	-10.7304
▁testify	-10.7313
▁delight	-10.7316
▁obtain	-10.7319
special	-10.732
▁jump	-10.732
▁real	-10.7325
▁preserve	-10.7339
▁accus	-10.7339
▁bid	-10.734
ook	-10.734
▁consume	-10.7342
▁bold	-10.7349
We	-10.7349
▁entire	-10.7349
Thi	-10.7351
▁wasn	-10.7353
▁public	-10.7359
▁trespass	-10.7359
▁danger	-10.736
▁spra	-10.736
▁tight	-10.7361
▁vari	-10.7361
▁Padan	-10.7361
▁Beaver	-10.7361
▁Bethuel	-10.7361
▁Charlie	-10.7361
▁Japheth	-10.7361
▁Joppa	-10.7361
▁Joshua	-10.7361
▁Sunday	-10.7361
▁Zacharias	-10.7361
▁altogether	-10.7361
▁beauty	-10.7361
▁below	-10.7361
▁bullock	-10.7361
▁degree	-10.7361
▁diligently	-10.7361
▁disobedience	-10.7361
▁furnace	-10.7361
▁future	-10.7361
▁grieved	-10.7361
▁guile	-10.7361
▁indignation	-10.7361
▁iniquities	-10.7361
▁leaf	-10.7361
▁mirror	-10.7361
▁nevertheless	-10.7361
▁ninth	-10.7361
▁offended	-10.7361
▁plot	-10.7361
▁practise	-10.7361
▁publish	-10.7361
▁rabbit	-10.7361
▁sanctification	-10.7361
▁slops	-10.7361
▁speckled	-10.7361
▁stoop	-10.7361
▁supply	-10.7361
▁surname	-10.7361
▁valley	-10.7361
▁venison	-10.7361
▁violence	-10.7361
▁Charleston	-10.7361
▁abyss	-10.7361
▁devout	-10.7361
▁Apollos	-10.7361
▁narrow	-10.7361
▁silk	-10.7361
▁brimstone	-10.7361
▁slaves	-10.7361
▁magicians	-10.7361
▁smitten	-10.7361
▁Bilhah	-10.7361
▁gracious	-10.7361
▁pattern	-10.7361
▁bride	-10.7361
▁bucket	-10.7361
▁usual	-10.7361
▁wove	-10.7361
▁easier	-10.7362
▁wages	-10.7362
▁harm	-10.7362
▁privily	-10.7362
▁issue	-10.7362
▁Seir	-10.7362
▁match	-10.7362
▁unbelief	-10.7362
▁Everything	-10.7363
▁human	-10.7363
▁Hono	-10.7363
▁roast	-10.7364
▁innocent	-10.7364
▁Chapman	-10.7364
▁assembly	-10.7364
▁Anah	-10.7364
▁confession	-10.7364
▁crawling	-10.7364
▁unbelieving	-10.7364
▁fever	-10.7365
▁mingled	-10.7365
▁bondservant	-10.7365
▁skull	-10.7365
▁throat	-10.7365
▁print	-10.7366
▁bake	-10.7366
▁clay	-10.7366
control	-10.7366
▁rear	-10.7367
▁foolishness	-10.7367
▁honorable	-10.7367
▁muskets	-10.7368
▁appeal	-10.7368
▁crickets	-10.7368
▁City	-10.7368
▁ordained	-10.7369
▁sighed	-10.7369
▁bag	-10.7369
▁view	-10.737
▁Way	-10.737
▁bush	-10.7371
ttach	-10.7371
▁dart	-10.7371
owbeit	-10.7372
▁dear	-10.7372
▁Repe	-10.7374
▁maybe	-10.7374
▁earnestly	-10.7375
▁soup	-10.7375
▁platter	-10.7378
▁fle	-10.7381
▁fist	-10.7381
▁waved	-10.7382
▁persecuted	-10.7385
▁hinder	-10.7386
▁yelled	-10.7392
▁bug	-10.7392
▁endured	-10.7394
▁afflicted	-10.7394
▁mocked	-10.7395
▁smaller	-10.7399
▁peril	-10.7399
▁entreated	-10.74
▁pearls	-10.7404
▁music	-10.7408
▁Fer	-10.7411
▁quarter	-10.7411
▁limbs	-10.7416
▁interpreted	-10.742
ix	-10.7426
▁shade	-10.7429
▁rust	-10.743
▁soli	-10.7439
▁kindly	-10.7441
▁island	-10.7445
▁valu	-10.7447
uth	-10.7449
▁poke	-10.7451
▁leavened	-10.7453
▁arrows	-10.7453
ck	-10.7458
▁Doth	-10.7461
▁ra	-10.7463
▁breasts	-10.7466
▁flowers	-10.7468
▁bugs	-10.7469
▁minutes	-10.7478
▁bestow	-10.7489
▁feeding	-10.7495
▁Write	-10.7499
▁hu	-10.7503
▁kneel	-10.7509
▁Sometime	-10.7516
▁besides	-10.7527
▁wouldn	-10.7531
▁playing	-10.755
▁cloths	-10.7554
▁salutation	-10.7555
▁beating	-10.7558
▁hills	-10.7564
▁exalt	-10.757
▁weeks	-10.759
▁stoned	-10.7591
▁mess	-10.7599
up	-10.7606
ack	-10.7609
▁rained	-10.7616
tion	-10.7619
▁com	-10.7627
mah	-10.7628
▁fearful	-10.7638
▁youth	-10.7648
be	-10.7654
▁pe	-10.7679
▁forbear	-10.7679
▁Ma	-10.7695
▁ward	-10.7698
▁parables	-10.7702
▁coats	-10.7715
▁reasoning	-10.7735
▁tombs	-10.774
ni	-10.7785
fully	-10.7813
times	-10.782
▁news	-10.7867
▁lots	-10.7892
▁killing	-10.7918
▁Wom	-10.7936
▁god	-10.7944
ul	-10.8006
▁Mi	-10.801
▁w	-10.8013
ung	-10.8029
▁ended	-10.8033
godly	-10.8038
ash	-10.8052
▁Set	-10.8054
tuck	-10.8074
▁sc	-10.8075
▁makes	-10.808
ice	-10.815
dden	-10.8153
▁avenge	-10.8167
ally	-10.8185
ut	-10.8187
way	-10.8194
▁Al	-10.8213
▁hem	-10.8216
▁withstand	-10.8252
ries	-10.826
▁Ar	-10.826
ture	-10.8271
ade	-10.8274
ions	-10.8276
▁lands	-10.8287
ern	-10.8288
▁pie	-10.8298
▁inward	-10.831
▁Ho	-10.8332
L	-10.8339
▁rebuk	-10.8355
▁butter	-10.8368
dal	-10.8374
▁cove	-10.8395
▁po	-10.8406
▁mid	-10.8451
▁Abi	-10.8452
▁attend	-10.8457
gged	-10.8459
house	-10.8467
▁du	-10.8487
nother	-10.8492
▁judgments	-10.8494
▁tradition	-10.8495
▁looks	-10.8503
▁murderer	-10.8504
▁fail	-10.8505
▁trunk	-10.8506
ble	-10.8507
▁fugitive	-10.851
▁chariot	-10.851
aram	-10.8514
▁bras	-10.8514
▁arrow	-10.8516
▁Arables	-10.852
▁listen	-10.8522
▁weigh	-10.8537
board	-10.8541
▁fold	-10.8542
K	-10.8547
▁bone	-10.855
you	-10.8554
Fern	-10.8554
My	-10.8561
▁torment	-10.8566
▁bark	-10.8567
▁entreat	-10.8569
down	-10.8572
▁baptize	-10.858
rust	-10.8586
urn	-10.8587
▁provoke	-10.8589
doing	-10.859
▁tear	-10.8591
▁becoming	-10.8597
light	-10.8601
▁balloon	-10.8602
▁fade	-10.8604
▁murder	-10.8605
▁Maj	-10.8606
▁potato	-10.8609
aithful	-10.861
eathen	-10.8611
▁Scot	-10.8611
▁cost	-10.8611
▁desperate	-10.8611
▁Barabbas	-10.8611
▁Caiaphas	-10.8611
▁Cephas	-10.8611
▁Children	-10.8611
▁Cilicia	-10.8611
▁Naphtali	-10.8611
▁Rejoice	-10.8611
▁Return	-10.8611
▁Stretch	-10.8611
▁Zebulun	-10.8611
▁abundance	-10.8611
▁advantage	-10.8611
▁anguish	-10.8611
▁ascended	-10.8611
▁attempt	-10.8611
▁capital	-10.8611
▁cloak	-10.8611
▁courage	-10.8611
▁dancing	-10.8611
▁example	-10.8611
▁expedient	-10.8611
▁experience	-10.8611
▁grapes	-10.8611
▁labour	-10.8611
▁necessity	-10.8611
▁nourish	-10.8611
▁ouches	-10.8611
▁perdition	-10.8611
▁pledge	-10.8611
▁terribl	-10.8611
▁uncircumcised	-10.8611
▁woke	-10.8611
▁wolf	-10.8611
▁wolves	-10.8611
▁olive	-10.8611
▁renew	-10.8611
▁slaughter	-10.8611
▁stiff	-10.8611
▁storm	-10.8611
▁Bethlehem	-10.8611
▁almonds	-10.8611
▁mitre	-10.8611
▁Dinah	-10.8611
▁Think	-10.8611
▁abomination	-10.8611
▁Rome	-10.8611
▁punishment	-10.8611
▁redemption	-10.8611
▁blank	-10.8611
▁chance	-10.8611
▁yoke	-10.8611
▁dispute	-10.8612
▁provide	-10.8612
▁tunnel	-10.8612
▁Gerar	-10.8612
▁conversation	-10.8612
▁Great	-10.8612
▁wake	-10.8612
▁Adah	-10.8612
▁blameless	-10.8612
▁division	-10.8612
▁disgust	-10.8612
▁impossible	-10.8612
▁Tyre	-10.8612
▁admonish	-10.8612
▁blasphemy	-10.8612
▁zealous	-10.8612
▁townhouse	-10.8612
▁lump	-10.8612
▁Eber	-10.8612
▁covetousness	-10.8612
▁freedom	-10.8612
▁miserable	-10.8612
▁Jake	-10.8612
▁chest	-10.8613
▁signet	-10.8613
▁Mark	-10.8613
▁lame	-10.8613
▁sufficien	-10.8613
▁calm	-10.8614
▁profitable	-10.8614
▁partake	-10.8614
▁sorrowful	-10.8614
▁spies	-10.8615
▁privately	-10.8615
▁kindled	-10.8616
▁Lowan	-10.8616
▁clerk	-10.8616
▁easily	-10.8616
▁shift	-10.8616
▁fresh	-10.8616
▁scourge	-10.8616
▁dish	-10.8616
▁vast	-10.8616
▁weakness	-10.8617
▁cheek	-10.8618
▁track	-10.8619
▁range	-10.8619
▁uncleanness	-10.8619
▁Day	-10.8619
▁frost	-10.8619
▁firstfruits	-10.862
▁grabbed	-10.862
▁discover	-10.8622
▁hopeless	-10.8624
▁Watch	-10.8624
▁anyway	-10.8624
▁entirely	-10.8625
▁sheet	-10.8628
▁health	-10.8631
▁selves	-10.8633
▁descending	-10.8634
ab	-10.8636
▁farther	-10.8636
▁Soon	-10.8639
▁wit	-10.864
▁stripes	-10.864
▁clearly	-10.8642
▁wounded	-10.8644
▁disappeared	-10.8649
line	-10.8658
▁scared	-10.8659
▁ridges	-10.866
▁coals	-10.866
▁porch	-10.8661
▁climbing	-10.8665
▁corrupted	-10.8667
▁Only	-10.8667
▁openly	-10.8672
▁dressed	-10.8673
▁babes	-10.8674
▁diseases	-10.8674
▁pins	-10.8675
▁teacheth	-10.8677
▁higher	-10.8678
▁doors	-10.8679
▁proved	-10.8683
▁freely	-10.8687
▁wagons	-10.8688
▁transgressions	-10.8688
▁sowed	-10.8691
▁hours	-10.8696
▁watered	-10.8707
▁covet	-10.8716
om	-10.8721
▁seeme	-10.8727
▁noon	-10.8729
▁drops	-10.8731
▁toil	-10.8739
▁princes	-10.8745
▁ordinances	-10.8745
▁obeyed	-10.8755
▁judgest	-10.8764
ctually	-10.8769
▁growing	-10.8784
▁nets	-10.8793
▁sawest	-10.8799
▁shepherds	-10.8801
▁beholding	-10.8801
▁Seth	-10.8809
ites	-10.8814
▁acknowledge	-10.8837
▁perfected	-10.8874
▁Bo	-10.8883
more	-10.89
aved	-10.8908
mit	-10.8908
▁songs	-10.8915
▁holes	-10.8944
ings	-10.8958
▁Les	-10.8962
iel	-10.8973
▁isn	-10.8974
▁rods	-10.8983
na	-10.8983
▁pigs	-10.8985
▁towns	-10.9016
▁strike	-10.9022
▁shell	-10.9078
▁principal	-10.9131
▁driv	-10.9135
▁di	-10.9142
▁dra	-10.9199
▁Cas	-10.9225
▁uses	-10.9257
▁sisters	-10.9263
▁Mo	-10.9266
▁Ja	-10.927
▁lover	-10.9285
▁De	-10.9289
▁throw	-10.9305
▁cane	-10.9306
der	-10.9327
▁ho	-10.9332
▁base	-10.9367
thing	-10.9373
hip	-10.9374
lock	-10.9383
▁thereby	-10.9393
uch	-10.94
▁saidst	-10.9402
▁tea	-10.9418
▁settl	-10.9437
▁camest	-10.9469
hi	-10.9471
ipped	-10.949
▁liken	-10.9518
ush	-10.9535
▁tr	-10.9556
right	-10.9567
▁admir	-10.957
▁Whe	-10.9575
▁bus	-10.9622
▁Wi	-10.9639
ping	-10.9642
ating	-10.967
mer	-10.9681
▁fan	-10.9718
ded	-10.9722
▁distress	-10.9741
▁Will	-10.9753
▁pre	-10.9764
▁hearted	-10.9794
▁Sa	-10.9799
▁twist	-10.9831
ship	-10.9844
long	-10.9848
▁Er	-10.988
▁Sha	-10.9886
gg	-10.9888
W	-10.9913
▁tale	-10.9925
▁nail	-10.9925
▁blade	-10.9929
▁liar	-10.9929
▁dollar	-10.9935
▁scar	-10.9936
▁talent	-10.994
▁idol	-10.994
▁chain	-10.994
▁farmer	-10.9941
▁clothe	-10.9944
▁hunter	-10.9946
▁mock	-10.9956
▁officer	-10.9964
H	-10.997
▁envy	-10.9976
stool	-10.998
some	-10.9981
Just	-10.9982
deep	-10.9982
Where	-10.9983
ff	-10.9983
same	-10.9983
but	-10.9983
Go	-10.9986
So	-10.9987
▁harp	-10.9987
▁suppos	-10.9988
▁afflict	-10.9995
▁disappear	-10.9996
▁favour	-10.9997
▁hatch	-11.0006
▁ti	-11.0006
ations	-11.0011
▁persecute	-11.0014
▁harden	-11.0025
▁silent	-11.0027
▁quick	-11.0028
▁adulter	-11.0031
▁careful	-11.0032
skins	-11.0033
pon	-11.0038
▁engrav	-11.0038
▁forsake	-11.0039
▁birth	-11.0039
▁speed	-11.0039
stitute	-11.0039
▁Galil	-11.004
▁affection	-11.004
▁accompan	-11.004
▁Achaia	-11.004
▁Aholibamah	-11.004
▁Arphaxad	-11.004
▁Beelzebub	-11.004
▁Cornelius	-11.004
▁Creek	-11.004
▁Cyprus	-11.004
▁Eliphaz	-11.004
▁Elisabeth	-11.004
▁Felix	-11.004
▁Fussy	-11.004
▁Galatia	-11.004
▁Grounds	-11.004
▁Hezron	-11.004
▁Korah	-11.004
▁Lieutenant	-11.004
▁Melchizedek	-11.004
▁Milcah	-11.004
▁Olives	-11.004
▁Zilpah	-11.004
▁Zoar	-11.004
▁acres	-11.004
▁adversaries	-11.004
▁aloud	-11.004
▁cotton	-11.004
▁enormous	-11.004
▁furniture	-11.004
▁grandchildren	-11.004
▁grandmother	-11.004
▁infirmity	-11.004
▁leather	-11.004
▁mediator	-11.004
▁medicine	-11.004
▁midwives	-11.004
▁mischief	-11.004
▁obedient	-11.004
▁opportunity	-11.004
▁outdoors	-11.004
▁pertain	-11.004
▁recognize	-11.004
▁refuge	-11.004
▁ringstraked	-11.004
▁rotten	-11.004
▁runners	-11.004
▁television	-11.004
▁tobacco	-11.004
▁wool	-11.004
▁gnash	-11.004
▁shoot	-11.004
▁steep	-11.004
▁tumult	-11.004
▁Cyren	-11.004
▁carnal	-11.004
▁clever	-11.004
▁rattling	-11.004
▁occupied	-11.004
▁center	-11.004
▁adversary	-11.004
▁myrrh	-11.004
▁soap	-11.004
▁consecrate	-11.004
▁honour	-11.004
▁regular	-11.004
▁sewing	-11.004
▁stockade	-11.004
▁beckon	-11.004
▁reins	-11.004
▁sinneth	-11.004
▁Enos	-11.004
▁adorn	-11.004
▁birthright	-11.004
▁holiness	-11.004
▁president	-11.004
▁strove	-11.004
▁brave	-11.004
▁chew	-11.004
▁frame	-11.004
▁offspring	-11.004
▁Hades	-11.004
▁picture	-11.004
▁mercies	-11.004
▁train	-11.004
▁message	-11.004
▁package	-11.004
▁split	-11.0041
▁check	-11.0041
▁stedfast	-11.0041
▁flight	-11.0041
▁litter	-11.0041
▁grate	-11.0041
▁comment	-11.0041
▁frozen	-11.0041
▁Am	-11.0042
▁Bash	-11.0042
▁peel	-11.0042
▁attack	-11.0042
▁imagination	-11.0042
▁spilled	-11.0042
▁rejecteth	-11.0043
▁Asher	-11.0043
▁hundredfold	-11.0043
▁perplexed	-11.0044
▁useful	-11.0044
▁swarm	-11.0044
▁gallon	-11.0044
▁southward	-11.0044
▁eastward	-11.0044
▁evermore	-11.0044
▁Hand	-11.0044
▁Cainan	-11.0044
▁err	-11.0045
▁sense	-11.0045
▁study	-11.0045
▁onyx	-11.0045
zale	-11.0046
▁spear	-11.0046
▁fourscore	-11.0047
▁badge	-11.0047
▁gladness	-11.0047
▁comb	-11.0048
▁menservants	-11.0049
▁eighth	-11.0051
▁pursued	-11.0052
▁sickle	-11.0053
▁recent	-11.0053
▁shineth	-11.0055
▁ham	-11.0056
▁managed	-11.0056
▁thirsty	-11.0057
▁refreshed	-11.0057
▁deceived	-11.0057
▁passage	-11.006
▁fro	-11.006
▁soweth	-11.006
▁dec	-11.0063
▁pair	-11.0064
▁Hast	-11.0064
▁baker	-11.0064
▁tithes	-11.0065
▁strengthened	-11.0065
▁march	-11.0066
▁Gad	-11.0066
▁manna	-11.007
▁loaded	-11.0071
▁position	-11.0073
▁backward	-11.0073
▁Nothing	-11.0075
▁restored	-11.0076
▁instruction	-11.0077
▁earrings	-11.0081
▁realize	-11.0082
▁convict	-11.0086
▁observed	-11.0087
▁gladly	-11.0087
▁tasted	-11.0092
▁lace	-11.0093
ign	-11.0106
▁lend	-11.0113
▁Amorites	-11.0113
▁answereth	-11.0122
▁Other	-11.0126
▁wondering	-11.0126
rough	-11.0129
▁plans	-11.0132
▁hanged	-11.0132
▁sealed	-11.0134
tial	-11.0135
▁incorruptible	-11.0137
▁beware	-11.0137
▁weary	-11.014
▁therewith	-11.0145
▁dollars	-11.0146
▁redeemed	-11.0152
▁K	-11.0157
▁trunks	-11.0162
▁wa	-11.0164
▁fainted	-11.0164
▁flying	-11.0169
▁learning	-11.0169
▁upward	-11.0172
▁tempt	-11.0183
▁books	-11.0192
▁plants	-11.0194
▁doves	-11.0205
▁steps	-11.0206
▁Hai	-11.0213
ide	-11.0227
▁shadows	-11.0229
▁herbs	-11.024
▁im	-11.0242
▁castle	-11.0248
▁spot	-11.0266
▁girls	-11.0278
▁suffering	-11.0282
stroke	-11.0285
▁meant	-11.0288
▁chase	-11.0294
▁posts	-11.0311
▁reed	-11.0332
▁possessions	-11.0345
▁imagine	-11.0373
▁Pi	-11.0373
▁candlesticks	-11.0378
▁bother	-11.0381
▁sixt	-11.0382
▁roots	-11.0393
▁temper	-11.0416
ro	-11.0425
▁helped	-11.043
▁lovely	-11.0437
▁helping	-11.0462
▁examine	-11.0478
tic	-11.0483
et	-11.049
▁pitch	-11.0494
▁captains	-11.0495
▁seats	-11.0524
▁Roman	-11.0534
▁keeper	-11.0555
tal	-11.0579
▁blot	-11.0609
aph	-11.0611
▁worm	-11.0611
▁takes	-11.0618
ha	-11.0626
ten	-11.0635
▁El	-11.0636
ise	-11.0658
▁pi	-11.0684
liness	-11.0691
lk	-11.0732
▁sounds	-11.0736
▁wars	-11.0736
go	-11.0751
▁sub	-11.0772
ious	-11.0774
▁pai	-11.0776
▁cor	-11.0778
▁courts	-11.0785
ified	-11.0787
▁boats	-11.0803
▁Z	-11.081
▁Jo	-11.0826
▁dogs	-11.0855
she	-11.0864
unt	-11.0913
▁Ad	-11.0923
▁comest	-11.0958
▁tents	-11.096
pers	-11.0965
▁herd	-11.098
▁helps	-11.0988
▁cha	-11.1006
pe	-11.1033
▁prov	-11.1054
▁win	-11.1073
▁simpl	-11.1106
ears	-11.1125
pping	-11.114
▁k	-11.1151
bal	-11.1181
▁Ou	-11.1221
▁l	-11.1252
longeth	-11.1252
▁yell	-11.1273
ove	-11.1288
ane	-11.1296
▁member	-11.1298
own	-11.1306
do	-11.1306
don	-11.1386
▁befall	-11.1393
▁Ti	-11.1433
▁plan	-11.1436
ction	-11.1459
ature	-11.1487
servant	-11.1509
ough	-11.1511
▁Di	-11.1516
M	-11.1533
▁whoso	-11.1537
▁scrap	-11.155
▁cur	-11.1564
fold	-11.1576
ster	-11.1584
▁sepulchre	-11.159
ows	-11.1591
▁scatter	-11.1595
▁statute	-11.1595
▁provision	-11.1595
▁brick	-11.1596
▁persecution	-11.1596
▁fin	-11.1596
▁messenger	-11.1598
▁squirrel	-11.16
▁maidservant	-11.1601
▁wagon	-11.1603
▁transgression	-11.1603
▁boil	-11.1607
▁hog	-11.1607
▁Canaanite	-11.1613
▁publican	-11.1614
▁wound	-11.1616
▁pound	-11.1628
N	-11.1634
ast	-11.1636
Please	-11.1638
ists	-11.164
work	-11.1644
▁stir	-11.1645
▁receiv	-11.1645
chamber	-11.1647
Come	-11.1649
Templeton	-11.1649
Some	-11.1649
When	-11.1649
front	-11.1651
▁includ	-11.1653
She	-11.1653
▁gnaw	-11.1654
▁attain	-11.1658
▁imitat	-11.1659
▁confirm	-11.1659
▁oppress	-11.166
lace	-11.1666
▁Bar	-11.1667
▁eviden	-11.1669
icken	-11.167
▁reveal	-11.1671
All	-11.1676
▁deceive	-11.1679
▁peri	-11.168
ile	-11.1684
▁gird	-11.1686
▁require	-11.1687
▁inquire	-11.1687
▁assured	-11.1692
▁remove	-11.1692
▁confident	-11.1693
▁fierce	-11.1694
▁difficult	-11.1696
▁glorious	-11.1697
bor	-11.1698
uffer	-11.17
R	-11.1701
▁forgot	-11.1702
▁Syria	-11.1703
▁gentle	-11.1704
▁candle	-11.1704
▁purse	-11.1704
▁sect	-11.1705
▁correct	-11.1705
urthermore	-11.1705
▁flour	-11.1706
▁Alexander	-11.1706
▁Aquila	-11.1706
▁Believe	-11.1706
▁Eleazar	-11.1706
▁Hebron	-11.1706
▁Iconium	-11.1706
▁Issachar	-11.1706
▁Jericho	-11.1706
▁KING	-11.1706
▁Laodicea	-11.1706
▁Lystra	-11.1706
▁Machpelah	-11.1706
▁Mahalaleel	-11.1706
▁Methuselah	-11.1706
▁Nazarene	-11.1706
▁Peleg	-11.1706
▁Saturday	-11.1706
▁Tamar	-11.1706
▁Troas	-11.1706
▁Zibeon	-11.1706
▁accident	-11.1706
▁audience	-11.1706
▁autumn	-11.1706
▁baptizing	-11.1706
▁blemish	-11.1706
▁bracelets	-11.1706
▁cabbage	-11.1706
▁carpenter	-11.1706
▁ceiling	-11.1706
▁cleave	-11.1706
▁desolation	-11.1706
▁effect	-11.1706
▁eldest	-11.1706
▁enmity	-11.1706
▁ensample	-11.1706
▁execute	-11.1706
▁fame	-11.1706
▁foreordained	-11.1706
▁foreskin	-11.1706
▁hurry	-11.1706
▁ignorance	-11.1706
▁jasper	-11.1706
▁machine	-11.1706
▁majesty	-11.1706
▁merchandise	-11.1706
▁muscle	-11.1706
▁newspaper	-11.1706
▁opinion	-11.1706
▁overshadow	-11.1706
▁plenteous	-11.1706
▁poison	-11.1706
▁polish	-11.1706
▁rejoicing	-11.1706
▁relief	-11.1706
▁reprobate	-11.1706
▁reserved	-11.1706
▁savor	-11.1706
▁serious	-11.1706
▁serving	-11.1706
▁shotgun	-11.1706
▁stink	-11.1706
▁student	-11.1706
▁swollen	-11.1706
▁taskmasters	-11.1706
▁tetrarch	-11.1706
▁thieves	-11.1706
▁treasury	-11.1706
▁unprofitable	-11.1706
▁Army	-11.1707
▁convert	-11.1707
▁deaf	-11.1707
▁extra	-11.1707
▁leftover	-11.1707
▁paused	-11.1707
▁pepper	-11.1707
▁queer	-11.1707
▁represent	-11.1707
▁roar	-11.1707
▁shield	-11.1707
▁worried	-11.1707
▁Alph	-11.1707
▁Word	-11.1707
▁scorch	-11.1707
▁spell	-11.1707
▁Eden	-11.1707
▁existence	-11.1707
torium	-11.1707
▁difference	-11.1707
▁doughnut	-11.1707
▁oven	-11.1707
▁excellenc	-11.1707
▁grind	-11.1707
▁success	-11.1707
▁breeze	-11.1707
▁estate	-11.1707
▁magnified	-11.1707
▁foursquare	-11.1707
▁needlework	-11.1707
▁Jesse	-11.1707
▁limit	-11.1707
▁overtake	-11.1707
▁triumph	-11.1707
▁electric	-11.1707
▁digging	-11.1707
▁studie	-11.1707
▁tenons	-11.1707
▁displease	-11.1707
▁hammer	-11.1707
▁unfruitful	-11.1707
▁aforetime	-11.1707
▁job	-11.1707
▁vinegar	-11.1707
▁Government	-11.1707
▁quail	-11.1707
▁situation	-11.1707
▁abst	-11.1707
▁folk	-11.1707
▁Salah	-11.1707
▁Reu	-11.1707
▁capture	-11.1707
▁squatted	-11.1707
▁encamp	-11.1707
▁government	-11.1707
▁crook	-11.1707
▁herdmen	-11.1707
▁readiness	-11.1707
▁Rise	-11.1707
▁scales	-11.1707
▁Jared	-11.1707
▁Reuel	-11.1707
▁hypocrisy	-11.1707
▁blackberries	-11.1707
▁omer	-11.1708
▁mote	-11.1708
▁barnyard	-11.1708
▁dig	-11.1708
▁proof	-11.1709
▁Moon	-11.1709
▁depth	-11.1709
▁raw	-11.1709
▁lice	-11.1709
lapped	-11.1709
▁pole	-11.1709
▁Rain	-11.1709
▁argument	-11.1709
▁Him	-11.171
▁liver	-11.171
▁Syrian	-11.171
▁tower	-11.171
▁Old	-11.171
▁mass	-11.1711
▁Shelah	-11.1711
▁punished	-11.1711
▁squash	-11.1711
▁Hur	-11.1711
▁tossed	-11.1711
▁saving	-11.1711
▁recover	-11.1712
▁Chief	-11.1713
▁downhill	-11.1713
▁Without	-11.1713
▁spotted	-11.1714
▁thrash	-11.1714
▁trimm	-11.1714
▁rank	-11.1714
▁laden	-11.1715
▁melt	-11.1715
▁dishes	-11.1716
▁prophesied	-11.1716
▁purchased	-11.1716
▁lonely	-11.1716
stone	-11.1717
▁conditions	-11.1717
▁whiskers	-11.1717
▁pine	-11.1718
▁vexed	-11.1719
▁explained	-11.1719
▁repeated	-11.1719
▁sniffed	-11.1719
▁justice	-11.1719
ext	-11.1719
▁blaspheme	-11.1719
▁dy	-11.1719
▁nurse	-11.1719
▁surety	-11.1719
▁edifying	-11.172
▁prof	-11.1721
▁uncle	-11.1722
▁moth	-11.1722
▁sum	-11.1723
▁reproved	-11.1724
▁sickness	-11.1725
▁sinful	-11.1725
▁dad	-11.1726
▁sway	-11.1728
▁circle	-11.1728
▁shovel	-11.1729
▁glasses	-11.1729
▁pan	-11.173
▁damp	-11.1731
▁couch	-11.1731
▁Con	-11.1732
▁inquired	-11.1732
ael	-11.1735
▁instructed	-11.1735
workers	-11.1736
muel	-11.1736
▁entr	-11.1737
▁nodded	-11.1738
▁softly	-11.1741
▁groaning	-11.1741
▁fixed	-11.1743
▁wink	-11.1743
▁collected	-11.1743
▁evident	-11.1744
▁setting	-11.1745
▁plainly	-11.1745
▁riding	-11.1746
▁melted	-11.1752
▁somebody	-11.1753
how	-11.1753
▁exten	-11.1753
▁released	-11.1758
▁despised	-11.1758
gging	-11.1763
▁tonight	-11.1764
▁distressed	-11.1766
▁deck	-11.1767
▁pervert	-11.1768
▁throwing	-11.1769
▁mocking	-11.177
▁spinn	-11.177
▁barking	-11.1773
▁distan	-11.1773
▁murmurings	-11.1775
▁forbidd	-11.1778
▁searching	-11.1781
▁testifying	-11.1781
▁spi	-11.1784
▁wrestle	-11.1784
▁cursed	-11.1785
▁openeth	-11.1788
▁marvell	-11.1792
▁sojourned	-11.1792
▁marketplaces	-11.1794
▁Samaritans	-11.1794
▁housetop	-11.1795
▁questionings	-11.1795
▁railing	-11.1798
▁accepted	-11.18
▁belt	-11.1804
▁hairy	-11.181
▁pounds	-11.1814
▁hogs	-11.1814
▁squirrels	-11.1814
▁maidservants	-11.1814
▁begged	-11.1816
▁intent	-11.1818
robably	-11.182
▁interesting	-11.1832
▁exhorted	-11.1833
▁uttered	-11.1849
ton	-11.1851
▁cooking	-11.1852
▁beach	-11.1855
▁Cret	-11.1855
▁coves	-11.1856
uck	-11.1859
▁labored	-11.1859
▁speakest	-11.1859
side	-11.1861
tor	-11.1863
rk	-11.1865
▁paths	-11.1873
▁virgins	-11.1873
▁waves	-11.1873
▁entertain	-11.1875
▁Good	-11.1877
▁ju	-11.1878
▁clearing	-11.1879
▁webs	-11.1885
▁burying	-11.1888
▁knops	-11.1893
▁pri	-11.1894
▁shapes	-11.1896
▁breathing	-11.1902
▁mist	-11.1906
Not	-11.1911
uffle	-11.1913
▁appearing	-11.1915
▁bent	-11.1917
▁Eli	-11.1923
ible	-11.1928
▁bands	-11.1932
da	-11.1936
▁drinketh	-11.1942
▁ahead	-11.1943
▁tabernacles	-11.1947
▁pots	-11.1968
▁supplications	-11.1972
▁papers	-11.1972
▁occasions	-11.1979
no	-11.1982
▁cutt	-11.1988
▁bas	-11.2013
▁serpents	-11.2032
▁tu	-11.2044
his	-11.2045
ick	-11.2048
▁peach	-11.206
cu	-11.2069
ced	-11.2071
▁afterwards	-11.2072
▁windows	-11.2073
▁En	-11.208
▁choke	-11.2118
▁fasting	-11.2119
▁Sin	-11.2129
▁Ne	-11.2133
▁dreaming	-11.2143
▁sharpen	-11.2145
dom	-11.2151
▁smelling	-11.2157
▁sa	-11.2169
▁hoe	-11.2177
▁process	-11.2178
io	-11.2185
▁wheels	-11.2192
▁hurts	-11.2195
▁seest	-11.2206
ith	-11.2209
br	-11.2211
▁creeks	-11.2213
▁char	-11.2225
▁n	-11.224
▁constrain	-11.2249
cept	-11.2253
ech	-11.2272
▁hundreds	-11.2294
▁Friend	-11.2296
▁doll	-11.2297
▁fi	-11.23
▁teaches	-11.232
king	-11.2331
▁lid	-11.2342
▁Le	-11.2365
▁Na	-11.2384
pped	-11.2385
▁orders	-11.2395
wood	-11.2403
▁tangle	-11.2419
trusted	-11.2431
by	-11.2443
lushed	-11.2445
row	-11.2445
▁laws	-11.2469
are	-11.248
▁owe	-11.2506
ump	-11.2542
▁mar	-11.2556
nce	-11.2568
▁wasp	-11.2571
▁signifie	-11.2572
pensation	-11.2572
bel	-11.2674
▁Yes	-11.2685
▁dippe	-11.2724
ran	-11.2774
treated	-11.281
▁welcome	-11.281
▁Wo	-11.2821
ias	-11.2827
ale	-11.2843
bed	-11.2844
▁ours	-11.2894
ian	-11.2897
os	-11.2898
pic	-11.2902
▁hairs	-11.2903
▁treasures	-11.2921
▁ease	-11.2931
▁mere	-11.2941
▁mol	-11.2948
▁mis	-11.2965
hin	-11.2984
ep	-11.3024
set	-11.3043
phe	-11.3062
▁cla	-11.3063
Is	-11.307
▁examin	-11.3107
▁fain	-11.3112
▁shave	-11.3152
cession	-11.316
▁lords	-11.3171
▁camel	-11.3175
▁Sh	-11.3195
ak	-11.3205
por	-11.3238
▁imagin	-11.3242
▁heave	-11.3264
dull	-11.3276
▁trans	-11.3312
nas	-11.3319
▁min	-11.333
▁sayings	-11.3334
tained	-11.3351
pots	-11.3359
▁va	-11.3368
▁Sheba	-11.3374
▁flu	-11.3415
test	-11.3491
▁Mu	-11.3496
ching	-11.3501
like	-11.3508
▁longing	-11.3523
▁sprinkle	-11.3537
▁pant	-11.3555
hold	-11.3569
ber	-11.3569
▁dim	-11.3575
held	-11.3579
ccord	-11.3584
▁rid	-11.3587
▁load	-11.3598
▁eunuch	-11.3598
▁plate	-11.3598
▁shilling	-11.3598
▁chestnut	-11.3598
▁Samaritan	-11.36
▁marketplace	-11.36
▁Amorite	-11.3602
▁disease	-11.3603
▁babe	-11.3603
▁limb	-11.3603
worker	-11.3606
▁hook	-11.3607
▁bat	-11.3609
corruptible	-11.3624
rim	-11.3632
▁Se	-11.3635
▁push	-11.3637
wear	-11.3638
▁knock	-11.3643
Will	-11.3647
▁rattle	-11.3648
bow	-11.3648
color	-11.3648
▁using	-11.3649
Wilbur	-11.3649
midst	-11.3651
▁charg	-11.3655
▁handful	-11.3655
▁borrow	-11.3658
▁hind	-11.366
▁collect	-11.366
spect	-11.3661
▁accomplish	-11.3664
▁fix	-11.3664
▁prevail	-11.3664
Of	-11.3665
back	-11.3665
▁pin	-11.3665
yard	-11.3678
fe	-11.3681
▁reprove	-11.3686
Bee	-11.3687
▁decide	-11.3687
▁conceive	-11.3687
▁circumcise	-11.3688
▁lunch	-11.3691
▁fervent	-11.3693
ursed	-11.3694
▁brief	-11.3694
▁shout	-11.3694
▁deceitful	-11.3695
uddenly	-11.3697
▁rend	-11.3699
▁warn	-11.37
hood	-11.3701
▁overthrow	-11.3703
▁lone	-11.3703
▁magic	-11.3705
▁zeal	-11.3705
▁deceit	-11.3705
▁cruel	-11.3706
▁Corinth	-11.3706
▁cherub	-11.3706
▁instru	-11.3706
Humble	-11.3706
▁lascivious	-11.3706
▁Aholi	-11.3706
▁Bethsaida	-11.3706
▁Boudinot	-11.3706
▁Chedorlaomer	-11.3706
▁Deliver	-11.3706
▁Like	-11.3706
▁Nadab	-11.3706
▁Pamphylia	-11.3706
▁Philippi	-11.3706
▁Tarsus	-11.3706
▁Texas	-11.3706
▁Thomas	-11.3706
▁Tychicus	-11.3706
▁YHWH	-11.3706
▁accurately	-11.3706
▁affrighted	-11.3706
▁amazement	-11.3706
▁anathema	-11.3706
▁attitude	-11.3706
▁avoid	-11.3706
▁awhile	-11.3706
▁beguile	-11.3706
▁benefit	-11.3706
▁betrothed	-11.3706
▁bishop	-11.3706
▁bleeding	-11.3706
▁bridle	-11.3706
▁carriage	-11.3706
▁consecration	-11.3706
▁cornmeal	-11.3706
▁cream	-11.3706
▁crime	-11.3706
▁crisp	-11.3706
▁decision	-11.3706
▁dissolved	-11.3706
▁exhausted	-11.3706
▁flavor	-11.3706
▁frightened	-11.3706
▁furlongs	-11.3706
▁grandfather	-11.3706
▁grandstand	-11.3706
▁grief	-11.3706
▁grinned	-11.3706
▁guest	-11.3706
▁heavily	-11.3706
▁heretofore	-11.3706
▁infirmities	-11.3706
▁insurrection	-11.3706
▁kinsmen	-11.3706
▁magazine	-11.3706
▁mandrakes	-11.3706
▁muttered	-11.3706
▁nutrients	-11.3706
▁organisms	-11.3706
▁otherwise	-11.3706
▁patriarch	-11.3706
▁perfume	-11.3706
▁possum	-11.3706
▁powder	-11.3706
▁progress	-11.3706
▁pumpkin	-11.3706
▁racket	-11.3706
▁regret	-11.3706
▁religion	-11.3706
▁scorpion	-11.3706
▁spinnerets	-11.3706
▁strict	-11.3706
▁stunned	-11.3706
▁swift	-11.3706
▁task	-11.3706
▁terrified	-11.3706
▁thoroughly	-11.3706
▁thumb	-11.3706
▁ungodliness	-11.3706
▁upstairs	-11.3706
▁vanity	-11.3706
▁vengeance	-11.3706
▁whisky	-11.3706
closing	-11.3707
▁Heaven	-11.3707
▁Serug	-11.3707
▁Would	-11.3707
▁burst	-11.3707
▁excess	-11.3707
▁indoors	-11.3707
▁phone	-11.3707
▁secur	-11.3707
▁slumber	-11.3707
▁Nathanael	-11.3707
▁abolish	-11.3707
▁cheese	-11.3707
▁delay	-11.3707
▁neglect	-11.3707
▁orchard	-11.3707
▁swelling	-11.3707
▁Hosanna	-11.3707
▁rumor	-11.3707
▁sneak	-11.3707
milit	-11.3707
▁adulteress	-11.3707
▁gravity	-11.3707
▁Diana	-11.3707
▁alien	-11.3707
▁result	-11.3707
▁freeze	-11.3707
▁crumbs	-11.3707
▁paddle	-11.3707
Sleep	-11.3707
▁continuing	-11.3707
▁fables	-11.3707
▁graft	-11.3707
▁muddy	-11.3707
▁citizenship	-11.3707
▁snapp	-11.3707
▁bowels	-11.3707
▁Count	-11.3707
▁Deep	-11.3707
▁Gaius	-11.3707
▁Zerah	-11.3707
▁apron	-11.3707
▁Jason	-11.3707
▁bald	-11.3707
▁adj	-11.3707
▁snout	-11.3707
▁Little	-11.3707
▁foggy	-11.3707
▁socks	-11.3707
▁straitened	-11.3707
▁odor	-11.3707
diment	-11.3707
▁Depart	-11.3707
▁support	-11.3707
▁tag	-11.3707
▁Walk	-11.3707
▁babies	-11.3707
▁consolation	-11.3707
▁riverboat	-11.3707
▁envie	-11.3707
▁seventeen	-11.3707
▁urgent	-11.3707
▁missed	-11.3707
▁stewardship	-11.3707
tual	-11.3707
▁uncertain	-11.3707
▁hospitality	-11.3707
▁sincerity	-11.3707
▁brook	-11.3707
▁partner	-11.3707
▁confusion	-11.3707
▁Tru	-11.3707
▁gentlemen	-11.3707
▁property	-11.3707
▁announcement	-11.3707
▁candy	-11.3707
neck	-11.3707
▁provender	-11.3707
▁wallet	-11.3708
▁assign	-11.3708
▁Herodias	-11.3708
▁victory	-11.3708
▁buck	-11.3708
▁hys	-11.3708
▁sweep	-11.3708
▁landscape	-11.3708
▁liquor	-11.3708
▁wot	-11.3708
▁accusation	-11.3708
▁ladder	-11.3708
▁duty	-11.3708
▁stem	-11.3708
▁shore	-11.3708
▁shamefully	-11.3708
▁ewe	-11.3708
▁starv	-11.3708
ville	-11.3708
▁distinction	-11.3708
▁shortened	-11.3708
▁utterance	-11.3709
▁Kno	-11.3709
▁expectation	-11.3709
▁behave	-11.3709
▁main	-11.3709
▁motionless	-11.3709
▁Sam	-11.3709
▁appearance	-11.371
▁square	-11.371
▁offence	-11.371
▁westward	-11.371
▁dung	-11.371
▁stage	-11.371
▁assay	-11.371
▁dizzy	-11.371
▁filthy	-11.371
▁memory	-11.371
▁July	-11.371
▁glanc	-11.371
▁firm	-11.371
▁carton	-11.371
▁friendship	-11.3711
▁crew	-11.3711
▁bill	-11.3711
▁election	-11.3712
▁bull	-11.3712
▁potter	-11.3712
▁booth	-11.3712
▁ladies	-11.3713
agement	-11.3713
▁Save	-11.3714
▁barrel	-11.3714
▁Jonah	-11.3714
▁Keep	-11.3714
▁grease	-11.3716
▁priesthood	-11.3717
tent	-11.3717
▁boast	-11.3717
▁ob	-11.3718
▁relieved	-11.3718
▁Over	-11.3719
▁Onan	-11.372
▁ribs	-11.372
▁chuckled	-11.3722
▁graven	-11.3722
▁comfortable	-11.3723
▁trembled	-11.3723
▁gainsaying	-11.3723
▁slight	-11.3725
▁Fir	-11.3727
▁ca	-11.3727
▁float	-11.3728
▁waste	-11.3728
▁Summ	-11.3729
▁faction	-11.3729
▁pretend	-11.3731
▁horn	-11.3731
pro	-11.3733
▁Fall	-11.3734
▁chastening	-11.3734
▁noble	-11.3737
▁whispering	-11.3738
▁mor	-11.3738
▁blasphemed	-11.3739
▁upside	-11.374
▁stern	-11.3741
▁tares	-11.3743
▁idolaters	-11.3743
▁warriors	-11.3743
▁Late	-11.3747
▁mule	-11.3748
▁laborers	-11.375
▁May	-11.375
▁claws	-11.3751
▁severally	-11.3752
▁closer	-11.3753
▁however	-11.3753
▁perform	-11.3753
▁weave	-11.3754
▁urge	-11.3755
▁assembled	-11.3755
▁humbled	-11.3756
▁grievously	-11.3757
▁Anna	-11.3758
▁forthwith	-11.3758
servants	-11.3759
▁girded	-11.3762
▁imitate	-11.3765
▁Does	-11.3765
▁Jebusites	-11.3767
▁fornicators	-11.3767
▁shelters	-11.3767
▁Perizzites	-11.3767
▁flatter	-11.3769
▁cured	-11.3769
▁ax	-11.377
▁scattering	-11.3775
▁thereunto	-11.3775
▁stack	-11.3776
▁sir	-11.3777
▁seethe	-11.378
▁Gr	-11.3781
▁hatched	-11.3781
▁passions	-11.3782
▁tormented	-11.3782
▁perisheth	-11.3783
▁peas	-11.3784
▁failing	-11.3789
▁highway	-11.379
▁droppings	-11.3792
▁sparrows	-11.3792
▁joints	-11.3792
▁delighted	-11.3792
▁mourned	-11.3793
▁fatherless	-11.3793
arley	-11.3795
▁bite	-11.3798
Thank	-11.3798
▁killers	-11.38
▁sen	-11.3803
▁thinkest	-11.3809
▁treated	-11.3811
▁veiled	-11.3813
▁raced	-11.3813
▁closely	-11.3813
▁questioning	-11.3815
▁plates	-11.3816
▁chestnuts	-11.3816
▁eunuchs	-11.3816
▁shillings	-11.3816
ema	-11.3818
▁invisible	-11.3819
▁frie	-11.3823
▁messengers	-11.384
▁personal	-11.3842
▁sleepy	-11.3843
▁inhabited	-11.3843
T	-11.3845
som	-11.3846
▁considered	-11.385
▁stopp	-11.3851
ai	-11.3858
▁serveth	-11.386
▁needeth	-11.3861
▁prophesying	-11.3861
▁firstling	-11.3861
▁singing	-11.3862
▁greas	-11.387
▁Bu	-11.3871
▁ga	-11.3871
II	-11.3873
▁driver	-11.3874
▁exhorting	-11.3878
▁Whom	-11.3886
▁manif	-11.3889
vile	-11.389
▁wont	-11.3892
▁proceeded	-11.3893
▁smoked	-11.3904
▁filling	-11.3906
iest	-11.3913
▁efforts	-11.3914
▁fashioned	-11.3914
▁believest	-11.3919
ave	-11.3927
▁nests	-11.3938
▁older	-11.3942
▁hatchets	-11.3963
ross	-11.3963
▁sink	-11.3968
ged	-11.3975
son	-11.3982
▁heirs	-11.3988
cut	-11.4
alam	-11.4002
▁paint	-11.4002
ards	-11.4003
▁seals	-11.4017
ener	-11.4024
▁divine	-11.4025
bah	-11.4055
▁awful	-11.4057
▁penn	-11.4061
▁tooth	-11.4061
▁dodg	-11.4065
ntil	-11.4066
▁mouths	-11.4103
▁fowls	-11.4112
▁miracles	-11.4112
▁males	-11.4112
▁remind	-11.4135
▁Ari	-11.4141
▁distribute	-11.415
revious	-11.4157
▁colors	-11.4162
▁helper	-11.4162
▁covers	-11.4166
▁questions	-11.419
▁forever	-11.4209
▁pleasures	-11.4238
▁charges	-11.4241
▁bu	-11.4254
sop	-11.4292
▁visiting	-11.4304
▁tails	-11.4314
▁player	-11.4316
▁ash	-11.4329
▁scorn	-11.4333
▁accuser	-11.4337
▁pace	-11.4342
▁cart	-11.436
iness	-11.4368
▁Co	-11.4369
▁images	-11.4391
iv	-11.4417
▁pop	-11.4417
aking	-11.4499
rushed	-11.4504
eak	-11.4526
▁peaceful	-11.4536
▁Was	-11.4546
gy	-11.4579
lves	-11.459
ify	-11.4604
▁intreat	-11.4613
▁Zi	-11.4631
▁heel	-11.4634
▁Lea	-11.4636
▁settle	-11.4673
▁points	-11.4691
uff	-11.4734
▁dip	-11.4745
▁services	-11.4756
▁decompose	-11.476
▁commune	-11.4782
mong	-11.4825
▁empt	-11.4829
▁ja	-11.4839
▁tip	-11.4847
shed	-11.4847
nath	-11.4851
sh	-11.4878
dge	-11.488
▁decompos	-11.4918
▁Ten	-11.4932
▁Cana	-11.4935
▁gra	-11.4959
▁bees	-11.4975
▁crack	-11.5027
▁runt	-11.5033
▁prais	-11.5101
▁rac	-11.5109
▁layer	-11.5129
angled	-11.5183
▁bar	-11.5186
eel	-11.5193
bi	-11.5205
▁lee	-11.5208
▁val	-11.5214
ode	-11.5225
bout	-11.5232
our	-11.5265
▁sta	-11.5321
ban	-11.5325
▁tool	-11.5327
▁Gree	-11.5329
erah	-11.5354
▁lur	-11.5366
ined	-11.5392
▁qua	-11.5399
rous	-11.542
rent	-11.5424
▁Si	-11.5435
nut	-11.5633
ub	-11.5649
▁doer	-11.5653
▁Ph	-11.5705
onsider	-11.5717
als	-11.5718
▁rep	-11.5722
▁Ah	-11.5743
j	-11.5789
▁injur	-11.5796
▁overthr	-11.5818
lings	-11.5854
▁Fe	-11.5856
▁fires	-11.5868
▁Bela	-11.5901
▁squa	-11.5963
lations	-11.597
▁skill	-11.5995
handed	-11.6017
round	-11.6023
▁caus	-11.6027
▁prefer	-11.6035
▁vow	-11.6037
ians	-11.6043
lah	-11.6046
pri	-11.6054
visible	-11.6065
ati	-11.6073
ttention	-11.6078
▁Whit	-11.6089
▁debtor	-11.6092
▁object	-11.6094
antic	-11.6094
▁pomegranate	-11.6095
▁weapon	-11.6096
will	-11.6098
▁sparrow	-11.6099
▁deceiver	-11.6099
▁dropping	-11.6099
rag	-11.6102
kins	-11.6102
▁invent	-11.6102
cerning	-11.6103
▁gosling	-11.6107
▁groan	-11.6107
▁loop	-11.6109
ky	-11.611
▁murmur	-11.6113
ngel	-11.6113
▁ridge	-11.6114
▁needle	-11.6114
qui	-11.6116
▁partaker	-11.6117
▁key	-11.6118
▁descend	-11.6121
unted	-11.6126
▁exp	-11.6127
ves	-11.613
aged	-11.6133
course	-11.6134
▁coal	-11.6136
▁compel	-11.6139
▁pearl	-11.6139
Stop	-11.614
Maybe	-11.6142
took	-11.6143
load	-11.6143
▁shear	-11.6145
Nothing	-11.6146
D	-11.6147
Edith	-11.6147
terrific	-11.6147
thirst	-11.6147
hooks	-11.6147
▁judg	-11.6148
▁despair	-11.6149
Who	-11.6149
blood	-11.6149
worthy	-11.615
speak	-11.615
▁Y	-11.615
eph	-11.615
▁murmuring	-11.6151
gave	-11.6151
Did	-11.6153
face	-11.6153
▁purify	-11.6154
▁instruct	-11.6155
▁dare	-11.6155
For	-11.6155
master	-11.6156
fell	-11.6156
▁resid	-11.6156
▁slipp	-11.6158
▁threaten	-11.6161
que	-11.6165
▁platt	-11.6166
Then	-11.617
▁preten	-11.6179
▁strengthen	-11.6181
bby	-11.6182
ray	-11.6182
▁excite	-11.6184
▁arrange	-11.6185
bone	-11.6185
▁tremble	-11.6185
▁surprise	-11.6185
▁bon	-11.6187
▁map	-11.6187
▁swa	-11.6187
▁approve	-11.6187
ouched	-11.6189
▁general	-11.6193
ounded	-11.6193
▁bruise	-11.6193
▁vague	-11.6194
▁exact	-11.6195
▁abundant	-11.6195
▁immediate	-11.6195
▁supplie	-11.6196
▁arrive	-11.6197
oldiers	-11.6197
▁glorie	-11.6198
▁cheerful	-11.6198
▁clan	-11.6198
They	-11.6199
▁ski	-11.6201
▁chi	-11.6201
▁flash	-11.6202
▁Ke	-11.6202
▁safe	-11.6203
▁transgress	-11.6203
▁vo	-11.6204
belief	-11.6204
▁debt	-11.6205
they	-11.6205
▁riot	-11.6205
▁express	-11.6205
▁announce	-11.6205
weed	-11.6205
▁proper	-11.6206
▁convers	-11.6206
berries	-11.6206
▁yo	-11.6206
▁hospital	-11.6206
nswere	-11.6206
▁strait	-11.6206
▁Jehovah	-11.6206
Terrific	-11.6206
▁horizon	-11.6206
Listen	-11.6206
iamond	-11.6206
latchet	-11.6206
▁Amminadab	-11.6206
▁Aristarchus	-11.6206
▁Comforter	-11.6206
▁Congress	-11.6206
▁Cranshaw	-11.6206
▁Derbe	-11.6206
▁Dishon	-11.6206
▁Ephrath	-11.6206
▁Euphrates	-11.6206
▁GOD	-11.6206
▁Havilah	-11.6206
▁Hearken	-11.6206
▁Hogsucker	-11.6206
▁Ishmeelites	-11.6206
▁Ithamar	-11.6206
▁Kohath	-11.6206
▁Likewise	-11.6206
▁Monday	-11.6206
▁Nicodemus	-11.6206
▁PIG	-11.6206
▁Possum	-11.6206
▁Receive	-11.6206
▁School	-11.6206
▁Servant	-11.6206
▁Succoth	-11.6206
▁Twelve	-11.6206
▁Zohar	-11.6206
▁absence	-11.6206
▁adoption	-11.6206
▁afford	-11.6206
▁airplane	-11.6206
▁assurance	-11.6206
▁blowgun	-11.6206
▁bondwoman	-11.6206
▁bounty	-11.6206
▁buryingplace	-11.6206
▁century	-11.6206
▁chapiters	-11.6206
▁chickadee	-11.6206
▁cinnamon	-11.6206
▁concubine	-11.6206
▁conjur	-11.6206
▁contend	-11.6206
▁convenient	-11.6206
▁correspond	-11.6206
▁crazy	-11.6206
▁demanded	-11.6206
▁devise	-11.6206
▁disappoint	-11.6206
▁discreet	-11.6206
▁emerald	-11.6206
▁engine	-11.6206
▁foxes	-11.6206
▁fraction	-11.6206
▁freewoman	-11.6206
▁fungus	-11.6206
▁glutton	-11.6206
▁gravy	-11.6206
▁handkerchief	-11.6206
▁haught	-11.6206
▁hereafter	-11.6206
▁impart	-11.6206
▁incorruption	-11.6206
▁increasing	-11.6206
▁insects	-11.6206
▁knuckle	-11.6206
▁level	-11.6206
▁mysterious	-11.6206
▁necessities	-11.6206
▁nostrils	-11.6206
▁obeisance	-11.6206
▁occur	-11.6206
▁pilgrims	-11.6206
▁proconsul	-11.6206
▁pronounce	-11.6206
▁propitiation	-11.6206
▁province	-11.6206
▁reproof	-11.6206
▁request	-11.6206
▁response	-11.6206
▁restitution	-11.6206
▁restrained	-11.6206
▁reviling	-11.6206
▁revived	-11.6206
▁riverbank	-11.6206
▁sapphire	-11.6206
▁sardius	-11.6206
▁showbread	-11.6206
▁shrank	-11.6206
▁smiled	-11.6206
▁solemn	-11.6206
▁straddle	-11.6206
▁sunshine	-11.6206
▁survive	-11.6206
▁sworn	-11.6206
▁terror	-11.6206
▁turkey	-11.6206
▁twig	-11.6206
▁undress	-11.6206
▁unmarried	-11.6206
▁unusual	-11.6206
▁whiskey	-11.6206
tarsus	-11.6207
▁August	-11.6207
▁Brother	-11.6207
▁diminish	-11.6207
▁merchant	-11.6207
▁orange	-11.6207
▁queen	-11.6207
▁raspberr	-11.6207
▁raven	-11.6207
▁scrivener	-11.6207
▁unimagin	-11.6207
▁unloose	-11.6207
▁Gilead	-11.6207
▁element	-11.6207
▁emerge	-11.6207
▁gloves	-11.6207
▁latter	-11.6207
▁leprosy	-11.6207
▁roam	-11.6207
▁blink	-11.6207
▁agony	-11.6207
▁cedar	-11.6207
▁clipping	-11.6207
▁impress	-11.6207
▁middling	-11.6207
▁mysteries	-11.6207
▁circum	-11.6207
▁crystal	-11.6207
▁holler	-11.6207
▁mammon	-11.6207
▁Potiph	-11.6207
▁bereaved	-11.6207
▁gorge	-11.6207
▁turban	-11.6207
▁exchange	-11.6207
▁noodle	-11.6207
▁title	-11.6207
▁beggar	-11.6207
▁liberality	-11.6207
▁refrain	-11.6207
▁kicked	-11.6207
▁enchantments	-11.6207
▁workmanship	-11.6207
▁Salmon	-11.6207
▁occupation	-11.6207
▁sackcloth	-11.6207
▁stumblingblock	-11.6207
▁Preparation	-11.6207
▁blasphemies	-11.6207
▁Buddy	-11.6207
▁arrival	-11.6207
▁Joses	-11.6207
▁assistance	-11.6207
▁palsied	-11.6207
access	-11.6207
▁blossoms	-11.6207
▁loving	-11.6207
▁winepress	-11.6207
▁bolt	-11.6207
▁quilt	-11.6207
▁Drink	-11.6207
▁reverence	-11.6207
▁bodily	-11.6207
▁vote	-11.6207
▁blast	-11.6207
▁Goodbye	-11.6207
▁Moab	-11.6207
▁principalities	-11.6207
▁Italy	-11.6207
▁gently	-11.6207
▁decree	-11.6207
▁pink	-11.6207
▁rooster	-11.6207
▁nap	-11.6207
▁cursing	-11.6207
▁Haden	-11.6207
▁flick	-11.6207
▁thicket	-11.6207
▁Shinar	-11.6207
▁indig	-11.6207
▁excuse	-11.6207
▁permit	-11.6207
▁tempest	-11.6207
▁Abib	-11.6208
▁towel	-11.6208
▁mistake	-11.6208
▁population	-11.6208
▁smart	-11.6208
▁covetous	-11.6208
▁conceal	-11.6208
▁lane	-11.6208
▁scoop	-11.6208
▁luck	-11.6208
▁halt	-11.6208
▁Miz	-11.6208
▁imprisonment	-11.6208
▁Light	-11.6208
▁strain	-11.6208
▁midday	-11.6208
▁Shur	-11.6208
▁countries	-11.6208
▁guilty	-11.6208
▁Elam	-11.6208
▁malice	-11.6208
▁favorite	-11.6208
▁heathen	-11.6208
▁entangle	-11.6208
nquire	-11.6208
▁wire	-11.6209
▁awkwardly	-11.6209
▁Teman	-11.6209
▁bushel	-11.6209
everal	-11.6209
▁wrestling	-11.6209
nkle	-11.6209
sual	-11.6209
▁crash	-11.6209
▁braid	-11.6209
▁limp	-11.6209
▁furthermore	-11.6209
▁satisfied	-11.621
▁Abb	-11.621
▁stedfastness	-11.621
▁thistles	-11.621
▁apostleship	-11.621
▁barbarian	-11.621
▁wealthy	-11.6211
▁communicate	-11.6211
▁bushes	-11.6211
▁defer	-11.6212
▁Weep	-11.6212
▁nearby	-11.6212
▁sheepfold	-11.6212
▁giant	-11.6212
▁Mother	-11.6212
▁hello	-11.6212
▁super	-11.6213
▁jar	-11.6213
▁chap	-11.6214
▁Meat	-11.6214
▁gambl	-11.6214
▁forsaken	-11.6214
▁violent	-11.6214
▁grunted	-11.6214
▁fur	-11.6214
eedy	-11.6214
▁husbandman	-11.6214
▁cleansing	-11.6214
▁armor	-11.6215
▁supplieth	-11.6217
▁disturb	-11.6217
▁rifle	-11.6217
▁skirt	-11.6217
▁blame	-11.6217
atic	-11.6217
▁carv	-11.6217
▁repute	-11.6218
arge	-11.6218
▁vaguely	-11.6219
▁needful	-11.622
▁wrist	-11.622
▁agreement	-11.622
▁Jam	-11.622
▁trott	-11.622
▁Else	-11.622
chol	-11.622
▁cheerfully	-11.6221
▁whiteman	-11.6221
▁difficulty	-11.6222
▁rubber	-11.6223
▁remark	-11.6223
▁briefly	-11.6223
▁Lotan	-11.6223
▁cheat	-11.6223
▁deceitfully	-11.6223
▁persecutest	-11.6224
▁candie	-11.6224
▁Dog	-11.6224
▁knot	-11.6224
▁stairs	-11.6224
▁cucumbers	-11.6224
▁magistrates	-11.6224
▁smoking	-11.6225
ently	-11.6226
▁loan	-11.6226
▁sower	-11.6226
▁fiercely	-11.6226
▁vanished	-11.6227
▁weaving	-11.6227
ndy	-11.6228
▁maple	-11.6228
▁ability	-11.6228
▁arranged	-11.6228
▁whistling	-11.6228
▁silently	-11.623
▁clang	-11.623
▁chill	-11.6232
did	-11.6234
▁stalk	-11.6235
▁reconciled	-11.6236
▁Ok	-11.6236
▁block	-11.6237
▁overhead	-11.6237
▁joke	-11.624
aster	-11.6241
▁crushed	-11.6241
▁pierced	-11.6242
▁overthrown	-11.6242
▁quake	-11.6242
▁steady	-11.6243
▁greeting	-11.6243
▁Men	-11.6243
▁eighteen	-11.6244
▁Never	-11.6245
mortal	-11.6246
▁stall	-11.6248
▁endless	-11.6251
▁commendeth	-11.6251
▁sno	-11.6251
▁groaned	-11.6253
▁lit	-11.6255
▁pillows	-11.6255
▁slopes	-11.6255
▁physicians	-11.6255
▁manservant	-11.6256
▁sincere	-11.6256
▁anew	-11.6258
▁flip	-11.6258
▁louder	-11.6258
▁wanton	-11.6259
▁joint	-11.6266
▁stumbleth	-11.6266
▁trapper	-11.627
▁naturally	-11.627
▁pushing	-11.6272
▁Maybe	-11.6272
▁Hous	-11.6273
▁particle	-11.6276
▁faithless	-11.6277
▁invented	-11.6277
▁oppressed	-11.628
▁confirmed	-11.628
▁fann	-11.6285
▁boiling	-11.6286
▁pigeons	-11.6287
▁lepers	-11.6287
▁boughs	-11.6287
▁transgressors	-11.6287
▁hon	-11.6288
compelled	-11.6289
▁completed	-11.6292
▁sojourners	-11.6292
▁whoring	-11.6292
▁scare	-11.6296
▁sever	-11.6297
▁thereto	-11.63
▁sur	-11.6302
▁wildly	-11.6303
▁overmuch	-11.6305
▁extortioner	-11.6307
▁curl	-11.6308
▁continueth	-11.6311
▁commandeth	-11.6311
▁hasn	-11.6318
▁Remov	-11.6318
▁cards	-11.6319
▁pomegranates	-11.6319
▁action	-11.6319
▁weapons	-11.6319
▁metal	-11.632
▁actions	-11.6322
▁confe	-11.6323
▁chin	-11.6323
▁Gran	-11.6328
meter	-11.6333
▁department	-11.6334
▁wond	-11.6335
▁jo	-11.6337
In	-11.6342
▁richly	-11.6347
lessly	-11.6357
this	-11.6362
▁dresser	-11.6362
owing	-11.6363
▁def	-11.6365
eral	-11.6368
▁rider	-11.6368
▁needy	-11.6372
▁sucked	-11.6373
▁pouring	-11.6374
▁preacheth	-11.6375
erable	-11.6375
▁transform	-11.6381
▁bricks	-11.6383
▁statutes	-11.6383
▁finest	-11.6383
▁provisions	-11.6383
▁persecutions	-11.6383
▁lock	-11.6387
position	-11.6387
▁worms	-11.6387
▁alike	-11.6392
▁patch	-11.6393
▁Romans	-11.6403
▁deeply	-11.6406
▁lacked	-11.6414
▁liars	-11.6415
▁stealing	-11.6417
▁perver	-11.6422
▁farmers	-11.6424
▁willeth	-11.6424
▁embrace	-11.6425
ere	-11.6439
alutations	-11.644
▁profited	-11.6441
▁squat	-11.6444
▁spl	-11.6446
▁trapp	-11.6448
▁murderers	-11.6452
vice	-11.6452
▁regarded	-11.6454
unny	-11.6454
ius	-11.6459
gar	-11.647
ads	-11.6472
ups	-11.6474
▁surge	-11.6477
▁captives	-11.648
▁habitations	-11.6481
▁mete	-11.6483
▁righteously	-11.6486
▁worrying	-11.6491
▁killeth	-11.6509
▁ma	-11.6512
▁dances	-11.6513
▁thighs	-11.6513
▁amount	-11.6513
tty	-11.6529
com	-11.6535
▁gravel	-11.6537
▁logs	-11.6545
▁worshipp	-11.6547
▁Christian	-11.6551
▁guns	-11.6553
▁style	-11.656
▁card	-11.6568
▁hurting	-11.6568
▁sop	-11.6573
▁Abid	-11.6574
▁games	-11.6579
▁seasoned	-11.658
▁customs	-11.6612
full	-11.6622
▁ref	-11.6636
▁hens	-11.6643
▁regions	-11.6645
▁crowned	-11.6658
▁aged	-11.666
▁staying	-11.6671
▁streams	-11.6678
▁tie	-11.6691
▁figs	-11.6711
▁treat	-11.6722
illy	-11.6725
▁itch	-11.6728
▁li	-11.6739
▁forgett	-11.674
▁rag	-11.6741
▁caves	-11.6745
▁meaning	-11.6753
▁visions	-11.6756
bs	-11.677
▁owners	-11.6775
▁Par	-11.6793
aid	-11.6802
▁Eph	-11.6807
▁floods	-11.6812
▁governors	-11.6812
figur	-11.6813
inning	-11.685
▁argue	-11.6873
him	-11.6879
▁ships	-11.6879
▁blinded	-11.6895
▁sus	-11.6901
ancy	-11.6902
enable	-11.6935
▁ver	-11.6935
▁seeds	-11.6938
▁Clo	-11.695
B	-11.6968
▁sco	-11.6987
▁kn	-11.6987
pen	-11.6989
vi	-11.7002
▁j	-11.7003
▁favorabl	-11.7012
▁ink	-11.7012
▁afternoons	-11.7016
alo	-11.705
▁perp	-11.7067
lic	-11.708
▁edges	-11.7119
▁curve	-11.7119
racles	-11.7119
▁buildings	-11.7124
ddle	-11.7129
▁writer	-11.7141
▁rehears	-11.7142
ich	-11.7151
▁busi	-11.7155
▁shower	-11.7158
▁pea	-11.7183
▁fe	-11.7217
▁lap	-11.7225
anke	-11.7246
urge	-11.7251
▁smit	-11.7257
▁earthy	-11.7259
▁entice	-11.7272
inner	-11.7288
ull	-11.7294
uni	-11.7329
▁numbers	-11.7333
▁doings	-11.7335
▁shit	-11.7338
ration	-11.7346
▁differ	-11.7359
▁inv	-11.7363
uz	-11.7366
eries	-11.7368
▁rec	-11.7412
▁mornings	-11.7458
▁swords	-11.7473
▁fellows	-11.7476
▁companions	-11.7487
▁beard	-11.7496
ular	-11.7522
▁earthly	-11.7535
▁journeys	-11.7542
▁prisons	-11.7581
mma	-11.7582
▁gall	-11.7592
damn	-11.76
▁afore	-11.7621
scen	-11.7631
enness	-11.7643
▁Hid	-11.7644
▁trac	-11.7705
Be	-11.7755
▁inte	-11.7775
▁Phi	-11.7788
lation	-11.7807
▁su	-11.7814
▁Ben	-11.782
born	-11.7829
eas	-11.7834
▁stab	-11.7858
mar	-11.7873
ats	-11.7908
dder	-11.7937
ttle	-11.7947
▁interrupt	-11.7952
ore	-11.796
sive	-11.7986
wardly	-11.8009
van	-11.8014
▁gaz	-11.8025
▁pur	-11.803
▁struggle	-11.8054
▁meats	-11.8055
za	-11.8058
▁parting	-11.8151
we	-11.8187
vil	-11.8249
▁pipes	-11.8259
▁wanting	-11.8261
▁cal	-11.8277
dding	-11.8296
rah	-11.8317
lab	-11.8336
▁feasts	-11.8343
▁Che	-11.8354
▁Eu	-11.8388
▁strik	-11.839
fire	-11.8395
▁wh	-11.8406
mmed	-11.8422
mal	-11.8429
nic	-11.8452
▁hug	-11.8457
▁Stop	-11.8465
uit	-11.8471
lee	-11.8476
▁stu	-11.852
pringtime	-11.8531
uring	-11.854
▁breathe	-11.854
x	-11.854
ev	-11.8546
nched	-11.8595
▁pa	-11.8613
catches	-11.863
▁temperat	-11.8643
▁argu	-11.8674
hoes	-11.8687
▁striv	-11.8691
ities	-11.87
▁rage	-11.8707
che	-11.8734
ncy	-11.8738
▁Pu	-11.8742
▁rais	-11.8766
doers	-11.8825
fare	-11.8846
ender	-11.8868
stead	-11.8892
orn	-11.8894
nger	-11.8937
rred	-11.8952
▁Mes	-11.8958
▁oppos	-11.9007
tery	-11.9025
eyed	-11.903
▁Eve	-11.9039
azed	-11.9061
tops	-11.907
▁whit	-11.9083
▁ripp	-11.9102
mus	-11.9151
ron	-11.9153
P	-11.9172
ib	-11.92
top	-11.9203
▁sug	-11.9206
▁fre	-11.9207
▁Ge	-11.9223
easy	-11.9228
hill	-11.9231
▁embrac	-11.9244
▁fir	-11.9251
rown	-11.9257
nets	-11.9264
rance	-11.927
▁Sal	-11.9272
uary	-11.9299
aving	-11.9339
▁rob	-11.9358
Th	-11.9361
sha	-11.9365
rawled	-11.9368
▁gum	-11.9368
ized	-11.937
ence	-11.9375
▁Cre	-11.9376
doer	-11.9383
▁wrest	-11.939
▁bough	-11.9396
pher	-11.9397
▁extortion	-11.9401
come	-11.9417
nceforth	-11.942
▁eagle	-11.9424
▁psalm	-11.9424
▁sorcerer	-11.9424
▁elbow	-11.9424
▁senator	-11.9424
▁section	-11.9427
▁Levite	-11.9428
▁leper	-11.9429
▁pigeon	-11.9429
▁transgressor	-11.9431
rate	-11.9431
▁chasten	-11.9432
▁Jebusite	-11.9432
▁Perizzite	-11.9432
▁fornicator	-11.9432
▁shelter	-11.9436
lashed	-11.9438
▁hypocrite	-11.9439
▁explo	-11.9442
▁earring	-11.9442
▁whisper	-11.9442
▁Tra	-11.9442
cum	-11.9445
▁sojourner	-11.9448
▁spice	-11.9449
hand	-11.9453
▁shop	-11.9455
gate	-11.9455
upon	-11.9461
quench	-11.9465
rches	-11.9465
Y	-11.9465
warm	-11.9472
Certainly	-11.9472
worm	-11.9474
▁gir	-11.9475
stood	-11.9478
hearted	-11.948
Pig	-11.948
floor	-11.9481
prisoner	-11.9481
bas	-11.9482
Ho	-11.9482
learned	-11.9482
legs	-11.9482
pieces	-11.9482
snake	-11.9482
thirty	-11.9482
break	-11.9482
▁operat	-11.9483
friend	-11.9483
closed	-11.9483
quiet	-11.9483
water	-11.9483
wife	-11.9483
finger	-11.9483
Take	-11.9484
looking	-11.9484
ground	-11.9484
posed	-11.9485
▁encounter	-11.9487
▁remov	-11.9487
▁confus	-11.9487
Sure	-11.9487
▁assembl	-11.9489
▁greet	-11.949
unch	-11.949
Every	-11.9491
▁loos	-11.9491
▁affirm	-11.9491
▁embarrass	-11.9491
▁buffet	-11.9492
▁crush	-11.9496
▁refresh	-11.9496
volut	-11.9503
sembled	-11.9503
hath	-11.9508
roi	-11.9508
ega	-11.951
ims	-11.9515
five	-11.9517
▁enlarge	-11.9517
▁Alexandria	-11.9518
▁relieve	-11.9519
▁bore	-11.9519
Here	-11.9519
▁purchase	-11.9519
▁prophesie	-11.9519
▁determine	-11.952
▁Right	-11.9522
▁pursue	-11.9522
Te	-11.9522
▁marrie	-11.9522
▁meek	-11.9524
▁pierce	-11.9525
▁delicate	-11.9525
▁nervous	-11.9527
ected	-11.9527
▁private	-11.9528
▁tire	-11.9529
alvation	-11.953
cient	-11.953
▁jealous	-11.9531
▁possibl	-11.9531
▁Lif	-11.9532
fish	-11.9534
istles	-11.9535
orted	-11.9535
▁froze	-11.9536
▁stole	-11.9537
ntity	-11.9537
▁mirac	-11.9538
mission	-11.9538
▁gener	-11.9538
▁princip	-11.9538
▁meditat	-11.9538
upp	-11.9539
orthy	-11.9539
appy	-11.9539
▁author	-11.9539
reakfast	-11.9539
olonel	-11.9539
oyal	-11.954
▁desp	-11.954
▁stock	-11.954
▁turtle	-11.954
▁contributi	-11.954
▁congress	-11.954
Congratu	-11.954
Play	-11.954
hibit	-11.954
ograph	-11.954
wilight	-11.954
zziah	-11.954
▁Adullamite	-11.954
▁Ahaz	-11.954
▁Aranea	-11.954
▁Balaam	-11.954
▁Bartholomew	-11.954
▁Bernice	-11.954
▁Bethphage	-11.954
▁Boaz	-11.954
▁Boston	-11.954
▁Chaldees	-11.954
▁Chesapeake	-11.954
▁Choctaw	-11.954
▁Climb	-11.954
▁Crawdaddy	-11.954
▁Decapolis	-11.954
▁Demetrius	-11.954
▁Dishan	-11.954
▁Echota	-11.954
▁Eliezer	-11.954
▁Epaphras	-11.954
▁Erastus	-11.954
▁Ethiopia	-11.954
▁Ezer	-11.954
▁Galway	-11.954
▁Gennesaret	-11.954
▁Gershon	-11.954
▁Golgotha	-11.954
▁Hallelujah	-11.954
▁Hezekiah	-11.954
▁Horeb	-11.954
▁Jeremiah	-11.954
▁Joktan	-11.954
▁Jotham	-11.954
▁Jupiter	-11.954
▁Kadesh	-11.954
▁Kenaz	-11.954
▁Luke	-11.954
▁Matthew	-11.954
▁Merari	-11.954
▁Nahshon	-11.954
▁Nebajoth	-11.954
▁Nellie	-11.954
▁Notwithstanding	-11.954
▁October	-11.954
▁Oklahoma	-11.954
▁Olivet	-11.954
▁Peabody	-11.954
▁Pentecost	-11.954
▁Perez	-11.954
▁Perga	-11.954
▁Pharez	-11.954
▁Phrygia	-11.954
▁Pontus	-11.954
▁Prince	-11.954
▁Prisc	-11.954
▁Priscilla	-11.954
▁Psalms	-11.954
▁Rehoboth	-11.954
▁Rephidim	-11.954
▁River	-11.954
▁Sardis	-11.954
▁September	-11.954
▁Shealtiel	-11.954
▁Shobal	-11.954
▁Shuah	-11.954
▁Siddim	-11.954
▁Silvanus	-11.954
▁Squirrel	-11.954
▁Symeon	-11.954
▁Tarshish	-11.954
▁Thessalonica	-11.954
▁Trophimus	-11.954
▁Zeboi	-11.954
▁Zillah	-11.954
▁Zipporah	-11.954
▁achieve	-11.954
▁addition	-11.954
▁advance	-11.954
▁aeronaut	-11.954
▁affairs	-11.954
▁anxiety	-11.954
▁apiece	-11.954
▁apprecia	-11.954
▁attire	-11.954
▁avail	-11.954
▁balsam	-11.954
▁bountifully	-11.954
▁cantaloupes	-11.954
▁canvas	-11.954
▁captivity	-11.954
▁colours	-11.954
▁column	-11.954
▁compact	-11.954
▁conclud	-11.954
▁conclusion	-11.954
▁conduct	-11.954
▁conflict	-11.954
▁congealed	-11.954
▁conquer	-11.954
▁constructed	-11.954
▁contrariwise	-11.954
▁cornbread	-11.954
▁corncob	-11.954
▁corpse	-11.954
▁curiosity	-11.954
▁daube	-11.954
▁desperation	-11.954
▁destiny	-11.954
▁disorderly	-11.954
▁disputing	-11.954
▁dissension	-11.954
▁distinguish	-11.954
▁district	-11.954
▁draught	-11.954
▁dungeon	-11.954
▁eager	-11.954
▁edifieth	-11.954
▁esteem	-11.954
▁exotic	-11.954
▁extreme	-11.954
▁farewell	-11.954
▁fascinating	-11.954
▁feeble	-11.954
▁fetters	-11.954
▁fifties	-11.954
▁forewarn	-11.954
▁fragments	-11.954
▁frankincense	-11.954
▁furnished	-11.954
▁groceries	-11.954
▁handbreadth	-11.954
▁happiness	-11.954
▁hayloft	-11.954
▁hominy	-11.954
▁hound	-11.954
▁hymn	-11.954
▁immortality	-11.954
▁journals	-11.954
▁kinsfolk	-11.954
▁knives	-11.954
▁leanfleshed	-11.954
▁lodging	-11.954
▁maintain	-11.954
▁major	-11.954
▁material	-11.954
▁matrix	-11.954
▁meadow	-11.954
▁moisture	-11.954
▁okay	-11.954
▁opposition	-11.954
▁overwhelm	-11.954
▁philosoph	-11.954
▁pilgrimage	-11.954
▁pistol	-11.954
▁poverty	-11.954
▁produce	-11.954
▁quiver	-11.954
▁raccoon	-11.954
▁rebelled	-11.954
▁record	-11.954
▁rectang	-11.954
▁remnant	-11.954
▁replenish	-11.954
▁representatives	-11.954
▁retrieve	-11.954
▁sassafras	-11.954
▁satisfy	-11.954
▁sermon	-11.954
▁shewbread	-11.954
▁subsistence	-11.954
▁swept	-11.954
▁tanner	-11.954
▁tavern	-11.954
▁territory	-11.954
▁titmouse	-11.954
▁trading	-11.954
▁tread	-11.954
▁trigger	-11.954
▁unawares	-11.954
▁unceasing	-11.954
▁undefiled	-11.954
▁unexpected	-11.954
▁unjust	-11.954
▁unknown	-11.954
▁unreasonable	-11.954
▁unveiled	-11.954
▁uproar	-11.954
▁vehemently	-11.954
▁vertical	-11.954
▁virtue	-11.954
▁waterproof	-11.954
▁yesternight	-11.954
▁Asshur	-11.954
▁Athens	-11.954
▁clover	-11.954
▁dowry	-11.954
▁employ	-11.954
▁lucre	-11.954
▁oblig	-11.954
▁predator	-11.954
▁woodpecker	-11.954
satisfact	-11.954
▁Demas	-11.954
▁Street	-11.954
▁antichrist	-11.954
▁license	-11.954
▁photograph	-11.954
▁pitfall	-11.954
▁proverb	-11.954
▁responsibilit	-11.954
▁steam	-11.954
▁terrain	-11.954
▁throng	-11.954
▁unloaded	-11.954
▁Glory	-11.954
▁Latin	-11.954
▁consult	-11.954
▁dusk	-11.954
▁fading	-11.954
▁gnat	-11.954
▁heritage	-11.954
▁ridden	-11.954
▁superscription	-11.954
dopted	-11.954
▁abated	-11.954
▁desk	-11.954
▁loaf	-11.954
▁moaned	-11.954
▁saddlebag	-11.954
▁succeed	-11.954
timber	-11.954
▁Creator	-11.954
▁States	-11.954
▁exist	-11.954
▁topaz	-11.954
▁Bind	-11.954
▁vacation	-11.954
vaga	-11.954
▁Talk	-11.954
▁owl	-11.954
▁profess	-11.954
▁adjourn	-11.954
▁approaching	-11.954
▁knothole	-11.954
▁referr	-11.954
▁Arabia	-11.954
▁York	-11.954
▁authorities	-11.954
Could	-11.954
▁Besides	-11.954
▁Dedan	-11.954
▁frying	-11.954
▁undone	-11.954
▁Serve	-11.954
▁shiver	-11.954
▁backbit	-11.954
▁sideboards	-11.954
lashes	-11.954
▁Jobab	-11.954
▁battery	-11.954
rawdad	-11.954
smith	-11.954
▁mistress	-11.954
▁surround	-11.954
alley	-11.954
▁emotion	-11.954
▁procur	-11.954
▁wafer	-11.954
▁Welch	-11.954
▁dread	-11.954
▁abuse	-11.954
▁delicious	-11.954
▁tickl	-11.954
havi	-11.954
▁united	-11.954
▁slant	-11.954
▁ceasing	-11.954
▁engage	-11.954
▁mumbled	-11.954
▁Tiberias	-11.954
▁vomit	-11.954
▁Phoenicia	-11.954
▁revenge	-11.954
▁pottage	-11.954
▁lonesome	-11.954
▁address	-11.954
▁quill	-11.954
ference	-11.954
▁dripping	-11.954
▁slanderers	-11.954
▁soaked	-11.954
▁cords	-11.954
▁tomatoes	-11.954
▁Territories	-11.954
▁stagger	-11.954
▁chide	-11.954
▁grownups	-11.954
▁laz	-11.954
▁prophetess	-11.954
▁terrify	-11.954
▁vouch	-11.954
▁pestilence	-11.954
▁route	-11.954
▁overhear	-11.954
▁sheaf	-11.954
▁brink	-11.954
▁device	-11.954
▁Marah	-11.954
▁tape	-11.954
▁glow	-11.954
▁drill	-11.9541
▁midway	-11.9541
▁Lib	-11.9541
▁oats	-11.9541
▁Maha	-11.9541
ronic	-11.9541
▁Luz	-11.9541
▁Fift	-11.9541
ON	-11.9541
OM	-11.9541
iletus	-11.9541
▁nobleman	-11.9541
▁Paradise	-11.9541
▁contentious	-11.9541
▁crafti	-11.9541
noch	-11.9541
▁missing	-11.9541
▁dedicat	-11.9541
ella	-11.9541
choni	-11.9541
▁contest	-11.9541
▁Lys	-11.9541
▁prun	-11.9541
▁destitute	-11.9541
▁steel	-11.9541
▁smear	-11.9541
▁beheaded	-11.9541
▁resolv	-11.9541
▁mosquitoes	-11.9541
▁pouches	-11.9541
▁safety	-11.9541
▁affectionate	-11.9541
▁garnet	-11.9541
tenance	-11.9541
▁funny	-11.9541
▁lobby	-11.9541
▁thefts	-11.9541
▁Herodians	-11.9541
▁spun	-11.9541
epho	-11.9542
▁stubble	-11.9542
▁strap	-11.9542
▁amiss	-11.9542
▁poking	-11.9542
▁variet	-11.9542
▁harness	-11.9542
▁police	-11.9542
▁scalp	-11.9542
▁lawlessness	-11.9542
▁errand	-11.9542
▁dough	-11.9542
▁moonlight	-11.9542
phath	-11.9542
▁bridge	-11.9542
▁bondman	-11.9542
▁jerky	-11.9542
▁necklace	-11.9542
▁lounge	-11.9542
▁lowliness	-11.9542
▁modest	-11.9542
▁remo	-11.9542
▁laun	-11.9543
▁advertisement	-11.9543
▁shorn	-11.9543
▁justification	-11.9543
▁correction	-11.9543
▁pallet	-11.9543
▁weaned	-11.9543
▁Bible	-11.9543
nited	-11.9543
▁Corn	-11.9543
▁stank	-11.9543
kling	-11.9543
▁equality	-11.9543
▁Esh	-11.9543
▁beryl	-11.9543
▁downstream	-11.9543
▁birch	-11.9543
▁Hush	-11.9544
▁Elon	-11.9544
▁Still	-11.9544
▁womenservants	-11.9544
▁departure	-11.9544
▁harmless	-11.9544
▁class	-11.9544
▁lain	-11.9544
▁colla	-11.9544
▁Bethel	-11.9544
ulous	-11.9544
▁spru	-11.9544
▁Big	-11.9545
▁observation	-11.9545
▁hatred	-11.9545
▁withereth	-11.9545
▁trance	-11.9545
▁crippled	-11.9545
▁hireling	-11.9545
pparent	-11.9545
▁Haz	-11.9545
little	-11.9546
▁forks	-11.9546
▁jailor	-11.9546
▁cruse	-11.9546
▁moss	-11.9546
▁weaknesses	-11.9546
▁bin	-11.9546
▁summertime	-11.9546
▁cust	-11.9546
▁hateful	-11.9546
▁candida	-11.9546
▁scarce	-11.9546
zah	-11.9546
▁brim	-11.9547
▁specifi	-11.9547
▁lingere	-11.9547
▁Zeal	-11.9547
▁Cush	-11.9547
onia	-11.9547
▁cele	-11.9547
▁thoughtfully	-11.9548
▁lofty	-11.9548
▁coon	-11.9548
▁invite	-11.9548
▁boxes	-11.9549
▁joyful	-11.9549
onge	-11.9549
▁broth	-11.9549
▁decease	-11.9549
▁boundary	-11.955
▁Life	-11.955
▁page	-11.9551
▁Timnath	-11.9551
phan	-11.9551
▁hoisted	-11.9551
▁enlightened	-11.9551
▁visitors	-11.9551
▁sevenfold	-11.9551
▁alleg	-11.9551
▁dive	-11.9552
▁deliverance	-11.9552
▁engraver	-11.9552
▁scent	-11.9552
▁purser	-11.9553
▁bay	-11.9553
east	-11.9553
▁nervously	-11.9553
▁bitterness	-11.9553
▁More	-11.9553
▁treaty	-11.9554
▁reviled	-11.9554
▁swipe	-11.9554
▁mus	-11.9554
▁swoop	-11.9554
▁sobbed	-11.9554
▁wishes	-11.9554
▁lick	-11.9555
▁waist	-11.9555
▁drift	-11.9555
▁circling	-11.9555
mates	-11.9555
▁Ram	-11.9555
▁rare	-11.9555
▁foreign	-11.9555
▁Syr	-11.9556
▁owest	-11.9556
▁unfe	-11.9556
▁Canaanit	-11.9556
▁Really	-11.9557
▁saddle	-11.9557
▁maiden	-11.9557
▁team	-11.9557
▁collection	-11.9557
▁Ski	-11.9557
▁Five	-11.9557
▁Pass	-11.9558
▁brimm	-11.9558
▁safely	-11.9558
▁Amram	-11.9559
▁discour	-11.956
▁avenger	-11.956
▁interpreter	-11.9561
▁forgiveness	-11.9561
▁sowest	-11.9562
▁boo	-11.9562
▁quietness	-11.9562
▁tamed	-11.9562
▁enlarged	-11.9562
▁knocketh	-11.9563
▁fervently	-11.9564
▁reflect	-11.9564
▁basin	-11.9564
▁Away	-11.9564
▁drunkard	-11.9565
▁Obed	-11.9565
▁plead	-11.9565
▁War	-11.9565
roughly	-11.9565
▁mounds	-11.9566
▁Ephesians	-11.9566
▁Horites	-11.9566
▁buttocks	-11.9566
▁malefactors	-11.9566
▁ornaments	-11.9566
▁uniforms	-11.9566
▁blasphemeth	-11.9566
▁passway	-11.9567
inter	-11.9567
▁prey	-11.9567
makers	-11.9568
▁carrie	-11.9568
▁builders	-11.9568
▁confidently	-11.9569
▁quenched	-11.9569
▁confounded	-11.9569
▁plantation	-11.957
▁uphill	-11.957
▁hallowed	-11.957
▁excited	-11.9571
▁fadeth	-11.9572
▁blackness	-11.9572
▁signifying	-11.9572
▁threshing	-11.9572
▁mash	-11.9572
▁Roo	-11.9572
▁wedding	-11.9573
▁sup	-11.9573
▁faithfulness	-11.9573
▁sport	-11.9574
▁balloonist	-11.9574
ubtle	-11.9574
▁trout	-11.9575
▁passion	-11.9576
▁workman	-11.9577
▁costly	-11.9579
▁fisherm	-11.9581
▁surprised	-11.9582
▁bruised	-11.9582
▁source	-11.9584
▁consideration	-11.9584
▁contention	-11.9587
▁affirmed	-11.9589
▁buffeted	-11.9589
▁embarrassed	-11.9589
▁Ash	-11.9589
llaba	-11.9589
▁chastened	-11.9589
▁outwardly	-11.959
▁killer	-11.959
ium	-11.959
▁uprightly	-11.959
▁childless	-11.9591
▁fishers	-11.9592
▁confusing	-11.9593
▁clu	-11.9594
quet	-11.9597
▁eleventh	-11.9597
oth	-11.9598
▁AN	-11.9599
avan	-11.9599
▁sale	-11.96
▁pleasantly	-11.9601
▁peaceable	-11.9601
band	-11.9602
▁memorialize	-11.9602
▁stubb	-11.9604
▁defilement	-11.9605
▁slipped	-11.9608
stance	-11.9609
▁unp	-11.9609
chant	-11.9609
▁purifie	-11.9609
▁gat	-11.961
▁strands	-11.9611
▁basons	-11.9611
▁feathers	-11.9611
▁features	-11.9611
▁anchors	-11.9611
▁spoons	-11.9611
▁deacons	-11.9611
ament	-11.9611
▁None	-11.9612
▁Certainly	-11.9613
▁purifying	-11.9614
▁bidd	-11.9616
▁preserved	-11.9617
▁provoked	-11.9618
▁dipper	-11.9621
▁army	-11.9621
▁patiently	-11.9622
▁tame	-11.9622
▁reapeth	-11.9625
▁borrowed	-11.9627
quil	-11.9628
▁threatening	-11.9629
ball	-11.9632
▁moveth	-11.9632
▁outhouse	-11.9634
▁destroyer	-11.9636
▁Timna	-11.9637
▁ruleth	-11.9641
oic	-11.9641
▁stirr	-11.9642
▁Rest	-11.9644
▁cree	-11.9644
▁syc	-11.9645
hair	-11.9646
▁pals	-11.9646
▁Jet	-11.965
oming	-11.965
▁impen	-11.9651
ffer	-11.9651
▁gnawing	-11.9656
▁wounding	-11.9656
▁elbows	-11.9657
▁psalms	-11.9657
▁senators	-11.9657
▁sorcerers	-11.9657
▁Levites	-11.9657
▁eagles	-11.9658
▁lawless	-11.9658
▁sections	-11.9658
▁boiled	-11.9663
▁Hunt	-11.9664
dry	-11.9667
RE	-11.9668
ndered	-11.9668
▁twisted	-11.9668
▁conce	-11.9668
▁fleeth	-11.9672
▁Sp	-11.9673
ways	-11.9675
▁twisting	-11.9679
▁scraping	-11.9681
icated	-11.9682
bbed	-11.9683
▁brightly	-11.9686
▁agate	-11.9689
▁Please	-11.9691
▁attained	-11.9692
▁possessor	-11.9693
▁locks	-11.9694
▁har	-11.9698
▁slime	-11.97
▁remarks	-11.9701
▁keys	-11.9704
▁objects	-11.9704
▁Pat	-11.9705
▁debtors	-11.9705
▁vows	-11.9705
▁fewer	-11.9705
▁meaneth	-11.9705
▁envying	-11.9706
▁deceivers	-11.9706
▁lowly	-11.9713
▁actor	-11.9716
▁brawle	-11.972
traightway	-11.9722
▁falsely	-11.9723
▁stored	-11.9727
▁scal	-11.9727
ical	-11.9733
▁traveled	-11.9745
▁understandeth	-11.9746
▁bats	-11.9747
▁handfuls	-11.9751
▁heels	-11.9752
▁loads	-11.9753
▁doubled	-11.9755
▁ruled	-11.9757
▁tools	-11.9758
▁patt	-11.9759
▁planning	-11.9761
Egg	-11.9767
▁sour	-11.9767
▁lu	-11.9775
▁pleasing	-11.9776
▁bloo	-11.9776
▁favored	-11.9781
▁test	-11.9781
▁plowing	-11.9782
▁doubting	-11.9783
▁fetched	-11.9784
▁laughing	-11.9785
▁handled	-11.9787
rops	-11.9788
omp	-11.9796
▁seemly	-11.9797
▁sepulchres	-11.9798
▁scraps	-11.9799
▁swinging	-11.9804
▁Saying	-11.9805
▁pans	-11.9805
▁burdened	-11.9806
▁fastings	-11.9807
uci	-11.9812
▁flowed	-11.9822
▁deserted	-11.9826
▁happening	-11.9831
▁hum	-11.9834
▁wing	-11.9841
▁salted	-11.9843
▁blades	-11.9846
▁tales	-11.9846
ress	-11.9848
bar	-11.9849
killet	-11.9849
▁goal	-11.985
▁livers	-11.9851
▁harps	-11.986
umming	-11.9873
▁rate	-11.988
▁nails	-11.9889
▁ringing	-11.9892
▁folds	-11.9892
▁traditions	-11.9894
▁jell	-11.9901
▁inwards	-11.9919
▁piti	-11.992
▁daze	-11.9922
▁beg	-11.9922
▁outward	-11.9928
▁banks	-11.9942
lick	-11.9945
MO	-11.9956
▁Za	-11.9961
▁chal	-11.9969
ja	-11.9984
▁guides	-11.9986
▁figures	-11.999
▁earthquakes	-11.999
▁healings	-11.9993
bra	-12.0012
aimed	-12.0022
sters	-12.0024
lax	-12.0026
▁chambers	-12.0038
▁lions	-12.0041
▁fightings	-12.0042
changers	-12.0044
▁careth	-12.0055
▁multiplying	-12.0067
▁wil	-12.008
uts	-12.0084
▁threads	-12.0087
▁translat	-12.0094
stern	-12.0102
▁oppose	-12.0103
▁pal	-12.0112
▁departing	-12.0115
—-	-12.0127
▁adventure	-12.0134
▁cases	-12.0138
sia	-12.0138
▁traps	-12.0143
imate	-12.0158
▁revelations	-12.0186
▁happens	-12.0192
ause	-12.0194
▁Sea	-12.0202
▁girdles	-12.0237
▁deserts	-12.0239
▁slic	-12.0254
▁Jan	-12.0268
esis	-12.0276
▁cabins	-12.0286
cked	-12.0305
ittle	-12.0307
players	-12.0319
▁oaths	-12.0335
▁Herm	-12.0343
▁fla	-12.0356
▁buying	-12.0359
ust	-12.0374
raise	-12.0385
▁tribulations	-12.0386
▁wail	-12.042
▁occasional	-12.0432
▁afflictions	-12.0437
▁labors	-12.044
her	-12.0441
put	-12.0485
▁bre	-12.0485
eleph	-12.0487
▁begins	-12.0488
tines	-12.049
stable	-12.0514
▁rightly	-12.052
▁perfecting	-12.0524
▁shove	-12.0527
▁snows	-12.0539
cent	-12.0582
▁ropes	-12.0586
▁bottles	-12.059
spir	-12.0611
▁needles	-12.0615
▁states	-12.0642
▁Med	-12.0646
▁talks	-12.0651
oned	-12.0659
wist	-12.0686
▁fr	-12.0712
▁justif	-12.0716
ye	-12.0719
eady	-12.0727
▁socia	-12.073
hes	-12.0754
▁skinn	-12.0763
▁practic	-12.0777
ese	-12.0804
▁allow	-12.0811
▁chop	-12.0863
▁Gre	-12.0869
▁Gat	-12.0876
▁persuad	-12.0881
▁dr	-12.0887
▁admire	-12.092
ok	-12.0931
▁snatch	-12.0933
yst	-12.0942
ui	-12.1009
par	-12.1009
ocked	-12.1036
▁inch	-12.1074
▁reform	-12.1084
lag	-12.1104
▁measur	-12.1104
▁blu	-12.1145
▁Almo	-12.1174
claimed	-12.1201
eeches	-12.1214
Isn	-12.1242
▁Ab	-12.1254
▁rou	-12.1284
▁struggl	-12.1284
▁din	-12.1286
▁mon	-12.1293
▁Sta	-12.1307
▁crackl	-12.1313
ial	-12.1323
▁sy	-12.1332
amped	-12.1337
cakes	-12.1343
rated	-12.1362
▁Pra	-12.1369
▁gaze	-12.1418
onster	-12.1455
▁weari	-12.1522
▁Pen	-12.153
ander	-12.1545
allowed	-12.1601
opping	-12.1601
▁pat	-12.1623
▁elevate	-12.1647
▁trace	-12.1678
▁protecti	-12.1679
oking	-12.1727
bach	-12.1813
empti	-12.1814
▁ta	-12.1901
ize	-12.1953
▁Command	-12.1956
▁Jac	-12.1959
▁waxe	-12.1976
▁loft	-12.1998
uddle	-12.2012
lids	-12.2036
ache	-12.2111
▁companion	-12.2118
hai	-12.233
▁commo	-12.2371
▁dine	-12.2525
▁Jer	-12.2531
▁Mexic	-12.2584
han	-12.2617
tting	-12.2631
▁Hol	-12.2657
▁rehearse	-12.2688
▁Holi	-12.2728
▁curv	-12.2733
acle	-12.2734
shell	-12.2771
night	-12.2791
▁pr	-12.2797
▁constraine	-12.2814
▁practice	-12.2817
▁sacr	-12.2843
▁tast	-12.2845
ieth	-12.2856
▁cru	-12.2929
▁bro	-12.2953
hew	-12.2979
oved	-12.3024
▁slice	-12.3026
mbled	-12.3059
▁Po	-12.3105
oc	-12.3181
ud	-12.3189
igure	-12.3189
tening	-12.3196
▁chok	-12.3197
▁cas	-12.3244
skinned	-12.3271
▁Any	-12.3278
▁distribut	-12.3347
vious	-12.3377
asty	-12.3402
nah	-12.3421
▁crop	-12.3481
ano	-12.3488
loo	-12.35
rity	-12.3564
congratu	-12.3565
ado	-12.3573
rench	-12.3588
awfully	-12.3591
▁dodge	-12.3612
▁port	-12.3643
▁strok	-12.3662
▁Amon	-12.3667
▁Sett	-12.3676
▁stripe	-12.3769
To	-12.3771
▁considerabl	-12.3776
ace	-12.3798
zens	-12.3805
ana	-12.381
▁troubl	-12.3815
▁actual	-12.3833
▁spat	-12.3847
▁chang	-12.385
oiled	-12.3865
laus	-12.3871
roth	-12.3952
▁divid	-12.3963
rgeon	-12.3984
rable	-12.3999
eez	-12.4019
asped	-12.4022
ench	-12.4044
▁bathe	-12.4045
rie	-12.4063
pecul	-12.4109
ole	-12.4109
ower	-12.411
hod	-12.4114
ER	-12.4131
inch	-12.4138
▁Sanct	-12.4145
obably	-12.4146
giver	-12.4158
husks	-12.4189
▁gi	-12.4191
ivity	-12.4204
▁Ro	-12.4232
▁na	-12.4235
came	-12.4258
▁blo	-12.426
E	-12.4264
TH	-12.4264
move	-12.4269
eeze	-12.4276
amia	-12.4283
▁slim	-12.4285
▁Step	-12.4297
▁ston	-12.4304
▁slap	-12.4306
wish	-12.4314
plosive	-12.4329
acked	-12.4332
AR	-12.4338
▁magn	-12.4345
minate	-12.435
▁convi	-12.4351
itable	-12.4352
mobil	-12.4361
▁impe	-12.4362
▁la	-12.4367
rooms	-12.4375
icles	-12.4389
ounding	-12.4389
never	-12.4401
struction	-12.4404
▁wrap	-12.4411
▁impo	-12.4412
▁poplar	-12.4413
▁belonging	-12.4415
▁hillside	-12.4417
▁expens	-12.4418
bb	-12.4418
▁arch	-12.4421
▁speci	-12.4423
▁spoon	-12.4425
▁rip	-12.4425
▁deacon	-12.4425
▁feather	-12.4425
▁anchor	-12.4425
▁feature	-12.4425
▁Tim	-12.4426
▁excus	-12.4428
▁complain	-12.443
▁pillow	-12.443
▁slope	-12.443
▁bason	-12.443
▁physician	-12.4431
▁strand	-12.4431
▁idolater	-12.4433
▁warrior	-12.4433
▁claw	-12.4436
▁payment	-12.4438
▁tithe	-12.4438
▁locust	-12.4439
▁selve	-12.4439
nigh	-12.444
▁robber	-12.4442
orry	-12.4443
▁tran	-12.4444
▁tare	-12.4446
hereabouts	-12.4447
▁gallo	-12.4447
wailed	-12.4448
atch	-12.4449
▁thorn	-12.445
ator	-12.4453
▁hop	-12.4455
▁revile	-12.4457
Che	-12.4459
Ju	-12.446
jected	-12.4461
▁contr	-12.4462
▁sigh	-12.4463
lene	-12.4464
▁observ	-12.4465
Hurry	-12.4466
draft	-12.4466
ex	-12.4466
citizen	-12.4467
Wash	-12.4467
▁impla	-12.4468
continu	-12.4469
source	-12.4473
nails	-12.4473
handled	-12.4474
pathetic	-12.4475
coal	-12.4476
stalk	-12.4476
AN	-12.4476
float	-12.4477
block	-12.4478
Summ	-12.4479
glasses	-12.4479
upper	-12.4479
May	-12.4479
Never	-12.4479
stedfast	-12.4479
gird	-12.4479
search	-12.448
Watch	-12.448
cloth	-12.448
Henry	-12.4481
Seven	-12.4481
box	-12.4481
keeper	-12.4481
bond	-12.4481
shekel	-12.4481
mock	-12.4481
Perhaps	-12.4481
soldier	-12.4481
kindness	-12.4482
condemned	-12.4482
Homer	-12.4482
fields	-12.4482
ounted	-12.4482
shot	-12.4482
▁persecut	-12.4482
please	-12.4482
uncle	-12.4482
portion	-12.4482
None	-12.4482
witnesses	-12.4482
pleasure	-12.4482
bush	-12.4482
generation	-12.4483
coat	-12.4483
horse	-12.4483
spread	-12.4483
spoke	-12.4483
green	-12.4483
burnt	-12.4483
Give	-12.4483
Get	-12.4483
turned	-12.4483
With	-12.4483
wild	-12.4483
myself	-12.4483
Lurvy	-12.4483
perfect	-12.4483
bade	-12.4483
flies	-12.4483
▁pierc	-12.4483
Jesus	-12.4483
wheel	-12.4484
knowledge	-12.4484
hole	-12.4484
nothing	-12.4484
▁wag	-12.4485
▁citizen	-12.4486
ertainly	-12.4486
serve	-12.4486
▁reject	-12.4487
push	-12.4487
hide	-12.4487
One	-12.4487
▁dismiss	-12.4487
bak	-12.4487
▁thresh	-12.4488
sail	-12.4488
pans	-12.449
▁foam	-12.449
▁whistl	-12.449
▁gainsay	-12.4492
Does	-12.4492
▁hallow	-12.4492
▁confound	-12.4492
▁sid	-12.4492
whe	-12.4493
▁signify	-12.4493
▁edify	-12.4493
▁scra	-12.4494
▁vanish	-12.4494
▁kno	-12.4494
▁laborer	-12.4495
▁chuckl	-12.4496
▁exceed	-12.4496
Say	-12.4496
well	-12.4496
▁sniff	-12.4496
▁vex	-12.4496
▁repeat	-12.4496
▁explain	-12.4496
See	-12.4496
▁grabb	-12.4497
▁ordain	-12.4497
Put	-12.4498
▁amaz	-12.4499
▁threat	-12.4499
oasty	-12.45
Ti	-12.4501
Hey	-12.4502
road	-12.4506
sterday	-12.4506
lead	-12.4506
▁App	-12.4508
▁flam	-12.4509
▁plea	-12.451
▁Israelite	-12.4511
▁boot	-12.4511
Wa	-12.4513
▁Exp	-12.4517
▁kin	-12.4518
▁mingle	-12.452
▁testifie	-12.452
▁boar	-12.452
seeing	-12.452
▁create	-12.4521
run	-12.4524
made	-12.4525
▁similar	-12.4525
cious	-12.4527
oving	-12.4527
▁mul	-12.4528
▁drag	-12.4528
ocia	-12.4528
▁flourish	-12.4528
ecting	-12.4528
▁continual	-12.4528
▁genealog	-12.4528
birds	-12.4529
▁sudden	-12.4529
ufficien	-12.453
▁reconcile	-12.453
hould	-12.453
▁dizz	-12.453
▁filth	-12.453
trong	-12.4531
▁choos	-12.4531
▁snar	-12.4531
▁twent	-12.4531
▁communicat	-12.4532
sparag	-12.4532
An	-12.4533
▁distinct	-12.4535
ification	-12.4535
▁Amra	-12.4536
angel	-12.4536
▁import	-12.4537
rink	-12.4537
iving	-12.4538
▁sandwich	-12.4538
phos	-12.4538
▁merci	-12.4538
ctures	-12.4538
▁mosquito	-12.4538
olved	-12.4538
▁persuasi	-12.4538
▁appro	-12.4538
▁Mattha	-12.4538
aughter	-12.4538
epart	-12.4539
▁attract	-12.4539
aradise	-12.4539
▁habit	-12.4539
▁subtil	-12.4539
▁situat	-12.4539
▁Govern	-12.4539
tinct	-12.4539
polis	-12.4539
ecomposers	-12.4539
▁blackberr	-12.4539
estroy	-12.4539
agger	-12.4539
agles	-12.4539
dad	-12.4539
ilbur	-12.4539
ntreat	-12.4539
xcellent	-12.4539
ontinue	-12.4539
ontrary	-12.4539
venture	-12.4539
▁pouch	-12.4539
▁gloom	-12.4539
urmur	-12.4539
attering	-12.4539
▁assist	-12.4539
istened	-12.454
scending	-12.454
▁abomina	-12.454
neys	-12.454
▁Apoll	-12.454
▁succ	-12.454
▁excel	-12.454
languish	-12.454
▁Nico	-12.454
▁influen	-12.454
▁Frankl	-12.454
▁frail	-12.454
▁happie	-12.454
▁immutab	-12.454
▁skelet	-12.454
Crunchy	-12.454
Phoebe	-12.454
Slowly	-12.454
bulus	-12.454
continency	-12.454
gullible	-12.454
ietly	-12.454
ilacs	-12.454
petitions	-12.454
roduction	-12.454
significan	-12.454
ssip	-12.454
xtort	-12.454
zzards	-12.454
zziel	-12.454
zzling	-12.454
▁Agabus	-12.454
▁Amoz	-12.454
▁Areopag	-12.454
▁Assyria	-12.454
▁Baalzephon	-12.454
▁Babel	-12.454
▁Baptizer	-12.454
▁Beautiful	-12.454
▁Beroea	-12.454
▁Birds	-12.454
▁Bithynia	-12.454
▁Carmi	-12.454
▁Carolina	-12.454
▁Carry	-12.454
▁Circumcision	-12.454
▁Cotton	-12.454
▁Cowee	-12.454
▁Crispus	-12.454
▁Crucify	-12.454
▁December	-12.454
▁Dorcas	-12.454
▁Ellasar	-12.454
▁Epaphroditus	-12.454
▁Florida	-12.454
▁Flowers	-12.454
▁Friday	-12.454
▁Fulfil	-12.454
▁Gabriel	-12.454
▁Gerasenes	-12.454
▁Gershom	-12.454
▁Gethsemane	-12.454
▁Hirah	-12.454
▁Increase	-12.454
▁Izhar	-12.454
▁Jehoshaphat	-12.454
▁Joanna	-12.454
▁Jokshan	-12.454
▁Joram	-12.454
▁Lebanon	-12.454
▁Locust	-12.454
▁Lydda	-12.454
▁Lydia	-12.454
▁Matthias	-12.454
▁Mehujael	-12.454
▁Melchi	-12.454
▁Methusael	-12.454
▁Millipede	-12.454
▁Mississippi	-12.454
▁Mountain	-12.454
▁Nimrod	-12.454
▁Nineveh	-12.454
▁Onesiphorus	-12.454
▁Pergamum	-12.454
▁Phoeni	-12.454
▁Pisidia	-12.454
▁Pontiac	-12.454
▁Potomac	-12.454
▁Prophesy	-12.454
▁Publius	-12.454
▁Rabboni	-12.454
▁Radiant	-12.454
▁Rahab	-12.454
▁Rameses	-12.454
▁Rephaims	-12.454
▁Rufus	-12.454
▁Sabaoth	-12.454
▁Sacrifice	-12.454
▁Salome	-12.454
▁Search	-12.454
▁Seba	-12.454
▁Shaveh	-12.454
▁Siloam	-12.454
▁Smyrna	-12.454
▁Sosthenes	-12.454
▁Tavern	-12.454
▁Theophilus	-12.454
▁Thessalonians	-12.454
▁Tubalcain	-12.454
▁Zachariah	-12.454
▁Zerubbabel	-12.454
▁absolute	-12.454
▁accommodat	-12.454
▁acorns	-12.454
▁acquired	-12.454
▁alcohol	-12.454
▁altercat	-12.454
▁ammunition	-12.454
▁apothecary	-12.454
▁appeti	-12.454
▁appetizing	-12.454
▁apprehend	-12.454
▁armpits	-12.454
▁arrested	-12.454
▁artific	-12.454
▁assault	-12.454
▁assumption	-12.454
▁beefsteak	-12.454
▁bicycle	-12.454
▁bison	-12.454
▁bomb	-12.454
▁boulder	-12.454
▁bounc	-12.454
▁brilliant	-12.454
▁britches	-12.454
▁bureau	-12.454
▁burial	-12.454
▁busybodies	-12.454
▁calico	-12.454
▁chryso	-12.454
▁clamor	-12.454
▁companies	-12.454
▁compound	-12.454
▁consist	-12.454
▁conspiracy	-12.454
▁convocation	-12.454
▁craftsmen	-12.454
▁crawfish	-12.454
▁dazzling	-12.454
▁delud	-12.454
▁delusion	-12.454
▁denarius	-12.454
▁detail	-12.454
▁dictionary	-12.454
▁disannul	-12.454
▁discarded	-12.454
▁display	-12.454
▁divorcement	-12.454
▁doorframes	-12.454
▁drool	-12.454
▁effectual	-12.454
▁elaborate	-12.454
▁eloquent	-12.454
▁emperor	-12.454
▁enact	-12.454
▁erased	-12.454
▁evangelist	-12.454
▁executi	-12.454
▁experiment	-12.454
▁fatfleshed	-12.454
▁fathoms	-12.454
▁forefather	-12.454
▁foreknew	-12.454
▁fullgrown	-12.454
▁fumbling	-12.454
▁futile	-12.454
▁garner	-12.454
▁gleam	-12.454
▁goddess	-12.454
▁grisled	-12.454
▁gulped	-12.454
▁gunpowder	-12.454
▁gutted	-12.454
▁gutters	-12.454
▁huckleberries	-12.454
▁humiliation	-12.454
▁humility	-12.454
▁implements	-12.454
▁inconvenient	-12.454
▁infield	-12.454
▁ingathering	-12.454
▁interlude	-12.454
▁kinswoman	-12.454
▁kneadingtroughs	-12.454
▁lacing	-12.454
▁lamentation	-12.454
▁lantern	-12.454
▁leisure	-12.454
▁linked	-12.454
▁lintel	-12.454
▁mankind	-12.454
▁mattress	-12.454
▁millipedes	-12.454
▁moccasins	-12.454
▁mudflat	-12.454
▁muzzle	-12.454
▁napkin	-12.454
▁necktie	-12.454
▁negotiat	-12.454
▁nerve	-12.454
▁nipple	-12.454
▁nursing	-12.454
▁oink	-12.454
▁oysters	-12.454
▁pellets	-12.454
▁penknife	-12.454
▁phoe	-12.454
▁popcorn	-12.454
▁popover	-12.454
▁porcupine	-12.454
▁portrait	-12.454
▁preeminence	-12.454
▁prejudice	-12.454
▁preparing	-12.454
▁presumptuous	-12.454
▁problem	-12.454
▁promptly	-12.454
▁provocation	-12.454
▁rabble	-12.454
▁rapid	-12.454
▁religious	-12.454
▁renounce	-12.454
▁repair	-12.454
▁restraineth	-12.454
▁ribbon	-12.454
▁ridiculous	-12.454
▁scru	-12.454
▁scruples	-12.454
▁slamm	-12.454
▁slog	-12.454
▁slothful	-12.454
▁smiling	-12.454
▁sobriety	-12.454
▁soothsay	-12.454
▁sorceries	-12.454
▁sorcery	-12.454
▁spark	-12.454
▁squeal	-12.454
▁stimulate	-12.454
▁stompground	-12.454
▁subdue	-12.454
▁suffice	-12.454
▁sumptuous	-12.454
▁supreme	-12.454
▁surmis	-12.454
▁surpass	-12.454
▁survival	-12.454
▁terrestrial	-12.454
▁theoretical	-12.454
▁thereafter	-12.454
▁thirteen	-12.454
▁thistledown	-12.454
▁timbrel	-12.454
▁traffic	-12.454
▁trample	-12.454
▁trinket	-12.454
▁turnips	-12.454
▁twelfth	-12.454
▁unaccountabl	-12.454
▁unruly	-12.454
▁unsettle	-12.454
▁unthankful	-12.454
▁unwashen	-12.454
▁vesture	-12.454
▁vicinity	-12.454
▁victim	-12.454
▁walnut	-12.454
▁watermelon	-12.454
▁whippoorwill	-12.454
▁woodpile	-12.454
▁zero	-12.454
▁alarm	-12.454
▁cigarette	-12.454
acinth	-12.454
consequen	-12.454
shrunk	-12.454
▁Ancih	-12.454
▁Antipa	-12.454
▁Death	-12.454
▁Girgas	-12.454
▁Jenny	-12.454
▁Lie	-12.454
▁Lyc	-12.454
▁Secret	-12.454
▁Supreme	-12.454
▁advise	-12.454
▁applaud	-12.454
▁clutter	-12.454
▁copy	-12.454
▁cumber	-12.454
▁drowned	-12.454
▁expanse	-12.454
▁gabbl	-12.454
▁lilies	-12.454
▁magnificen	-12.454
▁mask	-12.454
▁option	-12.454
▁pastille	-12.454
▁revelling	-12.454
▁scourging	-12.454
▁snuffdishes	-12.454
▁stroll	-12.454
▁traitor	-12.454
▁tremen	-12.454
▁twirl	-12.454
▁unfair	-12.454
▁victual	-12.454
olog	-12.454
ummim	-12.454
▁Malch	-12.454
▁Mattath	-12.454
▁Ponti	-12.454
▁clown	-12.454
▁copper	-12.454
▁crafty	-12.454
▁defende	-12.454
▁flags	-12.454
▁lamented	-12.454
▁narrat	-12.454
▁plaster	-12.454
▁pollut	-12.454
▁terms	-12.454
▁whicker	-12.454
mphas	-12.454
▁Towers	-12.454
▁butterfly	-12.454
▁calculat	-12.454
▁circuit	-12.454
▁expert	-12.454
▁garnish	-12.454
▁ignore	-12.454
▁rescue	-12.454
▁smack	-12.454
▁wobbl	-12.454
hawk	-12.454
▁Baal	-12.454
▁Earth	-12.454
▁Galeed	-12.454
▁aloft	-12.454
▁lungs	-12.454
▁overflow	-12.454
▁suspicio	-12.454
▁fragran	-12.454
▁hobbl	-12.454
▁peaks	-12.454
▁basketfuls	-12.454
▁daddy	-12.454
▁glid	-12.454
▁balance	-12.454
▁chicks	-12.454
▁purification	-12.454
▁waistcoat	-12.454
▁Dalma	-12.454
▁Sabt	-12.454
▁cigar	-12.454
▁opus	-12.454
▁slats	-12.454
▁superlative	-12.454
spouts	-12.454
versatile	-12.454
▁approached	-12.454
▁initial	-12.454
▁assessment	-12.454
▁associat	-12.454
▁glare	-12.454
▁globe	-12.454
▁loathe	-12.454
▁rude	-12.454
▁runneth	-12.454
▁Bigfish	-12.454
▁filthiness	-12.454
▁salon	-12.454
▁beho	-12.454
▁coco	-12.454
▁councillor	-12.454
▁grandson	-12.454
▁lumber	-12.454
▁peek	-12.454
▁rigour	-12.454
▁steer	-12.454
▁persistent	-12.454
▁hazard	-12.454
▁ivy	-12.454
▁numer	-12.454
▁Josiah	-12.454
pproximately	-12.454
▁ambassage	-12.454
▁balm	-12.454
▁cinder	-12.454
▁eventide	-12.454
▁sentiment	-12.454
▁North	-12.454
▁dragline	-12.454
▁mir	-12.454
▁Raamah	-12.454
▁caution	-12.454
▁stanched	-12.454
▁broom	-12.454
▁superfluity	-12.454
▁crock	-12.454
▁welfare	-12.454
horus	-12.454
▁cautiously	-12.454
▁divinity	-12.454
▁esp	-12.454
▁pride	-12.454
voca	-12.454
▁Doctor	-12.454
▁precede	-12.454
▁stupor	-12.454
▁Corinthians	-12.454
▁babblings	-12.454
▁enchant	-12.454
▁reclin	-12.454
arsely	-12.454
▁June	-12.454
▁barber	-12.454
▁beaver	-12.454
▁local	-12.454
▁bacteria	-12.454
▁leasing	-12.454
assover	-12.454
sabba	-12.454
▁befitting	-12.454
▁furious	-12.454
▁ginger	-12.454
▁pills	-12.454
▁usury	-12.454
▁morals	-12.454
▁univers	-12.454
▁Febr	-12.454
▁compare	-12.454
▁dignities	-12.454
▁trump	-12.454
▁noisy	-12.454
▁guiltless	-12.454
▁billows	-12.454
▁bob	-12.454
▁outfit	-12.454
▁Gaza	-12.454
▁exploded	-12.454
▁fuss	-12.454
substan	-12.454
▁exhal	-12.454
▁pulse	-12.454
▁whale	-12.454
▁Bridge	-12.454
▁Salem	-12.454
▁drum	-12.454
▁Mizraim	-12.454
▁vaunt	-12.454
▁gallery	-12.454
▁manger	-12.454
▁gloomily	-12.454
▁Calah	-12.454
▁allotted	-12.4541
▁acquaintance	-12.4541
iggled	-12.4541
▁droop	-12.4541
▁flake	-12.4541
▁Spring	-12.4541
▁Zuck	-12.4541
▁eaves	-12.4541
▁enrolment	-12.4541
▁travers	-12.4541
▁chaise	-12.4541
▁kidding	-12.4541
▁mower	-12.4541
ndron	-12.4541
▁Owl	-12.4541
▁enforc	-12.4541
▁partiality	-12.4541
▁Julius	-12.4541
▁welder	-12.4541
▁Rai	-12.4541
ausage	-12.4541
▁Claudius	-12.4541
▁mineral	-12.4541
▁clash	-12.4541
raggle	-12.4541
▁Lud	-12.4541
▁policeman	-12.4541
NK	-12.4541
▁suet	-12.4541
tude	-12.4541
▁spoonful	-12.4541
▁tube	-12.4541
▁Break	-12.4541
Nice	-12.4541
▁Javan	-12.4541
▁Rhod	-12.4541
▁streak	-12.4541
▁Tert	-12.4541
▁sift	-12.4541
▁whittl	-12.4541
▁rhythmic	-12.4541
▁Cover	-12.4541
azin	-12.4541
▁stingy	-12.4541
▁legitima	-12.4541
▁subtilty	-12.4541
▁grove	-12.4541
▁motor	-12.4541
▁loyal	-12.4541
▁primar	-12.4541
▁poet	-12.4541
Meeting	-12.4541
▁battle	-12.4541
▁edified	-12.4541
eyond	-12.4541
▁shins	-12.4541
▁factious	-12.4541
▁concourse	-12.4541
▁hoot	-12.4541
▁earshot	-12.4541
▁Zac	-12.4541
▁Padanaram	-12.4541
▁Elisha	-12.4541
▁oilcloth	-12.4541
▁belonged	-12.4541
▁decade	-12.4541
▁Naaman	-12.4541
▁anti	-12.4541
▁Job	-12.4542
▁Poor	-12.4542
▁Dead	-12.4542
▁severity	-12.4542
▁Kid	-12.4542
▁leak	-12.4542
▁railhead	-12.4542
▁Jeze	-12.4542
▁hencefor	-12.4542
▁blunt	-12.4542
▁detest	-12.4542
▁embroiderer	-12.4542
▁sheath	-12.4542
▁suggestions	-12.4542
siah	-12.4542
▁rick	-12.4542
▁flute	-12.4542
▁groundhog	-12.4542
▁persuasive	-12.4542
▁Edomites	-12.4542
▁foreship	-12.4542
▁scold	-12.4542
urvey	-12.4542
▁Massa	-12.4542
▁Beersheba	-12.4542
▁ancest	-12.4542
▁thankfulness	-12.4542
osity	-12.4542
▁trench	-12.4542
▁tripod	-12.4542
▁drear	-12.4542
▁sandwiches	-12.4542
▁meditation	-12.4542
▁instant	-12.4542
▁wavering	-12.4542
▁ownership	-12.4542
bula	-12.4542
▁Teach	-12.4542
▁speedily	-12.4542
▁shattered	-12.4543
▁grid	-12.4543
▁removal	-12.4543
▁justifieth	-12.4543
▁Hermon	-12.4543
enser	-12.4543
ooper	-12.4543
▁Irad	-12.4543
AT	-12.4543
odily	-12.4543
▁rig	-12.4543
▁missionar	-12.4543
▁mites	-12.4543
▁recall	-12.4543
▁horseback	-12.4543
▁cruelty	-12.4543
▁expression	-12.4543
▁puddle	-12.4543
▁Merc	-12.4543
▁tackl	-12.4543
jah	-12.4543
▁buff	-12.4543
cian	-12.4543
lets	-12.4543
▁Hori	-12.4543
▁cookery	-12.4543
▁spectac	-12.4543
▁riotous	-12.4543
naim	-12.4544
▁variance	-12.4544
▁stew	-12.4544
▁beget	-12.4544
▁wariness	-12.4544
hites	-12.4544
churn	-12.4544
▁Kir	-12.4544
Easy	-12.4544
▁risk	-12.4544
actic	-12.4544
col	-12.4544
▁Hog	-12.4544
▁confirmation	-12.4544
▁pomp	-12.4544
▁policy	-12.4544
▁unholy	-12.4544
▁unseemly	-12.4544
cade	-12.4544
▁encourage	-12.4544
▁calam	-12.4544
▁alternate	-12.4544
▁mush	-12.4544
▁Matthan	-12.4544
▁Beriah	-12.4544
guiltiness	-12.4544
▁wakeful	-12.4544
▁fuck	-12.4544
▁skirmish	-12.4544
apolis	-12.4545
▁gig	-12.4545
▁piss	-12.4545
escend	-12.4545
▁bump	-12.4545
▁magical	-12.4545
▁wavered	-12.4545
▁Aram	-12.4545
▁theatre	-12.4545
▁transit	-12.4545
▁Kar	-12.4545
▁Bow	-12.4545
▁doubleminded	-12.4545
▁bondmen	-12.4545
▁history	-12.4545
▁politely	-12.4545
▁Tryph	-12.4545
▁sparingly	-12.4545
▁stinging	-12.4545
erceive	-12.4545
▁axle	-12.4545
▁suppertime	-12.4545
▁parings	-12.4545
▁thunderings	-12.4545
▁haircut	-12.4546
▁wrongfully	-12.4546
controlled	-12.4546
abies	-12.4546
▁roadway	-12.4546
▁grand	-12.4546
egion	-12.4547
▁hitherto	-12.4547
▁partial	-12.4547
▁Hadar	-12.4547
▁chaste	-12.4547
▁alongside	-12.4547
▁active	-12.4547
▁rocket	-12.4547
bber	-12.4547
▁boyhood	-12.4547
▁Night	-12.4547
riah	-12.4547
ddling	-12.4547
▁morter	-12.4548
eously	-12.4548
▁hump	-12.4548
▁gentleness	-12.4548
ccent	-12.4548
uda	-12.4548
▁impu	-12.4548
xa	-12.4548
▁acceptation	-12.4549
▁mockers	-12.4549
gage	-12.4549
▁rill	-12.4549
▁disbelieved	-12.4549
▁collapsed	-12.4549
▁wrinkled	-12.4549
▁fume	-12.4549
▁Onesi	-12.4549
▁attachment	-12.455
▁Jah	-12.455
crat	-12.455
▁fitting	-12.455
ilver	-12.455
▁thankful	-12.455
▁Crow	-12.4551
▁cling	-12.4551
▁identi	-12.4551
▁attraction	-12.4551
▁shaven	-12.4551
▁genealogy	-12.4551
▁china	-12.4551
▁tighten	-12.4551
▁mire	-12.4551
▁lam	-12.4551
▁honest	-12.4551
▁Gomer	-12.4552
agic	-12.4552
▁fearfulness	-12.4552
▁gorgeous	-12.4552
▁omen	-12.4552
▁surre	-12.4552
▁agent	-12.4552
▁Tab	-12.4552
▁seduc	-12.4552
▁Shim	-12.4553
nnels	-12.4553
▁homeland	-12.4553
▁tablets	-12.4553
▁approvedness	-12.4554
▁earnestness	-12.4554
▁ditch	-12.4554
planted	-12.4554
▁flourisheth	-12.4554
▁similarly	-12.4554
▁crunch	-12.4554
▁Obe	-12.4555
▁soberness	-12.4555
cientist	-12.4555
bia	-12.4555
▁lum	-12.4555
▁promi	-12.4555
▁crust	-12.4556
arden	-12.4556
ioch	-12.4556
retty	-12.4556
▁freeman	-12.4556
▁normal	-12.4557
▁bedtime	-12.4557
rged	-12.4557
▁foes	-12.4557
▁pew	-12.4557
▁stru	-12.4557
▁dreamily	-12.4558
▁thump	-12.4558
▁backbone	-12.4558
▁wealth	-12.4558
▁Ken	-12.4559
▁embalmed	-12.4559
▁graduated	-12.4559
▁hesitated	-12.4559
▁yawned	-12.4559
▁butchered	-12.4559
▁Fight	-12.4559
▁underwear	-12.456
▁sym	-12.456
▁select	-12.456
▁station	-12.456
▁memor	-12.4561
▁decaying	-12.4561
bsolution	-12.4561
Goodness	-12.4561
▁laughter	-12.4561
▁chast	-12.4561
▁gloriest	-12.4561
pilled	-12.4563
▁--	-12.4563
▁chasteneth	-12.4563
▁ledge	-12.4563
▁cobbler	-12.4564
▁Near	-12.4564
▁delicately	-12.4564
▁meekly	-12.4564
▁flapped	-12.4564
▁incl	-12.4564
▁Mish	-12.4564
▁Apple	-12.4564
▁swamp	-12.4565
▁Jann	-12.4565
▁cult	-12.4565
path	-12.4566
▁acquaint	-12.4566
▁wreck	-12.4567
▁blaze	-12.4567
▁familiar	-12.4567
▁ordinary	-12.4567
▁tailor	-12.4568
▁scene	-12.4568
▁lesson	-12.4568
▁Majest	-12.4568
▁dealings	-12.4569
▁ramp	-12.4569
xi	-12.4569
▁firelight	-12.457
amous	-12.457
▁Elim	-12.457
▁scabb	-12.457
▁withdrawn	-12.457
▁Mib	-12.4571
▁worshippeth	-12.4571
orci	-12.4571
key	-12.4571
Are	-12.4572
▁cure	-12.4573
allel	-12.4573
anim	-12.4573
affl	-12.4573
▁watchful	-12.4574
▁generally	-12.4574
ighteous	-12.4574
▁Alexandrian	-12.4575
▁scour	-12.4576
▁ruff	-12.4576
▁joyfully	-12.4576
blossom	-12.4576
▁reconcil	-12.4576
oose	-12.4578
▁striker	-12.4579
burger	-12.4579
▁unbeliever	-12.458
educ	-12.458
▁Wind	-12.458
▁Slug	-12.458
▁haul	-12.4581
▁perfection	-12.4581
▁sunris	-12.4582
▁bored	-12.4583
yway	-12.4583
▁plane	-12.4583
▁dresses	-12.4583
▁unity	-12.4583
▁frolic	-12.4584
▁dries	-12.4584
oon	-12.4585
▁carcase	-12.4586
▁thereupon	-12.4586
Avery	-12.4586
▁copies	-12.4587
▁palaces	-12.4587
▁centipedes	-12.4587
▁Mana	-12.4587
▁endeavors	-12.4587
▁grasshoppers	-12.4587
▁politics	-12.4587
▁proselytes	-12.4587
▁symbols	-12.4587
▁decrease	-12.4587
▁rambl	-12.4588
▁speeches	-12.4588
▁witch	-12.4588
▁meta	-12.459
▁scattereth	-12.4591
▁assuredly	-12.4592
▁gloriously	-12.4592
▁Boy	-12.4593
rban	-12.4593
▁dismissed	-12.4593
▁lackest	-12.4593
▁complained	-12.4593
▁handsome	-12.4593
▁bewitch	-12.4594
▁Jay	-12.4595
luc	-12.4595
▁lightening	-12.4596
esture	-12.4597
anging	-12.4597
▁foaming	-12.4597
▁baptizeth	-12.4597
▁complaining	-12.4598
kick	-12.4598
▁penny	-12.4599
▁overboard	-12.4602
▁project	-12.4603
evolution	-12.4603
▁Had	-12.4603
▁reviler	-12.4605
hepherd	-12.4605
sorry	-12.4606
▁plum	-12.4607
▁Rhe	-12.4607
▁mouthful	-12.4607
▁mom	-12.4608
tant	-12.4609
▁pyr	-12.461
▁faileth	-12.461
▁Joy	-12.461
▁becomingly	-12.4611
rubs	-12.4612
▁cau	-12.4612
destr	-12.4613
▁constant	-12.4614
▁pathetic	-12.4614
▁draft	-12.4615
▁quench	-12.4615
▁heartily	-12.4616
▁Hurry	-12.4617
willing	-12.4617
arvel	-12.4617
▁contem	-12.4618
▁TH	-12.462
▁wedge	-12.4621
▁Wash	-12.4621
▁earlie	-12.4622
composed	-12.4622
quality	-12.4624
▁Gi	-12.4625
▁Ze	-12.4627
▁encountered	-12.4627
▁licked	-12.4628
▁lightened	-12.4628
▁Help	-12.4628
▁dar	-12.4629
▁splash	-12.4629
▁abhorre	-12.4631
▁shorter	-12.4632
ripe	-12.4632
▁brightest	-12.4634
▁operating	-12.4635
▁lighten	-12.4636
▁thereabout	-12.4636
▁mansion	-12.464
▁nicely	-12.464
▁catcher	-12.464
▁spy	-12.464
olent	-12.4642
▁bo	-12.4643
▁Phu	-12.4644
▁summ	-12.4646
▁ruin	-12.4647
▁archer	-12.4647
▁excused	-12.465
▁meowing	-12.4652
lunchtime	-12.4653
▁tract	-12.4653
jack	-12.4653
▁compl	-12.4654
▁fastness	-12.4655
aa	-12.4655
ouching	-12.4655
lunta	-12.4656
▁remarked	-12.4661
▁vowed	-12.4664
▁Aren	-12.4664
▁expense	-12.4665
▁hangeth	-12.4666
▁belongings	-12.4668
▁hillsides	-12.4668
▁poplars	-12.4668
▁citizens	-12.4668
▁ev	-12.4668
▁proudly	-12.4669
▁readest	-12.4669
▁stare	-12.4672
▁flashing	-12.4672
▁despairing	-12.4673
mmon	-12.4673
▁legion	-12.4673
▁Ach	-12.4673
▁inventing	-12.4673
▁sadly	-12.4674
▁payments	-12.4675
▁someday	-12.4682
nything	-12.4682
▁graze	-12.4686
▁admoni	-12.4687
▁uncover	-12.4689
non	-12.469
▁Beor	-12.469
▁awaked	-12.4695
▁warmer	-12.4695
ymen	-12.4697
▁outright	-12.4697
▁weakling	-12.4702
▁Bart	-12.4708
▁knocking	-12.4711
▁sling	-12.4713
▁impos	-12.4713
▁Israelites	-12.4714
mely	-12.4715
▁gear	-12.4717
▁wickedly	-12.4717
arly	-12.472
Alon	-12.4724
ffed	-12.4725
▁dispos	-12.4725
▁nast	-12.4726
▁consol	-12.4727
▁ballplayer	-12.473
▁rattler	-12.4731
▁Phil	-12.4731
▁included	-12.4732
determin	-12.4735
met	-12.474
▁faster	-12.4744
▁decomposed	-12.4745
▁aboundeth	-12.4749
gation	-12.4751
▁dissipat	-12.4752
▁secretly	-12.4755
TER	-12.4756
▁cries	-12.4758
uled	-12.4774
▁onions	-12.4777
▁repenteth	-12.4786
▁departeth	-12.4788
▁sorely	-12.4794
▁reigneth	-12.4795
gen	-12.4807
orehouses	-12.4811
▁Ked	-12.4816
▁grassy	-12.4816
▁blasphemer	-12.4817
▁sel	-12.4828
▁lawfully	-12.483
▁weeds	-12.4867
attered	-12.4894
▁fou	-12.4909
▁explosi	-12.4923
▁dre	-12.4923
▁signal	-12.4923
▁rouse	-12.4928
▁husk	-12.493
ughing	-12.4934
▁vig	-12.4934
ssing	-12.4938
fied	-12.494
▁preferr	-12.4942
▁Arch	-12.4949
crackers	-12.4953
▁activit	-12.4967
▁Abia	-12.4976
attle	-12.4989
▁enjoin	-12.4999
▁twister	-12.5003
hopping	-12.5006
ulation	-12.5009
mping	-12.5009
▁kne	-12.5024
▁clapp	-12.5035
▁Hada	-12.5058
▁retain	-12.5066
▁popula	-12.5067
▁Shil	-12.5094
▁seedling	-12.511
chem	-12.5113
aves	-12.5135
▁Pau	-12.5146
cking	-12.5166
tura	-12.518
vity	-12.5191
year	-12.5204
ngular	-12.5249
▁che	-12.5271
arcel	-12.5283
▁dism	-12.5288
▁radian	-12.5305
▁attendan	-12.5321
nstead	-12.5326
▁resu	-12.5389
porter	-12.5402
▁Spid	-12.5414
shearer	-12.5443
▁sanctifie	-12.5452
▁grad	-12.5467
▁cu	-12.5469
▁lengthen	-12.5531
witch	-12.5543
udg	-12.5547
▁blur	-12.555
▁miser	-12.5586
▁weaken	-12.5593
La	-12.5603
rake	-12.5608
ope	-12.5614
gratulation	-12.5617
▁mini	-12.5652
▁distresse	-12.566
ork	-12.568
fallen	-12.5682
consider	-12.5688
tac	-12.5701
nybody	-12.5758
clusive	-12.5772
▁agenc	-12.5788
verse	-12.5856
balanc	-12.5868
▁trou	-12.5874
AB	-12.5901
▁Mesh	-12.5923
cial	-12.5934
had	-12.5935
lative	-12.6036
▁finishe	-12.6043
twee	-12.6061
resident	-12.6072
▁Mar	-12.6073
ailing	-12.6133
umbled	-12.6256
▁Alva	-12.6286
ency	-12.6331
each	-12.6358
▁non	-12.6394
G	-13.4444
Z	-13.4486
q	-14.7883
“	-14.7884
J	-14.7885
