{
  "src_word2id": {
    "<pad>": 0,
    "<s>": 1,
    "</s>": 2,
    "<unk>": 3,
    ",": 4,
    ".": 5,
    "\u2581\u13a0\u13b4": 6,
    "\u2581\u13be\u13cd\u13a9": 7,
    ";": 8,
    "\u13c3": 9,
    "\u2581\u13af\u13a0": 10,
    "\u2581\u13a8\u13d2": 11,
    "\u2581": 12,
    "\u13a2": 13,
    "\u2581\u13a5\u13dd": 14,
    "?": 15,
    "\u2581\u13a8\u13d2\u13a2": 16,
    "\u13f0\u13c3": 17,
    "\u13a9": 18,
    "\u2581\u13a8\u13ce\u13cd\u13d7": 19,
    "\u2581\u13a4\u13c1\u13b3\u13c5\u13af": 20,
    "\u2581\u13a4": 21,
    "\u2581\u13c3\u13b4": 22,
    "\u2581\u13a0": 23,
    "\u13d7": 24,
    "\u2581\u13f4\u13eb": 25,
    "\u13c9": 26,
    "\u201d": 27,
    "\u13af": 28,
    "\u2581\u13a9\u13b6": 29,
    "\u2581\u13a2\u13f3\u13cd\u13d7": 30,
    "\u2581\u13be\u13cd\u13c9": 31,
    "\u13ad": 32,
    "\u2581\u13be": 33,
    "\u2581\u13be\u13bf": 34,
    "\u2581\u13be\u13cd\u13a9\u13ef": 35,
    "\u2060": 36,
    "\u2581\u13a0\u13ce\u13c3": 37,
    "\u2581\u13a0\u13f4": 38,
    "\u2581\u13f1\u13a9": 39,
    "\u2581\u13a2\u13a6": 40,
    "\u2581\u13aa\u13b1\u13cd\u13d7": 41,
    "\u2581\u13e5\u13a9": 42,
    "-": 43,
    "\u2581\u13f1\u13b0\u13e9": 44,
    "\u2581\u13c2\u13a6\u13db": 45,
    "\u2581\u13c2\u13af": 46,
    "\u13be": 47,
    "\u2581\u13a4\u13ac\u13eb\u13f3\u13af": 48,
    "\u2581\u13c2\u13a8\u13d2\u13be": 49,
    "\u2581\u13e5\u13cc": 50,
    "\u13f1": 51,
    "\u13db": 52,
    "\u13cd\u13d7": 53,
    "\u2581\u201c": 54,
    "\u13cd\u13a9\u13c2": 55,
    "\u13d3": 56,
    "\u2581\u13a3\u13cd\u13db": 57,
    "\u2581\u13e7": 58,
    "\u2581\u13d7": 59,
    "\u2581\u13af\u13a0\u13c3": 60,
    "\u2581\u13a4\u13ea\u13e5": 61,
    "\u2581\u13a2\u13f3\u13c3": 62,
    "\u2581\u13be\u13cd\u13a9\u13c3": 63,
    "\u2581\u13e7\u13ea\u13e5": 64,
    "\u2581\u13a6\u13b6\u13c1\u13db": 65,
    "\u2581\u13e5": 66,
    "\u2581\u13a0\u13c2": 67,
    "\u2581\u13c4\u13ea\u13ce\u13a2": 68,
    "\u2581\u13de\u13cd\u13d7": 69,
    "\u13a6": 70,
    "\u2581\u13bf\u13c9": 71,
    "\u2581\u13a1\u13b6\u13af": 72,
    "\u2581\u13a8\u13cd\u13d7": 73,
    "\u2581\u13e3": 74,
    "\u2581\u13bf\u13c9\u13c3": 75,
    "\u2581\u13a4\u13f2": 76,
    "\u2581\u13da": 77,
    "\u13c5": 78,
    "\u2581\u13a6\u13d9": 79,
    "\u2581\u13a4\u13db\u13c1": 80,
    "!": 81,
    "\u2581\u13a4\u13e3\u13d8": 82,
    "\u2581\u13a0\u13cd\u13a6\u13ef": 83,
    "\u2581\u13f1": 84,
    "\u13c2": 85,
    "\u2581\u13a0\u13e5\u13b8": 86,
    "\u2581\u201d": 87,
    "\u2581\u13eb\u13b5\u13bb": 88,
    "\u2581\u13be\u13af\u13f3": 89,
    "\u2581\u13c2\u13a6\u13a5": 90,
    "\u2581\u13ac\u13c2\u13a8\u13d2": 91,
    "\u2581\u13a0\u13b9": 92,
    "\u2581\u13a6\u13b8\u13c9\u13d7\u13f3": 93,
    "\u2581\u13ac\u13c2\u13f3\u13c9": 94,
    "\u2581\u13c4\u13cd\u13db": 95,
    "\u2581\u13a1\u13af": 96,
    "\u2581\u13a6\u13b8\u13b3\u13d7": 97,
    "\u2581\u13a7\u13c3\u13ae\u13db": 98,
    "\u13b8": 99,
    "\u2581\u13a0\u13c1\u13af": 100,
    "\u2581\u13a4\u13e9\u13d2": 101,
    "\u2581\u13a0\u13f0\u13b5": 102,
    "\u13a8": 103,
    "\u2581\u13a0\u13d5\u13b8": 104,
    "\u13cf": 105,
    "\u2581\u13a4\u13e4\u13b5": 106,
    "\u2581\u13a8\u13ce\u13a2": 107,
    "\u13b5": 108,
    "\u2581\u13a0\u13ce": 109,
    "\u2581\u13a4\u13c2": 110,
    "\u2581\u13a2\u13e3": 111,
    "\u2581\u13cc\u13c9": 112,
    "\u2581\u13f0\u13b5": 113,
    "\u2581\u13a4\u13e4\u13b5\u13a6": 114,
    "\u2581\u13a2\u13f4\u13db": 115,
    "\u2581\u13aa\u13af": 116,
    "\u13d7\u13f1": 117,
    "\u13d2": 118,
    "\u13f3": 119,
    "\u2581\u13d3": 120,
    "\u2581\u13a6\u13d9\u13af": 121,
    "\u13b4": 122,
    "\u2581\u13d4\u13b5": 123,
    "\u2581\u13a4\u13cd\u13d7": 124,
    "\u2581\u13be\u13c2\u13a5": 125,
    "\u2581\u13a2": 126,
    "\u2581\u13a3\u13cf\u13f3": 127,
    "\u13b2": 128,
    "\u13a0": 129,
    "\u2581\u13a4\u13df": 130,
    "\u2581\u13af": 131,
    "\u2581\u13a2\u13cf\u13b5": 132,
    "\u2581\u13a3\u13cd\u13d3": 133,
    "\u13cd\u13aa": 134,
    "\u2581[": 135,
    "]": 136,
    "\u2581\u13d7\u13a7\u13bf\u13e9\u13db\u13cd\u13d7": 137,
    "\u2581\u13a6": 138,
    "\u2581\u13a0\u13d3\u13c5\u13d9": 139,
    "\u2581\u13a0\u13c2\u13cd\u13a6\u13ef": 140,
    "\u2581\u13a8\u13ce": 141,
    "\u2581\u13d4\u13b5\u13c1": 142,
    "\u2581\u13a2\u13e5\u13c8\u13f1": 143,
    "\u13cd\u13a9": 144,
    "\u13aa": 145,
    "\u2581\u13bc\u13cf": 146,
    "\u2581\u13ac\u13e9": 147,
    "\u2581\u13a2\u13f3": 148,
    "\u2581\u13a2\u13ac\u13f1": 149,
    "\u2581\u13a8\u13d2\u13a9": 150,
    "\u2581\u2060": 151,
    "\u2581\u13a1\u13b3\u13d7": 152,
    "\u13ac": 153,
    "\u2581\u13da\u13f3\u13aa\u13db": 154,
    "\u2581\u13e9\u13a6": 155,
    "\u2581\u13e4\u13a6\u13c8": 156,
    "\u2581\u13f3": 157,
    "\u13c1": 158,
    "\u2581\u13a0\u13eb": 159,
    "\u2581\u13a4\u13c2\u13e3\u13d8": 160,
    "\u13a8\u13cd\u13d7": 161,
    "\u2581\u13a4\u13be": 162,
    "\u2581\u13a1\u13c6\u13ad\u13bb": 163,
    "\u2581\u13a2\u13f3\u13b5\u13cd\u13d9\u13d7\u13f1": 164,
    "\u13d9\u13d7": 165,
    "\u2581\u13a6\u13d9\u13c3": 166,
    "\u13ef": 167,
    ":": 168,
    "\u13cd": 169,
    "\u2581\u13a2\u13d7\u13e2": 170,
    "\u2581\u13cf\u13c6": 171,
    "\u2581\u13c7\u13b5\u13f2": 172,
    "\u2581\u13be\u13a5": 173,
    "\u2581\u13f2\u13be": 174,
    "\u2581\u13eb": 175,
    "\u2581\u13a0\u13a8\u13f4": 176,
    "\u2581\u13ac\u13d7": 177,
    "\u2581\u13e6\u13e9": 178,
    "\u2581\u13a0\u13cf": 179,
    "\u2581\u13cc\u13b3\u13d3": 180,
    "\u2581\u13c5\u13a9": 181,
    "\u2581\u13e6\u13a2": 182,
    "\u2581\u13ed": 183,
    "\u2581\u13c4\u13ea\u13d2\u13a9": 184,
    "\u2581\u13c2\u13a6\u13d3": 185,
    "\u2581\u13c4\u13ea\u13ce\u13b4\u13a2": 186,
    "\u13b3": 187,
    "\u2581\u13c5\u13ef": 188,
    "\u13e5": 189,
    "\u2581\u13e7\u13d3\u13b4\u13c5\u13db": 190,
    "\u2581\u13a2\u13e5": 191,
    "\u2581\u13a6\u13aa": 192,
    "\u2581\u13a0\u13d3": 193,
    "\u2581\u13d0\u13c8\u13b5": 194,
    "\u2581\u13a6\u13da": 195,
    "\u2581\u13f1\u13a8\u13ce\u13cd\u13d7": 196,
    "\u2581\u13c2\u13aa\u13af\u13b8": 197,
    "\u2581\u13a4\u13d9\u13af\u13f3\u13af\u13ef": 198,
    "\u2581\u13e5\u13cc\u13c3": 199,
    "\u2581\u13ef": 200,
    "\u13ce": 201,
    "\u2581\u13c2": 202,
    "\u13ae": 203,
    "\u13cd\u13ac": 204,
    "\u2581\u13c2\u13da\u13ea\u13ce\u13b4\u13a2": 205,
    "\u2581\u13dd\u13cd\u13aa": 206,
    "\u2581\u13a0\u13c2\u13e7\u13cf": 207,
    "\u2581\u13e3\u13ac\u13eb\u13f3\u13af": 208,
    "\u2581\u13a4\u13ac\u13e9\u13b5": 209,
    "\u2581\u13a0\u13c6": 210,
    "\u2581\u13e7\u13e4\u13b5": 211,
    "\u2581\u13a6\u13b5\u13c9\u13a9": 212,
    "\u2581\u13d3\u13b6\u13c2\u13a8": 213,
    "\u2581\u13c4": 214,
    "\u2581\u13ac\u13e9\u13cd\u13d3\u13e9\u13d7\u13d9\u13af": 215,
    "\u2581\u13c4\u13ea\u13ce\u13b8\u13a9": 216,
    "\u2581\u13a6\u13d3": 217,
    "\u2581\u13a1\u13cd\u13a6": 218,
    "\u2581\u13c2\u13a6\u13d7\u13f3": 219,
    "\u2581\u13a4\u13d9\u13d3": 220,
    "\u2581\u13a2\u13e7\u13b3\u13ad": 221,
    "\u2581\u13f0\u13b5\u13c9": 222,
    "\u2581\u13ac": 223,
    "\u2581\u13a8": 224,
    "\u2581\u13a3\u13c2": 225,
    "\u13d8": 226,
    "\u2581\u13d5": 227,
    "\u2581\u13c8\u13d3": 228,
    "\u2581\u13aa\u13ea\u13b5": 229,
    "\u2581\u13da\u13c2": 230,
    "\u2581\u13c4\u13ea\u13ce\u13b4": 231,
    "\u2581\u13dd": 232,
    "\u2581\u13a4\u13e4\u13cd\u13d9": 233,
    "\u2581\u13a2\u13f4": 234,
    "\u2581\u13a0\u13a9": 235,
    "\u13f4": 236,
    "\u2581\u13a2\u13a9": 237,
    "\u2581\u13e3\u13c2": 238,
    "\u2581\u13e5\u13b7\u13cf\u13b5\u13bb": 239,
    "\u2581\u13a0\u13e7\u13e3": 240,
    "\u2581\u13c2\u13da\u13ea\u13ce\u13b8\u13a9": 241,
    "\u2581\u13a6\u13da\u13b2": 242,
    "\u2581\u13a0\u13cf\u13c9": 243,
    "\u2581\u13ac\u13c2": 244,
    "\u2581\u13a1": 245,
    "\u2581\u13c5\u13d7\u13a6\u13b5\u13cd\u13d9\u13d7\u13ad": 246,
    "\u2581\u13a0\u13c2\u13a8\u13f4": 247,
    "\u2581\u13a4\u13c5\u13d2": 248,
    "\u2581\u13f1\u13a8\u13ce": 249,
    "\u2581\u13c9\u13b3": 250,
    "\u2581\u13e7\u13be\u13d3\u13b4\u13c5\u13db": 251,
    "\u2581\u13a1\u13d9\u13d3": 252,
    "\u2581\u13a2\u13e4": 253,
    "\u2581\u13a2\u13ef\u13c2\u13db": 254,
    "\u2581\u13ac\u13c2\u13db": 255,
    "\u2581\u13cd\u13a9": 256,
    "\u2581\u13c4\u13ac\u13eb\u13f3\u13d2": 257,
    "\u2581\u13c2\u13ac\u13be\u13db": 258,
    "\u2581\u13a2\u13a6\u13a2": 259,
    "\u2581\u13be\u13cd\u13a9\u13ef\u13a2": 260,
    "\u2581\u13e3\u13b5": 261,
    "\u2581\u13d0\u13c9": 262,
    "\u2581\u13a0\u13c2\u13d4\u13b5": 263,
    "\u2581\u13aa\u13af\u13f3\u13d7": 264,
    "\u13b0": 265,
    "\u13e2": 266,
    "\u2581\u13af\u13cd\u13a9": 267,
    "\u13cd\u13a8\u13cd\u13d7": 268,
    "\u2581\u13a1\u13b3\u13c2": 269,
    "\u2581\u13be\u13a5\u13c2": 270,
    "\u13d4\u13c5\u13af": 271,
    "\u2581\u13c4\u13b5\u13cd\u13d4\u13c1\u13a2": 272,
    "\u2581\u13d1\u13be\u13b4": 273,
    "\u13a5": 274,
    "\u2581\u13a4\u13b5\u13c2\u13a9\u13db": 275,
    "\u2581\u13a7": 276,
    "\u2581\u13d9": 277,
    "\u2581\u13a4\u13d3\u13b5\u13a2": 278,
    "\u13cc": 279,
    "\u2581\u13a4\u13d9\u13af\u13f3\u13af": 280,
    "\u13b8\u13af": 281,
    "\u2581\u13a4\u13c1\u13e8": 282,
    "\u2581\u13e5\u13aa": 283,
    "\u2581\u13bc\u13cf\u13c3": 284,
    "\u2581\u13a0\u13e3\u13d7": 285,
    "\u2581\u13ad": 286,
    "\u2581\u13d7\u13a6\u13b3\u13eb\u13a2\u13cd\u13d7\u13f1": 287,
    "\u13b8\u13a9": 288,
    "\u2581\u13a2\u13a8\u13ce\u13cd\u13d7": 289,
    "\u2581\u13a2\u13ac\u13f1\u13d7\u13e2": 290,
    "\u2581\u13a4\u13d3\u13d9\u13b5\u13cd\u13d7": 291,
    "\u2581\u13c4\u13c2\u13ea\u13ce\u13a2": 292,
    "\u13ae\u13cd\u13d7": 293,
    "\u2581\u13e7\u13c2": 294,
    "\u13e3": 295,
    "\u2581\u13a9\u13a6\u13a8": 296,
    "\u2581\u13a0\u13ef": 297,
    "\u13b4\u13a2": 298,
    "\u13e8": 299,
    "\u2581\u13e7\u13be": 300,
    "\u2581\u13d7\u13a6\u13b8\u13eb\u13cd\u13d3\u13c1\u13d7": 301,
    "\u2581\u13a9\u13b3": 302,
    "\u2581\u13d7\u13a7\u13bf\u13e9\u13d7\u13d9\u13af": 303,
    "\u2581\u13a4\u13db\u13c5": 304,
    "\u13d4\u13c5": 305,
    "\u2581\u13a0\u13b5\u13cd\u13d3\u13f4\u13d7": 306,
    "\u2581\u13d7\u13e3": 307,
    "\u2581\u13a2\u13e7\u13b3": 308,
    "\u2581\u13cc\u13cc": 309,
    "\u13eb": 310,
    "\u13d9": 311,
    "\u13d5": 312,
    "\u2581\u13a1\u13cf\u13a9": 313,
    "\u2581\u13a4\u13d3": 314,
    "\u2581\u13a0\u13be\u13b5\u13c5\u13df": 315,
    "\u2581\u13ad\u13eb\u13c2": 316,
    "\u2581\u13d3\u13c6\u13b4\u13b3": 317,
    "\u2581\u13b0\u13bb": 318,
    "\u2581\u13a6\u13b6\u13af\u13cd\u13d7\u13f1": 319,
    "\u2581\u13c5\u13e9\u13d3\u13b4": 320,
    "\u2581\u13a2\u13be\u13a8": 321,
    "\u2581\u13a4\u13e9\u13cc": 322,
    "\u2581\u13d2\u13c3\u13f1": 323,
    "\u2581\u13a4\u13e5": 324,
    "\u2581\u13cd\u13a9\u13be\u13be": 325,
    "\u2581\u13e7\u13ac\u13e9\u13b6\u13d7": 326,
    "\u2581\u13a2\u13ac\u13f1\u13f1": 327,
    "\u2581\u13ac\u13e9\u13a6\u13d8\u13ef": 328,
    "\u2581\u13a4\u13c3\u13d5\u13be": 329,
    "\u2581\u13c5\u13d9": 330,
    "\u2581\u13a5": 331,
    "\u2581\u13d4\u13b3\u13da": 332,
    "\u2581\u13a2\u13b8\u13af\u13f3": 333,
    "\u2581\u13a3": 334,
    "\u2581\u13a6\u13b8\u13b6\u13a2": 335,
    "\u2581\u13da\u13d9\u13a5": 336,
    "\u2581\u13f1\u13a8\u13ce\u13a2": 337,
    "\u13cd\u13db": 338,
    "\u13d4": 339,
    "\u2581\u13a6\u13f2\u13df": 340,
    "\u2581\u13a4\u13be\u13e4\u13b5\u13a6": 341,
    "\u13d2\u13a2": 342,
    "\u13cd\u13a6": 343,
    "\u2581\u13e7\u13be\u13c1\u13b6\u13d7": 344,
    "\u2581\u13a0\u13cf\u13f4\u13eb": 345,
    "\u2581\u13da\u13be": 346,
    "\u13c5\u13af": 347,
    "\u2581\u13e5\u13f3": 348,
    "\u2581\u13c5\u13e9\u13d9\u13af\u13ef\u13db": 349,
    "\u2581\u13a6\u13f3\u13b3": 350,
    "\u2581\u13a3\u13a9": 351,
    "\u13c9\u13cd\u13a9\u13c2": 352,
    "\u2581\u13c4\u13b5\u13cd\u13d4\u13c5": 353,
    "\u2581\u13a2\u13d3\u13b5\u13c5\u13df": 354,
    "\u2581\u13a4\u13da\u13a9": 355,
    "\u2581\u13d7\u13a6": 356,
    "\u2581\u13e9": 357,
    "\u2581\u13f1\u13a8\u13d2\u13be": 358,
    "\u13cd\u13a9\u13c2\u13c3\u13c5": 359,
    "\u13cd\u13aa\u13a2": 360,
    "\u2581\u13a0\u13f0\u13b8": 361,
    "\u2581\u13a0\u13c6\u13e4\u13b5": 362,
    "\u2581\u13a4\u13cd\u13c6\u13c2\u13aa\u13d7": 363,
    "\u13c1\u13a2": 364,
    "\u2581\u13a6\u13d3\u13ad": 365,
    "\u2581\u13d3\u13c2": 366,
    "\u2581\u13a1\u13c6": 367,
    "\u2581\u13a2\u13aa\u13af\u13db": 368,
    "\u2581\u13a0\u13ac\u13f1": 369,
    "\u13ce\u13a2": 370,
    "\u2581\u13ad\u13eb\u13c2\u13d7\u13e2": 371,
    "\u2581\u13a0\u13c7\u13e5": 372,
    "\u2581\u13e7\u13e4\u13b5\u13a6": 373,
    "\u2581\u13a9\u13b3\u13c9": 374,
    "\u2581\u13c5\u13d3\u13f3\u13d3\u13b4\u13c5\u13af": 375,
    "\u2581\u13c2\u13e8\u13ea\u13ce\u13ad": 376,
    "\u2581\u13ad\u13e2": 377,
    "\u2581\u13c4\u13c2\u13ea\u13d2\u13a9": 378,
    "\u13b8\u13a2": 379,
    "\u2581\u13a4\u13c7\u13d3\u13b5": 380,
    "\u2581\u13a4\u13be\u13d3\u13c5\u13d8": 381,
    "\u2581\u13d0\u13a2": 382,
    "\u2581\u13db": 383,
    "\u2581\u13a2\u13f3\u13e9\u13c2\u13cc\u13db": 384,
    "\u2581\u13a2\u13f3\u13f0\u13c3": 385,
    "\u2581\u13a2\u13d0": 386,
    "\u2581\u13af\u13b3": 387,
    "\u2581\u13e0\u13a8\u13cf": 388,
    "\u2581\u13a4\u13c1\u13b3\u13a9": 389,
    "\u2581\u13c3\u13d7": 390,
    "\u2581\u13c4\u13cd\u13d7": 391,
    "\u2581\u13a2\u13ef\u13a6\u13f4\u13b5": 392,
    "\u2581\u13a4\u13d5\u13b5\u13db": 393,
    "\u2581\u13e7\u13d9\u13a2\u13db": 394,
    "\u2581\u13c4\u13ea\u13d2": 395,
    "\u13b6": 396,
    "\u2581\u13a2\u13a6\u13db": 397,
    "\u2581\u13a6\u13b5\u13e6\u13db": 398,
    "\u2581\u13a0\u13d3\u13c1\u13b8": 399,
    "\u13cd\u13d7\u13f1": 400,
    "\u2581\u13e7\u13cd\u13c6\u13f4\u13cd\u13d7": 401,
    "\u2581\u13a4\u13db\u13db\u13c1": 402,
    "\u13b2\u13a2": 403,
    "\u13c6": 404,
    "\u2581\u13cd\u13c9": 405,
    "\u2581\u13a2\u13f3\u13b5\u13cd\u13d9\u13d7": 406,
    "\u2581\u13c4\u13b5\u13cd\u13d4\u13c1": 407,
    "\u2581\u13d7\u13aa\u13e2\u13d4\u13c5\u13af": 408,
    "\u2581\u13a0\u13c1\u13b2": 409,
    "\u2581\u13a2\u13aa\u13af\u13d3": 410,
    "\u13d2\u13a9": 411,
    "\u2581\u13a0\u13c1\u13b2\u13a2": 412,
    "\u2581\u13c4\u13d3\u13b4\u13d2": 413,
    "\u13c5\u13a9": 414,
    "\u2581\u13e6\u13a2\u13c1": 415,
    "\u13aa\u13a2": 416,
    "\u2581\u13e6": 417,
    "\u2581\u13a0\u13cd\u13d3\u13ef": 418,
    "\u2581\u13a6\u13c1\u13b8": 419,
    "\u2581\u13a4\u13be\u13e4\u13b5": 420,
    "\u13a8\u13a2": 421,
    "\u2581\u13a0\u13be\u13d9\u13b4\u13b0\u13cd\u13a9": 422,
    "\u2581\u13cf": 423,
    "\u2581\u13c3\u13c9": 424,
    "\u2581\u13a0\u13cd\u13aa\u13af\u13e7\u13c8": 425,
    "\u2581\u13a9\u13ac": 426,
    "\u2581\u13d5\u13e5": 427,
    "\u13e4": 428,
    "\u2581\u13e5\u13a8\u13d2": 429,
    "\u2581\u13a1\u13b3\u13c6\u13d7": 430,
    "\u13d9\u13d7\u13f1": 431,
    "\u2581\u13a0\u13f2\u13b1\u13af\u13cd\u13d7": 432,
    "\u2581\u13e7\u13c5\u13cf\u13d3\u13cd\u13d7": 433,
    "\u2581\u13c4\u13b5\u13cd\u13d4\u13c5\u13a9": 434,
    "\u2581\u13d5\u13a6": 435,
    "\u2581\u13a0\u13a6\u13f4\u13b5\u13a8": 436,
    "\u2581\u13a4\u13d2": 437,
    "\u2581\u13cc\u13e9\u13c2": 438,
    "\u2581\u13a0\u13c2\u13c6\u13b5\u13cf": 439,
    "\u13ae\u13a2": 440,
    "\u2581\u13a7\u13c5\u13c2\u13cd\u13a9": 441,
    "\u13e9": 442,
    "\u2581\u13a4\u13c2\u13c3\u13d5\u13be": 443,
    "\u2581\u13a4\u13c3\u13b4": 444,
    "\u2581\u13e5\u13f3\u13af": 445,
    "\u2581\u13a4\u13c1\u13ac": 446,
    "\u2581\u13a4\u13d2\u13af": 447,
    "\u2581\u13a0\u13cd\u13a6\u13c2": 448,
    "\u2581\u13a1\u13e3": 449,
    "\u13ac\u13a2": 450,
    "\u2581\u13c4\u13c2\u13ac\u13eb\u13f3\u13d2": 451,
    "\u2581\u13e7\u13d5\u13d8\u13f4\u13db": 452,
    "\u2581\u13a0\u13ba\u13c9\u13af": 453,
    "\u2581\u13d7\u13e5": 454,
    "\u2581\u13a0\u13cd\u13aa\u13b5": 455,
    "\u13ca": 456,
    "\u2581\u13a4\u13c2\u13ac\u13eb\u13f3\u13af": 457,
    "\u2581\u13a8\u13d0\u13a2": 458,
    "\u13cd\u13ac\u13a2": 459,
    "\u2581\u13a1\u13e5": 460,
    "\u2581\u13a2\u13ef": 461,
    "\u2581\u13a2\u13a6\u13e4\u13b5": 462,
    "\u2581\u13a0\u13d9\u13b4\u13b0\u13cd\u13a9": 463,
    "\u13df": 464,
    "\u2581\u13c2\u13ac": 465,
    "\u13a4": 466,
    "\u13a7": 467,
    "\u2581\u13d7\u13c2\u13a7\u13bf\u13e9\u13d7\u13d9\u13af": 468,
    "\u2581\u13a4\u13ec\u13f0\u13c2": 469,
    "\u2581\u13e3\u13c4\u13cf": 470,
    "\u2581\u13c5\u13e9\u13be\u13d3\u13b4": 471,
    "\u2581\u13c2\u13af\u13cd\u13a9\u13c2": 472,
    "\u13f2": 473,
    "\u2581\u13a4\u13d3\u13c5\u13d8": 474,
    "\u13cd\u13d9\u13d7": 475,
    "\u13e7": 476,
    "\u2581\u13a8\u13d0": 477,
    "\u2581\u13be\u13bf\u13c2": 478,
    "\u2581\u13a0\u13e5": 479,
    "\u13a8\u13b6\u13af": 480,
    "\u2581\u13a2\u13d7": 481,
    "\u2581\u13d1\u13d3\u13b5": 482,
    "\u2581\u13e7\u13c2\u13cd\u13c6\u13c2\u13aa\u13d9\u13d7": 483,
    "\u2581\u13a5\u13a5": 484,
    "\u2581\u13c2\u13ac\u13c5": 485,
    "\u2581\u13d7\u13c2\u13f2\u13b5": 486,
    "\u2581\u13a2\u13e8": 487,
    "\u2581\u13a6\u13b8\u13b6": 488,
    "\u2581\u13a4\u13d9\u13af\u13f3": 489,
    "\u13a3": 490,
    "\u2581\u13a4\u13f4\u13cd\u13d7": 491,
    "\u2581\u13a0\u13f2\u13b5": 492,
    "\u2581\u13a1\u13c6\u13bb": 493,
    "\u2581\u13a4\u13b5\u13c2\u13a9\u13d7\u13f3": 494,
    "\u13f0": 495,
    "\u2581\u13a1\u13dd\u13ea\u13af": 496,
    "\u13c1\u13b8": 497,
    "\u2581\u13a0\u13a6\u13f4\u13b5\u13a8\u13a2": 498,
    "\u2581\u13e4\u13e5": 499,
    "\u2581\u13a6\u13b5\u13e6\u13d5": 500,
    "\u2581\u13a6\u13be\u13dd\u13a2": 501,
    "\u2581\u13aa\u13b0\u13cd\u13d7": 502,
    "\u2581\u13a0\u13c2\u13f4\u13eb\u13ef": 503,
    "\u2581\u13a4\u13b5\u13cf\u13a9": 504,
    "\u2581\u13e8\u13d2": 505,
    "\u2581\u13a2\u13e8\u13d2": 506,
    "\u2581\u13a4\u13c5\u13d7": 507,
    "\u2581\u13a3\u13d3\u13b8": 508,
    "\u2581\u13d4\u13b5\u13c1\u13c3": 509,
    "\u2581\u13d7\u13c2\u13f2\u13df": 510,
    "\u2581\u13a0\u13d3\u13a8\u13f3\u13d7": 511,
    "\u2581\u13a8\u13b5\u13b5": 512,
    "\u13a1": 513,
    "\u2581\u13a6\u13b8\u13c9\u13d7": 514,
    "\u2581\u13a4\u13c1\u13b3\u13c5\u13af\u13c3": 515,
    "\u13a6\u13b5": 516,
    "\u2581\u13e5\u13a8\u13d2\u13a9": 517,
    "\u2581\u13e5\u13a8\u13ce\u13a2": 518,
    "\u13a0\u13c1\u13b6\u13af": 519,
    "\u13c8": 520,
    ")": 521,
    "\u2581\u13a2\u13ef\u13a9\u13f3\u13cd\u13c8\u13db": 522,
    "\u2581\u13a0\u13cd\u13a9\u13be": 523,
    "\u2581\u13a4\u13e4\u13b5\u13aa\u13af": 524,
    "\u2581\u13aa\u13a2": 525,
    "\u2581\u13a0\u13a9\u13be": 526,
    "\u2581\u13ad\u13be": 527,
    "\u2581\u13c4\u13d3\u13b4": 528,
    "\u2581\u13a0\u13c4\u13ec": 529,
    "\u2581\u13d7\u13c3\u13ea\u13b5\u13cd\u13a9": 530,
    "\u2581\u13a4\u13c5\u13cf\u13d3\u13cd\u13d7": 531,
    "\u2581\u13d5\u13eb": 532,
    "\u2581\u13a7\u13c1\u13cc\u13a2": 533,
    "\u2581\u13d8": 534,
    "\u2581\u13a0\u13be": 535,
    "\u2581\u13a9\u13df": 536,
    "\u2581\u13a6\u13f0\u13aa\u13a9": 537,
    "\u2581\u13a6\u13da\u13b2\u13a2": 538,
    "\u2581\u13a0\u13a6\u13d4\u13b2\u13a2": 539,
    "\u2581\u13ad\u13c2": 540,
    "\u2581(": 541,
    "\u2581\u13a7\u13c1\u13cd\u13a6": 542,
    "\u2581\u13a0\u13c2\u13e7\u13e3": 543,
    "\u2581\u13a4\u13ac\u13eb\u13f3\u13cc\u13d5\u13a9": 544,
    "\u2581\u13a0\u13db": 545,
    "\u13dd": 546,
    "\u2581\u13eb\u13e5": 547,
    "\u2581\u13d7\u13c6\u13e4\u13b5": 548,
    "\u2581\u13b4\u13c6\u13c2": 549,
    "\u2581\u13a0\u13c3\u13af\u13f3\u13b2\u13cd\u13a9": 550,
    "\u2581\u13e5\u13cd\u13d5\u13e5": 551,
    "\u2581\u13a4\u13e3\u13d4\u13c5\u13af": 552,
    "\u2581\u13a0\u13f0\u13b3\u13cd\u13d7": 553,
    "\u2581\u13c4\u13cd\u13d5\u13cd\u13d7": 554,
    "\u2581\u13a4\u13db\u13a6\u13c5": 555,
    "\u2581\u13a2\u13a6\u13d3": 556,
    "\u2581\u13a4\u13f0\u13b8\u13d7": 557,
    "\u2581\u13e3\u13e4\u13b5": 558,
    "\u13cd\u13a8\u13a2": 559,
    "\u2581\u13a0\u13c2\u13cd\u13a9\u13be": 560,
    "\u2581\u13d7\u13a6\u13d9\u13b5": 561,
    "\u2581\u13d4\u13b7\u13a9\u13cd\u13a9": 562,
    "\u2581\u13c5": 563,
    "\u2581\u13a8\u13b3\u13cd\u13d7\u13f1": 564,
    "\u13d4\u13c5\u13a9": 565,
    "\u13c1\u13d7\u13f1": 566,
    "\u2581\u13b1": 567,
    "\u2581\u13d5\u13e3": 568,
    "\u2581\u13a0\u13cc\u13bb\u13d3": 569,
    "\u2581\u13d7\u13be\u13d3\u13c5\u13df": 570,
    "\u2581\u13a8\u13e5\u13c5\u13cf\u13db": 571,
    "\u2581\u13ba\u13b5": 572,
    "\u2581\u13c5\u13f2\u13af": 573,
    "\u2581\u13e7\u13c1\u13e5": 574,
    "\u2581\u13a0\u13d7\u13be": 575,
    "\u2581\u13a0\u13c2\u13cf\u13f4\u13eb\u13ad": 576,
    "\u2581\u13a4\u13f2\u13b1\u13d2": 577,
    "\u2581\u13a2\u13a6\u13db\u13c3": 578,
    "\u2581\u13c2\u13a6": 579,
    "\u2581\u13f1\u13a6": 580,
    "\u2581\u13a4\u13f0\u13b8\u13db": 581,
    "\u13cd\u13d4\u13c5": 582,
    "\u2581\u13a0\u13b2": 583,
    "\u13d4\u13c1": 584,
    "\u2581\u13a4\u13aa\u13b2": 585,
    "\u2581\u13d7\u13e3\u13e4\u13b5": 586,
    "\u2581\u13f4": 587,
    "\u2581\u13a2\u13b8\u13af\u13e2": 588,
    "\u2581\u13a6\u13e9\u13d2\u13a9": 589,
    "\u2581\u13a2\u13f3\u13d5\u13d8\u13f4\u13db": 590,
    "\u2581\u13e7\u13c2\u13f2\u13b1\u13d2\u13af": 591,
    "\u2581\u13a4\u13d5\u13c1\u13b4\u13a2": 592,
    "\u13cd\u13d3": 593,
    "\u2581\u13aa\u13e2\u13d4\u13c5\u13af": 594,
    "\u2581\u13b0\u13e9": 595,
    "o": 596,
    "\u2581\u13a0\u13a6\u13d9\u13a5\u13af\u13cd\u13d7": 597,
    "\u2581\u13a0\u13cd\u13aa\u13af": 598,
    "\u13e7\u13c8": 599,
    "\u2581\u13e5\u13a8\u13ce": 600,
    "\u2581\u13a0\u13ce\u13c9": 601,
    "\u2581\u13a6\u13cd\u13a9\u13b8": 602,
    "\u2581\u13a2\u13f3\u13cd\u13a9\u13c2": 603,
    "\u2581\u13ac\u13c5": 604,
    "\u2581\u13a4\u13c1": 605,
    "\u2581\u13b0": 606,
    "\u2581\u13c5\u13d3\u13ac\u13e9\u13d3\u13b4\u13c5\u13db": 607,
    "\u2581\u13c3\u13ef": 608,
    "\u2581\u13e3\u13c1\u13b3\u13c5\u13af": 609,
    "\u13cd\u13a8": 610,
    "\u2581\u13e8": 611,
    "\u2581\u13a4\u13e0\u13f1": 612,
    "\u2581\u13a2\u13f3\u13be\u13cd\u13d7": 613,
    "\u2581\u13c2\u13aa\u13af\u13b8\u13a2": 614,
    "\u13d7\u13ad": 615,
    "\u13d7\u13a6\u13b3\u13eb\u13a2\u13cd\u13d7\u13f1": 616,
    "\u2581\u13d3\u13d4\u13b4\u13d2": 617,
    "\u2581\u13a4\u13be\u13d3\u13e1\u13ac": 618,
    "\u2581\u13a7\u13c1\u13ac": 619,
    "\u13ac\u13be": 620,
    "\u13d0": 621,
    "\u2581\u13d7\u13d3\u13cd\u13da\u13d7\u13f1": 622,
    "\u2581\u13ad\u13eb\u13ef": 623,
    "\u2581\u13e5\u13a6\u13d4\u13ad": 624,
    "\u13d4\u13c1\u13a2": 625,
    "\u2581\u13a4\u13b7\u13e8": 626,
    "\u2581\u13c5\u13d7\u13a6\u13b5\u13cd\u13d9\u13d7\u13cd\u13a8": 627,
    "\u2581\u13c4\u13ea\u13ce": 628,
    "\u13b2\u13a9": 629,
    "\u2581\u13a8\u13f4": 630,
    "\u13ad\u13e9": 631,
    "\u13c5\u13a2": 632,
    "\u2581\u13e5\u13da": 633,
    "\u2581\u13d4\u13d5\u13f2\u13b2\u13cd\u13a9": 634,
    "\u2581\u13c6\u13b4\u13d7": 635,
    "\u2581\u13d7\u13e4\u13e5": 636,
    "\u2581\u13a5\u13e3\u13f1": 637,
    "\u2581\u13a4\u13be\u13e4\u13b5\u13aa\u13af": 638,
    "\u2581\u13e7\u13c2\u13b8\u13eb\u13cd\u13d3\u13c1\u13af": 639,
    "\u2581\u13d3\u13a6": 640,
    "\u2581\u13d7\u13c2": 641,
    "\u2581\u13a4\u13d0\u13c5": 642,
    "\u13ce\u13cd\u13d7": 643,
    "\u2581\u13a4\u13be\u13db\u13a6\u13c5": 644,
    "\u2581\u13a2\u13b8\u13cd\u13a9": 645,
    "\u2581\u13d2\u13a6\u13d4": 646,
    "\u2581\u13c5\u13a6\u13cd\u13aa\u13af": 647,
    "\u2581\u13a4\u13b5\u13ae\u13b5\u13cd\u13d7": 648,
    "\u2581\u13c5\u13d3\u13a6\u13b5\u13cd\u13d9\u13d7\u13cd\u13ac\u13a9": 649,
    "\u2581\u13a4\u13b4\u13c5\u13ae": 650,
    "\u2581\u13a4\u13f2\u13a2\u13f3": 651,
    "\u2581\u13a0\u13b3\u13c2": 652,
    "\u2581\u13ac\u13d8": 653,
    "\u2581\u13da\u13ec\u13a1\u13a2": 654,
    "\u2581\u13a1\u13b6\u13db": 655,
    "\u2581\u13a0\u13c2\u13ef\u13eb\u13cd\u13a9": 656,
    "\u2581\u13c2\u13af\u13c3": 657,
    "\u2581\u13a0\u13c2\u13d0\u13a2": 658,
    "\u13b2\u13be": 659,
    "\u2581\u13be\u13cd\u13a9\u13cd\u13a9\u13c2": 660,
    "\u2581\u13e4": 661,
    "\u2581\u13a6\u13c1\u13b8\u13a2": 662,
    "\u2581-": 663,
    "\u2581\u13a6\u13b5\u13e6\u13db\u13a2": 664,
    "\u2581\u13a4\u13d9": 665,
    "\u2581\u13a4\u13a7\u13db": 666,
    "\u2581\u13a2\u13ef\u13c2": 667,
    "\u2581\u13a0\u13b9\u13f1": 668,
    "\u2581\u13a6\u13cd\u13a9\u13b6": 669,
    "\u2581\u13d7\u13ac": 670,
    "\u2581\u13cc\u13c9\u13c9": 671,
    "\u2581\u13d7\u13c5\u13c3\u13db": 672,
    "\u2581\u13e5\u13cd\u13c6": 673,
    "\u2581\u13a1\u13ba\u13c5": 674,
    "\u2581\u13ac\u13e9\u13da\u13eb\u13db": 675,
    "\u2581\u13a9\u13b3\u13c8\u13f4": 676,
    "\u2581\u13a4\u13e3\u13b4\u13cd\u13d7": 677,
    "\u2581\u13a0\u13ac\u13f1\u13e3": 678,
    "\u2581\u13a3\u13af\u13cd\u13d9\u13d7": 679,
    "\u2581\u13ad\u13eb\u13c2\u13e3": 680,
    "\u2581\u13e3\u13b3\u13a9": 681,
    "\u2581\u13ac\u13d4\u13c5\u13af": 682,
    "\u2581\u13c2\u13e3": 683,
    "\u2581\u13ac\u13c2\u13a8": 684,
    "\u2581\u13a3\u13c2\u13c3": 685,
    "\u13be\u13cd\u13a9": 686,
    "\u2581\u13a4\u13be\u13d9\u13d3\u13c6\u13cd\u13ac": 687,
    "\u2581\u13c2\u13da\u13ea\u13ce\u13b4": 688,
    "\u2581\u13a4\u13d9\u13b4\u13b0\u13d2": 689,
    "\u2581\u13a4\u13d3\u13c5\u13d9": 690,
    "\u13c1\u13b8\u13af": 691,
    "\u2581\u13b4\u13e5\u13b5": 692,
    "\u2581\u13a0\u13c2\u13f2\u13cd\u13a9": 693,
    "\u2581\u13a0\u13c2\u13e3\u13b3\u13a9": 694,
    "\u2581\u13a6\u13b8\u13b3\u13d7\u13e2": 695,
    "\u2581\u13a0\u13b5": 696,
    "\u2581\u13d7\u13ac\u13e9": 697,
    "\u13b4\u13cd\u13d7": 698,
    "\u2581\u13a0\u13a6": 699,
    "\u13a8\u13b3\u13cd\u13d7\u13f1": 700,
    "\u2581\u13e5\u13a8\u13d0": 701,
    "\u2581\u13c2\u13e5\u13a5": 702,
    "\u2581\u13cd\u13a9\u13f4": 703,
    "\u2581\u13a4\u13b5": 704,
    "\u2581\u13a4\u13c5": 705,
    "\u2581\u13d7\u13c4\u13ec": 706,
    "\u2581\u13eb\u13be\u13cd\u13db\u13be": 707,
    "\u2581\u13a1\u13c9\u13c2": 708,
    "\u2581\u13e7\u13d2\u13af\u13db": 709,
    "\u2581\u13ce\u13b5": 710,
    "\u2581\u13aa\u13a9": 711,
    "\u2581\u13e4\u13af": 712,
    "\u2581\u13c2\u13a6\u13ea\u13cd\u13ac": 713,
    "\u2581\u13a1\u13ad": 714,
    "\u2581\u13da\u13cf\u13b3\u13db": 715,
    "\u2581\u13c2\u13da": 716,
    "\u2581\u13d4": 717,
    "\u13b7": 718,
    "\u2581\u13a4\u13ea\u13d8": 719,
    "\u2581\u13aa": 720,
    "\u2581\u13ab\u13e9": 721,
    "\u2581\u13d6\u13b8\u13b3\u13d7": 722,
    "\u2581\u13c3\u13c8\u13cf": 723,
    "\u2581\u13a0\u13d5\u13b3": 724,
    "\u2581\u13be\u13c2\u13ea\u13cd\u13a8\u13a2": 725,
    "\u2581\u13a0\u13c6\u13e4\u13b5\u13a6": 726,
    "\u2581\u13a6\u13da\u13cf": 727,
    "\u13d7\u13cd\u13ac": 728,
    "\u13d7\u13cd\u13a9": 729,
    "\u2581\u13e7\u13d7\u13f1": 730,
    "\u2581\u13a0\u13cb\u13d2": 731,
    "\u13bb": 732,
    "\u2581\u13a2\u13be\u13a8\u13a2": 733,
    "\u2581\u13d1\u13be\u13b4\u13a2": 734,
    "\u13ea": 735,
    "\u2581\u13a8\u13be\u13c2": 736,
    "\u2581\u13ab": 737,
    "\u2581\u13ed\u13d5\u13b5\u13ac": 738,
    "\u2581\u13a4\u13cf\u13d9\u13b5": 739,
    "\u2581\u13c2\u13ac\u13e9\u13ea\u13ce\u13b4\u13a2": 740,
    "\u2581\u13a2\u13f3\u13df\u13b6\u13db": 741,
    "\u2581\u13d5\u13af": 742,
    "\u2581\u13aa\u13f1\u13c1\u13a2": 743,
    "\u2581\u13f1\u13da": 744,
    "\u2581\u13d9\u13f1": 745,
    "\u2581\u13e4\u13cd\u13d7": 746,
    "\u2581\u13a0\u13c2\u13a6\u13d4\u13b2": 747,
    "\u2581\u13a4\u13b5\u13cf\u13ac": 748,
    "\u2581\u13a4\u13c1\u13e4": 749,
    "\u13d5\u13cd\u13d7": 750,
    "\u13d4\u13c2": 751,
    "\u13af\u13f3": 752,
    "\u13c4": 753,
    "\u13db\u13be": 754,
    "\u2581\u13d7\u13e8\u13cd\u13d9\u13d7": 755,
    "\u2581\u13a6\u13b6\u13c7": 756,
    "\u2581\u13d1\u13be\u13d3\u13e1\u13a9": 757,
    "\u2581\u13a9\u13a6": 758,
    "\u2581\u13c3\u13ca": 759,
    "\u13d3\u13c1\u13d7": 760,
    "\u2581\u13a2\u13be\u13db": 761,
    "\u2581\u13c5\u13d7\u13a6\u13b5\u13cd\u13d9\u13d7\u13cd\u13a8\u13cd\u13d7": 762,
    "\u2581\u13a0\u13f4\u13c3": 763,
    "\u2581\u13f1\u13d3": 764,
    "\u13ac\u13a9": 765,
    "\u2581\u13a6\u13b5": 766,
    "\u2581\u13a6\u13b6\u13af\u13cd\u13d7": 767,
    "\u2581\u13e5\u13a8\u13d0\u13a2": 768,
    "\u13d2\u13be": 769,
    "\u2581\u13d7\u13ab\u13aa\u13d9\u13d7": 770,
    "\u2581\u13a4\u13ea\u13b5\u13ce": 771,
    "\u2581\u13c4\u13be\u13cd\u13db": 772,
    "\u2581\u13a1\u13af\u13cd\u13d7": 773,
    "\u2581\u13a3\u13e5": 774,
    "\u2581\u13e1\u13ac": 775,
    "\u2581\u13a4\u13c1\u13e4\u13b4": 776,
    "\u2581\u13a4\u13be\u13d3": 777,
    "\u2581\u13a3\u13ad\u13c1": 778,
    "\u2581\u13a8\u13e5": 779,
    "\u2581\u13a4\u13c1\u13b3\u13c5\u13af\u13cd\u13a9\u13c2": 780,
    "\u2581\u13a3\u13a6": 781,
    "\u2581\u13e3\u13e5": 782,
    "\u2581\u13ac\u13c3\u13db": 783,
    "\u2581\u13d7\u13b5\u13cd\u13d3\u13f4\u13d7\u13f1": 784,
    "\u2581\u13a0\u13e5\u13b8\u13c9\u13d7\u13f3": 785,
    "\u2581\u13a0\u13b0\u13b5": 786,
    "\u2581\u13a4\u13c1\u13a6": 787,
    "\u2581\u13eb\u13da": 788,
    "\u2581\u13a4\u13ac\u13eb\u13f3": 789,
    "\u2581\u13a4\u13e9": 790,
    "\u13af\u13a0": 791,
    "\u2581\u13ac\u13c2\u13f3\u13c9\u13c3": 792,
    "\u2581\u13a4\u13cd\u13aa\u13b8": 793,
    "\u2581\u13a1\u13b6": 794,
    "\u2581\u13f1\u13e3": 795,
    "\u2581\u13a4\u13ea\u13b7\u13c1": 796,
    "\u2581\u13c4\u13db\u13c1\u13b4": 797,
    "\u2581\u13a4\u13da\u13b5\u13cd\u13ac": 798,
    "\u2581\u13a0\u13c6\u13d3\u13c5\u13d9": 799,
    "\u2581\u13a4\u13ea": 800,
    "\u2581\u13e7\u13be\u13e4\u13b5": 801,
    "\u2581\u13e7\u13ec\u13f0\u13c2": 802,
    "\u2581\u13c2\u13a6\u13ea\u13ad": 803,
    "\u2581\u13a5\u13de\u13cd\u13d7": 804,
    "\u2581\u13cd\u13d3\u13ef": 805,
    "\u2581\u13a4\u13c2\u13b7\u13e4": 806,
    "\u2581\u13e3\u13c1\u13ad": 807,
    "\u2581\u13a0\u13ce\u13c9\u13c9": 808,
    "\u2581\u13d3\u13f3": 809,
    "\u2581\u13a8\u13e3": 810,
    "\u2581\u13ae\u13be": 811,
    "\u2581\u13a2\u13c5": 812,
    "\u2581\u13a0\u13f0\u13b8\u13a2": 813,
    "\u2581\u13a0\u13d3\u13c5\u13d6\u13cd\u13ac": 814,
    "\u2581\u13ac\u13e9\u13c2": 815,
    "\u2581\u13a0\u13b5\u13cd\u13aa\u13b8\u13d9\u13d7": 816,
    "\u13cd\u13d8": 817,
    "\u2581\u13d7\u13a7\u13b8\u13ac": 818,
    "\u2581\u13e7\u13c6\u13b6\u13a6": 819,
    "\u2581\u13e6\u13a0\u13cd\u13aa\u13af": 820,
    "\u2581\u13a9\u13b6\u13cd\u13a9\u13c2": 821,
    "\u2581\u13c4\u13be": 822,
    "\u2581\u13a4\u13a9\u13ac": 823,
    "\u2581\u13d7\u13c2\u13b3\u13eb\u13a9": 824,
    "\u2581\u13c5\u13c3\u13af": 825,
    "\u2581\u13e7\u13be\u13e4\u13b5\u13a6": 826,
    "\u2581\u13a9\u13a6\u13a8\u13a2": 827,
    "\u2581\u13a4\u13e9\u13d2\u13c9": 828,
    "\u2581\u13d5\u13a4": 829,
    "\u13c1\u13e2\u13d4\u13c5\u13db": 830,
    "\u13d2\u13af": 831,
    "\u2581\u13c5\u13d7\u13a6\u13b5\u13cd\u13d9\u13d7\u13cd\u13ac": 832,
    "\u2581\u13a3\u13cf": 833,
    "\u2581\u13d3\u13be": 834,
    "\u2581\u13a2\u13e3\u13b5\u13cd\u13d3\u13c1\u13d7": 835,
    "\u2581\u13cd\u13a9\u13be": 836,
    "\u13af\u13cd\u13d7": 837,
    "\u2581\u13e9\u13ad\u13ef": 838,
    "\u2581\u13d9\u13f1\u13d7\u13e2": 839,
    "\u2581\u13a4\u13cd\u13c6\u13c2\u13a9\u13d7": 840,
    "\u13da": 841,
    "\u2581\u13a1\u13b6\u13d7": 842,
    "\u13d7\u13cd\u13a8\u13cd\u13d7": 843,
    "\u2581\u13a4\u13e0\u13f1\u13c9": 844,
    "\u13b0\u13a2": 845,
    "\u2581\u13e7\u13d3": 846,
    "\u2581\u13a0\u13d9\u13af": 847,
    "\u2581\u13a4\u13a6\u13d4": 848,
    "\u2581\u13db\u13a6": 849,
    "\u13d9\u13a2\u13f3\u13cd\u13d7": 850,
    "\u2581\u13ac\u13a9": 851,
    "\u2581\u13a4\u13e3\u13d8\u13c2": 852,
    "\u13db\u13a2": 853,
    "\u2581\u13a2\u13f3\u13be\u13b5\u13cd\u13d3\u13c1\u13d7": 854,
    "\u2581\u13a2\u13f3\u13be\u13db\u13c1\u13d7": 855,
    "\u2581\u13af\u13cd\u13a6\u13cd\u13aa\u13af": 856,
    "\u2581\u13c2\u13da\u13f3\u13aa\u13db\u13be": 857,
    "\u2581\u13ce\u13d3\u13c2": 858,
    "\u2581\u13ce\u13b7": 859,
    "\u2581\u13e3\u13c1\u13e2\u13d4\u13c5\u13af": 860,
    "\u2581\u13e3\u13d9\u13d3": 861,
    "\u2581\u13a4\u13c2\u13d9\u13d3": 862,
    "\u13a9\u13cd\u13d7": 863,
    "\u2581\u13e9\u13cd\u13db": 864,
    "\u2581\u13f1\u13e5\u13a6\u13d4\u13ad": 865,
    "\u2581\u13a2\u13e4\u13b2": 866,
    "\u2581\u13e5\u13bb": 867,
    "\u2581\u13a0\u13d7\u13d4\u13cd\u13d7": 868,
    "\u2581\u13b6\u13d7": 869,
    "\u2581\u13be\u13a5\u13c2\u13a8": 870,
    "\u2581\u13a4\u13b5\u13cd\u13c6\u13b8\u13d7": 871,
    "\u2581\u13d3\u13e5": 872,
    "\u2581\u13a0\u13c2\u13c5": 873,
    "\u13e1": 874,
    "\u2581\u13a4\u13d0\u13f1": 875,
    "\u2581\u13a4\u13ec\u13e2": 876,
    "\u13c1\u13b4": 877,
    "\u2581\u13a8\u13b5": 878,
    "\u2581\u13a4\u13b5\u13cd\u13d3\u13f4\u13d7": 879,
    "\u2581\u13f1\u13a6\u13b5\u13cd\u13d9\u13d3": 880,
    "\u2581\u13a0\u13e5\u13c5\u13cf\u13d3\u13cd\u13d7": 881,
    "\u2581\u13b5\u13a0": 882,
    "\u2581\u13a4\u13b5\u13cd\u13c8\u13d7": 883,
    "\u2581\u13a2\u13e5\u13cd\u13a6\u13ef": 884,
    "\u2581\u13da\u13be\u13d9\u13a5": 885,
    "--": 886,
    "\u2581\u13a0\u13a6\u13d4\u13b2": 887,
    "\u2581\u13a4\u13a7\u13b5\u13e8\u13af": 888,
    "\u2581\u13e7\u13d3\u13cf": 889,
    "\u2581\u13ce\u13a6": 890,
    "\u2581\u13a4\u13be\u13dd\u13a2": 891,
    "\u2581\u13aa\u13b3": 892,
    "\u13d6": 893,
    "\u2581\u13a4\u13cd\u13aa\u13cd": 894,
    "\u2581\u13c2\u13d7": 895,
    "\u2581\u13a2\u13e4\u13b2\u13a2": 896,
    "\u2581\u13a6\u13ec\u13c2\u13cd\u13ac": 897,
    "\u2581\u13c4\u13ea\u13ce\u13b8": 898,
    "\u2581\u13a0\u13f4\u13cd\u13a9\u13c2": 899,
    "\u2581\u13a1\u13b2": 900,
    "\u2581\u13a1\u13b5": 901,
    "\u2581\u13b5\u13c7\u13a9": 902,
    "\u2581\u13a8\u13bb\u13b5": 903,
    "\u2581\u13a4\u13a6\u13be\u13cd\u13db": 904,
    "\u2581\u13da\u13c5\u13d3\u13d2": 905,
    "\u2581\u13a0\u13c2\u13f4\u13eb": 906,
    "\u2581\u13a0\u13a8\u13f3\u13e3": 907,
    "\u2581\u13cf\u13cc": 908,
    "\u2581\u13a4\u13f2\u13b1\u13ce\u13a2": 909,
    "\u2581\u13e5\u13c4\u13cd\u13d7": 910,
    "\u2581\u13ac\u13d9\u13d7": 911,
    "\u2581\u13a6\u13c1\u13a6": 912,
    "\u13b8\u13ad": 913,
    "\u2581\u13a4\u13b7\u13e4": 914,
    "\u2581\u13a6\u13b8\u13b3\u13d7\u13e3": 915,
    "\u13ec": 916,
    "\u13d9\u13b8\u13a2": 917,
    "\u2581\u13c5\u13d3": 918,
    "\u13bf": 919,
    "\u2581\u13f2": 920,
    "\u2581\u13ac\u13c5\u13a2": 921,
    "\u2581\u13d3\u13a9": 922,
    "\u13c1\u13d7": 923,
    "\u2581\u13a2\u13ef\u13db\u13c1\u13d7": 924,
    "\u2581\u13e7\u13b8\u13eb\u13cd\u13d3\u13c1\u13af": 925,
    "\u2581\u13d4\u13b4\u13b2\u13a6": 926,
    "\u2581\u13a0\u13c2\u13f3\u13e9\u13c1\u13a6": 927,
    "\u2581\u13e7\u13d3\u13c6\u13d9\u13a9": 928,
    "\u2581\u13e5\u13aa\u13ea\u13b3": 929,
    "\u2581\u13d3\u13c6\u13b4\u13b7": 930,
    "\u2581\u13a2\u13ac\u13c1\u13b8\u13af": 931,
    "\u2581\u13a6\u13da\u13a2\u13e3": 932,
    "\u2581\u13a2\u13be\u13d3": 933,
    "\u13c1\u13ad": 934,
    "\u13c7": 935,
    "\u2581\u13ed\u13b7\u13e4": 936,
    "\u2581\u13a4\u13d5\u13ef\u13d9\u13d7": 937,
    "\u2581\u13a2\u13f3\u13b5\u13cd\u13d3\u13c1\u13d7": 938,
    "\u2581\u13a0\u13d7\u13ad": 939,
    "\u2581\u13a6\u13da\u13a2": 940,
    "\u2581\u13a4\u13be\u13b5": 941,
    "\u2581\u13a4\u13b6\u13a9\u13b8": 942,
    "\u13cf\u13f4\u13eb\u13ad": 943,
    "\u2581\u13a4\u13c2\u13cd\u13a6\u13c5\u13e8": 944,
    "\u13cd\u13aa\u13af": 945,
    "\u2581\u13ac\u13d7\u13cd\u13ac": 946,
    "\u2581\u13a4\u13db\u13a6\u13c1": 947,
    "\u2581\u13c4\u13b5\u13cd\u13d4\u13c2\u13d9\u13b8": 948,
    "\u2581\u13a4\u13c2\u13f2": 949,
    "\u2581\u13c8\u13b5\u13a9": 950,
    "\u2581\u13a6\u13b7\u13ef\u13cd\u13d7": 951,
    "\u2581\u13c5\u13d3\u13a6\u13b5\u13cd\u13d4\u13c2": 952,
    "\u2581\u13d4\u13b3\u13cd\u13aa\u13af": 953,
    "\u2581\u13a2\u13e3\u13b5\u13c5\u13df": 954,
    "\u2581\u13d5\u13e7\u13ac": 955,
    "\u2581\u13a4\u13be\u13d3\u13e4\u13b5\u13db": 956,
    "\u2581\u13a6\u13c5\u13cd\u13d9\u13d7": 957,
    "\u2581\u13a0\u13c2\u13a8\u13ef": 958,
    "\u2581\u13a2\u13e5\u13d9\u13d3": 959,
    "\u2581\u13af\u13c5\u13cf\u13d3\u13cd\u13d7": 960,
    "\u2581\u13e7\u13be\u13db\u13d0\u13c5\u13af": 961,
    "\u2581\u13a2\u13e3\u13db\u13c1\u13d7\u13f1": 962,
    "\u2581\u13ce\u13a6\u13e8": 963,
    "\u13cd\u13d4\u13c1\u13a2": 964,
    "\u2581\u13cd\u13aa\u13af": 965,
    "\u2581\u13a6\u13b5\u13c9\u13a9\u13c1": 966,
    "\u13db\u13a9": 967,
    "\u2581\u13a0\u13c2\u13d3": 968,
    "\u13ac\u13bf\u13a8": 969,
    "\u2581\u13e5\u13d3": 970,
    "\u13af\u13cd\u13d7\u13f1": 971,
    "\u2581\u13a4\u13c2\u13aa\u13b2": 972,
    "\u2581\u13c2\u13af\u13f0\u13c3": 973,
    "\u13a3\u13cd\u13d3": 974,
    "\u2581\u13a4\u13db\u13be": 975,
    "\u13d7\u13cd\u13aa": 976,
    "\u2581\u13d0\u13a3\u13c1\u13b3": 977,
    "\u2581\u13d3\u13bf\u13e9": 978,
    "\u2581\u13a4\u13a9\u13e8\u13db": 979,
    "\u2581\u13a2\u13ef\u13db\u13c1\u13af": 980,
    "\u2581\u13e5\u13c2\u13ac\u13c5": 981,
    "\u2581\u13a2\u13e8\u13a8\u13f3\u13a2": 982,
    "\u2581\u13c2\u13a6\u13b5\u13cd\u13d7\u13ad": 983,
    "\u2581\u13a6\u13b8\u13c9\u13d9\u13d7": 984,
    "\u2581\u13a4\u13b4\u13c2\u13d9\u13b4\u13a2": 985,
    "\u13d9\u13af": 986,
    "\u2581\u13ed\u13b6\u13ce\u13a2": 987,
    "\u2581\u13a2\u13ef\u13cd\u13d7": 988,
    "\u2581\u13a1\u13ae\u13a2": 989,
    "\u2581\u13be\u13af\u13f3\u13c9": 990,
    "\u2581\u13a4\u13b7\u13e8\u13a9": 991,
    "\u2581\u13a4\u13aa\u13ae": 992,
    "\u2581\u13a4\u13ea\u13c5\u13ce": 993,
    "\u2581\u13c2\u13a6\u13a5\u13c9": 994,
    "\u2581\u13a0\u13d3\u13c5\u13d3\u13d7\u13cd\u13d7": 995,
    "\u13a8\u13f3\u13af\u13f3": 996,
    "\u2581\u13a4\u13c1\u13e4\u13b8": 997,
    "\u2581\u13e9\u13ef": 998,
    "\u13cd\u13ac\u13be": 999,
    "\u13a0\u13d7\u13d4\u13cd\u13d7": 1000,
    "\u13d7\u13a6\u13c5\u13cc\u13d7": 1001,
    "\u2581\u13d7\u13a6\u13da\u13b2": 1002,
    "\u2581\u13d7\u13a8\u13d2": 1003,
    "\u2581\u13a4\u13b5\u13cd\u13c6\u13d7\u13cd\u13d7": 1004,
    "\u2581\u13e7\u13c2\u13be\u13eb": 1005,
    "\u2581\u13c2\u13ac\u13be\u13db\u13a2": 1006,
    "\u13a7\u13d4\u13ae\u13a2": 1007,
    "\u2581\u13a0\u13c2\u13cd\u13a6\u13be": 1008,
    "\u2581\u13a7\u13c3\u13af\u13f0\u13a9": 1009,
    "\u2581\u13a5\u13d3\u13b5": 1010,
    "\u2581\u13c5\u13ac\u13e9\u13ea\u13ce\u13b8\u13a9": 1011,
    "\u2581\u13a4\u13be\u13eb": 1012,
    "\u2581\u13a2\u13e5\u13a6\u13d4\u13ad": 1013,
    "\u2581\u13cf\u13d3\u13c1\u13b8\u13af": 1014,
    "\u2581\u13a4\u13df\u13af\u13f3": 1015,
    "\u2581\u13a0\u13c2\u13c3\u13af\u13b5\u13d9\u13af": 1016,
    "\u2581\u13a0\u13d3\u13c1\u13af": 1017,
    "\u2581\u13a6\u13db\u13a6": 1018,
    "\u2581\u13a0\u13e4\u13af": 1019,
    "\u2581\u13e4\u13ad": 1020,
    "\u2581\u13a2\u13ac\u13e9": 1021,
    "\u2581\u13aa\u13ea\u13b8\u13a2": 1022,
    "\u2581\u13a0\u13c2\u13a6\u13d4\u13b2\u13a2": 1023,
    "\u2581\u13e7\u13c2\u13cd\u13d7": 1024,
    "\u2581\u13c2\u13d3": 1025,
    "\u2581\u13e7\u13e9": 1026,
    "\u2581\u13a6\u13d3\u13c1": 1027,
    "\u2581\u13c5\u13e9\u13d3\u13b4\u13c3": 1028,
    "\u2581\u13aa\u13ea\u13b8": 1029,
    "\u13c5\u13d2": 1030,
    "\u2581\u13f4\u13eb\u13c9": 1031,
    "\u2581\u13a4\u13bf": 1032,
    "\u2581\u13a0\u13ef\u13d9": 1033,
    "\u2581\u13a4\u13d5\u13d8\u13f4\u13cc\u13d7\u13d2": 1034,
    "\u2581\u13a0\u13c2\u13ec\u13c2\u13cd\u13ac": 1035,
    "\u2581\u13c4\u13e9\u13c1\u13b4": 1036,
    "\u2581\u13a0\u13cd\u13db": 1037,
    "\u2581\u13c2\u13a6\u13b5\u13cd\u13d7\u13cd\u13ac": 1038,
    "\u2581\u13a6\u13c4\u13b8": 1039,
    "\u2581\u13a6\u13d9\u13ac": 1040,
    "\u2581\u13a0\u13e0\u13c1\u13d7": 1041,
    "\u2581\u13d7\u13c7\u13e5": 1042,
    "\u2581\u13c5\u13d3\u13f3\u13b6\u13d2\u13af": 1043,
    "\u2581\u13a1\u13c9\u13af\u13f3": 1044,
    "\u2581\u13a0\u13a6\u13d8\u13cf\u13d7\u13e2": 1045,
    "\u2581\u13a6\u13ec\u13c2\u13cd\u13a9": 1046,
    "\u2581\u13e7\u13f3\u13aa\u13d7": 1047,
    "\u2581\u13d7\u13f0\u13b8\u13af": 1048,
    "\u2581\u13e9\u13b6\u13cf": 1049,
    "\u2581\u13a6\u13b7\u13e8\u13ad": 1050,
    "\u2581\u13a4\u13d4\u13b3\u13ec\u13af\u13cd\u13d7": 1051,
    "\u2581\u13be\u13cd\u13a9\u13ef\u13c9": 1052,
    "\u13c5\u13be": 1053,
    "\u2581\u13af\u13aa": 1054,
    "\u2581\u13a0\u13d3\u13eb": 1055,
    "\u2581\u13a0\u13b9\u13df": 1056,
    "\u2581\u13a0\u13c6\u13db\u13c5": 1057,
    "\u2581\u13a6\u13b8": 1058,
    "\u13b2\u13a6": 1059,
    "\u2581\u13d7\u13be": 1060,
    "\u13c1\u13b3": 1061,
    "\u13db\u13c1\u13d7": 1062,
    "\u2581\u13e5\u13e3": 1063,
    "\u2581\u13a8\u13a6": 1064,
    "\u13a7\u13c2": 1065,
    "\u2581\u13a0\u13a6\u13d7": 1066,
    "\u13d5\u13be": 1067,
    "\u2581\u13a4\u13c1\u13e8\u13a9": 1068,
    "\u2581\u13c4\u13db\u13c1\u13b8": 1069,
    "---": 1070,
    "\u2581\u13a6\u13d9\u13a8": 1071,
    "\u2581\u13c4\u13cd\u13d5": 1072,
    "\u2581\u13d9\u13db": 1073,
    "\u13cd\u13c6": 1074,
    "\u2581\u13d5\u13a4\u13d9\u13a5": 1075,
    "\u2581\u13d3\u13f3\u13d3\u13b4\u13c5": 1076,
    "\u13a8\u13d2": 1077,
    "\u2581\u13a0\u13c6\u13da\u13b5": 1078,
    "\u2581\u13e7\u13b8\u13eb\u13cd\u13d3\u13c1\u13d7": 1079,
    "\u2581\u13a0\u13a6\u13f4\u13b5": 1080,
    "\u2581\u13d7\u13cf\u13d3\u13b5": 1081,
    "\u2581\u13a3\u13e3\u13b5\u13c5\u13df": 1082,
    "\u2581\u13e4\u13a9\u13cf\u13c2": 1083,
    "\u2581\u13af\u13b8\u13a2\u13f4": 1084,
    "\u2581\u13c6\u13c2\u13c6": 1085,
    "\u2581\u13a2\u13d3\u13d3\u13c5\u13df": 1086,
    "\u2581\u13a8\u13e5\u13b8\u13c9\u13d7": 1087,
    "\u2581\u13d7\u13a8\u13a6\u13c1\u13b6\u13d7": 1088,
    "\u2581\u13a0\u13c8\u13bb\u13b4\u13a9": 1089,
    "\u2581\u13d3\u13a6\u13b7\u13e5": 1090,
    "\u2581\u13d7\u13a8\u13eb": 1091,
    "\u2581\u13a4\u13a6\u13b5\u13cd\u13d7": 1092,
    "\u2581\u13a0\u13c1\u13d9\u13af": 1093,
    "\u2581\u13ac\u13e9\u13d5\u13c1\u13b4\u13a2": 1094,
    "\u2581\u13be\u13a9\u13ea\u13ce\u13b8\u13a9": 1095,
    "\u2581\u13d5\u13e3\u13d3\u13c5\u13db\u13a2": 1096,
    "\u2581\u13e6\u13f0\u13c2": 1097,
    "\u2581\u13a4\u13d4\u13be": 1098,
    "\u2581\u13a2\u13ac": 1099,
    "\u2581\u13a0\u13c2\u13aa\u13a2": 1100,
    "\u13f1\u13a9": 1101,
    "\u2581\u13f4\u13a9": 1102,
    "\u2581\u13d7\u13a9": 1103,
    "\u13a2\u13f3\u13cd\u13d7": 1104,
    "\u2581\u13a3\u13d3\u13b8\u13a2": 1105,
    "\u2581\u13e7\u13ac": 1106,
    "\u2581\u13a6\u13f0": 1107,
    "\u2581\u13aa\u13ea\u13b5\u13af": 1108,
    "\u13e8\u13a9": 1109,
    "\u2581\u13d3\u13c6": 1110,
    "\u2581\u13aa\u13af\u13d3": 1111,
    "\u13d1": 1112,
    "e": 1113,
    "\u2581\u13c4\u13b5\u13cd\u13d4\u13c5\u13a2": 1114,
    "\u2581\u13da\u13b4\u13c5": 1115,
    "\u2581\u13d5\u13e3\u13d9\u13a5": 1116,
    "\u2581\u13f1\u13d7": 1117,
    "\u2581\u13a0\u13b5\u13cd\u13da\u13b6": 1118,
    "\u2581\u13a5\u13a9": 1119,
    "\u13c5\u13cf\u13db": 1120,
    "\u2581\u13a0\u13e4": 1121,
    "\u2581\u13a6\u13a8": 1122,
    "\u13cd\u13d9": 1123,
    "\u2581\u13c4\u13e9\u13c1\u13b8": 1124,
    "\u2581\u13e5\u13d5": 1125,
    "\u2581\u13a2\u13e3\u13e4\u13b5": 1126,
    "\u2581\u13aa\u13cd\u13da": 1127,
    "\u2581\u13d8\u13c5\u13cf\u13d3\u13cd\u13d7": 1128,
    "\u2581\u13c4\u13c2\u13ac\u13eb\u13f3\u13cc\u13d5\u13a9": 1129,
    "\u2581\u13d7\u13d3\u13c5\u13d9": 1130,
    "\u2581\u13a2\u13b3\u13ef": 1131,
    "\u2581\u13a4\u13be\u13b5\u13cd\u13d5\u13b8\u13d9\u13d7": 1132,
    "\u2581\u13a4\u13d7\u13b4\u13a9": 1133,
    "\u2581\u13d7\u13d8\u13c2\u13d9\u13af": 1134,
    "\u2581\u13d0\u13b3": 1135,
    "\u2581\u13d7\u13dc": 1136,
    "\u2581\u13a4\u13cd\u13a6\u13c3\u13b5": 1137,
    "\u2581\u13a0\u13cd\u13d3\u13f1": 1138,
    "\u2581\u13a4\u13e9\u13d2\u13af\u13f3": 1139,
    "\u2581\u13d7\u13e3\u13e4\u13b5\u13a6": 1140,
    "\u2581\u13a0\u13c6\u13da\u13b5\u13ad": 1141,
    "\u2581\u13d1": 1142,
    "\u2581\u13a4\u13d5\u13c5\u13af": 1143,
    "\u2581\u13a4\u13d9\u13af\u13f3\u13d2": 1144,
    "\u13c1\u13b5": 1145,
    "\u2581\u13ac\u13d7\u13cd\u13a9": 1146,
    "\u2581\u13d9\u13f3": 1147,
    "\u2581\u13ef\u13c6": 1148,
    "\u13a2\u13cd\u13d7\u13f1": 1149,
    "\u2581\u13de\u13a6": 1150,
    "\u2581\u13d5\u13a8": 1151,
    "\u13a6\u13c5\u13af\u13db": 1152,
    "\u2581\u13d7\u13a8": 1153,
    "\u2581\u13d3\u13ac": 1154,
    "t": 1155,
    "\u2581\u13a5\u13cd\u13a9": 1156,
    "\u2581\u13af\u13ef": 1157,
    "\u2581\u13a9": 1158,
    "\u2581\u13ed\u13c2": 1159,
    "\u2581\u13e7\u13c2\u13e2\u13a9": 1160,
    "\u13e0": 1161,
    "\u2581\u13a0\u13e5\u13b8\u13f1": 1162,
    "\u2581\u13be\u13c3": 1163,
    "\u2581\u13a4\u13b6\u13d0\u13c5": 1164,
    "\u2581\u13e5\u13c8": 1165,
    "\u13a5\u13a2": 1166,
    "\u13d5\u13a2": 1167,
    "\u2581\u13a0\u13a7\u13b5\u13a2": 1168,
    "\u2581\u13a0\u13f0\u13d9\u13b3\u13db\u13d7": 1169,
    "\u2581\u13d3\u13cf\u13b3\u13db": 1170,
    "\u2581\u13a0\u13cd\u13c6\u13a8\u13c2": 1171,
    "\u2581\u13e9\u13cf\u13d3\u13c2": 1172,
    "\u2581\u13e9\u13da\u13b5\u13cf": 1173,
    "\u2581\u13e7\u13d5\u13d8\u13f4\u13d3": 1174,
    "\u2581\u13da\u13ec\u13e2\u13d4\u13c5\u13a9": 1175,
    "\u13a0\u13c2\u13b3\u13cd\u13d3\u13b8": 1176,
    "\u2581\u13e5\u13d4\u13a6": 1177,
    "\u2581\u13e7\u13ef\u13d6\u13be": 1178,
    "\u2581\u13a4\u13ec\u13da\u13af": 1179,
    "\u2581\u13a7\u13c3\u13ae\u13cd\u13a9": 1180,
    "\u2581\u13a4\u13c5\u13cc": 1181,
    "\u2581\u13f1\u13c4\u13cd\u13d7": 1182,
    "\u2581\u13e7\u13c2\u13b8\u13eb\u13cd\u13d3\u13c1\u13d7\u13f1": 1183,
    "\u2581\u13a0\u13b9\u13f0\u13b5": 1184,
    "\u2581\u13e5\u13c1\u13ac\u13a2": 1185,
    "\u2581\u13f1\u13d7\u13e5": 1186,
    "\u13b5\u13cd\u13d7": 1187,
    "\u2581\u13a4\u13f2\u13b1\u13d2\u13af": 1188,
    "\u2581\u13a4\u13b5\u13cd\u13d7": 1189,
    "\u2581\u13f1\u13e5": 1190,
    "\u2581\u13a8\u13c2": 1191,
    "\u2581\u13ab\u13e2\u13d7": 1192,
    "\u2581\u13c2\u13e5": 1193,
    "\u13cc\u13db": 1194,
    "\u13db\u13a6": 1195,
    "\u2581\u13ae": 1196,
    "\u2581\u13a7\u13c1\u13ac\u13a2": 1197,
    "\u2581\u13a6\u13e5": 1198,
    "\u2581\u13d7\u13a6\u13b8\u13c9\u13d7": 1199,
    "\u2581\u13da\u13c1\u13e4\u13b4": 1200,
    "\u2581\u13a0\u13cd\u13a6\u13be": 1201,
    "\u2581\u13a4\u13c2\u13e5": 1202,
    "\u2581\u13d7\u13c6": 1203,
    "\u2581\u13be\u13c2\u13a5\u13c9": 1204,
    "\u2581\u13d9\u13af": 1205,
    "\u13af\u13cd\u13d9\u13d7": 1206,
    "\u2581\u13a0\u13d4\u13b4\u13d2": 1207,
    "\u2581\u13a0\u13b2\u13a2": 1208,
    "\u2581\u13e6\u13a9": 1209,
    "\u2581\u13da\u13d9\u13a5\u13a2": 1210,
    "\u2581\u13e7\u13ea\u13c5\u13d2": 1211,
    "\u2581\u13d7\u13d3\u13b4\u13c2\u13cd\u13ac": 1212,
    "\u2581\u13a0\u13e6\u13f4": 1213,
    "\u2581\u13c2\u13d5": 1214,
    "\u2581\u13a4\u13ec\u13b8": 1215,
    "\u2581\u13d7\u13a6\u13ab\u13cd\u13db\u13d7": 1216,
    "\u2581\u13cd\u13c8\u13cd\u13d3": 1217,
    "\u2581\u13b5\u13eb": 1218,
    "\u2581\u13a8\u13e5\u13c5\u13cf\u13d3\u13cd\u13d7": 1219,
    "\u2581\u13cc\u13ca": 1220,
    "\u2581\u13cc\u13aa\u13c2\u13a8": 1221,
    "\u2581\u13a7\u13c2\u13a9\u13d3": 1222,
    "\u2581\u13a4\u13a6\u13be\u13cd\u13d3": 1223,
    "\u2581\u13da\u13ec\u13e2\u13c5\u13a9": 1224,
    "\u2581\u13a2\u13a9\u13d9\u13d3": 1225,
    "\u2581\u13be\u13cd\u13a6\u13c5\u13be": 1226,
    "\u2581\u13a0\u13c2\u13a9\u13cf": 1227,
    "\u2581\u13cd\u13d4\u13ef": 1228,
    "\u2581\u13a4\u13ec\u13d7\u13a8": 1229,
    "\u2581\u13a4\u13be\u13c1\u13b3\u13a9": 1230,
    "\u2581\u13a6\u13b6\u13d9\u13d7": 1231,
    "\u2581\u13ab\u13ab": 1232,
    "\u2581\u13a0\u13e2\u13d7\u13f1": 1233,
    "\u2581\u13a4\u13d3\u13c5\u13d8\u13f3": 1234,
    "\u2581\u13a0\u13f2\u13a9": 1235,
    "\u2581\u13a0\u13a9\u13cf": 1236,
    "\u2581\u13a4\u13c5\u13df": 1237,
    "\u13d0\u13a2": 1238,
    "\u2581\u13da\u13b8\u13eb\u13cd\u13d3\u13c1\u13b2\u13a2": 1239,
    "\u2581\u13a2\u13f3\u13cd\u13d7\u13c9": 1240,
    "\u2581\u13a6\u13c5\u13af\u13db": 1241,
    "\u2581\u13a4\u13be\u13b5\u13a2": 1242,
    "\u2581\u13a4\u13d3\u13c5\u13d6": 1243,
    "\u2581\u13a1\u13b2\u13a2": 1244,
    "\u2581\u13c1": 1245,
    "\u2581\u13a2\u13a6\u13d8": 1246,
    "\u13a1\u13a2": 1247,
    "\u13a2\u13cd\u13d7": 1248,
    "\u13cd\u13a6\u13c5\u13a2\u13cd\u13d7": 1249,
    "\u2581\u13eb\u13a6": 1250,
    "\u2581\u13a4\u13b8\u13c9\u13d7": 1251,
    "\u2581\u13c5\u13a9\u13c1": 1252,
    "\u2581\u13be\u13a5\u13a2": 1253,
    "\u2581\u13e7\u13be\u13cd\u13d7": 1254,
    "\u13e4\u13cd\u13d7": 1255,
    "\u2581\u13d3\u13d3\u13bf\u13e9\u13cd\u13db": 1256,
    "\u2581\u13d3\u13c6\u13d9\u13a5": 1257,
    "\u2581\u13c2\u13da\u13a9\u13e8\u13c2\u13d2": 1258,
    "\u2581\u13a4\u13c2\u13e3\u13d6": 1259,
    "\u2581\u13a4\u13c3\u13f4\u13ac": 1260,
    "\u13a0\u13b4": 1261,
    "\u2581\u13cd\u13c6": 1262,
    "\u2581\u13a2\u13a6\u13a6\u13db": 1263,
    "\u2581\u13a2\u13be": 1264,
    "\u13cd\u13ac\u13a9": 1265,
    "\u13e4\u13a2": 1266,
    "\u13b2\u13cf": 1267,
    "\u2581\u13d7\u13a7\u13c3\u13d7": 1268,
    "\u2581\u13a0\u13a6\u13d8\u13cf": 1269,
    "\u2581\u13d7\u13d6\u13b5\u13d9": 1270,
    "\u2581\u13e7\u13c3\u13f0\u13c2": 1271,
    "\u2581\u13a4\u13cd\u13a6\u13ce\u13d7": 1272,
    "\u2581\u13c5\u13db\u13a9\u13c5\u13cf\u13db": 1273,
    "\u2581\u13c2\u13a6\u13ea\u13cd\u13a8\u13a2": 1274,
    "\u2581\u13d7\u13c2\u13a6\u13d9\u13b5": 1275,
    "\u2581\u13be\u13ce\u13b5\u13d7": 1276,
    "\u2581\u13a0\u13a9\u13c5\u13cf\u13d9\u13af": 1277,
    "\u2581\u13a0\u13c2\u13aa\u13d5\u13cd\u13a9": 1278,
    "\u2581\u13af\u13b8\u13af\u13f3": 1279,
    "\u2581\u13ac\u13c2\u13d7\u13f3": 1280,
    "\u2581\u13e6\u13b3\u13c2": 1281,
    "\u2581\u13e5\u13a6": 1282,
    "\u2581\u13a4\u13cd\u13c6\u13b8\u13b2": 1283,
    "\u2581\u13d7\u13a7\u13c3\u13d7\u13f1": 1284,
    "\u2581\u13da\u13aa\u13ae": 1285,
    "\u2581\u13c5\u13d7\u13a6\u13b5\u13cd\u13d9\u13d7\u13cd\u13aa": 1286,
    "\u2581\u13a4\u13c2\u13b7\u13e8\u13a9": 1287,
    "\u2581\u13a6\u13ec\u13c2\u13af\u13cd\u13d7": 1288,
    "\u13b4\u13af\u13d0\u13d7": 1289,
    "\u2581\u13ad\u13be\u13be": 1290,
    "\u2581\u13d7\u13e4": 1291,
    "\u2581\u13a0\u13bc": 1292,
    "\u13d2\u13ad": 1293,
    "\u2581\u13eb\u13e3": 1294,
    "\u2581\u13d9\u13d3": 1295,
    "\u2581\u13a4\u13e5\u13b8\u13a2": 1296,
    "\u13a1\u13b5": 1297,
    "\u2581\u13a4\u13ea\u13bf\u13a2": 1298,
    "\u13da\u13b5\u13cd\u13ac\u13be": 1299,
    "\u2581\u13e7\u13cd\u13d7": 1300,
    "\u2581\u13ed\u13b7\u13e4\u13a2": 1301,
    "\u13a6\u13d4\u13b2\u13be": 1302,
    "\u2581\u13a4\u13d2\u13a2": 1303,
    "\u2581\u13a2\u13ac\u13c1\u13d7": 1304,
    "\u13a0\u13cb\u13cc": 1305,
    "\u13c2\u13cf": 1306,
    "\u13c1\u13b2": 1307,
    "\u13cd\u13d4": 1308,
    "\u2581\u13d7\u13a6\u13d3": 1309,
    "\u13c1\u13b3\u13c5\u13af": 1310,
    "\u2581\u13a0\u13ac": 1311,
    "\u13b9": 1312,
    "\u2581\u13ac\u13e9\u13be": 1313,
    "\u2581\u13c5\u13db": 1314,
    "\u2581\u13a4\u13cd\u13a6\u13c5\u13e8": 1315,
    "\u2581\u13a6\u13db\u13ac": 1316,
    "\u13a9\u13ce": 1317,
    "\u2581\u13a6\u13b3\u13a8\u13f4": 1318,
    "\u2581\u13d5\u13a6\u13da\u13b2": 1319,
    "\u2581\u13d7\u13a9\u13a6\u13f4\u13b5\u13a8": 1320,
    "\u2581\u13c2\u13e3\u13db\u13c1\u13b8": 1321,
    "\u2581\u13da\u13c2\u13b8\u13eb\u13cd\u13d3\u13c1\u13b2": 1322,
    "\u2581\u13a6\u13d3\u13c5\u13d6\u13cd\u13ac": 1323,
    "\u2581\u13da\u13be\u13d3\u13c5\u13db": 1324,
    "\u2581\u13a6\u13c5\u13c5": 1325,
    "\u2581\u13a4\u13d5\u13c5": 1326,
    "\u2581\u13da\u13ef": 1327,
    "\u13c1\u13b4\u13a2": 1328,
    "\u2581\u13c7\u13c2": 1329,
    "\u2581\u13a2\u13e4\u13be": 1330,
    "\u2581\u13a4\u13c2\u13ec\u13c2\u13af\u13cd\u13d7": 1331,
    "\u2581\u13a4\u13be\u13b5\u13cd\u13d3\u13f4\u13d7": 1332,
    "\u2581\u13a4\u13c2\u13f4\u13cd\u13d7": 1333,
    "c": 1334,
    "\u2581\u13a2\u13e5\u13c8": 1335,
    "\u2581\u13a2\u13f3\u13e9\u13ab\u13d7": 1336,
    "\u2581\u13c4\u13c3\u13af\u13f3\u13d2\u13be": 1337,
    "\u2581\u13d2\u13a7\u13d4": 1338,
    "\u2581\u13a2\u13f3\u13d3\u13b4\u13a9": 1339,
    "\u2581\u13a2\u13e5\u13e1\u13f1": 1340,
    "\u2581\u13da\u13d9\u13a1\u13a2": 1341,
    "\u2581\u13a2\u13f3\u13e9\u13c2\u13b8": 1342,
    "\u2581\u13a6\u13b5\u13c6\u13cd\u13aa\u13af": 1343,
    "\u2581\u13d9\u13b4\u13db": 1344,
    "\u2581\u13eb\u13e5\u13a2\u13a6": 1345,
    "\u2581\u13ea\u13cc": 1346,
    "\u2581\u13a2\u13e4\u13ef\u13d4\u13ae\u13cd\u13d7": 1347,
    "\u2581\u13a6\u13c3\u13b8\u13a5\u13cd\u13ac": 1348,
    "\u2581\u13a2\u13cc\u13ef": 1349,
    "\u2581\u13a2\u13d7\u13a6\u13d4\u13ad": 1350,
    "\u2581\u13c5\u13d3\u13f3\u13b5\u13cd\u13d9\u13d4\u13c5\u13a9": 1351,
    "\u2581\u13c4\u13ac\u13eb\u13f3\u13cc\u13d5\u13a9": 1352,
    "\u2581\u13a2\u13e8\u13f2\u13ce\u13ad": 1353,
    "\u2581\u13d7\u13b9\u13d7": 1354,
    "\u2581\u13e5\u13cd\u13da": 1355,
    "\u2581\u13a4\u13af\u13d0\u13d7": 1356,
    "\u2581\u13a4\u13b5\u13d1\u13eb\u13d3": 1357,
    "\u2581\u13a0\u13cf\u13be\u13cc\u13c2": 1358,
    "\u2581\u13e7\u13d9\u13d3\u13c6\u13d3": 1359,
    "\u2581\u13a4\u13f2\u13e8": 1360,
    "\u2581\u13d3\u13ef\u13a2": 1361,
    "\u2581\u13a0\u13ab\u13f4\u13d9\u13d7": 1362,
    "\u13aa\u13af": 1363,
    "\u2581\u13d7\u13a6\u13aa\u13d7\u13f1": 1364,
    "\u2581\u13a6\u13be\u13f0\u13af\u13cd\u13d7": 1365,
    "\u2581\u13a4\u13be\u13eb\u13f1": 1366,
    "\u2581\u13a4\u13be\u13c4\u13aa\u13eb\u13d2\u13af": 1367,
    "\u2581\u13c9\u13b3\u13c3": 1368,
    "\u2581\u13d7\u13e6\u13e2\u13d7": 1369,
    "\u2581\u13a0\u13b4\u13ec": 1370,
    "\u2581\u13a0\u13c6\u13db\u13a6\u13c5\u13a9": 1371,
    "\u2581\u13ed\u13f4\u13b4\u13a2": 1372,
    "\u13cd\u13d4\u13c2": 1373,
    "\u2581\u13c1\u13b3": 1374,
    "\u2581\u13be\u13c2\u13a5\u13a2": 1375,
    "\u2581\u13e9\u13cd\u13d7": 1376,
    "\u13b2\u13cd\u13a9": 1377,
    "\u2581\u13e7\u13ea": 1378,
    "\u2581\u13a0\u13a9\u13cd\u13d7": 1379,
    "\u13a9\u13b6": 1380,
    "\u2581\u13a2\u13e4\u13af": 1381,
    "\u2581\u13eb\u13d3": 1382,
    "\u13c1\u13b8\u13a9": 1383,
    "\u2581\u13db\u13be": 1384,
    "\u2581\u13a4\u13f2\u13a2": 1385,
    "\u13c1\u13ae\u13cd\u13d7": 1386,
    "\u13b6\u13d7": 1387,
    "\u2581\u13a1\u13d8": 1388,
    "\u2581\u13a0\u13d3\u13c1\u13b8\u13a2": 1389,
    "\u13d1\u13f4\u13be": 1390,
    "\u2581\u13f3\u13be": 1391,
    "\u2581\u13c4\u13cd\u13db\u13a2": 1392,
    "\u13aa\u13d7": 1393,
    "\u13be\u13dd\u13a2": 1394,
    "\u13a6\u13d8": 1395,
    "\u13ee": 1396,
    "\u13d4\u13c5\u13ad": 1397,
    "\u2581\u13a0\u13c2\u13c3\u13ae\u13cd\u13ac": 1398,
    "\u13a4\u13c1\u13b3\u13c5\u13af": 1399,
    "\u2581\u13a0\u13aa": 1400,
    "\u2581\u13d3\u13d3\u13c1\u13b8": 1401,
    "\u2581\u13be\u13cd\u13a9\u13c9": 1402,
    "\u2581\u13af\u13b8": 1403,
    "\u2581\u13ed\u13b6\u13d2": 1404,
    "\u13e5\u13cc": 1405,
    "\u2581\u13e3\u13be": 1406,
    "\u13db\u13ac\u13a6": 1407,
    "\u2581\u13a1\u13c9\u13d7": 1408,
    "\u2581Cr": 1409,
    "\u2581\u13a2\u13f3\u13be\u13db\u13bf\u13d5\u13a9": 1410,
    "\u2581\u13cd\u13a6\u13da\u13a9": 1411,
    "\u2581\u13c2\u13e5\u13ea\u13ad": 1412,
    "\u2581\u13ce\u13a9\u13b5": 1413,
    "\u2581\u13d7\u13c2\u13ad\u13c4\u13b8\u13af": 1414,
    "\u2581\u13e7\u13d3\u13d5\u13d2\u13db": 1415,
    "\u2581\u13a1\u13c8\u13cc": 1416,
    "\u2581\u13a0\u13e6\u13ad\u13f4": 1417,
    "\u2581\u13a4\u13aa\u13cf\u13d3": 1418,
    "\u13c1\u13af": 1419,
    "\u2581\u13a0\u13a9\u13b5\u13ef": 1420,
    "\u2581\u13d4\u13b7\u13e3": 1421,
    "\u2581\u13cd\u13a9\u13c3\u13b2\u13cf": 1422,
    "\u2581\u13a2\u13f3\u13d3\u13b4\u13c5\u13db": 1423,
    "\u2581\u13a4\u13e9\u13d9\u13af\u13f4\u13d3": 1424,
    "\u2581\u13a2\u13b3\u13aa": 1425,
    "\u2581\u13a4\u13c2\u13ac\u13eb\u13f3\u13cc\u13d5\u13a9": 1426,
    "\u2581\u13a2\u13f3\u13e9\u13c2\u13d0\u13d7\u13f1": 1427,
    "\u2581\u13a2\u13f3\u13e9\u13c1\u13d7\u13f1": 1428,
    "\u2581\u13d7\u13aa\u13ea\u13b5\u13cd\u13a9": 1429,
    "\u2581\u13d3\u13e3": 1430,
    "\u2581\u13d9\u13f0": 1431,
    "\u2581\u13d2\u13ae\u13f1\u13e3": 1432,
    "\u2581\u13a2\u13ac\u13c1\u13af": 1433,
    "\u2581\u13a0\u13b5\u13cd\u13d5\u13b8\u13d9\u13d7": 1434,
    "\u2581\u13a4\u13f0\u13af": 1435,
    "\u2581\u13f1\u13c2": 1436,
    "\u2581\u13a1\u13d3": 1437,
    "\u2581\u13e3\u13c1\u13b3": 1438,
    "\u13d9\u13a9": 1439,
    "\u2581\u13a1\u13b5\u13cd\u13d7": 1440,
    "\u2581\u13c6": 1441,
    "\u2581\u13da\u13be\u13d3\u13c5\u13db\u13a2": 1442,
    "\u2581\u13a7\u13b8\u13a2": 1443,
    "\u2581\u13ed\u13be": 1444,
    "\u2581\u13d7\u13aa\u13ea\u13b6\u13d7": 1445,
    "\u2581\u13a4\u13be\u13b5\u13aa": 1446,
    "\u13c9\u13c3": 1447,
    "\u2581\u13c4\u13db\u13c1\u13b4\u13a2": 1448,
    "\u2581\u13a6\u13b8\u13b3\u13d7\u13f3": 1449,
    "\u2581\u13f1\u13e8": 1450,
    "\u2581\u13a0\u13d9": 1451,
    "\u2581\u13e3\u13e4\u13b5\u13a6": 1452,
    "\u2581\u13a2\u13ef\u13c2\u13a2": 1453,
    "\u2581\u13a4\u13be\u13d3\u13e1\u13ac\u13a2": 1454,
    "\u2581\u13d7\u13e6": 1455,
    "\u2581\u13a4\u13c2\u13b8\u13c9\u13d7": 1456,
    "\u2581\u13d3\u13be\u13d3": 1457,
    "\u2581\u13c2\u13a6\u13d7": 1458,
    "\u2581\u13a4\u13e5\u13b8": 1459,
    "\u13c5\u13d3": 1460,
    "\u2581\u13d7\u13a7\u13bf\u13e9\u13db\u13cd\u13d7\u13f1": 1461,
    "\u2581\u13a4\u13d3\u13c5\u13d6\u13d7": 1462,
    "\u13b5\u13cd\u13d9\u13d7": 1463,
    "\u2581\u13c4\u13ea\u13d2\u13a2": 1464,
    "\u13db\u13af": 1465,
    "\u2581\u13f0": 1466,
    "\u2581\u13d7\u13d7": 1467,
    "\u13a6\u13d4\u13ad": 1468,
    "\u2581\u13c3\u13e5": 1469,
    "\u2581\u13a4\u13a8\u13d3\u13b5\u13f4": 1470,
    "\u2581\u13a7\u13b3\u13e9\u13d7\u13d2": 1471,
    "\u2581\u13a4\u13c5\u13cf\u13f4": 1472,
    "\u2581\u13a2\u13e6\u13af\u13f3\u13d2": 1473,
    "\u2581\u13a0\u13e4\u13b5\u13cd\u13db": 1474,
    "\u2581\u13a0\u13c3": 1475,
    "\u2581\u13be\u13c2": 1476,
    "\u2581\u13a8\u13b3": 1477,
    "\u2581\u13a6\u13c1\u13cc\u13a2": 1478,
    "\u2581\u13a4\u13c5\u13d2\u13c9": 1479,
    "\u2581\u13a6\u13c2": 1480,
    "\u2581\u13d5\u13a9": 1481,
    "\u2581\u13e8\u13d7\u13d3\u13b4\u13b2\u13cd\u13a6": 1482,
    "\u2581\u13a0\u13d9\u13b3\u13c5\u13cd\u13d7": 1483,
    "\u2581\u13a5\u13f3\u13a9": 1484,
    "\u2581\u13d7\u13df\u13b6\u13cd\u13d4\u13c5\u13af": 1485,
    "\u2581\u13e6\u13d3\u13c2": 1486,
    "\u2581\u13a0\u13c2\u13eb\u13c5": 1487,
    "\u2581\u13a4\u13a9\u13e8\u13d3": 1488,
    "\u2581\u13f1\u13c5\u13d7\u13a6\u13b5\u13cd\u13d9\u13d7\u13ad": 1489,
    "\u2581\u13a2\u13f3\u13be\u13b5\u13cd\u13d9\u13d7\u13f1": 1490,
    "\u2581\u13d7\u13d3\u13d8\u13c2\u13d9\u13af": 1491,
    "\u2581\u13a1\u13b5\u13ca": 1492,
    "\u2581\u13a2\u13ef\u13be\u13db\u13c1\u13af": 1493,
    "\u2581\u13ac\u13e9\u13df\u13cd\u13d7": 1494,
    "\u2581\u13e7\u13aa\u13b3": 1495,
    "\u2581\u13a0\u13df\u13b6\u13cd\u13d7": 1496,
    "\u2581\u13aa\u13af\u13d7\u13f3": 1497,
    "\u2581\u13a8\u13b5\u13cd\u13ac": 1498,
    "\u2581\u13e7\u13d3\u13b4\u13c5\u13d3": 1499,
    "\u2581\u13a0\u13e5\u13cd\u13db": 1500,
    "\u2581\u13aa\u13a8\u13f1": 1501,
    "\u2581\u13ae\u13a6": 1502,
    "\u2581\u13a4\u13da\u13b5\u13cd\u13a8\u13cd\u13d7": 1503,
    "\u2581\u13be\u13cd\u13a9\u13f4": 1504,
    "\u2581\u13a4\u13da\u13b8\u13d7": 1505,
    "\u2581\u13a2\u13e3\u13e4\u13b5\u13a6": 1506,
    "\u2581\u13a2\u13a6\u13a6\u13d8": 1507,
    "\u13cd\u13d5\u13b8\u13d7": 1508,
    "\u2581\u13d7\u13c6\u13e4\u13b5\u13a6": 1509,
    "\u2581\u13a4\u13da\u13b5\u13ad": 1510,
    "\u13d5\u13b5": 1511,
    "\u2581\u13a0\u13c1\u13ad": 1512,
    "\u2581\u13af\u13a0\u13cd\u13a9\u13c2": 1513,
    "\u2581\u13a4\u13d5": 1514,
    "\u2581\u13e7\u13d3\u13c3": 1515,
    "\u2581\u13a4\u13c2\u13e3\u13d4": 1516,
    "\u13c5\u13cd\u13d7": 1517,
    "\u2581\u13a3\u13c2\u13f1": 1518,
    "\u13c2\u13d7\u13f3": 1519,
    "\u13b6\u13af": 1520,
    "\u2581\u13a4\u13b5\u13ec\u13e8": 1521,
    "\u13b7\u13a6": 1522,
    "\u13b8\u13d7": 1523,
    "\u2581\u13a4\u13da\u13b5": 1524,
    "\u2581\u13c1\u13b3\u13a9": 1525,
    "\u2581\u13a2\u13a8": 1526,
    "\u13a1\u13d7\u13f1": 1527,
    "\u2581\u13c4\u13c2": 1528,
    "\u2581\u13ef\u13a9": 1529,
    "\u2581\u13be\u13be\u13db\u13c1\u13b2": 1530,
    "\u13aa\u13cd\u13d3\u13f1": 1531,
    "\u2581\u13f1\u13ac": 1532,
    "\u13be\u13cf": 1533,
    "\u2581\u13a1\u13d9\u13b2": 1534,
    "\u2581\u13a4\u13ea\u13b5\u13af\u13cd\u13d7": 1535,
    "\u2581\u13da\u13b3\u13cd\u13ac": 1536,
    "\u2581\u13ed\u13ef\u13c5\u13ae": 1537,
    "\u13f0\u13b5": 1538,
    "\u2581\u13a0\u13be\u13a2\u13d2": 1539,
    "\u2581\u13d5\u13e1\u13ac": 1540,
    "\u2581\u13a4\u13c2\u13b7\u13e8": 1541,
    "\u2581\u13d5\u13ad\u13b7\u13a8": 1542,
    "\u2581\u13c4\u13be\u13db\u13c5": 1543,
    "\u2581\u13a0\u13c6\u13da\u13b5\u13cd\u13ac": 1544,
    "\u2581\u13a4\u13c1\u13e8\u13a2": 1545,
    "\u2581\u13ed\u13b7\u13e8": 1546,
    "\u13b8\u13be": 1547,
    "\u2581\u13d0\u13d3\u13bb": 1548,
    "\u2581\u13d7\u13e5\u13be\u13eb": 1549,
    "\u13ab": 1550,
    "\u13b6\u13db": 1551,
    "\u2581\u13a4\u13b7\u13af\u13cd\u13d7": 1552,
    "\u13da\u13d3\u13b4\u13cd\u13d9\u13d7": 1553,
    "\u2581Perry": 1554,
    "\u2581\u13c5\u13ec\u13d8": 1555,
    "\u2581\u13a0\u13b5\u13cd\u13d4\u13f4\u13d7": 1556,
    "\u2581\u13e7\u13a6\u13be\u13ee": 1557,
    "\u2581\u13a4\u13cf\u13e9": 1558,
    "\u2581\u13d7\u13d5\u13f2\u13d7": 1559,
    "\u2581\u13a7\u13c2\u13a9\u13db": 1560,
    "\u2581\u13a4\u13c2\u13a9\u13ac": 1561,
    "\u2581\u13a4\u13eb\u13ef": 1562,
    "\u2581\u13e7\u13be\u13a9\u13b8\u13d7": 1563,
    "\u2581\u13a4\u13ec\u13e2\u13d4\u13c5\u13a9": 1564,
    "\u2581\u13a4\u13be\u13f0\u13af\u13cd\u13d7": 1565,
    "\u2581\u13a4\u13c1\u13ab\u13e5\u13db": 1566,
    "\u2581\u13a0\u13c6\u13c1\u13b3\u13c5\u13af": 1567,
    "\u2581\u13a0\u13b5\u13cd\u13aa\u13b8\u13d4\u13c5\u13af": 1568,
    "\u2581\u13a7\u13b8": 1569,
    "\u2581\u13f3\u13da\u13b5\u13cd\u13a8": 1570,
    "\u2581\u13a4\u13b6\u13d2\u13cd\u13d7": 1571,
    "\u2581\u13a4\u13e2\u13a9": 1572,
    "\u2581\u13c2\u13d7\u13a5": 1573,
    "\u2581\u13c2\u13a6\u13b5\u13cd\u13d3": 1574,
    "\u2581\u13da\u13d3\u13d8\u13be\u13a5\u13a2": 1575,
    "\u13cc\u13b3\u13d3": 1576,
    "\u2581\u13a4\u13c2\u13cd\u13c6\u13c2\u13aa\u13ce\u13a2": 1577,
    "\u2581\u13a0\u13cd\u13da\u13d7": 1578,
    "\u2581\u13a2\u13f3\u13be\u13db\u13c1\u13d7\u13f1": 1579,
    "\u13a4\u13c5": 1580,
    "\u2581\u13a4\u13cd\u13c6\u13c2\u13aa\u13d7\u13f3": 1581,
    "\u2581\u13c4\u13db\u13c1\u13b8\u13a9": 1582,
    "\u2581\u13d0\u13a2\u13f1": 1583,
    "\u2581\u13a4\u13ad": 1584,
    "\u2581\u13a3\u13cf\u13c9": 1585,
    "\u2581\u13d7\u13a8\u13d2\u13a2": 1586,
    "\u2581\u13f4\u13ac": 1587,
    "\u2581\u13f3\u13c2": 1588,
    "\u13d6\u13cd\u13d7": 1589,
    "\u2581\u13a4\u13c1\u13e8\u13af": 1590,
    "\u2581\u13a0\u13d7": 1591,
    "\u2581\u13a4\u13c1\u13b8": 1592,
    "\u2581\u13e1\u13ac\u13a2": 1593,
    "\u2581\u13a0\u13eb\u13c5": 1594,
    "\u2581\u13c2\u13a6\u13ea\u13cd\u13ac\u13a2": 1595,
    "\u2581\u13d3\u13e8": 1596,
    "\u2581\u13a2\u13e7": 1597,
    "\u13a6\u13db": 1598,
    "\u2581\u13a4\u13b8": 1599,
    "\u2581\u13a0\u13cf\u13f4\u13eb\u13c3": 1600,
    "\u2581\u13c1\u13b0": 1601,
    "\u2581\u13a4\u13ec\u13b5": 1602,
    "\u13a1\u13af": 1603,
    "\u2581\u13eb\u13ac\u13e9": 1604,
    "\u2581\u13a6\u13c5": 1605,
    "\u13e0\u13be\u13cd\u13d7": 1606,
    "\u2581\u13a0\u13dc": 1607,
    "\u13b5\u13a6": 1608,
    "\u13cd\u13ca": 1609,
    "\u13a5\u13cd\u13ac": 1610,
    "n": 1611,
    "\u2581\u13da\u13f3\u13aa\u13db\u13a2": 1612,
    "\u2581\u13a0\u13ce\u13a9": 1613,
    "\u13cd\u13c9": 1614,
    "\u2581\u13d7\u13d3": 1615,
    "\u2581\u13a4\u13d5\u13c1\u13b8": 1616,
    "\u2581\u13a0\u13f0\u13d9\u13b3\u13db": 1617,
    "\u2581\u13a0\u13be\u13d3": 1618,
    "\u2581\u13a2\u13f3\u13a2": 1619,
    "\u2581\u13d4\u13b5\u13ad": 1620,
    "\u2581\u13a4\u13d3\u13c2\u13b5\u13a8": 1621,
    "\u2581\u13d7\u13aa": 1622,
    "\u2581\u13a4\u13b5\u13c1\u13e8": 1623,
    "\u2581\u13a0\u13be\u13db": 1624,
    "\u2581\u13d3\u13c1\u13e9\u13d7\u13d2": 1625,
    "\u2581\u13d5\u13a8\u13cc\u13d7\u13d2": 1626,
    "\u2581\u13a4\u13d3\u13c5\u13d6\u13b4": 1627,
    "\u2581\u13f1\u13a8": 1628,
    "\u13f2\u13af": 1629,
    "\u13a0\u13ef": 1630,
    "\u2581\u13ef\u13be": 1631,
    "\u2581\u13a4\u13cd\u13aa\u13b5": 1632,
    "\u13f4\u13eb": 1633,
    "\u2581\u13a4\u13ec": 1634,
    "\u2581\u13a1\u13dd\u13ea": 1635,
    "\u2581\u13a4\u13d3\u13f4\u13cd\u13d7": 1636,
    "\u2581\u13aa\u13ea\u13b3": 1637,
    "\u2581\u13d5\u13a6\u13b6\u13d7": 1638,
    "\u2581\u13a4\u13d5\u13b0\u13af\u13cd\u13d7": 1639,
    "\u2581\u13b7\u13c8\u13c2": 1640,
    "\u2581\u13d7\u13c2\u13b5\u13a0\u13c5\u13af\u13db": 1641,
    "\u2581\u13f1\u13c4\u13b5\u13cd\u13d4\u13be": 1642,
    "\u2581\u13a2\u13c8\u13ac\u13a2": 1643,
    "\u2581\u13a4\u13b5\u13aa\u13b2\u13cd\u13d7": 1644,
    "\u2581\u13e7\u13a6\u13d2\u13cd\u13d7": 1645,
    "\u2581\u13cd\u13c6\u13de\u13cd\u13d7": 1646,
    "\u2581\u13b9\u13cf\u13d9\u13c2": 1647,
    "\u2581\u13a0\u13be\u13d3\u13c5\u13df": 1648,
    "\u2581\u13ac\u13d4\u13c2\u13d3\u13cd\u13d7": 1649,
    "\u2581\u13de\u13a9\u13f3": 1650,
    "\u2581\u13a0\u13aa\u13c4": 1651,
    "\u2581\u13d7\u13cd\u13d3\u13d3\u13c5\u13df": 1652,
    "\u2581\u13cc\u13ba\u13b5\u13f1": 1653,
    "\u2581\u13e7\u13b3\u13cf\u13d5\u13c2": 1654,
    "\u2581\u13a0\u13eb\u13c4\u13e3": 1655,
    "\u2581\u13d7\u13a6\u13c5\u13d9\u13d7": 1656,
    "\u2581\u13a2\u13e8\u13d7\u13cd\u13a8\u13cd\u13d7": 1657,
    "\u2581\u13a2\u13f3\u13ea\u13c5\u13cd\u13d7": 1658,
    "\u2581\u13e7\u13cd\u13c6\u13c5\u13be": 1659,
    "\u2581\u13a0\u13c2\u13a6\u13d3\u13ad": 1660,
    "\u2581\u13a1\u13cf\u13f1": 1661,
    "\u2581\u13a0\u13e5\u13be\u13dd\u13a2": 1662,
    "\u2581\u13a4\u13ec\u13da\u13af\u13f3": 1663,
    "\u2581\u13a4\u13ec\u13da\u13e8": 1664,
    "\u2581\u13ce\u13b3\u13f1": 1665,
    "\u2581\u13c1\u13b2\u13be": 1666,
    "\u2581\u13ab\u13b4": 1667,
    "\u2581\u13e5\u13e5": 1668,
    "\u2581\u13e7\u13be\u13d3": 1669,
    "\u2581\u13d4\u13b5\u13e7\u13c8": 1670,
    "\u2581\u13a4\u13c2\u13f4\u13cd\u13d7\u13f1": 1671,
    "\u2581\u13a4\u13df\u13cd\u13d3": 1672,
    "\u2581\u13a0\u13aa\u13e9\u13db\u13d7": 1673,
    "\u2581\u13a1\u13d7": 1674,
    "\u2581\u13f1\u13a8\u13d0\u13a2": 1675,
    "\u13a8\u13f3\u13ce\u13cd\u13d7": 1676,
    "\u13e9\u13db\u13b2": 1677,
    "\u2581\u13e4\u13ae\u13a2": 1678,
    "\u2581\u13a3\u13c1": 1679,
    "\u2581\u13a4\u13b4": 1680,
    "\u2581\u13a0\u13c1\u13ae\u13a2": 1681,
    "\u2581\u13da\u13b4\u13c1\u13a2": 1682,
    "\u13e8\u13af": 1683,
    "\u2581\u13f0\u13ad": 1684,
    "\u13c2\u13b8": 1685,
    "\u2581\u13a0\u13d3\u13c1\u13d7": 1686,
    "\u13e9\u13db\u13d7": 1687,
    "\u13c5\u13df": 1688,
    "\u2581\u13a0\u13d3\u13af": 1689,
    "\u13eb\u13d2": 1690,
    "\u13b8\u13c9\u13d9\u13d7": 1691,
    "\u13e2\u13d9\u13d7": 1692,
    "\u2581\u13a0\u13e5\u13b8\u13c9\u13d7": 1693,
    "\u2581\u13a2\u13f3\u13be": 1694,
    "\u2581\u13e5\u13ef": 1695,
    "\u2581\u13d2\u13af": 1696,
    "\u13c9\u13f0\u13c3": 1697,
    "\u2581\u13a6\u13cd\u13a9\u13b8\u13a2": 1698,
    "\u13ef\u13c5\u13db": 1699,
    "\u13b4\u13c2": 1700,
    "\u2581\u13d9\u13af\u13f1": 1701,
    "\u2581\u13a4\u13a8\u13f3\u13af": 1702,
    "\u2581\u13da\u13b4\u13c1": 1703,
    "\u2581\u13a4\u13c2\u13e0\u13f1": 1704,
    "\u2581\u13a4\u13c1\u13c5\u13ce": 1705,
    "\u2581\u13da\u13be\u13d3": 1706,
    "a": 1707,
    "\u13db\u13ad": 1708,
    "\u2581\u13e8\u13cd\u13a9\u13c3": 1709,
    "\u2581\u13a4\u13e3": 1710,
    "\u2581\u13a0\u13c2\u13d9\u13be\u13a5": 1711,
    "\u2581\u13c5\u13d3\u13f3": 1712,
    "\u13a1\u13ad": 1713,
    "\u13b3\u13c5\u13af": 1714,
    "\u2581\u13a6\u13c1\u13b2": 1715,
    "\u13a2\u13f3": 1716,
    "\u13c5\u13d2\u13a9": 1717,
    "\u13b1": 1718,
    "\u2581\u13d7\u13e3\u13d3\u13c5\u13d9": 1719,
    "\u13b3\u13d7": 1720,
    "\u13d7\u13cd\u13a8": 1721,
    "\u2581\u13a0\u13c6\u13db\u13a6\u13c5": 1722,
    "\u2581\u13a4\u13f0\u13e4": 1723,
    "\u2581\u13a0\u13c6\u13a7\u13db": 1724,
    "\u13db\u13d7": 1725,
    "\u2581\u13d3\u13e0\u13af\u13cd\u13db": 1726,
    "\u2581\u13a0\u13c1\u13d9\u13b2": 1727,
    "\u2581\u13ed\u13b6\u13ce": 1728,
    "\u2581\u13d9\u13a9": 1729,
    "\u2581\u13d9\u13d3\u13b8": 1730,
    "\u2581\u13a4\u13d3\u13c5\u13ce": 1731,
    "\u2581\u13a0\u13f4\u13eb\u13ef": 1732,
    "\u2581\u13cf\u13a9\u13bb": 1733,
    "\u2581\u13a0\u13e5\u13a6\u13d8\u13d7\u13cd\u13d7": 1734,
    "\u2581\u13ac\u13c6": 1735,
    "\u13da\u13a6": 1736,
    "\u2581\u13a2\u13f3\u13df\u13b6": 1737,
    "\u2581\u13d4\u13b5\u13c1\u13a2": 1738,
    "\u2581\u13a4\u13d3\u13b5": 1739,
    "\u2581\u13a2\u13f3\u13db\u13c1\u13d7": 1740,
    "\u2581\u13a2\u13d3": 1741,
    "y": 1742,
    "\u2581\u13a6\u13b7\u13ef\u13cd\u13d8": 1743,
    "\u2581\u13ac\u13e9\u13cd\u13d3\u13e9\u13db\u13ce\u13a2": 1744,
    "\u2581\u13a2\u13cf\u13ba\u13b5": 1745,
    "\u2581\u13a4\u13b5\u13d7\u13e8": 1746,
    "ett": 1747,
    "\u2581\u13c5\u13d3\u13f3\u13c2\u13b6\u13d2\u13af": 1748,
    "\u2581\u13d7\u13f0\u13d9\u13b3\u13db\u13d7": 1749,
    "\u2581\u13d7\u13ac\u13d4\u13c2\u13d3\u13cd\u13d7": 1750,
    "\u2581\u13d1\u13be\u13d9\u13d3\u13c6\u13cd\u13d7": 1751,
    "\u2581\u13c2\u13ac\u13e9\u13ea\u13ce\u13b8\u13a9": 1752,
    "\u2581\u13a2\u13ef\u13c5\u13d9": 1753,
    "\u2581\u13a0\u13d6\u13b5\u13d9": 1754,
    "\u2581\u13a4\u13b4\u13c2\u13d9\u13b8": 1755,
    "\u2581\u13a2\u13a6\u13ea\u13cd\u13d7": 1756,
    "\u2581\u13ad\u13e9\u13e7": 1757,
    "\u2581\u13da\u13d8\u13c5\u13ce": 1758,
    "\u2581\u13a0\u13a6\u13b5\u13cd\u13ac": 1759,
    "\u2581\u13a2\u13f3\u13d3\u13c5\u13af\u13d3": 1760,
    "\u2581\u13d5\u13b9\u13cd\u13a6": 1761,
    "\u2581\u13a0\u13c2\u13a8\u13be\u13c2": 1762,
    "\u2581\u13a0\u13eb\u13d2\u13d7\u13f1": 1763,
    "\u2581\u13d7\u13b3\u13d1\u13b6": 1764,
    "\u2581\u13a6\u13c2\u13a6\u13d4": 1765,
    "\u13e9\u13ac\u13d8": 1766,
    "\u2581\u13e3\u13d3\u13b5\u13a2": 1767,
    "\u2581\u13cc\u13be\u13f1": 1768,
    "\u2581\u13e5\u13da\u13d9\u13a5": 1769,
    "\u2581\u13a4\u13c1\u13b5\u13e4\u13a2": 1770,
    "\u2581\u13a0\u13aa\u13d9\u13d7": 1771,
    "\u2581\u13a4\u13be\u13c1\u13b3\u13c5\u13af": 1772,
    "\u2581\u13ce\u13bb": 1773,
    "\u2581\u13a0\u13a9\u13b5\u13f2\u13a2\u13cd\u13d7": 1774,
    "\u2581\u13a7\u13c3\u13ae\u13d3": 1775,
    "\u2581\u13a4\u13be\u13f0\u13af\u13cd\u13d7\u13f3": 1776,
    "\u2581\u13d7\u13e6\u13e2\u13d9\u13d7": 1777,
    "\u2581\u13a4\u13be\u13e0\u13be\u13cd\u13d7": 1778,
    "\u2581\u13d9\u13f1\u13e8": 1779,
    "\u2581\u13a0\u13f0\u13df": 1780,
    "\u2581\u13f1\u13c2\u13a6\u13b5\u13cd\u13d3": 1781,
    "\u13d9\u13d3": 1782,
    "\u2581\u13cf\u13f2": 1783,
    "\u2581\u13a4\u13c2\u13af\u13cd\u13d7\u13f1": 1784,
    "\u2581\u13a0\u13a9\u13f0\u13b8\u13ad": 1785,
    "\u2581\u13c8\u13b3": 1786,
    "\u2581\u13a4\u13b7\u13af\u13cd\u13d7\u13f1": 1787,
    "\u2581\u13e7\u13d2\u13af": 1788,
    "\u2581\u13a0\u13cd\u13aa\u13af\u13c1": 1789,
    "\u2581\u13be\u13c2\u13ea\u13cd\u13ac\u13a9": 1790,
    "\u2581\u13a2\u13ac\u13d3": 1791,
    "\u2581\u13da\u13b8\u13eb\u13cd\u13d3\u13c1\u13b2": 1792,
    "\u2581\u13a0\u13b1\u13cd\u13d5": 1793,
    "\u2581\u13d7\u13c2\u13c5\u13cc\u13d7": 1794,
    "\u2581\u13a0\u13c1\u13a9": 1795,
    "\u2581\u13a4\u13f4": 1796,
    "\u2581\u13a2\u13ac\u13d2": 1797,
    "\u2581\u13a8\u13b5\u13a0": 1798,
    "\u2581\u13d5\u13ac": 1799,
    "\u2581\u13d3\u13c1\u13e9\u13d7\u13d2\u13a2": 1800,
    "\u2581\u13c4\u13be\u13db\u13c5\u13a2": 1801,
    "\u2581\u13d5\u13ad\u13b7\u13a8\u13a2": 1802,
    "\u13b8\u13c9\u13d7\u13f3": 1803,
    "\u2581\u13a4\u13d3\u13c5": 1804,
    "\u2581\u13a0\u13bf\u13ec": 1805,
    "\u2581\u13d7\u13a8\u13e5": 1806,
    "\u2581\u13d3\u13d3": 1807,
    "\u13d4\u13c5\u13a2": 1808,
    "\u13ad\u13c2": 1809,
    "\u2581\u13d5\u13a6\u13db": 1810,
    "\u13b8\u13c9\u13d7": 1811,
    "\u13d9\u13d3\u13c6\u13d3": 1812,
    "\u2581\u13a8\u13f4\u13a2": 1813,
    "\u13c3\u13ae\u13ad": 1814,
    "\u2581\u13f4\u13a6": 1815,
    "\u13aa\u13b5\u13f0\u13cd\u13a9": 1816,
    "\u2581\u13e5\u13d3\u13c2": 1817,
    "\u13b5\u13cf": 1818,
    "\u2581\u13a4\u13c2\u13c1": 1819,
    "\u2581\u13a4\u13be\u13d9\u13b4\u13b0\u13d2": 1820,
    "\u2581\u13f3\u13e9": 1821,
    "\u2581\u13a4\u13c7\u13d3\u13b8": 1822,
    "\u13b5\u13cd\u13a6\u13cd\u13d9\u13db": 1823,
    "\u2581\u13e9\u13a9": 1824,
    "\u13d7\u13cd\u13a8\u13a2": 1825,
    "\u13b5\u13cd\u13c6\u13d7\u13cd\u13a9": 1826,
    "\u2581\u13e4\u13e3": 1827,
    "\u13a6\u13c5\u13af\u13d3": 1828,
    "\u2581\u13da\u13b8\u13eb\u13cd\u13d3\u13c1\u13b8": 1829,
    "\u2581\u13c4\u13db\u13c5": 1830,
    "\u2581\u13d0": 1831,
    "\u13e3\u13d3": 1832,
    "\u2581\u13a4\u13da\u13b5\u13cd\u13a8": 1833,
    "\u13b5\u13f1": 1834,
    "\u2581\u13e5\u13ac": 1835,
    "\u2581\u13ce\u13b3": 1836,
    "\u13cd\u13d7\u13cd\u13ac": 1837,
    "\u2581\u13e3\u13c9": 1838,
    "\u2581\u13d5\u13e5\u13b8\u13eb\u13cd\u13d3\u13c1\u13b2": 1839,
    "\u2581\u13ed\u13f4\u13b4": 1840,
    "\u2581\u13e2": 1841,
    "\u2581\u13c5\u13d7\u13a6\u13b5\u13cd\u13d9\u13d7": 1842,
    "\u2581\u13eb\u13da\u13c2": 1843,
    "\u2581\u13a1\u13ae": 1844,
    "\u2581\u13d7\u13c1\u13b2": 1845,
    "\u2581\u13a4\u13ea\u13d9\u13b8": 1846,
    "\u13f4\u13d3": 1847,
    "\u2581\u13d7\u13a7\u13c3\u13a9\u13cd\u13d7": 1848,
    "\u2581\u13a4\u13ea\u13c5\u13cd\u13d7": 1849,
    "\u13f2\u13af\u13cd\u13d7": 1850,
    "\u2581\u13a0\u13be\u13d3\u13be\u13cf\u13c2\u13d9\u13af": 1851,
    "\u2581\u13a0\u13d7\u13c6\u13b8\u13d5\u13f2": 1852,
    "\u2581\u13a0\u13b5\u13f0\u13be": 1853,
    "\u2581\u13a6\u13e3\u13c4\u13b3": 1854,
    "\u2581\u13cc\u13b6\u13b5": 1855,
    "\u2581\u13a0\u13e8\u13cd\u13d9\u13d7": 1856,
    "\u2581\u13d7\u13e5\u13f2\u13b5": 1857,
    "\u2581\u13a2\u13ac\u13e9\u13b5\u13cd\u13d9\u13d7": 1858,
    "\u2581\u13a2\u13e3\u13b5\u13cd\u13d9\u13d7\u13f1": 1859,
    "\u2581\u13a0\u13d2\u13ac": 1860,
    "\u2581\u13e5\u13c4\u13ea\u13ce\u13a2": 1861,
    "\u2581\u13d7\u13c2\u13cf\u13d7": 1862,
    "\u2581\u13a0\u13e4\u13b7\u13a9": 1863,
    "\u2581\u13a0\u13c2\u13a9\u13b7\u13eb": 1864,
    "\u2581\u13a4\u13b5\u13cd\u13a8\u13db": 1865,
    "\u13b5\u13f0\u13a2\u13b6\u13af\u13cd\u13d7": 1866,
    "\u2581\u13eb\u13a6\u13b7\u13a9": 1867,
    "\u2581\u13d7\u13c2\u13f0\u13b8": 1868,
    "\u2581\u13eb\u13b6\u13af": 1869,
    "\u2581\u13a4\u13be\u13b3\u13c5\u13af": 1870,
    "\u2581\u13c4\u13be\u13d3\u13b4\u13d2": 1871,
    "\u2581\u13a4\u13f2\u13b1\u13af\u13cd\u13d7\u13f1": 1872,
    "\u2581\u13a4\u13b4\u13eb\u13cd\u13d4\u13c5": 1873,
    "\u2581\u13a0\u13e5\u13b3": 1874,
    "\u2581\u13ad\u13eb\u13c2\u13e8": 1875,
    "\u2581\u13a7\u13eb": 1876,
    "\u2581\u13a2\u13f3\u13cd\u13d8": 1877,
    "\u2581\u13a0\u13be\u13d3\u13c5\u13d6\u13cd\u13ac": 1878,
    "\u2581\u13a4\u13df\u13c2\u13a9\u13d3": 1879,
    "\u2581\u13a7\u13c3\u13ae\u13d7": 1880,
    "\u2581\u13ef\u13a6\u13d4\u13ae": 1881,
    "\u2581\u13ed\u13c2\u13b6\u13ce\u13a2": 1882,
    "\u2581\u13a4\u13c2\u13e3\u13db\u13a9": 1883,
    "\u2581\u13d7\u13a9\u13cf": 1884,
    "\u13a6\u13d9\u13c3": 1885,
    "\u13c4\u13a6": 1886,
    "\u2581\u13c2\u13aa\u13af\u13b8\u13be\u13c9": 1887,
    "\u2581\u13e5\u13a8\u13f3\u13a2": 1888,
    "\u2581\u13a4\u13f4\u13dc": 1889,
    "\u2581\u13a6\u13e5\u13ef": 1890,
    "\u2581\u13d3\u13c5\u13c5": 1891,
    "\u2581\u13a0\u13a2\u13d2\u13a2": 1892,
    "\u13ef\u13d6\u13c5": 1893,
    "\u2581\u13c2\u13a6\u13b5\u13cd\u13d9\u13d7": 1894,
    "\u2581\u13a1\u13ae\u13cd\u13d7": 1895,
    "\u2581\u13da\u13b8\u13eb\u13cd\u13d3\u13c1\u13b8\u13a2": 1896,
    "\u2581\u13a0\u13c1\u13d9\u13b2\u13a2": 1897,
    "\u2581\u13a2\u13a6\u13e4\u13b5\u13a6": 1898,
    "\u2581\u13aa\u13a8": 1899,
    "\u2581\u13a1\u13a9": 1900,
    "\u2581\u13d7\u13c1\u13b2\u13a2": 1901,
    "\u2581\u13a1\u13d9\u13b2\u13a2": 1902,
    "\u2581\u13a4\u13d3\u13c5\u13c5": 1903,
    "\u2581\u13cd\u13a9\u13ef": 1904,
    "\u13f0\u13af": 1905,
    "\u2581\u13d9\u13a6": 1906,
    "\u2581\u13a4\u13db\u13c1\u13a2": 1907,
    "\u2581\u13d1\u13d3\u13b5\u13c1": 1908,
    "\u2581\u13a2\u13c5\u13af": 1909,
    "\u2581\u13f1\u13d7\u13e3": 1910,
    "\u13b3\u13bb": 1911,
    "\u2581\u13a1\u13be": 1912,
    "\u2581\u13e9\u13c1": 1913,
    "\u13cd\u13d7\u13cd\u13a8\u13cd\u13d7": 1914,
    "\u2581\u13c2\u13d9\u13d3\u13f3": 1915,
    "\u2581\u13a4\u13c2\u13b7\u13e4\u13a2": 1916,
    "\u2581\u13c2\u13e5\u13a5\u13a2": 1917,
    "\u2581\u13a0\u13c2\u13d0": 1918,
    "\u2581\u13c2\u13aa\u13af\u13b8\u13be": 1919,
    "\u13c3\u13b2\u13cf": 1920,
    "\u13e4\u13b8": 1921,
    "\u13aa\u13e9\u13db\u13d7": 1922,
    "\u13ce\u13b8": 1923,
    "\u2581\u13a0\u13a9\u13ad": 1924,
    "\u2581\u13a0\u13d3\u13f0\u13cd": 1925,
    "\u2581\u13a0\u13cb\u13d2\u13c9": 1926,
    "\u13cd\u13d4\u13c5\u13a9": 1927,
    "\u13b5\u13d7": 1928,
    "\u2581\u13d5\u13e3\u13d3": 1929,
    "\u2581\u13a6\u13e8": 1930,
    "\u2581\u13d9\u13d3\u13a6": 1931,
    "\u13b2\u13cd\u13a8\u13cd\u13d7": 1932,
    "\u2581\u13cc": 1933,
    "\u13d7\u13cd\u13aa\u13a2": 1934,
    "\u2581\u13a4\u13db": 1935,
    "\u2581\u13e3\u13da": 1936,
    "\u2581\u13aa\u13af\u13cd\u13a9\u13c2": 1937,
    "\u2581\u13f1\u13ac\u13e9": 1938,
    "\u13d9\u13b4\u13b0\u13af\u13cd\u13d7": 1939,
    "\u13c5\u13d7": 1940,
    "\u2581\u13a4\u13a6": 1941,
    "\u13e7\u13c8\u13cd\u13d7": 1942,
    "\u2581\u13c4\u13d3": 1943,
    "\u2581\u13a6\u13db": 1944,
    "\u2581\u13a6\u13c1": 1945,
    "\u13d9\u13a5": 1946,
    "\u2581\u13a2\u13f3\u13ea": 1947,
    "\u2581\u13a2\u13cd\u13d7": 1948,
    "\u2581\u13e7\u13be\u13c4\u13ec": 1949,
    "\u2581\u13a4\u13cd\u13a6": 1950,
    "\u2581\u13a4\u13ec\u13e2\u13c5": 1951,
    "\u13a6\u13b6\u13c1\u13db": 1952,
    "\u2581\u13a1\u13b3\u13ea": 1953,
    "\u2581\u13d3\u13eb\u13d2": 1954,
    "\u2581\u13a0\u13e8\u13ef": 1955,
    "\u2581\u13ce": 1956,
    "\u2581\u13ed\u13c2\u13b7\u13e8": 1957,
    "\u2581\u13da\u13c1\u13b4": 1958,
    "\u2581\u13e7\u13b5": 1959,
    "\u2581\u13a0\u13f0": 1960,
    "\u13d3\u13b5": 1961,
    "\u2581\u13a4\u13d3\u13c5\u13db": 1962,
    "\u2581\u13e4\u13c8": 1963,
    "\u2581\u13a0\u13db\u13aa\u13d7": 1964,
    "\u2581\u13d7\u13aa\u13ea\u13b5": 1965,
    "\u2581\u13a4\u13e9\u13db\u13b2": 1966,
    "\u2581\u13a0\u13c2\u13cc\u13da\u13cf": 1967,
    "\u2581\u13a6\u13b6\u13c4\u13ae": 1968,
    "\u2581\u13ac\u13cd\u13a6\u13a2\u13cd\u13d3\u13a9": 1969,
    "\u2581\u13c2\u13a6\u13c5\u13af\u13ce\u13cd\u13d7": 1970,
    "\u2581\u13d1\u13d3\u13b4\u13a9": 1971,
    "\u2581\u13c4\u13dc\u13cf\u13db\u13d2\u13be": 1972,
    "\u2581\u13cc\u13ef\u13c2": 1973,
    "\u2581\u13d7\u13c1\u13b6\u13d9\u13d7": 1974,
    "\u2581\u13e7\u13c3\u13d1\u13b6\u13e8\u13af": 1975,
    "\u2581\u13e2\u13d3\u13e5": 1976,
    "\u2581\u13a4\u13b6\u13d2\u13cd\u13d4\u13c5\u13af": 1977,
    "\u2581\u13a2\u13e8\u13d4\u13f2\u13ce\u13ad": 1978,
    "\u2581\u13e7\u13be\u13b3\u13cf\u13d5\u13c2": 1979,
    "\u2581\u13e7\u13be\u13e6\u13af\u13cd\u13d7": 1980,
    "\u2581\u13a2\u13f3\u13d3\u13a8\u13db": 1981,
    "\u2581\u13b3\u13cf\u13b3": 1982,
    "\u2581\u13a2\u13a9\u13cd\u13d5\u13b5\u13cd\u13a9": 1983,
    "\u2581\u13a2\u13e3\u13d3\u13d9\u13b5\u13cd\u13d7\u13cd\u13a8\u13cd\u13d7": 1984,
    "\u2581\u13a4\u13da\u13eb\u13db": 1985,
    "\u2581\u13eb\u13c2\u13a6\u13b5\u13cd\u13d3": 1986,
    "\u2581\u13eb\u13c4\u13d2\u13b8": 1987,
    "\u2581\u13a6\u13c3\u13cd\u13a9\u13cd\u13a9": 1988,
    "\u2581\u13a3\u13cc\u13c2": 1989,
    "\u2581\u13a3\u13a6\u13c1\u13b3\u13c5\u13af": 1990,
    "\u2581\u13be\u13db\u13c1\u13ae\u13cd\u13d7": 1991,
    "\u2581\u13a6\u13f0\u13cc\u13d7": 1992,
    "\u2581\u13a4\u13f4\u13e3": 1993,
    "\u2581\u13a0\u13a6\u13d8\u13ef": 1994,
    "\u2581\u13a4\u13be\u13b4\u13c5\u13ae": 1995,
    "\u2581\u13a0\u13c2\u13a6\u13d4\u13bf\u13a2": 1996,
    "\u2581\u13ac\u13aa\u13e9\u13db\u13d7": 1997,
    "\u2581\u13a0\u13b5\u13ae\u13b5\u13cd\u13d7": 1998,
    "\u2581\u13da\u13a6\u13d2\u13cd\u13db": 1999,
    "\u2581\u13a2\u13a6\u13ea\u13db": 2000,
    "\u2581\u13d7\u13ef\u13d6\u13be": 2001,
    "\u2581\u13a4\u13a6\u13c3\u13e9": 2002,
    "\u2581\u13a4\u13b5\u13cd\u13a8\u13d3": 2003,
    "\u2581\u13c2\u13a6\u13da": 2004,
    "\u2581\u13e7\u13be\u13d3\u13b5\u13a2": 2005,
    "\u2581\u13a2\u13f3\u13c5\u13c1\u13d7\u13f1": 2006,
    "\u13db\u13f3\u13a8\u13d7": 2007,
    "\u13cd\u13d7\u13cd\u13a9": 2008,
    "\u2581\u13a0\u13d3\u13c5\u13d6\u13d7": 2009,
    "\u2581\u13e3\u13c1\u13ae\u13a2": 2010,
    "\u13d4\u13f2\u13ce\u13b4": 2011,
    "\u2581\u13e7\u13c5": 2012,
    "\u2581\u13a6\u13c1\u13b3": 2013,
    "\u2581\u13a0\u13c2\u13c1\u13b5": 2014,
    "\u2581\u13a4\u13e4": 2015,
    "\u2581\u13a4\u13ec\u13e2\u13c5\u13af": 2016,
    "\u2581\u13e7\u13b8\u13eb\u13cd\u13d3\u13c1\u13d7\u13f1": 2017,
    "\u2581\u13d7\u13a6\u13b5\u13a0\u13c5\u13af\u13db": 2018,
    "\u2581\u13c4\u13be\u13db\u13c1\u13b8\u13a9": 2019,
    "\u2581\u13ec": 2020,
    "\u13aa\u13e9\u13d8\u13ad": 2021,
    "\u2581\u13a0\u13e5\u13b8\u13a0\u13c1\u13b6\u13af": 2022,
    "\u2581\u13da\u13f3\u13aa\u13d7": 2023,
    "\u2581\u13a4\u13be\u13c4\u13aa\u13eb\u13ce\u13a2": 2024,
    "\u2581\u13a4\u13d4\u13b7\u13a9\u13cd\u13a9": 2025,
    "\u2581\u13ef\u13c6\u13da\u13b5": 2026,
    "\u2581\u13d3\u13ac\u13be": 2027,
    "\u2581\u13ef\u13c2": 2028,
    "\u2581\u13ed\u13b6\u13d2\u13a9": 2029,
    "\u2581\u13ac\u13e9\u13db\u13db\u13c1": 2030,
    "\u2581\u13a0\u13a6\u13d4\u13ad": 2031,
    "\u2581\u13be\u13a5\u13c2\u13f3": 2032,
    "\u2581\u13a3\u13e3": 2033,
    "\u2581\u13ad\u13d3\u13c5\u13d6\u13cd\u13ac": 2034,
    "\u2581\u13d3\u13e0\u13af\u13cd\u13db\u13a2": 2035,
    "\u2581\u13e7\u13b5\u13a2": 2036,
    "\u2581\u13d5\u13ac\u13e9": 2037,
    "\u2581\u13d5\u13a8\u13cc\u13d7\u13d2\u13a2": 2038,
    "\u13c3\u13af\u13ce\u13b8": 2039,
    "\u13b8\u13cc\u13db": 2040,
    "\u2581\u13a4\u13c1\u13e4\u13b8\u13a9": 2041,
    "\u13b7\u13e5\u13cf": 2042,
    "an": 2043,
    "\u2581\u13a0\u13d4\u13b4\u13d2\u13a2": 2044,
    "\u13cc\u13d8": 2045,
    "\u2581\u13da\u13ea": 2046,
    "\u13cd\u13d5": 2047,
    "\u2581\u13e7\u13ea\u13d8": 2048,
    "\u2581\u13a4\u13e3\u13db": 2049,
    "\u13d5\u13a9": 2050,
    "\u13b2\u13cd\u13ac": 2051,
    "\u2581\u13ac\u13d7\u13cd\u13ac\u13a2": 2052,
    "\u2581\u13a4\u13ef": 2053,
    "\u13cd\u13db\u13be": 2054,
    "\u2581\u13a4\u13b4\u13c5": 2055,
    "\u2581\u13a0\u13f0\u13b8\u13d7": 2056,
    "\u13e3\u13d8": 2057,
    "\u2581\u13a4\u13f0\u13b8\u13db\u13a2": 2058,
    "\u2581\u13a4\u13c2\u13b5": 2059,
    "\u2581\u13cd\u13a9\u13c3": 2060,
    "\u2581\u13e4\u13a9": 2061,
    "\u2581\u13a4\u13f2\u13c9": 2062,
    "\u13cd\u13d4\u13c1": 2063,
    "\u13c1\u13e5": 2064,
    "\u13af\u13ad": 2065,
    "\u2581\u13d7\u13e3\u13d3": 2066,
    "\u2581\u13a0\u13d3\u13c5\u13d9\u13cd\u13a9\u13c2": 2067,
    "\u2581\u13c2\u13d9": 2068,
    "\u13b5\u13d3\u13cd\u13d7": 2069,
    "\u13d3\u13e1\u13ac": 2070,
    "\u2581\u13e5\u13a8\u13d2\u13a2": 2071,
    "\u13d9\u13b3": 2072,
    "\u13e2\u13a2": 2073,
    "\u2581\u13af\u13a6\u13d4\u13ad": 2074,
    "\u13a2\u13cd": 2075,
    "\u2581\u13a0\u13c1": 2076,
    "\u13ad\u13d7": 2077,
    "\u2581\u13a0\u13cd\u13d3": 2078,
    "\u2581\u13aa\u13af\u13db": 2079,
    "\u13b4\u13ad": 2080,
    "\u13a6\u13d8\u13cd\u13d9\u13d7": 2081,
    "\u2581\u13d7\u13ac\u13e9\u13c2": 2082,
    "\u2581\u13a4\u13e6": 2083,
    "\u2581\u13e5\u13c5\u13cf\u13d3\u13cd\u13d7": 2084,
    "\u2581\u13a7\u13b5": 2085,
    "\u2581\u13a4\u13ab\u13f4\u13d7": 2086,
    "\u2581\u13c4\u13cd\u13db\u13be": 2087,
    "\u13e4\u13b5": 2088,
    "\u2581\u13a0\u13c1\u13d9\u13ae": 2089,
    "\u2581\u13d5\u13a8\u13f4": 2090,
    "\u2581---": 2091,
    "\u2581\u13d7\u13d3\u13c1\u13b8": 2092,
    "\u2581\u13da\u13be\u13d3\u13e1\u13e9\u13d7\u13d2": 2093,
    "\u2581\u13d1\u13be\u13b4\u13c3": 2094,
    "\u2581\u13a0\u13a6\u13cd\u13a6\u13c2": 2095,
    "\u2581\u13a4\u13c4\u13aa\u13e8": 2096,
    "\u2581\u13c5\u13c3": 2097,
    "\u2581\u13eb\u13ac": 2098,
    "\u2581\u13da\u13c5": 2099,
    "\u2581\u13a4\u13db\u13d0\u13c5": 2100,
    "\u13c5\u13c5": 2101,
    "\u2581\u13a9\u13b6\u13a2": 2102,
    "\u2581\u13a0\u13c2\u13c3\u13af\u13b5\u13d9": 2103,
    "\u2581\u13a6\u13c5\u13ac": 2104,
    "\u2581\u13d7\u13a6\u13aa\u13d7": 2105,
    "\u2581\u13da\u13aa\u13b2": 2106,
    "\u2581\u13a0\u13d2\u13a8": 2107,
    "\u13c1\u13b2\u13a2": 2108,
    "\u13aa\u13e3\u13b4\u13db": 2109,
    "\u2581\u13a4\u13f2\u13b1\u13af\u13cd\u13d7": 2110,
    "\u2581\u13a4\u13d3\u13c5\u13d6\u13b8": 2111,
    "\u2581\u13cd\u13cf\u13c9\u13ef": 2112,
    "\u2581\u13d7\u13a6\u13d9\u13cc\u13d7\u13cd\u13d7\u13f1": 2113,
    "\u2581\u13d7\u13c2\u13a8\u13eb": 2114,
    "\u2581\u13da\u13d1\u13ac": 2115,
    "\u2581\u13c0\u13be": 2116,
    "\u2581\u13cc\u13d9\u13c2": 2117,
    "\u2581\u13e7\u13be\u13e6\u13f4\u13cd\u13d7": 2118,
    "\u2581\u13ae\u13b3\u13c2": 2119,
    "\u2581\u13be\u13a6\u13a5": 2120,
    "\u2581\u13d7\u13aa\u13d2\u13d4\u13c5": 2121,
    "\u2581\u13ac\u13a9\u13cd\u13a6\u13a9": 2122,
    "\u2581\u13a8\u13e3\u13cd\u13a6\u13a9": 2123,
    "\u2581\u13a0\u13c9\u13f0\u13c2": 2124,
    "\u2581\u13a6\u13da\u13a2\u13d7\u13e2": 2125,
    "\u2581\u13d7\u13c2\u13b0\u13b5": 2126,
    "\u2581\u13a6\u13c2\u13d3\u13db": 2127,
    "\u2581\u13a8\u13a6\u13d1\u13f0\u13db": 2128,
    "\u2581\u13c1\u13c2\u13cf": 2129,
    "\u2581\u13c7\u13cd\u13d3": 2130,
    "\u2581\u13cd\u13d7\u13eb": 2131,
    "\u2581\u13a0\u13c2\u13a6\u13d4\u13be\u13a2": 2132,
    "\u2581\u13d7\u13cd\u13c6\u13be\u13b3\u13d7\u13cd\u13d7": 2133,
    "\u2581\u13c4\u13cd\u13d7\u13d3\u13c5": 2134,
    "\u2581\u13a2\u13f3\u13d5\u13d8\u13f4\u13d3": 2135,
    "\u2581\u13a3\u13e5\u13a6\u13d4\u13ad": 2136,
    "\u2581\u13a4\u13d5\u13b6\u13b0\u13ce": 2137,
    "\u2581\u13d3\u13a8\u13cf": 2138,
    "\u2581\u13a4\u13a7\u13f2\u13db\u13af": 2139,
    "\u2581\u13a3\u13ad\u13c2": 2140,
    "\u2581\u13e9\u13db\u13ac\u13a6": 2141,
    "\u2581\u13a2\u13e5\u13ef\u13eb\u13cd\u13a8\u13cd\u13d7": 2142,
    "\u2581\u13a0\u13a6\u13ef\u13b7\u13d7": 2143,
    "\u2581\u13a0\u13c2\u13a9\u13cf\u13d9\u13af": 2144,
    "\u2581\u13a0\u13be\u13a6\u13b5\u13cd\u13a9": 2145,
    "\u2581\u13d7\u13e5\u13b6\u13cd\u13d4\u13c5": 2146,
    "\u2581\u13a0\u13c2\u13a6\u13d4\u13af": 2147,
    "\u2581\u13e5\u13ae\u13be": 2148,
    "\u2581\u13a2\u13e5\u13c5\u13df": 2149,
    "\u2581\u13a8\u13c6\u13c2": 2150,
    "\u2581\u13a0\u13cd\u13a6\u13f0\u13ac\u13cd\u13d4": 2151,
    "\u2581\u13a6\u13be\u13cd\u13d3": 2152,
    "\u2581\u13a6\u13d0\u13af": 2153,
    "\u2581\u13a4\u13aa": 2154,
    "\u2581\u13a4\u13d9\u13b4\u13b0\u13ce": 2155,
    "\u2581\u13a4\u13ea\u13b7\u13c5\u13a9": 2156,
    "\u2581\u13c4\u13d5\u13d8\u13f4\u13ae\u13a2": 2157,
    "\u2581\u13a4\u13c1\u13b3\u13c5\u13af\u13f1": 2158,
    "\u2581\u13d3\u13f3\u13b6\u13d2": 2159,
    "\u2581\u13a0\u13a6\u13d4\u13bf\u13a2": 2160,
    "\u2581\u13d5\u13aa": 2161,
    "\u2581\u13a2\u13d5\u13be": 2162,
    "\u2581\u13da\u13a7\u13be\u13c1": 2163,
    "\u2581\u13a4\u13c1\u13b7\u13c1\u13a2": 2164,
    "\u2581\u13a2\u13e5\u13cd\u13a6\u13c5\u13e8\u13a2": 2165,
    "\u2581\u13aa\u13e2\u13c5\u13af": 2166,
    "\u2581\u13a4\u13c2\u13a9\u13cd\u13d7": 2167,
    "\u2581\u13a4\u13d3\u13c5\u13d2\u13a9": 2168,
    "\u2581\u13a4\u13db\u13d0\u13c5\u13af": 2169,
    "\u2581\u13a4\u13b5\u13cd\u13d5\u13b8\u13d9\u13d7": 2170,
    "\u2581\u13a0\u13e7\u13cf": 2171,
    "\u13a0\u13ce\u13c3": 2172,
    "\u2581\u13a8\u13d9\u13b2": 2173,
    "\u2581\u13a4\u13be\u13db\u13c1\u13a2": 2174,
    "\u2581\u13a4\u13d3\u13d4\u13c5\u13af": 2175,
    "\u2581\u13d5\u13a6\u13b6\u13d7\u13af": 2176,
    "\u2581\u13a4\u13be\u13d3\u13d1\u13f4": 2177,
    "\u2581\u13ac\u13e9\u13b7\u13e4\u13b8\u13a9": 2178,
    "\u2581\u13a0\u13a9\u13aa\u13b2\u13a9": 2179,
    "\u2581\u13d3\u13a7\u13c5\u13a2": 2180,
    "\u2581\u13d5\u13ad": 2181,
    "\u2581\u13ac\u13e9\u13aa\u13b2": 2182,
    "\u2581\u13a2\u13e7\u13e9\u13c1": 2183,
    "\u2581\u13a4\u13c4\u13aa\u13e4": 2184,
    "\u2581\u13a0\u13e5\u13b8\u13a8\u13b6\u13af": 2185,
    "\u13b4\u13c5": 2186,
    "\u2581\u13a1\u13b3\u13d7\u13e3": 2187,
    "\u2581\u13a1\u13d9\u13af": 2188,
    "\u2581\u13e3\u13c2\u13c3": 2189,
    "\u2581\u13aa\u13e2\u13d2\u13a2": 2190,
    "\u2581\u13af\u13c6": 2191,
    "\u2581\u13a8\u13be\u13c2\u13f1": 2192,
    "\u13c5\u13ce": 2193,
    "\u2581\u13da\u13be\u13d3\u13e1\u13e9\u13d7\u13d2\u13a2": 2194,
    "\u2581\u13a4\u13c2\u13cd\u13a6\u13c5\u13e8\u13af": 2195,
    "\u2581\u13a0\u13a9\u13be\u13eb": 2196,
    "\u2581\u13aa\u13e3\u13b4\u13db": 2197,
    "\u2581\u13a4\u13cd\u13d8\u13f0\u13ac": 2198,
    "\u13a6\u13d7\u13d3": 2199,
    "\u2581\u13a0\u13c1\u13b3": 2200,
    "\u2581\u13ae\u13d7": 2201,
    "\u13d6\u13b8\u13d7": 2202,
    "\u2581\u13e5\u13aa\u13a8": 2203,
    "\u2581\u13a6\u13c5\u13af\u13d3": 2204,
    "\u2581\u13a4\u13aa\u13d7": 2205,
    "\u13cd\u13d4\u13c5\u13af": 2206,
    "\u2581\u13da\u13c2\u13b8\u13eb\u13cd\u13d3\u13c1\u13b2\u13a2": 2207,
    "\u2581\u13c2\u13a6\u13ea\u13cd\u13ac\u13a9": 2208,
    "\u13ef\u13a0": 2209,
    "\u2581\u13d7\u13be\u13d3": 2210,
    "\u13d9\u13e2\u13c5": 2211,
    "\u2581\u13a4\u13aa\u13ae\u13a2": 2212,
    "\u2581\u13f1\u13a6\u13a9": 2213,
    "\u2581\u13a4\u13b4\u13c5\u13b2": 2214,
    "\u2581\u13a6\u13ec\u13c2\u13cd\u13ac\u13a2": 2215,
    "\u2581\u13a4\u13b2": 2216,
    "\u13d3\u13cf": 2217,
    "\u2581\u13a4\u13e9\u13c5": 2218,
    "\u13e9\u13db": 2219,
    "\u2581\u13ee": 2220,
    "\u2581\u13eb\u13a9": 2221,
    "\u2581\u13a6\u13be": 2222,
    "\u13b5\u13cd\u13aa\u13b8\u13d3\u13c1\u13b8\u13af": 2223,
    "\u2581\u13a4\u13f2\u13b1\u13d2\u13a2": 2224,
    "\u13d2\u13c5": 2225,
    "\u2581\u13a4\u13bf\u13e5": 2226,
    "\u2581\u13e5\u13d9": 2227,
    "\u13c5\u13ad": 2228,
    "\u2581\u13a1\u13b3": 2229,
    "\u13b7\u13e4\u13d7\u13f1": 2230,
    "\u13a6\u13d4": 2231,
    "\u2581\u13a2\u13f3\u13e9": 2232,
    "\u2581\u13a7\u13c1\u13a2\u13cd\u13d7": 2233,
    "\u2581\u13d9\u13d7": 2234,
    "\u2581\u13bb": 2235,
    "\u2581\u13a0\u13c2\u13c2": 2236,
    "\u13ab\u13f4\u13d9\u13d7": 2237,
    "\u13cd\u13d5\u13cd\u13d7": 2238,
    "\u13b6\u13a2": 2239,
    "\u2581\u13be\u13d1\u13f4": 2240,
    "\u13b8\u13d3": 2241,
    "\u2581\u13e9\u13e5": 2242,
    "\u2581\u13a4\u13e9\u13db\u13d7": 2243,
    "\u2581\u13a0\u13be\u13b5": 2244,
    "\u2581\u13a0\u13a6\u13d4": 2245,
    "\u2581\u13a4\u13c2\u13c1\u13e8": 2246,
    "\u2581\u13a4\u13c4\u13ec": 2247,
    "\u13a5\u13be": 2248,
    "\u2581\u13af\u13cd\u13a9\u13c1": 2249,
    "\u13d3\u13c2\u13b8\u13e8\u13af": 2250,
    "\u2581\u13aa\u13af\u13f3\u13d7\u13cd\u13a9": 2251,
    "\u2581\u13f1\u13d9": 2252,
    "\u2581\u13cf\u13bb\u13ef\u13c2": 2253,
    "\u13d3\u13d1\u13ef": 2254,
    "\u2581\u13a0\u13af\u13d7": 2255,
    "\u2581\u13a3\u13a6\u13e4\u13b5": 2256,
    "\u2581\u13a8\u13d3\u13b5": 2257,
    "\u2581\u13a7\u13c3\u13ae\u13cd\u13ac": 2258,
    "\u2581\u13c4\u13be\u13db\u13c1\u13b8": 2259,
    "\u2581\u13eb\u13a6\u13c5\u13c5": 2260,
    "\u2581\u13a0\u13c2\u13e8\u13ef": 2261,
    "\u13c1\u13e4\u13d7": 2262,
    "\u2581\u13a0\u13c5\u13d7\u13cd\u13ac": 2263,
    "\u2581\u13a4\u13dc\u13c5\u13db": 2264,
    "\u2581\u13d5\u13a6\u13c5\u13c5": 2265,
    "\u2581\u13eb\u13da\u13ef\u13c5\u13ae": 2266,
    "\u2581\u13a0\u13c7": 2267,
    "\u2581\u13c2\u13ac\u13c1": 2268,
    "\u2581\u13a0\u13c2\u13c1\u13ac": 2269,
    "\u2581\u13e5\u13d9\u13ac": 2270,
    "\u2581\u13a4\u13c2\u13a9\u13ce": 2271,
    "\u2581\u13aa\u13f1\u13c1": 2272,
    "\u2581\u13a0\u13c7\u13b5\u13d2": 2273,
    "\u2581\u13a4\u13be\u13da\u13b5\u13cd\u13ac": 2274,
    "\u2581\u13da\u13b8\u13cc\u13db": 2275,
    "\u13d9\u13b5": 2276,
    "\u2581\u13c2\u13da\u13e9\u13c1\u13b8": 2277,
    "\u2581\u13a0\u13c1\u13b5\u13cd\u13a8": 2278,
    "\u13a5\u13af\u13cd\u13d7": 2279,
    "\u2581\u13ad\u13b5": 2280,
    "\u2581\u13a4\u13ea\u13c5\u13d2": 2281,
    "\u2581\u13e5\u13c1\u13ac": 2282,
    "\u13d3\u13c5": 2283,
    "\u2581\u13e3\u13da\u13b5": 2284,
    "\u13d7\u13e3": 2285,
    "\u2581\u13f1\u13e5\u13a6\u13d4": 2286,
    "\u13e2\u13d7": 2287,
    "\u13c4\u13ec": 2288,
    "\u2581\u13a2\u13ef\u13c6\u13db\u13c1\u13d7": 2289,
    "\u2581\u13a4\u13c1\u13d3\u13cd\u13d7": 2290,
    "\u2581\u13a6\u13b4\u13c2": 2291,
    "\u2581\u13c2\u13e8\u13c1\u13b8": 2292,
    "\u2581\u13a1\u13b3\u13c2\u13ac": 2293,
    "\u2581\u13a0\u13c2\u13c3\u13cd\u13a9\u13cd\u13a9": 2294,
    "\u2581\u13a0\u13c2\u13e9\u13e5\u13c2": 2295,
    "\u2581\u13a6\u13b3\u13b1\u13c2": 2296,
    "\u2581\u13d5\u13a6\u13b3\u13eb\u13a5": 2297,
    "\u2581\u13e7\u13d3\u13bf\u13e9\u13db": 2298,
    "\u2581\u13d7\u13d3\u13ec\u13cd\u13a9": 2299,
    "\u2581\u13e7\u13d9\u13d3\u13cb\u13d3": 2300,
    "\u2581\u13be\u13aa\u13d4\u13c5\u13be": 2301,
    "\u2581\u13a2\u13c6\u13b6\u13c2": 2302,
    "\u2581\u13da\u13be\u13a7\u13db": 2303,
    "\u2581\u13a4\u13d9\u13b4\u13b0\u13af\u13cd\u13d7\u13f1": 2304,
    "\u2581\u13c4\u13d3\u13b5\u13d3\u13cd\u13db\u13be": 2305,
    "\u2581\u13d7\u13c2\u13ec\u13c2\u13cd\u13a9": 2306,
    "\u2581\u13da\u13c3\u13e2\u13d4\u13c5\u13a9": 2307,
    "\u2581\u13d7\u13a8\u13e5\u13a4\u13cd\u13d5\u13ce\u13b8\u13af": 2308,
    "\u2581\u13a2\u13d5\u13af": 2309,
    "\u2581\u13a0\u13d3\u13ea\u13b3\u13a9\u13cd\u13a9": 2310,
    "\u2581\u13c5\u13d3\u13a6\u13b5\u13cd\u13d9\u13d4\u13c2": 2311,
    "\u2581\u13c5\u13d3\u13a6\u13b5\u13cd\u13d9\u13d3": 2312,
    "\u2581\u13d7\u13c2\u13cd\u13aa\u13b5": 2313,
    "\u2581\u13c2\u13a6\u13b5\u13cd\u13d4\u13c2\u13d9\u13b2": 2314,
    "\u2581\u13e3\u13d4\u13a6": 2315,
    "\u2581\u13e7\u13c6\u13b6\u13ac": 2316,
    "\u2581\u13a4\u13cd\u13da\u13a2\u13d2": 2317,
    "\u2581\u13c4\u13b5\u13cd\u13d4\u13be": 2318,
    "\u2581\u13a2\u13e5\u13f0\u13b8\u13ce\u13cd\u13d7": 2319,
    "\u2581\u13c2\u13e3\u13db\u13c1\u13ae\u13cd\u13d7": 2320,
    "\u2581\u13be\u13b5\u13cd\u13c6\u13d7\u13cd\u13ac\u13be": 2321,
    "\u2581\u13a2\u13e3\u13c5\u13d6\u13cd\u13d7": 2322,
    "\u2581\u13a5\u13a9\u13c5\u13cf\u13db": 2323,
    "\u2581\u13a4\u13ec\u13d1\u13b6\u13e8\u13af": 2324,
    "\u2581\u13da\u13be\u13b4\u13c1": 2325,
    "\u2581\u13e6\u13e2\u13d7": 2326,
    "\u2581\u13a2\u13e5\u13a6\u13d4\u13ae\u13cd\u13d7": 2327,
    "\u2581\u13a2\u13e7\u13b3\u13d7\u13e2": 2328,
    "\u2581\u13af\u13cd\u13a6\u13ef": 2329,
    "\u2581\u13c2\u13da\u13be\u13d3\u13ea\u13ce\u13b4\u13a2": 2330,
    "\u2581\u13a0\u13cc\u13c5\u13d9\u13d7": 2331,
    "\u2581\u13a3\u13c2\u13d7\u13e2": 2332,
    "\u2581\u13a1\u13c2\u13d7": 2333,
    "\u2581\u13d7\u13d1\u13e2\u13db": 2334,
    "\u2581\u13a0\u13b5\u13e5\u13d9\u13b2\u13cd\u13a9": 2335,
    "\u2581\u13a2\u13e5\u13a6\u13d9\u13a5\u13af\u13cd\u13d7\u13f1": 2336,
    "\u2581\u13a1\u13c8\u13b5": 2337,
    "\u2581\u13e7\u13be\u13b5\u13c2\u13a9\u13db": 2338,
    "\u2581\u13a0\u13e5\u13a4\u13cd\u13d5\u13ce\u13b8\u13af": 2339,
    "\u2581\u13aa\u13af\u13f3\u13b2\u13cd\u13a9": 2340,
    "\u2581\u13a2\u13ef\u13cd\u13d8": 2341,
    "\u2581\u13c2\u13ac\u13ea\u13ce\u13ad": 2342,
    "\u2581\u13e7\u13cd\u13aa\u13b5": 2343,
    "\u2581\u13a0\u13d3\u13cd\u13d3\u13f4\u13d7": 2344,
    "\u2581\u13e3\u13d3\u13c5\u13d9": 2345,
    "\u2581\u13a4\u13db\u13a6\u13be": 2346,
    "\u2581\u13c5\u13e7\u13b5\u13cd\u13d9\u13d4\u13c5": 2347,
    "\u2581\u13cd\u13a9\u13d9\u13b5\u13a9": 2348,
    "\u2581\u13cd\u13aa\u13ef": 2349,
    "\u2581\u13c2\u13a6\u13b5\u13cd\u13d4\u13c5\u13ad": 2350,
    "\u2581\u13a0\u13c2\u13c5\u13a2": 2351,
    "\u13f4\u13d7": 2352,
    "\u2581\u13e7\u13c2\u13b3\u13eb\u13a2\u13cd\u13d7\u13f1": 2353,
    "\u2581\u13a2\u13e8\u13ef": 2354,
    "\u2581\u13a4\u13b5\u13cd\u13d7\u13f3": 2355,
    "\u2581\u13a2\u13f3\u13b5\u13cd\u13d4\u13c5\u13af": 2356,
    "\u2581\u13ad\u13bb": 2357,
    "\u2581\u13c4\u13e9\u13c5": 2358,
    "\u2581\u13a4\u13d5\u13b5\u13d2": 2359,
    "\u2581\u13da\u13e0\u13f1\u13b4\u13a2": 2360,
    "\u2581\u13a0\u13c6\u13b5\u13cf": 2361,
    "\u2581\u13a2\u13ef\u13c6\u13db\u13c1\u13d7\u13f1": 2362,
    "\u2581\u13e6\u13b3": 2363,
    "\u2581\u13d3\u13d3\u13cf": 2364,
    "\u2581\u13a2\u13d3\u13b5": 2365,
    "\u13cc\u13c2": 2366,
    "\u13ce\u13d7": 2367,
    "\u2581\u13e5\u13aa\u13e9\u13d8\u13ad": 2368,
    "\u2581\u13b9\u13d7": 2369,
    "\u2581\u13a4\u13ea\u13d7\u13f1": 2370,
    "\u2581\u13a4\u13cd\u13c6\u13db": 2371,
    "\u2581\u13a4\u13e3\u13d6": 2372,
    "\u2581\u13a8\u13a5\u13a2": 2373,
    "\u2581\u13a1\u13d8\u13f4": 2374,
    "\u2581\u13a4\u13c2\u13a9\u13d2\u13a9": 2375,
    "\u2581\u13a7\u13c5\u13d1\u13b8": 2376,
    "\u2581\u13d8\u13b5": 2377,
    "\u2581\u13c2\u13da\u13e9\u13c1\u13b8\u13a9": 2378,
    "\u2581\u13d3\u13ac\u13e9": 2379,
    "\u2581\u13e7\u13c2\u13be\u13eb\u13f1": 2380,
    "\u2581\u13b9\u13a9": 2381,
    "\u2581\u13e7\u13d3\u13c5\u13db\u13a2": 2382,
    "\u2581\u13cc\u13da": 2383,
    "\u2581\u13e7\u13ec\u13da\u13af": 2384,
    "\u2581\u13ed\u13c2\u13b7\u13e4\u13a2": 2385,
    "\u2581\u13c4\u13be\u13cd\u13d7": 2386,
    "\u2581\u13a8\u13c2\u13d7": 2387,
    "\u13cf\u13d7\u13d2": 2388,
    "\u13d7\u13d2": 2389,
    "\u2581\u13a4\u13c4\u13e2": 2390,
    "\u2581\u13d7\u13e8": 2391,
    "\u13b5\u13cd\u13d4\u13c5": 2392,
    "\u2581\u13a0\u13ad": 2393,
    "\u2581\u13f1\u13da\u13c2": 2394,
    "\u2581\u13c8": 2395,
    "\u2581\u13c2\u13eb": 2396,
    "\u2581\u13a0\u13c6\u13b5": 2397,
    "\u2581\u13be\u13c6": 2398,
    "\u2581\u13f1\u13b0": 2399,
    "\u2581\u13d2": 2400,
    "\u2581\u13a6\u13db\u13ac\u13a2": 2401,
    "\u2581\u13a4\u13aa\u13b2\u13af": 2402,
    "\u13cd\u13c6\u13c2\u13aa\u13d7": 2403,
    "\u13c1\u13ac": 2404,
    "\u2581\u13c4\u13db\u13c1\u13b8\u13a2": 2405,
    "\u13d0\u13c5": 2406,
    "\u13ea\u13e8\u13af": 2407,
    "\u13c3\u13c1\u13b8\u13a9": 2408,
    "\u2581\u13da\u13e9": 2409,
    "\u2581\u13a4\u13c1\u13a2\u13cd\u13d7": 2410,
    "\u13cd\u13d4\u13c5\u13a2": 2411,
    "\u2581\u13a0\u13a9\u13aa\u13b2": 2412,
    "\u13f4\u13ad": 2413,
    "\u2581\u13d7\u13ac\u13d9\u13d7": 2414,
    "\u13d8\u13d7": 2415,
    "\u13a6\u13b8": 2416,
    "\u2581\u13a4\u13be\u13d5": 2417,
    "\u13dc": 2418,
    "\u2581\u13a4\u13ad\u13a8": 2419,
    "\u13c1\u13ae": 2420,
    "\u2581\u13d3\u13e5\u13ef": 2421,
    "\u13cd\u13d3\u13f4": 2422,
    "\u2581\u13eb\u13d7": 2423,
    "\u2581\u13e5\u13f4": 2424,
    "\u2581\u13af\u13be": 2425,
    "\u13c2\u13d2": 2426,
    "\u13e7\u13cf": 2427,
    "\u2581\u13a0\u13a6\u13db": 2428,
    "\u2581\u13a4\u13d9\u13d3\u13c3": 2429,
    "\u2581\u13a4\u13d4\u13c5": 2430,
    "\u13a1\u13cd\u13d7": 2431,
    "\u2581\u13e7\u13d9": 2432,
    "\u13a9\u13d3": 2433,
    "\u2581\u13a0\u13cf\u13b3\u13db": 2434,
    "\u2581\u13da\u13a6": 2435,
    "\u13c5\u13cf\u13d9\u13af": 2436,
    "\u13a0\u13ef\u13d7": 2437,
    "\u2581\u13af\u13b8\u13af": 2438,
    "\u13d9\u13ae\u13cd\u13d7": 2439,
    "\u2581\u13a4\u13b6\u13d2": 2440,
    "\u2581\u13a0\u13f2": 2441,
    "\u13a9\u13cd\u13a8\u13cd\u13d7": 2442,
    "\u2581\u13a4\u13db\u13c5\u13a9": 2443,
    "\u2581\u13a8\u13b6\u13af": 2444,
    "\u2581\u13a4\u13cd\u13c6": 2445,
    "\u13cd\u13aa\u13c3": 2446,
    "\u13d7\u13f3": 2447,
    "\u2581\u13c2\u13e3\u13db\u13c5\u13a2": 2448,
    "\u13c1\u13b8\u13d4\u13c5": 2449,
    "\u13b6\u13d2": 2450,
    "\u13ea\u13b3": 2451,
    "\u2581\u13ed\u13c2\u13b7\u13e4": 2452,
    "\u13aa\u13a9": 2453,
    "\u13c9\u13d7": 2454,
    "\u13d9\u13b5\u13cd\u13d7": 2455,
    "\u2581\u13a4\u13e9\u13a8\u13eb": 2456,
    "\u13a7\u13b5\u13a2": 2457,
    "\u2581\u13a2\u13cd": 2458,
    "\u13a4\u13d9\u13af\u13f3": 2459,
    "\u13a9\u13b3": 2460,
    "\u2581\u13e5\u13be": 2461,
    "\u13f0\u13b8": 2462,
    "\u2581\u13a0\u13a2\u13d2": 2463,
    "\u2581\u13a0\u13c2\u13c1": 2464,
    "\u13ec\u13c2\u13af\u13cd\u13d7": 2465,
    "\u13e8\u13a2": 2466,
    "\u13d3\u13c1\u13b8": 2467,
    "\u2581\u13a0\u13cd\u13da\u13b2": 2468,
    "\u2581\u13a0\u13cd\u13a6": 2469,
    "\u2581\u13ac\u13ef": 2470,
    "\u2581\u13a2\u13e3\u13d3": 2471,
    "\u13c5\u13d3\u13d7\u13cd\u13d9\u13d7": 2472,
    "\u2581\u13a0\u13cd\u13a6\u13c5\u13e8": 2473,
    "\u13a5\u13cf": 2474,
    "\u13b4\u13c5\u13af": 2475,
    "\u13d3\u13b6\u13c2\u13a8": 2476,
    "\u13b5\u13aa": 2477,
    "\u2581\u13be\u13c6\u13db\u13c1\u13b8": 2478,
    "\u2581\u13aa\u13e2\u13d2": 2479,
    "\u2581\u13e3\u13a9": 2480,
    "\u13d4\u13b7\u13a9\u13cd\u13a9": 2481,
    "\u2581\u13a0\u13d3\u13d9\u13b5\u13cd\u13d7": 2482,
    "\u13a8\u13b3\u13cd\u13d7": 2483,
    "\u2581\u13be\u13c2\u13ea\u13cd\u13ac": 2484,
    "\u2581\u13a0\u13a9\u13c1\u13e8": 2485,
    "\u2581\u13c2\u13aa": 2486,
    "\u2581\u13a0\u13d3\u13c5\u13d6\u13cd\u13a8": 2487,
    "\u2581\u13a1\u13b5\u13cd\u13a8": 2488,
    "\u2581\u13a5\u13d3\u13b8": 2489,
    "\u13cd\u13da": 2490,
    "\u2581\u13a4\u13a9\u13e8\u13c5": 2491,
    "\u2581\u13a4\u13b5\u13c2\u13ac\u13ac": 2492,
    "\u2581\u13a0\u13f2\u13df": 2493,
    "\u2581\u13a4\u13c2\u13c3\u13ae\u13b8": 2494,
    "\u13a2\u13f3\u13be\u13cd\u13d7": 2495,
    "\u2581\u13ac\u13e9\u13b7\u13e4\u13b4": 2496,
    "\u2581\u13e3\u13a7\u13db": 2497,
    "\u2581\u13d7\u13e4\u13b2": 2498,
    "\u2581\u13a6\u13f0\u13cc\u13db": 2499,
    "\u13db\u13c2": 2500,
    "\u13c6\u13b5": 2501,
    "\u2581\u13c2\u13e3\u13db\u13c5": 2502,
    "\u2581\u13a4\u13bf\u13a5": 2503,
    "\u2581\u13a4\u13f0\u13b8\u13c1": 2504,
    "\u2581\u13a0\u13d3\u13ef": 2505,
    "\u2581\u13eb\u13cd\u13a9": 2506,
    "\u13ef\u13c5": 2507,
    "\u2581\u13d7\u13e5\u13f0\u13b8": 2508,
    "\u2581\u13a4\u13a6\u13d4\u13b2\u13d2": 2509,
    "\u2581\u13eb\u13da\u13ef\u13c5\u13b2": 2510,
    "\u2581\u13ac\u13e9\u13b7\u13e4\u13b8": 2511,
    "\u2581\u13be\u13db\u13c1\u13b2": 2512,
    "\u2581\u13c7": 2513,
    "\u2581\u13a0\u13c1\u13b5\u13cd\u13ac": 2514,
    "\u2581\u13d7\u13c4\u13aa\u13d7\u13cd\u13a9": 2515,
    "\u2581\u13a2\u13ac\u13e9\u13c1\u13d7": 2516,
    "\u2581\u13a0\u13e5\u13a2\u13cd\u13d7": 2517,
    "\u13a5\u13dd": 2518,
    "\u13c7\u13d3\u13b5": 2519,
    "\u2581\u13ad\u13b4": 2520,
    "\u13d9\u13a2": 2521,
    "\u2581\u13da\u13c5\u13ce": 2522,
    "\u2581\u13aa\u13e2\u13d7": 2523,
    "\u13c5\u13a6": 2524,
    "\u2581\u13a0\u13f0\u13b3\u13cd\u13d8": 2525,
    "\u2581\u13a1\u13a9\u13b5\u13c8": 2526,
    "\u2581\u13a2\u13d7\u13cd\u13d3\u13d3\u13b3": 2527,
    "\u2581\u13a6\u13cc\u13c6\u13b8": 2528,
    "\u2581\u13c2\u13d3\u13aa\u13d4\u13c5\u13be": 2529,
    "\u2581\u13cc\u13ec\u13da": 2530,
    "\u2581Chap": 2531,
    "\u2581\u13a2\u13ef\u13ac\u13c1\u13b8\u13af": 2532,
    "\u2581\u13cc\u13f1\u13b3": 2533,
    "\u2581\u13a0\u13c2\u13c8\u13b5\u13cd\u13d7": 2534,
    "\u2581\u13e3\u13a6\u13df\u13b6\u13cd\u13d4\u13c5\u13af": 2535,
    "\u2581\u13a7\u13c1\u13cd\u13aa": 2536,
    "\u2581\u13da\u13a7\u13d4\u13cd\u13d4\u13c1\u13a2": 2537,
    "\u2581\u13e5\u13cd\u13aa\u13f4": 2538,
    "\u2581\u13e7\u13d3\u13d5\u13cd\u13d7\u13f1": 2539,
    "\u2581\u13c5\u13d3\u13a6\u13e5\u13f4\u13c1\u13b5": 2540,
    "\u2581\u13a4\u13f2\u13cd\u13db\u13c9": 2541,
    "\u2581\u13ae\u13bc": 2542,
    "\u2581\u13a0\u13d5\u13d2\u13b2\u13cd\u13a9": 2543,
    "\u2581\u13a2\u13c6\u13bb": 2544,
    "\u2581\u13a2\u13f3\u13db\u13c1\u13b8\u13af": 2545,
    "\u2581\u13a0\u13d7\u13d2\u13cd\u13d7": 2546,
    "\u2581\u13d7\u13e5\u13a6\u13d9\u13b5": 2547,
    "\u2581\u13e5\u13c2\u13e3\u13db\u13c5": 2548,
    "\u2581\u13e7\u13be\u13d3\u13c5\u13d9": 2549,
    "\u2581\u13a4\u13c2\u13c1\u13ab\u13e5\u13db": 2550,
    "\u2581\u13a6\u13cc\u13be\u13b5": 2551,
    "\u2581\u13a4\u13b3\u13a8\u13ef\u13db\u13e4\u13a2": 2552,
    "\u2581\u13a4\u13a9\u13d3\u13df\u13c5\u13ef": 2553,
    "\u2581\u13d7\u13bf\u13ec": 2554,
    "\u2581\u13a4\u13b4\u13f4\u13d2": 2555,
    "\u2581\u13f1\u13e5\u13cd\u13a6\u13a2\u13ae\u13cd\u13d7": 2556,
    "\u2581\u13a0\u13b9\u13f3\u13b8\u13d3": 2557,
    "\u2581\u13a7\u13f4\u13d0\u13b5": 2558,
    "\u2581\u13a0\u13a9\u13ac\u13eb\u13f3\u13af": 2559,
    "\u2581\u13e3\u13e4\u13b5\u13aa\u13af": 2560,
    "\u2581\u13cf\u13b5\u13f1": 2561,
    "\u2581\u13e5\u13f2\u13ce\u13b8": 2562,
    "\u2581\u13a6\u13ab\u13cd\u13db\u13d7": 2563,
    "\u2581\u13d0\u13c1\u13b3": 2564,
    "\u2581\u13a0\u13c2\u13c3\u13ae\u13cd\u13a9": 2565,
    "\u2581\u13c7\u13d5\u13b5": 2566,
    "\u2581\u13d7\u13a8\u13e5\u13be\u13cc\u13a2": 2567,
    "\u2581\u13ed\u13b7\u13e3": 2568,
    "\u2581\u13a0\u13a6\u13d4\u13be\u13a2": 2569,
    "\u2581\u13a4\u13e3\u13d4": 2570,
    "\u2581\u13a4\u13be\u13d7\u13cd\u13a6\u13b6\u13d7": 2571,
    "\u2581\u13a0\u13f0\u13b2": 2572,
    "\u2581\u13d3\u13ac\u13d4\u13c2": 2573,
    "\u2581\u13ac\u13b5\u13cd\u13c6\u13d7\u13cd\u13a9": 2574,
    "\u2581\u13ac\u13e9\u13cd\u13d3\u13e9\u13db\u13d2\u13a9": 2575,
    "\u2581\u13a0\u13c9\u13b3": 2576,
    "\u2581\u13a2\u13f3\u13e9\u13c1\u13af": 2577,
    "\u2581\u13a0\u13b5\u13cd\u13aa\u13b8\u13d3\u13c1\u13d7": 2578,
    "\u2581\u13e5\u13e5\u13a6\u13d4\u13ad": 2579,
    "\u2581\u13d7\u13ac\u13e9\u13b8\u13cc\u13db": 2580,
    "\u2581\u13ef\u13a6\u13d4\u13ad": 2581,
    "\u2581\u13a3\u13a9\u13d9\u13d3": 2582,
    "\u2581\u13da\u13c3\u13a1\u13a2": 2583,
    "\u2581\u13e4\u13d9\u13b2": 2584,
    "\u2581\u13a0\u13c3\u13cd\u13db": 2585,
    "\u2581\u13a4\u13c1\u13e2\u13d4\u13c5\u13af": 2586,
    "\u2581\u13d7\u13a6\u13c5\u13cd\u13a8\u13c2": 2587,
    "\u2581\u13be\u13e5\u13be\u13dd\u13a5\u13be": 2588,
    "\u2581\u13e7\u13c2\u13a6\u13f4\u13b5\u13a8": 2589,
    "\u2581\u13f3\u13e9\u13c1\u13a6": 2590,
    "\u2581\u13cf\u13c5\u13d3": 2591,
    "\u2581\u13a2\u13e3\u13e0\u13be\u13cd\u13d7": 2592,
    "\u2581\u13ed\u13b6\u13af\u13cd\u13d7\u13f1": 2593,
    "\u2581\u13aa\u13ea\u13b3\u13c5\u13af": 2594,
    "\u2581\u13a0\u13a8\u13ef": 2595,
    "\u2581\u13e6\u13c8": 2596,
    "\u2581\u13ac\u13c2\u13a8\u13d2\u13a2\u13f3": 2597,
    "\u2581\u13a4\u13c1\u13cd\u13d3\u13b3": 2598,
    "\u13ac\u13eb\u13f3\u13d2": 2599,
    "\u2581\u13e5\u13c2\u13a6\u13ea\u13ad": 2600,
    "\u2581\u13aa\u13e2\u13c5": 2601,
    "\u2581\u13a0\u13e5\u13c3\u13ae\u13cd\u13ac\u13a2": 2602,
    "\u2581\u13e7\u13c1\u13ac": 2603,
    "\u2581\u13c2\u13a6\u13c5\u13af\u13d2\u13a9": 2604,
    "\u2581\u13a4\u13a6\u13b9": 2605,
    "\u2581\u13a4\u13aa\u13e9\u13db\u13d7": 2606,
    "\u2581\u13c2\u13da\u13cd\u13db": 2607,
    "\u2581\u13a1\u13c9\u13d7\u13f1": 2608,
    "\u2581\u13a4\u13c5\u13cf\u13d9\u13af": 2609,
    "\u2581\u13a4\u13d3\u13c5\u13d6\u13b8\u13af": 2610,
    "\u2581\u13a3\u13a9\u13be\u13b5\u13a2": 2611,
    "\u2581\u13a4\u13d5\u13c1\u13b8\u13af": 2612,
    "\u13be\u13f0\u13cd\u13ac\u13be": 2613,
    "\u2581\u13e5\u13c4": 2614,
    "\u13a9\u13cd\u13aa": 2615,
    "\u2581\u13be\u13a6\u13d4\u13b2\u13be": 2616,
    "\u2581\u13d3\u13d5\u13f2\u13b2\u13cd\u13ac\u13a2": 2617,
    "\u2581\u13a4\u13ec\u13e2\u13c5\u13a9": 2618,
    "\u2581\u13a0\u13c1\u13b0": 2619,
    "\u13c2\u13d3\u13cd\u13d7\u13f1": 2620,
    "\u2581\u13d3\u13c2\u13c1\u13b8\u13a2": 2621,
    "\u2581\u13a0\u13ad\u13c2": 2622,
    "\u2581\u13ac\u13c2\u13f3": 2623,
    "\u2581\u13a4\u13cd\u13a6\u13c5\u13e8\u13af": 2624,
    "\u13da\u13b5\u13ad": 2625,
    "\u2581\u13a1\u13b3\u13d7\u13e2": 2626,
    "\u2581\u13e5\u13a8": 2627,
    "\u13c2\u13a9\u13db": 2628,
    "\u2581\u13a8\u13b3\u13cd\u13d7": 2629,
    "\u2581\u13a4\u13bf\u13a5\u13a2": 2630,
    "\u2581\u13a0\u13a9\u13cd\u13d7\u13f1": 2631,
    "\u13a1\u13d7": 2632,
    "\u2581\u13f1\u13d5": 2633,
    "\u2581\u13e4\u13c6": 2634,
    "\u13c8\u13cd\u13d7": 2635,
    "\u2581\u13cc\u13b5": 2636,
    "\u2581\u13a0\u13cd\u13d8": 2637,
    "\u2581\u13d5\u13e1\u13ac\u13a2": 2638,
    "\u2581\u13a4\u13be\u13db\u13a6\u13c5\u13af": 2639,
    "\u13b5\u13ef": 2640,
    "\u2581\u13be\u13a8": 2641,
    "\u2581\u13a0\u13a9\u13f0\u13b8": 2642,
    "\u2581\u13a0\u13c6\u13d3\u13c5\u13d9\u13a9": 2643,
    "\u2581\u13d5\u13c2": 2644,
    "\u13a8\u13f3\u13d7": 2645,
    "\u2581\u13a6\u13d9\u13ac\u13a9": 2646,
    "\u13d1\u13f0\u13db": 2647,
    "\u2581\u13f3\u13da\u13b5": 2648,
    "\u13c4\u13aa\u13eb\u13d2\u13a9": 2649,
    "\u2581\u13c2\u13ac\u13c1\u13b2": 2650,
    "\u13a9\u13af": 2651,
    "\u13c1\u13b0\u13a2": 2652,
    "\u2581\u13c4\u13b5\u13cd\u13d4\u13c2\u13d9\u13b8\u13a2": 2653,
    "\u13f3\u13af": 2654,
    "\u2581\u13a4\u13c2\u13cd\u13a6\u13c5\u13e8\u13a2": 2655,
    "\u13d5\u13b6\u13b0\u13af\u13cd\u13d7": 2656,
    "\u2581\u13a6\u13b8\u13c9": 2657,
    "\u2581\u13a4\u13b7\u13e4\u13a2": 2658,
    "\u2581\u13a4\u13d7\u13d4\u13cd\u13d7": 2659,
    "\u2581\u13c5\u13d7\u13a6\u13b5\u13cd\u13d9\u13d7\u13cd\u13ac\u13a2": 2660,
    "\u2581\u13e6\u13af\u13f3\u13d2": 2661,
    "\u2581\u13a0\u13ab": 2662,
    "\u2581\u13a0\u13d2\u13a9": 2663,
    "\u13d3\u13c5\u13a6\u13b8\u13db": 2664,
    "\u13d4\u13f2\u13cf": 2665,
    "\u13cf\u13c1": 2666,
    "id": 2667,
    "\u2581\u13a4\u13a7\u13db\u13a2": 2668,
    "\u2581\u13a2\u13e5\u13f0\u13b8": 2669,
    "\u13d4\u13be": 2670,
    "\u2581\u13d5\u13cd\u13a9": 2671,
    "\u2581\u13a8\u13db": 2672,
    "\u13a8\u13c2": 2673,
    "\u13c1\u13e4\u13b4": 2674,
    "\u13d9\u13b4\u13b0\u13cf": 2675,
    "\u2581\u13a4\u13be\u13db": 2676,
    "\u2581\u13a2\u13d2": 2677,
    "\u2581\u13a4\u13c2\u13b2": 2678,
    "\u13c1\u13cd\u13d7": 2679,
    "\u2581\u13ad\u13e9": 2680,
    "\u2581\u13d7\u13a6\u13c5": 2681,
    "\u13b7\u13e3": 2682,
    "\u2581\u13a6\u13f2\u13b5": 2683,
    "\u13d7\u13cd\u13ac\u13a2": 2684,
    "\u13a6\u13d9": 2685,
    "\u2581\u13be\u13a9": 2686,
    "l": 2687,
    "\u13b5\u13cd\u13d7\u13f1": 2688,
    "\u2581\u13c4\u13ea": 2689,
    "\u13a1\u13b8\u13a9": 2690,
    "\u13b5\u13cf\u13f1": 2691,
    "\u2581\u13e6\u13a2\u13ad": 2692,
    "\u13af\u13af": 2693,
    "\u2581\u13a9\u13b5": 2694,
    "\u2581\u13a2\u13cf\u13b5\u13f1": 2695,
    "\u2581\u13a4\u13c2\u13f0": 2696,
    "\u13a6\u13d4\u13b0": 2697,
    "\u2581\u13da\u13c1\u13b8": 2698,
    "\u13c5\u13d3\u13d3": 2699,
    "\u13d3\u13cd\u13d7": 2700,
    "\u2581\u13a0\u13c2\u13eb\u13be": 2701,
    "\u13d5\u13c5": 2702,
    "\u2581\u13da\u13c2\u13f2": 2703,
    "\u2581\u13d3\u13f0": 2704,
    "\u13da\u13b5": 2705,
    "\u13e0\u13f1": 2706,
    "\u2581\u13a0\u13c2\u13d0\u13a2\u13c3": 2707,
    "\u13a5\u13a9": 2708,
    "\u13c5\u13cf\u13d3\u13cd\u13d7": 2709,
    "\u13f0\u13a2": 2710,
    "\u13b6\u13e8": 2711,
    "\u13c1\u13b8\u13a2": 2712,
    "\u2581\u13af\u13a6\u13d8\u13cf": 2713,
    "\u13c1\u13e4\u13b8\u13af": 2714,
    "\u13ce\u13b4": 2715,
    "\u13be\u13a5": 2716,
    "\u2581\u13a3\u13a9\u13be": 2717,
    "\u2581\u13aa\u13a6": 2718,
    "\u2581\u13e3\u13d3": 2719,
    "\u13df\u13cd\u13d7": 2720,
    "\u2581\u13a4\u13ec\u13c2\u13d2": 2721,
    "\u13e9\u13db\u13ae": 2722,
    "\u2581\u13a4\u13c2\u13e3\u13db": 2723,
    "\u2581\u13a0\u13c9": 2724,
    "\u2581\u13a2\u13b3": 2725,
    "\u13be\u13c4\u13aa\u13eb\u13cf": 2726,
    "\u2581\u13da\u13a7\u13bf\u13c5": 2727,
    "\u13ef\u13c5\u13b2": 2728,
    "\u13a1\u13b8\u13af": 2729,
    "\u2581\u13c2\u13a8": 2730,
    "\u2581\u13c4\u13c5": 2731,
    "\u2581\u13a0\u13d4\u13b4\u13a6\u13d2": 2732,
    "\u2581\u13a4\u13c3\u13c1\u13b4": 2733,
    "\u2581\u13d5\u13a6\u13da\u13e9\u13d7\u13d2": 2734,
    "\u2581\u13e7\u13e9\u13ab\u13d4\u13c5\u13d2": 2735,
    "\u2581\u13a4\u13cd\u13d3\u13a6\u13b8": 2736,
    "\u2581\u13d3\u13d5\u13f2\u13b2\u13cd\u13ac": 2737,
    "\u13d4\u13c5\u13be": 2738,
    "\u2581\u13e9\u13be": 2739,
    "\u13aa\u13b1\u13cd\u13d7": 2740,
    "\u2581\u13f1\u13a8\u13d0": 2741,
    "\u2581\u13a0\u13da\u13a2\u13cd\u13db": 2742,
    "\u2581\u13a3\u13b5\u13e9": 2743,
    "\u2581\u13da\u13ec\u13a1": 2744,
    "\u2581\u13a4\u13f0\u13b8\u13c5": 2745,
    "\u2581\u13a4\u13c2\u13b7\u13e4\u13d7": 2746,
    "\u2581\u13d7\u13ab": 2747,
    "\u2581\u13d3\u13c2\u13c1\u13b8": 2748,
    "\u13a6\u13da": 2749,
    "\u13d7\u13e2": 2750,
    "\u2581\u13a4\u13b7\u13e4\u13b4": 2751,
    "\u2581\u13e4\u13ae": 2752,
    "\u2581\u13a4\u13ec\u13da": 2753,
    "\u2581\u13d5\u13aa\u13ea\u13b8": 2754,
    "\u2581\u13a4\u13c1\u13a6\u13b8": 2755,
    "\u13cd\u13a6\u13a2\u13b2\u13be": 2756,
    "\u13e5\u13f2\u13cf": 2757,
    "\u13e3\u13db\u13c1\u13af": 2758,
    "\u2581\u13a4\u13c5\u13ce": 2759,
    "rs": 2760,
    "\u13b0\u13b2\u13cd\u13d7": 2761,
    "\u2581\u13a1\u13c2\u13be\u13ef": 2762,
    "\u2581\u13a5\u13d8\u13a3\u13a9": 2763,
    "\u2581\u13d1\u13d3\u13b3\u13cd\u13aa\u13af": 2764,
    "\u2581\u13d7\u13ab\u13d3\u13b8\u13d7\u13f1": 2765,
    "\u2581\u13e4\u13a6\u13b3\u13ef": 2766,
    "\u2581\u13eb\u13da\u13a7\u13bf\u13c1": 2767,
    "\u2581\u13a1\u13b9\u13c2\u13d3": 2768,
    "\u2581\u13a2\u13cd\u13a6\u13b3\u13d7": 2769,
    "\u2581\u13e7\u13a6\u13c3\u13ee": 2770,
    "\u2581\u13a4\u13b5\u13cd\u13d4\u13f4\u13d7": 2771,
    "\u2581\u13a4\u13c2\u13c3\u13ae\u13b4": 2772,
    "\u2581\u13d7\u13a7\u13be\u13e9\u13db\u13cd\u13d7": 2773,
    "\u13d4\u13ec\u13cd\u13d4\u13c5": 2774,
    "\u2581\u13a4\u13be\u13e2\u13c9\u13d7": 2775,
    "\u2581\u13ef\u13c3\u13a9\u13f3": 2776,
    "\u2581\u13e7\u13ef\u13d6\u13c3\u13af": 2777,
    "\u2581\u13d7\u13c7\u13c5\u13d2": 2778,
    "\u2581\u13d7\u13be\u13d3\u13c2\u13f1\u13cd\u13a9": 2779,
    "\u2581\u13a4\u13ef\u13d6\u13c3\u13af": 2780,
    "\u2581\u13a2\u13e4\u13b3\u13d7\u13d9\u13ae\u13cd\u13d7": 2781,
    "\u2581\u13d3\u13d3\u13b6\u13c2": 2782,
    "\u2581\u13d7\u13cd\u13c6\u13a8\u13c2": 2783,
    "\u2581\u13ac\u13c9\u13ce\u13b0": 2784,
    "\u2581\u13d5\u13a8\u13e5\u13f0\u13b8\u13d4\u13c5\u13a9": 2785,
    "\u2581\u13e6\u13cd\u13d3\u13d3\u13c5\u13df": 2786,
    "\u2581\u13bb\u13be\u13cc": 2787,
    "\u2581\u13a2\u13f3\u13e9\u13c2\u13cc\u13c5\u13af": 2788,
    "\u2581\u13d1\u13be\u13d3\u13b4\u13a9": 2789,
    "\u2581\u13a6\u13b6\u13af\u13cd\u13d7\u13f3\u13b6\u13d7": 2790,
    "\u2581\u13a1\u13e5\u13b8\u13c9\u13d3": 2791,
    "\u2581\u13c5\u13d3\u13f3\u13b5\u13cd\u13d9\u13d7\u13f1": 2792,
    "\u2581\u13a8\u13e3\u13cd\u13d3\u13e9\u13d7\u13d9\u13af": 2793,
    "\u2581\u13c2\u13e3\u13ea\u13d2": 2794,
    "\u2581\u13d5\u13aa\u13ea\u13b5\u13cd\u13ac": 2795,
    "\u2581\u13f1\u13c5\u13a6\u13b5\u13cd\u13d3": 2796,
    "\u2581\u13c5\u13d3\u13ac\u13c1\u13b5": 2797,
    "\u2581\u13cd\u13a9\u13c4\u13cd\u13db": 2798,
    "\u2581\u13aa\u13cc\u13c2": 2799,
    "\u2581\u13a0\u13c2\u13c8\u13b7": 2800,
    "\u2581\u13a2\u13f2\u13cd\u13db": 2801,
    "\u2581\u13a4\u13f0\u13b8\u13ae": 2802,
    "\u2581\u13af\u13a8\u13f4": 2803,
    "\u2581\u13c2\u13e3\u13db\u13a6": 2804,
    "\u2581\u13e7\u13b3\u13cd\u13a9": 2805,
    "\u2581\u13d7\u13d3\u13b4\u13b2\u13cd\u13a6": 2806,
    "\u2581\u13a2\u13f3\u13db\u13bf\u13d5\u13a9": 2807,
    "\u2581\u13a2\u13a7\u13c1\u13e8\u13af": 2808,
    "\u2581\u13a0\u13d3\u13e0\u13cd\u13d7": 2809,
    "\u2581\u13eb\u13e8\u13b7\u13e4\u13d7\u13f1": 2810,
    "\u2581\u13a4\u13c2\u13b7\u13af\u13cd\u13d7\u13f1": 2811,
    "\u13b8\u13c9\u13d5\u13cd\u13d7": 2812,
    "\u2581\u13a4\u13b5\u13e0\u13ef\u13cd\u13d5\u13cd\u13d7": 2813,
    "\u2581\u13a0\u13c2\u13e6\u13a2": 2814,
    "\u2581\u13db\u13cd\u13c6\u13b8\u13af": 2815,
    "\u2581\u13d7\u13d3\u13c2\u13d0\u13d7\u13f1": 2816,
    "\u2581\u13d1\u13d5\u13d8\u13f4\u13db": 2817,
    "\u2581\u13a2\u13e3\u13db\u13a6\u13c5\u13af": 2818,
    "\u2581\u13a2\u13e3\u13b5\u13cd\u13d5\u13b8\u13d9\u13d7": 2819,
    "\u2581\u13a0\u13d9\u13b4\u13b0\u13af\u13cd\u13d9\u13d7": 2820,
    "\u2581\u13d7\u13a6\u13b4\u13c2": 2821,
    "\u2581\u13a4\u13db\u13aa\u13d7\u13f1": 2822,
    "\u2581\u13ed\u13c2\u13b6\u13af\u13cd\u13d7\u13f1": 2823,
    "\u2581\u13a2\u13f3\u13e9\u13c1\u13b8\u13af": 2824,
    "\u2581\u13a0\u13a9\u13c5\u13cf\u13db": 2825,
    "\u2581\u13ed\u13f4\u13b8": 2826,
    "\u2581\u13a4\u13d3\u13d9\u13b5\u13cd\u13d3\u13c1\u13b4\u13a2": 2827,
    "\u2581\u13a4\u13c1\u13b7\u13c5\u13a9": 2828,
    "\u2581\u13be\u13c2\u13a6\u13d4\u13b2\u13be": 2829,
    "\u2581\u13a4\u13ea\u13b5\u13cd\u13d7": 2830,
    "\u2581\u13a4\u13d3\u13d9\u13b5\u13e3\u13d8\u13f3": 2831,
    "\u2581\u13e9\u13a9\u13b7\u13e8": 2832,
    "\u2581\u13e6\u13d3\u13b8": 2833,
    "\u2581\u13c1\u13b5\u13cd\u13ac": 2834,
    "\u2581\u13a0\u13c7\u13c5\u13cd\u13d7": 2835,
    "\u2581\u13a4\u13ea\u13d9\u13b5\u13cd\u13d7": 2836,
    "\u13c2\u13cc\u13c1": 2837,
    "\u2581\u13be\u13c2\u13a0": 2838,
    "\u2581\u13a2\u13a8\u13ac\u13c1\u13d7": 2839,
    "\u2581\u13ac\u13e9\u13d4\u13f2\u13ce\u13b4": 2840,
    "\u2581\u13f4\u13a8\u13e5": 2841,
    "\u2581\u13a4\u13c2\u13c7\u13d3\u13b8\u13a2": 2842,
    "\u2581\u13c2\u13a6\u13b5\u13cd\u13d7\u13cd\u13a8\u13cd\u13d7": 2843,
    "\u2581\u13d9\u13d3\u13f3": 2844,
    "\u13db\u13c5": 2845,
    "\u2581\u13be\u13a9\u13ea\u13d2\u13a9": 2846,
    "\u2581\u13a0\u13a6\u13cd\u13ac": 2847,
    "\u13a6\u13f4\u13b5\u13a8": 2848,
    "\u2581\u13a4\u13cc\u13b3\u13d3\u13c5": 2849,
    "\u2581\u13a4\u13c2\u13c1\u13ab": 2850,
    "\u2581\u13d7\u13a6\u13b6\u13d7": 2851,
    "\u2581\u13e5\u13cd\u13c6\u13ef": 2852,
    "\u2581\u13a4\u13be\u13d5\u13c5\u13af": 2853,
    "\u2581\u13a4\u13c2\u13c3\u13ae\u13b8\u13af": 2854,
    "\u2581\u13e5\u13cd": 2855,
    "\u2581\u13da\u13c2\u13c5\u13ce": 2856,
    "\u2581\u13a4\u13b6": 2857,
    "\u2581\u13e4\u13b2\u13a9": 2858,
    "\u2581\u13c2\u13ac\u13c1\u13ad": 2859,
    "\u2581\u13da\u13c1\u13e4\u13b8\u13a9": 2860,
    "\u2581\u13a2\u13f3\u13db\u13c1\u13d7\u13f1": 2861,
    "\u2581\u13a4\u13f0\u13b8\u13af": 2862,
    "\u2581\u13d9\u13e7\u13be\u13d3\u13c5\u13db\u13a2": 2863,
    "\u13a6\u13d4\u13af": 2864,
    "\u2581\u13a4\u13ea\u13c5\u13cd\u13d7\u13f1": 2865,
    "\u2581\u13a4\u13d3\u13d1\u13ef": 2866,
    "\u13f0\u13ad": 2867,
    "\u2581\u13a4\u13be\u13b5\u13cd\u13d3\u13f4\u13d7\u13f1": 2868,
    "\u2581\u13a4\u13e9\u13c2": 2869,
    "\u2581\u13c4\u13be\u13db\u13c1\u13b4\u13a2": 2870,
    "\u2581\u13eb\u13da\u13ef\u13c5\u13b2\u13a9": 2871,
    "\u2581\u13a3\u13ac\u13d2": 2872,
    "\u13f2\u13a2\u13f4": 2873,
    "\u2581\u13a0\u13c6\u13d3\u13c5\u13db": 2874,
    "\u2581\u13a4\u13d3\u13b4\u13c5\u13db": 2875,
    "\u2581\u13c5\u13d3\u13ac": 2876,
    "\u2581\u13a4\u13b5\u13ec\u13e8\u13af": 2877,
    "\u2581\u13da\u13cc\u13b3\u13d3\u13c1": 2878,
    "\u2581\u13a0\u13e5\u13b8\u13a8\u13b3\u13cd\u13d7\u13f1": 2879,
    "\u2581\u13a4\u13ea\u13c5\u13d2\u13a9": 2880,
    "\u13d7\u13cf": 2881,
    "\u2581\u13a4\u13ea\u13d9\u13b8\u13a9": 2882,
    "\u2581\u13a4\u13a9\u13b8": 2883,
    "\u2581\u13a4\u13c4\u13aa\u13e8\u13a9": 2884,
    "\u2581\u13a8\u13a6\u13ab\u13f4\u13a1": 2885,
    "\u2581\u13be\u13c2\u13ea\u13cd\u13ac\u13a2": 2886,
    "\u2581\u13a0\u13ce\u13cd\u13a9\u13c2\u13c3\u13c5": 2887,
    "\u2581\u13a4\u13f0\u13b8\u13c1\u13a2": 2888,
    "\u2581\u13d9\u13ef": 2889,
    "\u2581\u13a0\u13e8\u13ef\u13a2": 2890,
    "\u2581\u13d5\u13b3": 2891,
    "\u2581\u13a4\u13c2\u13f0\u13b8\u13c1": 2892,
    "\u13c4\u13aa\u13e9": 2893,
    "\u13a7\u13c1": 2894,
    "\u2581\u13a7\u13c1\u13c9": 2895,
    "\u2581\u13a2\u13be\u13a9": 2896,
    "\u13e9\u13d2": 2897,
    "\u2581\u13a2\u13f3\u13d3\u13b5": 2898,
    "\u2581\u13f2\u13a9": 2899,
    "\u2581\u13a0\u13e4\u13b5\u13cd\u13db\u13a2": 2900,
    "\u2581\u13a0\u13eb\u13cd\u13a9": 2901,
    "\u2581\u13a4\u13c2\u13ac": 2902,
    "\u13f2\u13af\u13cd\u13d4\u13c5": 2903,
    "\u2581\u13a7\u13aa": 2904,
    "\u13d3\u13f1\u13b5": 2905,
    "\u13b2\u13cd\u13a6": 2906,
    "\u2581\u13d4\u13b5\u13cd\u13aa": 2907,
    "\u2581\u13c4\u13e9\u13c1\u13b4\u13a2": 2908,
    "\u2581\u13f4\u13d3": 2909,
    "\u2581\u13d7\u13a6\u13da\u13b2\u13a2": 2910,
    "\u13de": 2911,
    "\u13af\u13d3": 2912,
    "\u2581\u13a4\u13b6\u13a9\u13b8\u13a2": 2913,
    "\u2581\u13d7\u13a6\u13c5\u13cc\u13d7": 2914,
    "\u2581\u13eb\u13d7\u13a6": 2915,
    "\u13b5\u13cd\u13d5\u13b8\u13d9\u13d7": 2916,
    "\u13c1\u13b8\u13be": 2917,
    "\u2581\u13be\u13cb\u13c1\u13b8": 2918,
    "\u2581\u13ac\u13be": 2919,
    "\u13d3\u13b4\u13c5\u13db": 2920,
    "\u2581\u13f1\u13cf": 2921,
    "\u13d9\u13b8": 2922,
    "\u2581\u13a4\u13ac": 2923,
    "\u2581\u13d9\u13a9\u13be": 2924,
    "\u13c5\u13d4": 2925,
    "\u13b8\u13c9\u13d9\u13d7\u13f1": 2926,
    "\u2581\u13a0\u13cb\u13ad": 2927,
    "\u2581\u13a4\u13b4\u13c1": 2928,
    "\u13b0\u13b5": 2929,
    "\u13e5\u13aa\u13e9\u13db": 2930,
    "\u2581\u13a0\u13df": 2931,
    "\u13b2\u13cd\u13aa\u13a2": 2932,
    "\u2581\u13c2\u13d5\u13ac\u13c1": 2933,
    "\u13e4\u13b5\u13a6": 2934,
    "\u2581\u13e5\u13aa\u13a5": 2935,
    "\u2581\u13a4\u13e5\u13b8\u13d2": 2936,
    "\u2581\u13e3\u13c1": 2937,
    "\u2581\u13c4\u13b5\u13cd\u13d4\u13c1\u13ae": 2938,
    "\u13c1\u13c3": 2939,
    "\u2581\u13a4\u13b2\u13a2": 2940,
    "\u2581\u13a4\u13da": 2941,
    "\u2581\u13f0\u13b5\u13cd\u13a8": 2942,
    "\u2581\u13e7\u13ec": 2943,
    "\u13cd\u13c6\u13d9\u13c5": 2944,
    "\u13b1\u13cd\u13d7": 2945,
    "\u2581\u13a2\u13af": 2946,
    "\u2581\u13a0\u13eb\u13be": 2947,
    "\u13c1\u13ae\u13a2": 2948,
    "\u13db\u13d9\u13d7": 2949,
    "\u13a6\u13b3": 2950,
    "\u13cd\u13d4\u13be": 2951,
    "\u2581\u13a2\u13e3\u13d3\u13c5\u13d8": 2952,
    "\u13a0\u13c8": 2953,
    "\u2581\u13a3\u13a9\u13c2": 2954,
    "\u2581\u13ad\u13d3": 2955,
    "\u2581\u13f1\u13d9\u13a6": 2956,
    "\u13b3\u13d3": 2957,
    "\u2581\u13c2\u13ac\u13e9": 2958,
    "\u13d3\u13c2": 2959,
    "\u13d2\u13cd\u13d7": 2960,
    "\u2581\u13a3\u13ac": 2961,
    "\u13d2\u13c3": 2962,
    "\u13cd\u13d5\u13b5\u13ad": 2963,
    "\u13d3\u13c5\u13d6\u13d7": 2964,
    "\u2581\u13a2\u13ac\u13c1": 2965,
    "\u13be\u13c4\u13aa\u13e8\u13af": 2966,
    "\u13d7\u13cd\u13ac\u13be": 2967,
    "\u13cd\u13d3\u13e9\u13d7\u13d9\u13af": 2968,
    "\u13a7\u13c5": 2969,
    "\u2581\u13d3\u13f2": 2970,
    "\u13c9\u13cd\u13aa": 2971,
    "\u2581\u13a4\u13be\u13db\u13a6\u13c1": 2972,
    "\u13cf\u13c6": 2973,
    "\u13c2\u13d7": 2974,
    "\u2581\u13a6\u13f0\u13e5": 2975,
    "\u2581\u13a9\u13b3\u13af": 2976,
    "\u13c5\u13b5": 2977,
    "\u13c7\u13c5": 2978,
    "\u2581\u13db\u13c2": 2979,
    "\u2581\u13f1\u13cd\u13a9": 2980,
    "\u13cb": 2981,
    "\u13f0\u13cc\u13db": 2982,
    "\u13aa\u13b5\u13f0": 2983,
    "\u13d5\u13d7": 2984,
    "\u2581\u13b9": 2985,
    "\u2581\u13f1\u13d7\u13a6": 2986,
    "\u2581\u13a4\u13cd": 2987,
    "\u2581\u13a1\u13e5\u13c1\u13d7": 2988,
    "\u13e6\u13c5": 2989,
    "\u13b5\u13a2": 2990,
    "\u13e0\u13cd\u13d7": 2991,
    "\u2581\u13e5\u13c2\u13a6\u13ea": 2992,
    "\u2581\u13a1\u13a6": 2993,
    "\u13cd\u13d4\u13f1": 2994,
    "\u13aa\u13b5\u13f0\u13d7": 2995,
    "\u13e5\u13e9\u13db\u13b2": 2996,
    "\u2581\u13be\u13bf\u13c9": 2997,
    "\u2581\u13a0\u13d3\u13c5\u13d6\u13b5\u13d9": 2998,
    "\u2581\u13a0\u13cd\u13aa\u13af\u13c3": 2999,
    "\u13e2\u13c5": 3000,
    "\u2581\u13e7\u13be\u13b4\u13af\u13d0": 3001,
    "h": 3002,
    "\u13be\u13c4\u13aa\u13eb\u13d2\u13af": 3003,
    "\u13a0\u13ce": 3004,
    "\u13a6\u13d3\u13c1": 3005,
    "\u2581\u13c4\u13c2\u13ea\u13d2": 3006,
    "\u2581\u13a4\u13c2\u13a9\u13d2": 3007,
    "\u2581\u13eb\u13d3\u13c2": 3008,
    "\u2581\u13be\u13ac\u13c1\u13b8": 3009,
    "\u13af\u13eb": 3010,
    "\u13cd\u13c6\u13c2\u13aa\u13d9\u13d7\u13f1": 3011,
    "\u2581\u13d3\u13c8": 3012,
    "\u2581\u13af\u13f0\u13b8": 3013,
    "\u13a2\u13d2": 3014,
    "\u2581\u13c2\u13a6\u13b5\u13cd\u13d7\u13cd\u13a8": 3015,
    "\u2581\u13a3\u13d3\u13c5\u13db": 3016,
    "\u2581\u13a4\u13f2\u13af\u13cd\u13d4\u13c1": 3017,
    "\u13d7\u13c2\u13c5\u13cc\u13d7": 3018,
    "\u13ad\u13d5\u13ec": 3019,
    "\u2581\u13e7\u13f4\u13e2": 3020,
    "\u2581\u13e5\u13c2": 3021,
    "\u2581\u13a2\u13e3\u13d3\u13e1\u13ac": 3022,
    "\u2581\u13a4\u13be\u13b5\u13ae\u13b5\u13e4": 3023,
    "on": 3024,
    "\u13a8\u13b5\u13a0": 3025,
    "\u13a0\u13a9\u13be": 3026,
    "\u13a6\u13b8\u13b3\u13d7": 3027,
    "\u13a0\u13d5\u13b8": 3028,
    "\u2581\u13a1\u13d9\u13ae": 3029,
    "\u2581\u13d5\u13a4\u13b4\u13d4\u13c5": 3030,
    "\u2581\u13f1\u13d3\u13c2": 3031,
    "\u13d7\u13a6\u13d8\u13ef": 3032,
    "\u13ad\u13f2\u13b2": 3033,
    "\u2581\u13e7\u13d3\u13c5\u13db": 3034,
    "\u13cd\u13a6\u13a9": 3035,
    "\u2581\u13e5\u13c1": 3036,
    "\u13a7\u13b5\u13e8\u13af": 3037,
    "\u13be\u13c4\u13aa\u13a2\u13cd\u13d7": 3038,
    "\u13f2\u13af\u13ce\u13b8\u13a9": 3039,
    "\u2581\u13a4\u13ea\u13f4": 3040,
    "\u13e0\u13a0\u13cf": 3041,
    "\u13a6\u13d4\u13b2": 3042,
    "\u2581\u13da\u13c2\u13b8\u13eb\u13cd\u13d3\u13c1\u13b8": 3043,
    "\u2581\u13a0\u13d3\u13c1\u13e3\u13cd\u13da\u13b6": 3044,
    "\u2581\u13e5\u13f0": 3045,
    "\u2581\u13a4\u13d7\u13de": 3046,
    "\u2581\u13a2\u13d9\u13bb": 3047,
    "\u2581\u13cf\u13d3\u13c1\u13b8": 3048,
    "\u2581\u13e7\u13c2\u13b3\u13eb\u13a2\u13cd\u13d7": 3049,
    "\u2581\u13c5\u13f2": 3050,
    "\u2581\u13a0\u13f2\u13b1\u13d2": 3051,
    "\u2581\u13a0\u13e5\u13cd\u13d5\u13b8\u13d7": 3052,
    "\u2581\u13e3\u13be\u13eb": 3053,
    "\u2581\u13d9\u13e7": 3054,
    "\u2581\u13ae\u13b5\u13a0": 3055,
    "\u2581\u13a4\u13be\u13d5\u13c5": 3056,
    "\u13ad\u13c4\u13b8\u13af": 3057,
    "\u2581Philadelphia": 3058,
    "\u2581\u13d0\u13b5\u13b9\u13c5": 3059,
    "\u2581\u13d5\u13a8\u13a6\u13e8\u13cd\u13d7\u13cd\u13ac": 3060,
    "\u2581\u13d5\u13e6\u13af\u13f3\u13ce\u13cd\u13d7": 3061,
    "\u2581\u13da\u13cd\u13c6\u13b8\u13d4\u13c1": 3062,
    "\u2581\u13ac\u13e9\u13e0\u13ef\u13cd\u13d7": 3063,
    "\u2581\u13c6\u13b3\u13c6": 3064,
    "\u2581\u13a2\u13e6\u13af\u13f3\u13af": 3065,
    "\u2581\u13d7\u13a6\u13d2\u13cd\u13d4\u13c5": 3066,
    "\u2581\u13da\u13e9\u13c2\u13a6\u13e2": 3067,
    "\u2581\u13a4\u13d2\u13af\u13f0\u13f1": 3068,
    "\u2581\u13c0\u13a2\u13f3": 3069,
    "\u2581\u13c7\u13da\u13a1\u13b5": 3070,
    "\u2581\u13a4\u13e3\u13b4\u13d3": 3071,
    "\u2581\u13d7\u13be\u13d5\u13f2\u13b2\u13cd\u13a9": 3072,
    "\u2581\u13e7\u13b4\u13af\u13cc\u13c5\u13af": 3073,
    "\u2581\u13a8\u13c5\u13a2\u13cd\u13d7": 3074,
    "\u2581\u13a4\u13d7\u13d4\u13b2": 3075,
    "\u2581\u13da\u13a7\u13bf\u13c1": 3076,
    "\u2581\u13a7\u13c2\u13b5\u13ef": 3077,
    "\u2581\u13e7\u13f4\u13e8": 3078,
    "\u2581\u13a4\u13ec\u13d3\u13b8": 3079,
    "\u2581\u13d3\u13f3\u13c2\u13b6\u13d2": 3080,
    "\u2581\u13e7\u13d9\u13a2\u13d3": 3081,
    "\u2581\u13a6\u13e3\u13c3\u13cd": 3082,
    "\u2581\u13d7\u13a6\u13b8\u13eb\u13cd\u13d3\u13c1\u13b8\u13af": 3083,
    "\u2581\u13a2\u13e7\u13be\u13d3\u13b3": 3084,
    "\u2581\u13c5\u13e9\u13d9\u13af": 3085,
    "\u2581\u13a0\u13da\u13b8\u13d7": 3086,
    "\u2581\u13a4\u13c4\u13aa\u13a2\u13cd\u13d7": 3087,
    "\u2581\u13e7\u13e3\u13f2\u13cd": 3088,
    "\u2581\u13a2\u13e5\u13c6\u13b5\u13cf": 3089,
    "\u2581\u13f1\u13e3\u13d3\u13c5\u13d6\u13d7\u13cd\u13a8\u13cd\u13d7": 3090,
    "\u2581\u13da\u13c3\u13e2\u13c5\u13a9": 3091,
    "\u2581\u13a4\u13d3\u13d1\u13f1": 3092,
    "\u2581\u13d7\u13e5\u13b8\u13eb\u13cd\u13d3\u13c1\u13d7\u13f1": 3093,
    "\u2581\u13a4\u13d3\u13c5\u13b5\u13f0\u13a5": 3094,
    "\u2581\u13da\u13db\u13db\u13c1": 3095,
    "\u2581\u13a1\u13e3\u13c2\u13b5": 3096,
    "\u2581\u13d3\u13b5\u13c6": 3097,
    "\u2581\u13a2\u13d7\u13c5\u13c1": 3098,
    "\u2581\u13d7\u13a8\u13e5\u13be\u13dd\u13a2": 3099,
    "\u2581\u13aa\u13cd\u13d7": 3100,
    "\u2581\u13a6\u13d3\u13b7\u13ef\u13db": 3101,
    "\u2581\u13a0\u13be\u13db\u13a9\u13cd\u13a9": 3102,
    "\u2581\u13a0\u13a9\u13b7\u13e5\u13b8": 3103,
    "\u2581\u13d7\u13ac\u13aa\u13e9\u13db\u13d7": 3104,
    "\u2581\u13a0\u13cd\u13c6\u13da\u13b8": 3105,
    "\u2581\u13a0\u13c2\u13b4\u13f4\u13cd\u13a9": 3106,
    "\u2581\u13a4\u13b5\u13ac\u13ad\u13b7\u13f4": 3107,
    "\u13be\u13d9\u13d3\u13c6\u13cd\u13d7": 3108,
    "\u2581\u13f1\u13aa\u13b5\u13a6": 3109,
    "\u2581\u13a4\u13be\u13d3\u13d3\u13cd\u13ac": 3110,
    "\u2581\u13d7\u13db\u13d3\u13c5\u13af": 3111,
    "\u2581\u13d7\u13aa\u13d1\u13b4\u13d7\u13f1": 3112,
    "\u2581\u13be\u13ef\u13db\u13a1\u13cd\u13d7": 3113,
    "\u2581\u13e7\u13b4\u13d4\u13c5\u13af": 3114,
    "\u2581\u13ac\u13e9\u13f2\u13b1\u13af\u13cd\u13d7": 3115,
    "\u2581\u13e7\u13d3\u13b4\u13c5\u13b2": 3116,
    "\u2581\u13a2\u13a0": 3117,
    "\u2581\u13ac\u13c6\u13db\u13c1\u13d7\u13f1": 3118,
    "\u2581\u13e5\u13a3\u13b5": 3119,
    "\u2581\u13a0\u13c4\u13a6\u13b8": 3120,
    "\u2581\u13c2\u13e5\u13a6\u13d4\u13b2\u13be": 3121,
    "\u2581\u13a5\u13e5\u13aa\u13a5\u13a9": 3122,
    "\u2581\u13a0\u13d3\u13cd\u13d3\u13e9\u13d7\u13d9\u13af": 3123,
    "\u13db\u13c5\u13a2\u13cd\u13d9\u13d7\u13f1": 3124,
    "\u2581\u13a4\u13d5\u13c1\u13a2": 3125,
    "\u2581\u13a4\u13d3\u13b4\u13e8": 3126,
    "\u2581\u13a4\u13be\u13b5\u13d7\u13a9\u13db": 3127,
    "\u2581\u13a4\u13ec\u13ea\u13b3\u13c5\u13af": 3128,
    "\u2581\u13a0\u13d3\u13ea\u13b3\u13a9\u13cd\u13ac": 3129,
    "\u13b3\u13cf\u13d5\u13be": 3130,
    "\u13a4\u13c5\u13d3\u13d5": 3131,
    "\u2581\u13a0\u13b9\u13b4\u13a9": 3132,
    "\u2581\u13da\u13b7\u13eb\u13cd\u13d4\u13c1\u13b2": 3133,
    "\u2581\u13a4\u13c2\u13aa\u13ae": 3134,
    "\u2581\u13a2\u13a9\u13c5\u13df": 3135,
    "\u2581\u13cd\u13a9\u13be\u13dd\u13a2": 3136,
    "\u2581\u13a4\u13b5\u13e8\u13d3\u13c6\u13d3": 3137,
    "\u2581\u13a2\u13e7\u13d5\u13d8\u13f4\u13db": 3138,
    "\u2581\u13d4\u13b8\u13d7": 3139,
    "\u2581\u13a4\u13ac\u13eb\u13f3\u13ce\u13cd\u13d7": 3140,
    "\u2581\u13e7\u13be\u13c4\u13e9\u13a2": 3141,
    "\u2581\u13a4\u13b6\u13af\u13cd\u13d7": 3142,
    "\u2581\u13be\u13c1\u13b2\u13be": 3143,
    "\u2581\u13a0\u13b5\u13ae\u13b5\u13ac": 3144,
    "\u2581\u13a0\u13c1\u13d9\u13ad": 3145,
    "\u2581\u13a4\u13a7\u13ad\u13db": 3146,
    "\u2581\u13a0\u13a9\u13f0\u13b8\u13b2": 3147,
    "\u2581\u13a0\u13e8\u13cd\u13db": 3148,
    "\u2581\u13a4\u13b4\u13eb\u13cd\u13d4\u13c1": 3149,
    "\u2581\u13ed\u13c2\u13f4\u13b4\u13a2": 3150,
    "\u2581\u13a0\u13b5\u13e5\u13d9\u13b2\u13cd\u13a8": 3151,
    "\u2581\u13a4\u13c2\u13f0\u13b8\u13d2\u13a9": 3152,
    "\u2581\u13a6\u13c5\u13d9\u13d7": 3153,
    "\u13e5\u13af\u13cd\u13d7": 3154,
    "\u2581\u13a1\u13d9\u13ad": 3155,
    "\u2581\u13a0\u13f4\u13e4\u13c2": 3156,
    "\u2581\u13e7\u13ec\u13b8": 3157,
    "\u2581\u13a8\u13e5\u13c1\u13b8\u13af": 3158,
    "\u2581\u13a7\u13c3\u13a9\u13cd\u13d7": 3159,
    "\u2581\u13a5\u13a9\u13d9\u13c9": 3160,
    "\u13a6\u13c3\u13b1\u13a9\u13cd\u13ac": 3161,
    "\u2581\u13a4\u13be\u13d7\u13c5\u13d7": 3162,
    "\u2581\u13a4\u13c5\u13d9\u13d7\u13f1": 3163,
    "\u2581\u13ed\u13c2\u13b6\u13d2\u13a9": 3164,
    "\u2581\u13a4\u13ea\u13a7\u13c5\u13a9": 3165,
    "\u13a9\u13a1\u13b8": 3166,
    "\u2581\u13d7\u13c2\u13a6\u13d8\u13ef": 3167,
    "\u2581\u13c4\u13c2\u13ea\u13ce\u13b8\u13a9": 3168,
    "\u2581\u13e5\u13cd\u13aa\u13b5": 3169,
    "\u2581\u13a2\u13f3\u13d3\u13b5\u13ad": 3170,
    "\u2581\u13ef\u13d7\u13ad": 3171,
    "\u2581\u13be\u13cd\u13a6\u13a2\u13b2\u13be": 3172,
    "\u2581\u13be\u13c2\u13a1\u13a2": 3173,
    "\u2581\u13a0\u13a7\u13b5\u13ec\u13af": 3174,
    "\u2581\u13a4\u13e8\u13c9\u13d7": 3175,
    "\u13f2\u13ad": 3176,
    "\u2581\u13a0\u13d3\u13b4\u13c2\u13cd\u13ac": 3177,
    "\u13a1\u13b4\u13a2": 3178,
    "\u2581\u13d7\u13a6\u13b5\u13cd\u13d9\u13d7\u13ad": 3179,
    "\u2581\u13a0\u13df\u13cd\u13db\u13a2": 3180,
    "\u2581\u13a4\u13d5\u13d7\u13f1": 3181,
    "\u2581\u13a4\u13ef\u13c5\u13af": 3182,
    "\u2581\u13a1\u13ae\u13be": 3183,
    "\u2581\u13f1\u13be": 3184,
    "\u2581\u13d7\u13df\u13cd\u13d7": 3185,
    "\u2581\u13d0\u13d3\u13bb\u13f1": 3186,
    "\u2581\u13a4\u13ea\u13c1\u13a2": 3187,
    "\u13b6\u13af\u13cd\u13d7\u13f1": 3188,
    "\u2581\u13a0\u13ef\u13a5": 3189,
    "\u2581\u13a2\u13a9\u13c1\u13b8\u13af": 3190,
    "\u2581\u13a4\u13f0\u13b8\u13ad": 3191,
    "\u2581\u13d7\u13d0\u13a2": 3192,
    "\u13f0\u13c2": 3193,
    "\u2581\u13eb\u13a6\u13b6\u13af\u13cd\u13d7": 3194,
    "\u2581\u13e3\u13da\u13b5\u13ad": 3195,
    "\u2581\u13ef\u13a9\u13ad": 3196,
    "\u2581\u13cd\u13d3\u13f1": 3197,
    "\u2581\u13cd\u13a9\u13a8\u13f3": 3198,
    "\u2581\u13e7\u13c1\u13b3": 3199,
    "\u2581\u13d3\u13f3\u13d3\u13b4\u13c5\u13d3": 3200,
    "\u2581\u13a2\u13a6\u13c1\u13b3\u13c5\u13af": 3201,
    "\u2581\u13a6\u13d7": 3202,
    "\u2581\u13a6\u13c1\u13cc\u13a2\u13af": 3203,
    "\u2581\u13d9\u13e5": 3204,
    "\u13d7\u13cd\u13aa\u13c2\u13af": 3205,
    "\u2581\u13da\u13c2\u13b8\u13eb\u13cd\u13d3\u13c1\u13b8\u13a2": 3206,
    "\u2581\u13a1\u13d9\u13ae\u13a2": 3207,
    "\u2581\u13a4\u13b5\u13cf\u13c2": 3208,
    "\u2581\u13ad\u13be\u13c2": 3209,
    "\u2581\u13e5\u13a8\u13e5": 3210,
    "\u2581\u13a4\u13be\u13db\u13a6\u13c1\u13a2": 3211,
    "\u2581\u13a2\u13ef\u13ac\u13c1\u13d7": 3212,
    "\u2581\u13a4\u13e9\u13db\u13ae\u13a2": 3213,
    "\u2581\u13a2\u13d7\u13a6\u13ea\u13cd": 3214,
    "\u2581\u13a4\u13ce\u13b5\u13d4\u13c5": 3215,
    "\u2581\u13ed\u13b7\u13e8\u13a9": 3216,
    "\u2581\u13a0\u13d2\u13ad": 3217,
    "\u2581\u13a1\u13b5\u13cd\u13a8\u13a2": 3218,
    "\u2581\u13a6\u13c4\u13b8\u13d2": 3219,
    "\u2581\u13e7\u13c2\u13b5": 3220,
    "\u13c1\u13b6\u13d7": 3221,
    "\u13c5\u13cd\u13d7\u13f1": 3222,
    "\u2581\u13a5\u13b5": 3223,
    "\u2581\u13ac\u13d9\u13d7\u13f1": 3224,
    "\u2581\u13a4\u13d3\u13c5\u13d6\u13b8\u13a2": 3225,
    "\u2581\u13a4\u13cd\u13c9\u13df": 3226,
    "\u2581\u13a4\u13c3\u13ae\u13b4": 3227,
    "\u2581\u13a4\u13ef\u13a2": 3228,
    "\u2581\u13cf\u13a6": 3229,
    "\u2581\u13a2\u13cc": 3230,
    "\u2581\u13d5\u13e5\u13b8\u13eb\u13cd\u13d3\u13c1\u13b2\u13a2": 3231,
    "\u13cd\u13d5\u13b5\u13cd\u13ac": 3232,
    "\u2581\u13a2\u13e6": 3233,
    "\u2581\u13a4\u13d3\u13c5\u13db\u13a2": 3234,
    "\u2581\u13c4\u13b3": 3235,
    "\u13cd\u13d5\u13b8\u13af": 3236,
    "\u2581\u13a4\u13d3\u13c5\u13ce\u13a2": 3237,
    "\u13a5\u13cd\u13a8\u13cd\u13d7": 3238,
    "\u2581\u13da\u13c1\u13b4\u13a2": 3239,
    "\u2581\u13be\u13be\u13db\u13c1\u13b2\u13a2": 3240,
    "\u2581\u13a0\u13d1": 3241,
    "\u2581\u13d7\u13df": 3242,
    "\u2581\u13a2\u13e6\u13af\u13f3\u13d2\u13a2": 3243,
    "\u13c2\u13ef": 3244,
    "\u2581\u13a4\u13ef\u13c5\u13d2": 3245,
    "\u2581\u13a6\u13d3\u13c5\u13d6\u13cd\u13ac\u13a2": 3246,
    "\u2581\u13a1\u13b5\u13a9": 3247,
    "\u2581\u13d7\u13ac\u13d7": 3248,
    "\u2581\u13e6\u13be": 3249,
    "\u2581\u13e7\u13b5\u13cf": 3250,
    "\u2581\u13d7\u13ac\u13e9\u13d3\u13c2\u13b8\u13a2\u13cd": 3251,
    "\u2581\u13a4\u13f2\u13b4": 3252,
    "\u2581\u13cd": 3253,
    "\u2581\u13d7\u13cd\u13a9": 3254,
    "\u2581\u13a1\u13b2\u13a9": 3255,
    "\u2581\u13a0\u13cd\u13a6\u13be\u13a2": 3256,
    "\u2581\u13e5\u13c1\u13b8": 3257,
    "\u2581\u13da\u13c1\u13e4\u13b4\u13a2": 3258,
    "\u13b3\u13c1\u13a2": 3259,
    "\u13cd\u13db\u13f1": 3260,
    "\u13a6\u13e8": 3261,
    "\u2581\u13c5\u13d7": 3262,
    "\u2581\u13a0\u13a6\u13d8\u13f0": 3263,
    "\u2581\u13a6\u13ef": 3264,
    "\u13aa\u13b5\u13f0\u13a1": 3265,
    "\u2581\u13a0\u13be\u13d7\u13cd\u13aa": 3266,
    "\u2581\u13a4\u13ea\u13c5\u13ce\u13a2": 3267,
    "\u2581\u13c5\u13d3\u13f3\u13be\u13b5\u13cd\u13aa\u13b8\u13d4": 3268,
    "\u2581\u13e7\u13be\u13c4\u13aa\u13eb\u13ce\u13d7": 3269,
    "\u2581\u13a0\u13cd\u13db\u13a2": 3270,
    "\u2581\u13aa\u13cd\u13d4": 3271,
    "\u2581\u13b2": 3272,
    "\u2581\u13a4\u13aa\u13b2\u13a9": 3273,
    "\u2581\u13d7\u13c2\u13e9\u13be\u13a6\u13b3": 3274,
    "\u2581\u13a4\u13be\u13c4\u13aa\u13eb\u13d2": 3275,
    "\u2581\u13a4\u13c1\u13b3": 3276,
    "\u13c1\u13e4\u13b5": 3277,
    "\u13a2\u13a6": 3278,
    "\u2581\u13a0\u13d3\u13c5\u13d6\u13cd\u13ac\u13a2": 3279,
    "\u2581\u13a4\u13ea\u13b7\u13c1\u13a2": 3280,
    "\u2581\u13a4\u13c5\u13c5": 3281,
    "\u2581\u13c7\u13b5\u13e5": 3282,
    "\u13f2\u13b0\u13ce\u13b8": 3283,
    "\u2581\u13a4\u13b5\u13cd\u13da\u13a2": 3284,
    "\u2581\u13d7\u13c2\u13c3": 3285,
    "\u2581\u13a4\u13be\u13d9\u13d3\u13c6\u13cd\u13ac\u13a2": 3286,
    "\u2581\u13a0\u13c2\u13e4": 3287,
    "\u13c2\u13eb": 3288,
    "\u2581\u13a0\u13f2\u13b1\u13cd": 3289,
    "\u2581\u13a0\u13c6\u13d3\u13c5\u13d6\u13d7": 3290,
    "\u2581\u13a4\u13be\u13a9\u13b8": 3291,
    "\u13ec\u13a5": 3292,
    "\u2581\u13c5\u13d7\u13a6\u13b5\u13cd\u13d9\u13d7\u13cd\u13a8\u13a2": 3293,
    "\u2581\u13a0\u13e5\u13c1\u13b8": 3294,
    "\u2581\u13a4\u13cd\u13aa": 3295,
    "\u2581\u13a6\u13da\u13f1": 3296,
    "\u13d3\u13c1\u13df\u13f4\u13db": 3297,
    "\u2581\u13a4\u13c2\u13f4": 3298,
    "\u2581\u13a0\u13cb": 3299,
    "\u2581\u13a4\u13c2\u13e9\u13db\u13d7": 3300,
    "\u13a5\u13a6": 3301,
    "\u2581\u13a2\u13e3\u13b5": 3302,
    "\u2581\u13d7\u13b2": 3303,
    "\u13b5\u13cd\u13d3\u13f4\u13b2\u13cd\u13a6": 3304,
    "\u13a6\u13d9\u13a5\u13af\u13cd\u13d7\u13f1": 3305,
    "\u2581\u13d9\u13d8": 3306,
    "\u13a3\u13a2": 3307,
    "\u13cd\u13c6\u13c2\u13aa\u13d5\u13cd\u13d7": 3308,
    "\u2581\u13c2\u13a6\u13b5\u13cd\u13d9\u13d7\u13cd\u13a8": 3309,
    "\u2581\u13a4\u13be\u13c4\u13aa\u13eb\u13ce": 3310,
    "\u2581\u13da\u13d3": 3311,
    "\u13c3\u13ae\u13cd\u13ac\u13a2": 3312,
    "\u2581\u13db\u13a9": 3313,
    "\u2581\u13a0\u13a6\u13d5": 3314,
    "\u13c5\u13d3\u13db": 3315,
    "\u13c2\u13d9\u13af": 3316,
    "\u2581\u13a4\u13b5\u13ae\u13b5\u13e4": 3317,
    "\u2581\u13d5\u13ab": 3318,
    "\u2581\u13ea": 3319,
    "\u2581\u13e7\u13b4": 3320,
    "\u13b3\u13cf": 3321,
    "\u13a2\u13f4": 3322,
    "\u2581\u13a0\u13a8": 3323,
    "\u2581\u13a2\u13e5\u13a9\u13cd\u13d7": 3324,
    "\u13db\u13d4\u13c2": 3325,
    "\u13db\u13c1\u13d7\u13f1": 3326,
    "\u13df\u13b6\u13cd\u13d9\u13d7": 3327,
    "\u2581\u13be\u13a6\u13db": 3328,
    "\u2581\u13c2\u13e8": 3329,
    "\u2581\u13d9\u13af\u13f3": 3330,
    "\u13db\u13c1\u13b5": 3331,
    "\u2581\u13ac\u13d7\u13ad": 3332,
    "\u13b5\u13cd\u13ac": 3333,
    "\u2581\u13a4\u13e5\u13c3": 3334,
    "\u13cd\u13a6\u13f0\u13ac\u13cd\u13d3": 3335,
    "\u2581\u13d9\u13d3\u13e3": 3336,
    "\u2581\u13a1\u13e3\u13ab\u13f4": 3337,
    "\u13ed": 3338,
    "\u13ce\u13b8\u13a9": 3339,
    "\u13ae\u13c3": 3340,
    "\u13d3\u13b3": 3341,
    "\u2581\u13f2\u13a6": 3342,
    "\u2581\u13d7\u13e8\u13c2\u13d7": 3343,
    "\u13b7\u13a9": 3344,
    "\u13a8\u13db": 3345,
    "\u13cd\u13d6": 3346,
    "\u13d9\u13b4": 3347,
    "\u2581\u13a2\u13e5\u13b2": 3348,
    "\u13b4\u13c5\u13db": 3349,
    "\u2581\u13a4\u13c1\u13b4": 3350,
    "\u2581\u13da\u13ef\u13ea": 3351,
    "\u2581\u13c2\u13db": 3352,
    "\u2581\u13bf": 3353,
    "\u2581\u13a1\u13b3\u13ea\u13f1": 3354,
    "\u2581\u13a6\u13c5\u13a8": 3355,
    "\u2581\u13a2\u13cd\u13d3": 3356,
    "\u13be\u13dd\u13a0": 3357,
    "\u2581\u13f1\u13eb": 3358,
    "\u13ea\u13d2": 3359,
    "\u13a8\u13cd\u13d7\u13d7": 3360,
    "\u13c5\u13d6": 3361,
    "\u13af\u13ef": 3362,
    "\u2581\u13da\u13d9": 3363,
    "\u2581\u13d5\u13e8": 3364,
    "\u13f2\u13b5": 3365,
    "\u13b3\u13c5": 3366,
    "\u13e3\u13b5": 3367,
    "\u2581\u13a4\u13c2\u13a6\u13d9\u13a5\u13d2": 3368,
    "\u2581\u13c2\u13af\u13be": 3369,
    "\u2581\u13e8\u13d7": 3370,
    "\u2581\u13de": 3371,
    "\u2581\u13a4\u13a7\u13d4": 3372,
    "\u2581\u13a0\u13e2": 3373,
    "\u2581\u13a0\u13d7\u13cd\u13ac": 3374,
    "\u2581\u13e6\u13e5": 3375,
    "\u13ac\u13eb\u13f3\u13af": 3376,
    "\u13d8\u13f2\u13cd\u13d7": 3377,
    "\u2581\u13c2\u13af\u13cd\u13aa": 3378,
    "\u13d9\u13b5\u13e8": 3379,
    "\u13d8\u13f0": 3380,
    "\u2581\u13a4\u13a6\u13db": 3381,
    "\u2581\u13a6\u13e3\u13c4\u13b5": 3382,
    "\u13c1\u13ce\u13a2": 3383,
    "\u13ef\u13a5\u13a2": 3384,
    "\u13cd\u13d4\u13c5\u13ad": 3385,
    "\u2581\u13e3\u13c6": 3386,
    "\u2581\u13a2\u13e3\u13da\u13b5": 3387,
    "\u2581\u13d5\u13e3\u13a7": 3388,
    "\u13e0\u13e8": 3389,
    "\u2581\u13c2\u13da\u13ea\u13ce\u13b8": 3390,
    "\u2581\u13a6\u13b6": 3391,
    "\u2581\u13e7\u13b3\u13d1\u13b6": 3392,
    "\u2581\u13af\u13a0\u13c9": 3393,
    "\u13e6\u13c1": 3394,
    "\u13d9\u13ac": 3395,
    "\u13f2\u13aa": 3396,
    "\u2581\u13d3\u13b5\u13cd\u13d7\u13b3\u13c1\u13ac": 3397,
    "\u13c3\u13b4": 3398,
    "\u2581\u13d9\u13d3\u13c6\u13cd\u13ac": 3399,
    "\u2581\u13a4\u13c1\u13b5\u13ce": 3400,
    "\u2581\u13d7\u13a6\u13c5\u13ec": 3401,
    "\u13f4\u13b5": 3402,
    "\u2581\u13a4\u13ec\u13b4": 3403,
    "\u2581\u13a2\u13d5\u13b2": 3404,
    "\u2581\u13d3\u13c2\u13b3\u13eb\u13a5": 3405,
    "\u2581\u13d7\u13e5\u13a6\u13f4\u13b5\u13a8": 3406,
    "\u2581\u13d3\u13df\u13b6\u13cd\u13db": 3407,
    "\u2581\u13f3\u13eb": 3408,
    "\u2581\u13a7\u13b8\u13ac": 3409,
    "\u13b6\u13d0\u13c5": 3410,
    "\u2581\u13a4\u13d7\u13db\u13ae": 3411,
    "\u13e5\u13a8\u13f3\u13a2": 3412,
    "\u2581\u13a2\u13a9\u13cd\u13a6\u13c5\u13e8": 3413,
    "\u2581\u13a4\u13ec\u13ce\u13b4": 3414,
    "r": 3415,
    "\u2581\u13a0\u13c2\u13d9\u13be\u13a1": 3416,
    "\u2581\u13a4\u13da\u13a2\u13cd\u13d4\u13c5": 3417,
    "\u2581\u13da\u13b4\u13af\u13cc\u13c5": 3418,
    "\u2581\u13a4\u13ea\u13a7\u13c1\u13b4": 3419,
    "\u13d5\u13ac": 3420,
    "\u13be\u13c9": 3421,
    "\u2581\u13a0\u13c2\u13a6\u13f4\u13b5\u13a8": 3422,
    "\u2581\u13d3\u13c2\u13a7\u13c5": 3423,
    "\u13c1\u13e8": 3424,
    "\u2581\u13e7\u13a6\u13f4\u13b5\u13a8": 3425,
    "\u13a0\u13b9": 3426,
    "\u2581\u13a1\u13b5\u13cd\u13ac": 3427,
    "\u13b5\u13ec\u13e8": 3428,
    "\u13ac\u13eb\u13f3\u13cc\u13d5\u13a9": 3429,
    "\u2581\u13a6\u13a2\u13d2": 3430,
    "\u13df\u13c2\u13a9\u13d3": 3431,
    "\u13a4\u13cd\u13c6\u13c2\u13a9\u13d7": 3432,
    "\u2581\u13ad\u13d7": 3433,
    "\u2581\u13da\u13c1\u13e4\u13b8": 3434,
    "\u2581\u13a6\u13c6\u13d8": 3435,
    "\u13a7\u13b5\u13ec\u13af": 3436,
    "\u13a4\u13d9\u13af\u13f3\u13af": 3437,
    "\u2581\u13aa\u13e2\u13d4\u13c5": 3438,
    "\u2581\u13a0\u13c1\u13ae": 3439,
    "\u13c5\u13aa\u13e4": 3440,
    "\u2581\u13a4\u13c2\u13d7": 3441,
    "\u2581\u13a4\u13e9\u13db\u13ae": 3442,
    "\u13c2\u13a6\u13d3": 3443,
    "\u2581\u13da\u13b7\u13eb\u13cd\u13d4\u13c1": 3444,
    "\u13db\u13c1\u13b2": 3445,
    "\u2581\u13a4\u13c2\u13cd\u13c6\u13c2\u13aa\u13d9\u13d7": 3446,
    "\u2581\u13aa\u13b9\u13b5": 3447,
    "\u2581\u13e4\u13c5\u13cd\u13d7": 3448,
    "\u2581\u13a6\u13c2\u13cf": 3449,
    "\u13b8\u13eb\u13cd\u13d3\u13c1\u13d7": 3450,
    "\u2581\u13a2\u13e5\u13cd\u13c6\u13c2\u13aa\u13d9\u13d7": 3451,
    "\u13d4\u13f2\u13ce\u13b8\u13a9": 3452,
    "\u2581\u13a0\u13d3\u13a8\u13d7": 3453,
    "\u13b4\u13af\u13cc\u13c5": 3454,
    "\u2581\u13a2\u13f3\u13c5\u13c1\u13d7": 3455,
    "\u2581\u13a8\u13e5\u13c1\u13d7": 3456,
    "\u2581\u13a4\u13be\u13c5\u13d7": 3457,
    "\u2581\u13a0\u13d5": 3458,
    "\u13f4\u13d0\u13b5": 3459,
    "\u2581\u13a4\u13f0\u13b8\u13ce": 3460,
    "\u13be\u13d3\u13b4\u13a9": 3461,
    "\u2581\u13a1\u13c9\u13c4\u13b6\u13d7": 3462,
    "\u2581\u13a4\u13c2\u13da\u13ef\u13cd\u13d7": 3463,
    "\u2581\u13a4\u13d3\u13cf\u13c2\u13d5\u13be": 3464,
    "\u2581\u13a4\u13ea\u13f2\u13d3\u13db": 3465,
    "\u2581\u13be\u13c2\u13b3\u13cd\u13d3\u13b8": 3466,
    "\u2581\u13c5\u13d3\u13ac\u13f4\u13c1\u13b5": 3467,
    "\u2581\u13c8\u13ef\u13cf\u13c6": 3468,
    "\u2581\u13d7\u13be\u13d9\u13c2\u13cd\u13a9": 3469,
    "\u2581\u13e6\u13a9\u13b8\u13eb\u13cd\u13d3\u13c1\u13af": 3470,
    "\u13a6\u13cc\u13ef\u13cd\u13d5\u13cd\u13d7": 3471,
    "\u2581\u13a0\u13e3\u13ea\u13d0\u13b8\u13cd\u13d9\u13d7\u13f1": 3472,
    "\u2581\u13a6\u13b5\u13e6\u13d9\u13d9\u13d7": 3473,
    "\u2581\u13c6\u13bb\u13c6\u13c2": 3474,
    "\u2581\u13a2\u13f0\u13c6": 3475,
    "\u2581\u13d7\u13a7\u13c1\u13a2\u13cd\u13d7": 3476,
    "\u2581\u13af\u13a6\u13d9\u13b5": 3477,
    "\u2581\u13af\u13a7\u13c5\u13ad": 3478,
    "\u2581\u13c2\u13da\u13be\u13d3\u13ea\u13ce\u13b8\u13a9": 3479,
    "\u2581\u13eb\u13c2\u13a6\u13b5\u13cd\u13d9\u13d3": 3480,
    "\u2581\u13a4\u13d3\u13db\u13db\u13c1": 3481,
    "\u2581\u13a6\u13c5\u13c3\u13e9": 3482,
    "\u2581\u13d7\u13c9\u13f0\u13c2": 3483,
    "\u2581\u13a0\u13c2\u13d9\u13be\u13a2": 3484,
    "\u2581\u13e7\u13c1\u13bf\u13a2": 3485,
    "\u2581\u13e7\u13e9\u13c2\u13a6\u13dd\u13c5": 3486,
    "\u2581\u13c4\u13ec\u13af\u13f3\u13d2\u13be": 3487,
    "\u2581\u13e7\u13c3\u13da\u13af": 3488,
    "\u2581\u13d7\u13c6\u13b3\u13cf\u13d5\u13c2": 3489,
    "\u2581\u13c5\u13d3\u13aa\u13af\u13e5": 3490,
    "\u2581\u13c5\u13c3\u13b1\u13b6\u13d7": 3491,
    "\u2581\u13a2\u13b3\u13cf\u13d7": 3492,
    "\u2581\u13a4\u13e2\u13c9\u13d7": 3493,
    "\u2581\u13e7\u13be\u13d3\u13cd\u13da\u13d7": 3494,
    "\u2581\u13d5\u13e5\u13f2\u13b5\u13b8\u13ad": 3495,
    "\u2581\u13a6\u13e3\u13c4\u13b8": 3496,
    "\u2581\u13ac\u13e9\u13d5\u13c1\u13b8\u13af": 3497,
    "\u2581\u13d7\u13a6\u13c3\u13e3\u13df": 3498,
    "\u2581\u13a4\u13ec\u13de": 3499,
    "\u2581\u13a4\u13ea\u13da\u13b2": 3500,
    "\u2581\u13f1\u13c4\u13b5\u13cd\u13d4\u13c5": 3501,
    "\u2581\u13aa\u13d2\u13d4\u13c5": 3502,
    "\u2581\u13a4\u13c2\u13b8\u13c9\u13d4\u13c1": 3503,
    "\u2581\u13a4\u13c2\u13ac\u13a5\u13cd\u13a9": 3504,
    "\u2581\u13c5\u13d3\u13f3\u13d3\u13b4\u13c5\u13db": 3505,
    "\u2581\u13f1\u13e4\u13b5\u13af\u13cd\u13a8\u13cd\u13d7": 3506,
    "\u13cd\u13a6\u13a3\u13c5": 3507,
    "\u2581\u13b0\u13ea\u13b8\u13a6": 3508,
    "\u2581\u13d3\u13a9\u13ef\u13ea\u13a6": 3509,
    "\u2581\u13e7\u13d3\u13d8\u13be\u13a2": 3510,
    "\u2581\u13a6\u13ef\u13b4\u13cd\u13d7": 3511,
    "\u2581\u13d7\u13a7\u13c2\u13a8": 3512,
    "\u2581\u13a4\u13be\u13d3\u13d1\u13f0\u13db": 3513,
    "\u2581\u13a2\u13e8\u13cd\u13d7\u13f0\u13d7\u13ad": 3514,
    "\u2581\u13a5\u13a9\u13c5\u13df": 3515,
    "\u2581\u13a2\u13ac\u13ea\u13c5\u13db": 3516,
    "\u2581\u13c2\u13da\u13c5\u13cf\u13f4": 3517,
    "\u2581\u13d7\u13c1\u13d9\u13b2": 3518,
    "\u2581\u13e7\u13c3\u13e9": 3519,
    "\u2581\u13ac\u13e9\u13d3\u13cd\u13d5\u13b8\u13d7": 3520,
    "\u2581\u13d5\u13aa\u13e2\u13e9\u13d7\u13d2": 3521,
    "\u2581\u13c4\u13e0\u13be\u13cd\u13db\u13be": 3522,
    "\u2581\u13a2\u13a7\u13c1\u13a2\u13cd\u13d7": 3523,
    "\u2581\u13a0\u13c2\u13be\u13c1\u13cd\u13ac": 3524,
    "\u2581\u13d7\u13a9\u13c5\u13d2": 3525,
    "\u2581\u13a0\u13c6\u13d3\u13b5\u13a2": 3526,
    "\u2581\u13c4\u13c2\u13b2\u13be": 3527,
    "\u2581\u13a0\u13c2\u13ef\u13a2": 3528,
    "\u2581\u13cc\u13c8": 3529,
    "\u2581\u13a4\u13c2\u13d1\u13b8\u13d3": 3530,
    "\u2581\u13b2\u13d7\u13cd\u13a8\u13cd\u13d7": 3531,
    "\u2581\u13bf\u13db\u13a6": 3532,
    "\u2581\u13a6\u13cc\u13b4\u13c2": 3533,
    "\u2581\u13a1\u13e3\u13b8\u13c9\u13d7\u13f3": 3534,
    "\u2581\u13a4\u13cd\u13d7\u13a9\u13db": 3535,
    "\u2581\u13a2\u13e5\u13ea\u13cd\u13d7\u13f1": 3536,
    "\u2581\u13da\u13a6\u13cc\u13db": 3537,
    "\u2581\u13a0\u13c6\u13b5\u13cd\u13d3\u13f4\u13d7": 3538,
    "\u2581\u13a0\u13b9\u13f3\u13b6\u13d7": 3539,
    "\u2581\u13a4\u13d5\u13b6\u13b0\u13d2": 3540,
    "\u2581\u13d7\u13ab\u13aa\u13d7\u13cd\u13a9": 3541,
    "\u2581\u13a0\u13c1\u13e2\u13d4\u13c5\u13af": 3542,
    "\u2581\u13d9\u13d7\u13e3\u13d3\u13c5\u13db\u13a2": 3543,
    "\u2581\u13eb\u13a8\u13e5\u13f2\u13b5\u13ad": 3544,
    "\u2581\u13da\u13ed": 3545,
    "\u2581\u13d3\u13ad\u13c3\u13eb": 3546,
    "\u2581\u13da\u13e6\u13af\u13cd\u13db": 3547,
    "\u2581\u13eb\u13da\u13be": 3548,
    "\u2581\u13a1\u13c3\u13f1": 3549,
    "\u13b3\u13a9\u13d2": 3550,
    "\u2581\u13a0\u13be\u13d3\u13d9\u13b5\u13cd\u13d3\u13c1\u13af": 3551,
    "\u2581\u13ac\u13c1\u13cd\u13d7": 3552,
    "\u2581\u13e7\u13d9\u13d3\u13c6\u13db": 3553,
    "\u2581\u13a4\u13a9\u13b5\u13f2\u13e8": 3554,
    "\u2581\u13a6\u13b5\u13a1\u13b5\u13a6": 3555,
    "\u13bf\u13d5\u13a9": 3556,
    "\u2581\u13a0\u13ac\u13d3\u13a8\u13c2": 3557,
    "\u2581\u13af\u13ec\u13c2\u13cd\u13ac": 3558,
    "\u2581\u13d7\u13d3\u13ec\u13cd\u13d7": 3559,
    "\u2581\u13a0\u13ef\u13d6\u13be": 3560,
    "\u2581\u13a4\u13c3\u13cd\u13db": 3561,
    "\u2581\u13aa\u13cd\u13d3": 3562,
    "\u2581\u13a4\u13c2\u13b5\u13e6\u13e9\u13db": 3563,
    "\u2581\u13f1\u13cd\u13a6\u13a2\u13ae\u13cd\u13d7": 3564,
    "\u2581\u13a0\u13ac\u13ad\u13b8\u13db": 3565,
    "\u2581\u13d3\u13ac\u13c1\u13b5": 3566,
    "\u2581\u13a4\u13c2\u13cd\u13c6\u13c2\u13aa\u13d2\u13a9": 3567,
    "\u2581\u13a4\u13be\u13db\u13c1\u13b8\u13d7": 3568,
    "\u2581\u13e5\u13c5\u13d7\u13a6\u13b5\u13cd\u13d9\u13d7\u13ad": 3569,
    "\u2581\u13a4\u13db\u13c5\u13a2\u13cd\u13d4\u13c1": 3570,
    "\u2581\u13a4\u13ad\u13b8\u13c2\u13af": 3571,
    "\u2581\u13a4\u13d8\u13f4\u13af": 3572,
    "\u2581\u13a0\u13a6\u13d9\u13b5": 3573,
    "\u2581\u13a0\u13a6\u13b8\u13d3": 3574,
    "\u2581\u13ac\u13e9\u13c3\u13c1\u13b4": 3575,
    "\u2581\u13a0\u13c2\u13e5\u13b8\u13cd\u13a9": 3576,
    "\u2581\u13a0\u13aa\u13ce\u13ae\u13cd\u13d7": 3577,
    "\u2581\u13a2\u13aa\u13af": 3578,
    "\u13a6\u13ef": 3579,
    "\u13d5\u13a6": 3580,
    "\u2581\u13b9\u13be": 3581,
    "\u2581\u13a9\u13be\u13b5\u13a2": 3582,
    "\u2581\u13c5\u13d3\u13f0": 3583,
    "\u2581\u13a6\u13df\u13d3": 3584,
    "\u2581\u13d3\u13c6\u13a7\u13be\u13c5": 3585,
    "\u2581\u13a0\u13aa\u13d4\u13c5\u13af": 3586,
    "\u2581\u13ae\u13c2\u13b5": 3587,
    "\u2581\u13a0\u13d3\u13f0\u13a8\u13cd\u13d7": 3588,
    "\u2581\u13c2\u13e8\u13a6": 3589,
    "\u2581\u13a2\u13e5\u13c1\u13cd\u13d7": 3590,
    "\u2581\u13a4\u13c3\u13af\u13f3\u13d7\u13f1": 3591,
    "\u2581\u13a0\u13e5\u13c5\u13cf\u13db": 3592,
    "\u2581\u13d5\u13ac\u13d7\u13cd\u13ac": 3593,
    "\u2581\u13a0\u13b4\u13c2\u13cd\u13a9": 3594,
    "\u2581\u13e7\u13be\u13c4\u13aa\u13eb\u13d2\u13af": 3595,
    "\u13ef\u13c5\u13b2\u13a9": 3596,
    "\u13b3\u13da": 3597,
    "\u2581\u13ad\u13c2\u13e3": 3598,
    "\u2581\u13a4\u13c2\u13e9\u13db\u13ae": 3599,
    "\u2581\u13a0\u13c2\u13f4\u13a9": 3600,
    "\u2581\u13a4\u13f0\u13e8": 3601,
    "\u2581\u13c4\u13be\u13b5\u13cd\u13d3\u13c1\u13b8": 3602,
    "\u2581\u13d5\u13a7\u13c1\u13e4": 3603,
    "\u2581\u13a4\u13be\u13a6\u13d9\u13cd\u13d5\u13a2": 3604,
    "\u2581\u13a4\u13c2\u13c1\u13ac": 3605,
    "\u13b2\u13cd\u13ac\u13be": 3606,
    "\u2581\u13a9\u13b3\u13ca": 3607,
    "\u2581\u13d7\u13b5\u13cd\u13aa\u13b8\u13d3\u13c1\u13b8\u13af": 3608,
    "\u13f0\u13a2\u13b5\u13d3\u13cd\u13d7": 3609,
    "\u2581\u13a0\u13f2\u13d9\u13d7": 3610,
    "\u2581\u13a4\u13be\u13d5\u13d7\u13f1": 3611,
    "\u2581\u13a0\u13c2\u13af\u13d7": 3612,
    "\u13cd\u13da\u13d7": 3613,
    "\u2581\u13c4\u13db\u13c5\u13a2": 3614,
    "\u2581\u13e3\u13a8": 3615,
    "\u2581\u13ec\u13a9\u13b7\u13e8\u13a9": 3616,
    "\u2581\u13a4\u13e1\u13d7\u13cd\u13a9": 3617,
    "\u2581\u13a4\u13d7\u13d7\u13e2": 3618,
    "\u2581\u13a0\u13aa\u13b5\u13f0\u13d7": 3619,
    "\u2581\u13a4\u13c2\u13a9\u13cd\u13d7\u13f1": 3620,
    "\u2581\u13a0\u13ac\u13d7\u13cd\u13ac\u13a2": 3621,
    "\u2581\u13ee\u13db": 3622,
    "\u2581\u13d7\u13e5\u13be\u13eb\u13f1": 3623,
    "\u2581\u13a4\u13ea\u13c5\u13a9": 3624,
    "\u2581\u13a6\u13df\u13ae": 3625,
    "\u2581\u13e7\u13c1\u13e4\u13a2": 3626,
    "\u2581\u13d7\u13e7": 3627,
    "\u13f2\u13be": 3628,
    "\u2581\u13a0\u13af\u13d3": 3629,
    "\u13ce\u13ad": 3630,
    "\u13ef\u13d4\u13ae\u13cd\u13d7": 3631,
    "\u2581\u13a4\u13b5\u13cd\u13c6": 3632,
    "\u2581\u13d9\u13d3\u13a8": 3633,
    "\u2581\u13d7\u13c1\u13af": 3634,
    "\u2581\u13a0\u13c2\u13a9\u13cd\u13ac": 3635,
    "\u2581\u13ce\u13c9": 3636,
    "\u2581\u13d3\u13cd\u13db\u13a2": 3637,
    "\u2581\u13a4\u13b5\u13cd\u13c6\u13db": 3638,
    "\u2581\u13a4\u13cc\u13af\u13b8\u13a2": 3639,
    "\u2581\u13a0\u13b5\u13ae\u13b5\u13a8": 3640,
    "\u2581\u13a4\u13c2\u13c1\u13e8\u13a9": 3641,
    "\u2581\u13a2\u13a9\u13cd\u13a6\u13c5\u13e8\u13a2": 3642,
    "\u13c1\u13c6": 3643,
    "\u2581\u13d5\u13e5\u13c1\u13b8": 3644,
    "\u2581\u13a4\u13be\u13d3\u13c5\u13ce": 3645,
    "\u2581\u13a4\u13be\u13c5\u13c5": 3646,
    "\u13a7\u13ad": 3647,
    "\u2581\u13be\u13c6\u13cd\u13db": 3648,
    "\u13a4\u13f2": 3649,
    "\u2581\u13a6\u13d3\u13cd\u13ac\u13a2": 3650,
    "\u2581\u13a4\u13b4\u13c5\u13a9": 3651,
    "\u2581\u13d7\u13a8\u13e3": 3652,
    "\u2581\u13d7\u13aa\u13e2": 3653,
    "\u2581\u13a0\u13d3\u13af\u13af": 3654,
    "\u13b4\u13be": 3655,
    "\u2581\u13a6\u13c1\u13df\u13f4\u13cd\u13d7": 3656,
    "\u2581\u13a0\u13e5\u13db\u13d9\u13d7": 3657,
    "\u2581\u13da\u13e9\u13db\u13ae": 3658,
    "\u2581\u13aa\u13db": 3659,
    "\u2581\u13a4\u13ec\u13af\u13f3": 3660,
    "\u2581\u13c5\u13b5\u13cc\u13b5\u13c9": 3661,
    "\u2581\u13ae\u13d3": 3662,
    "\u13bf\u13a2": 3663,
    "\u2581\u13a4\u13c2\u13a9\u13ce\u13a2": 3664,
    "\u2581\u13a4\u13e4\u13b8": 3665,
    "\u2581\u13a6\u13f0\u13eb\u13cd": 3666,
    "\u2581\u13a4\u13da\u13b8\u13b2": 3667,
    "\u2581\u13ac\u13a8\u13f3\u13a2": 3668,
    "\u2581\u13d3\u13e4\u13b8": 3669,
    "\u2581\u13a3\u13d2": 3670,
    "\u2581\u13a4\u13c2\u13aa\u13b2\u13af": 3671,
    "\u13d5\u13ef\u13d9\u13d4\u13c5\u13a9": 3672,
    "\u2581\u13a4\u13ec\u13e2\u13c5\u13a2": 3673,
    "\u2581\u13ee\u13d3": 3674,
    "\u13c4\u13aa": 3675,
    "\u13b8\u13c9\u13db\u13be": 3676,
    "\u2581\u13cf\u13b3": 3677,
    "\u2581\u13f1\u13c2\u13ac": 3678,
    "\u13c7\u13b5": 3679,
    "\u13d4\u13f2\u13cd\u13d7": 3680,
    "\u13a1\u13b5\u13cd\u13d7": 3681,
    "\u13d0\u13c9": 3682,
    "\u13c1\u13b2\u13a9": 3683,
    "\u2581\u13aa\u13ea\u13b8\u13a9": 3684,
    "\u2581\u13e5\u13b3": 3685,
    "\u2581\u13e3\u13aa": 3686,
    "\u2581\u13dd\u13a8": 3687,
    "\u2581\u13a6\u13ac\u13e9": 3688,
    "\u13c1\u13b0": 3689,
    "\u13de\u13cd\u13d7": 3690,
    "\u2581\u13a6\u13c5\u13c5\u13a2": 3691,
    "\u2581\u13c2\u13da\u13a9\u13e8\u13c2\u13d2\u13a2": 3692,
    "\u2581\u13f4\u13a6\u13a6": 3693,
    "\u2581\u13a4\u13e9\u13d4\u13c5": 3694,
    "\u13a9\u13cd\u13ac": 3695,
    "\u13a0\u13c6": 3696,
    "\u2581\u13c4\u13d3\u13b4\u13af": 3697,
    "\u2581\u13a4\u13ec\u13b8\u13a2": 3698,
    "\u2581\u13a1\u13cd\u13a6\u13c2": 3699,
    "\u13eb\u13cd\u13a9": 3700,
    "\u13d4\u13c2\u13d3": 3701,
    "\u13c3\u13ae\u13b8": 3702,
    "\u13cd\u13ac\u13cf": 3703,
    "\u13a9\u13c3": 3704,
    "\u13f4\u13a9": 3705,
    "\u13d9\u13b5\u13a9": 3706,
    "\u13ce\u13b8\u13af": 3707,
    "\u2581\u13a0\u13d3\u13d9\u13b5\u13cd\u13d9\u13d7": 3708,
    "\u2581\u13ae\u13af": 3709,
    "\u2581\u13a4\u13cd\u13c6\u13b8": 3710,
    "\u2581\u13b5\u13cf": 3711,
    "\u13a9\u13cd\u13d7\u13f1": 3712,
    "\u2581\u13a0\u13c2\u13cd\u13a6\u13be\u13a2": 3713,
    "\u2581\u13c4\u13cd\u13d5\u13a2": 3714,
    "\u2581\u13cd\u13a9\u13cd\u13d5\u13b8": 3715,
    "\u13e6\u13f0\u13c2": 3716,
    "\u13cd\u13d9\u13d7\u13f1": 3717,
    "\u13ab\u13e9": 3718,
    "\u2581\u13a4\u13a6\u13c3": 3719,
    "\u2581\u13a4\u13c1\u13e4\u13b8\u13a2": 3720,
    "\u2581\u13be\u13cd": 3721,
    "\u2581\u13c5\u13e9\u13cd\u13db": 3722,
    "\u2581\u13e5\u13c5": 3723,
    "\u13a6\u13b9": 3724,
    "\u2581\u13a5\u13e3": 3725,
    "\u13d3\u13f4\u13b3\u13db": 3726,
    "\u2581\u13b2\u13a6": 3727,
    "\u2581\u13d3\u13b6\u13c2\u13a8\u13a2": 3728,
    "\u2581\u13a4\u13be\u13db\u13a6\u13c5\u13a9": 3729,
    "\u2581\u13d5\u13a8\u13e5": 3730,
    "\u13cd\u13da\u13a2\u13d2": 3731,
    "ss": 3732,
    "\u2581\u13da\u13ec": 3733,
    "\u2581\u13a0\u13b5\u13cd\u13c6\u13d7\u13cd": 3734,
    "\u13a7\u13cf": 3735,
    "\u2581\u13d3\u13a6\u13e5": 3736,
    "\u2581\u13a0\u13a9\u13b8\u13c9\u13d7": 3737,
    "\u13b7\u13e4": 3738,
    "\u2581\u13a2\u13e5\u13a9": 3739,
    "\u2581\u13a4\u13c1\u13d2": 3740,
    "\u13e3\u13c1": 3741,
    "\u13e6\u13e9\u13db": 3742,
    "\u2581\u13a0\u13a6\u13c5": 3743,
    "\u13d2\u13b2\u13cd\u13d7": 3744,
    "\u13ea\u13ce\u13d7": 3745,
    "\u2581\u13a4\u13d9\u13f3": 3746,
    "\u2581\u13a2\u13e3\u13df\u13c2\u13ac\u13c1": 3747,
    "\u13ac\u13be\u13a8": 3748,
    "\u2581\u13c6\u13be": 3749,
    "\u2581\u13a4\u13e9\u13c1": 3750,
    "\u2581\u13d9\u13d3\u13ac": 3751,
    "\u13b5\u13cd\u13d4\u13c1": 3752,
    "\u13f3\u13cd\u13d7": 3753,
    "\u2581\u13ac\u13e9\u13cd\u13d3\u13e9\u13d7": 3754,
    "\u13e2\u13c5\u13af": 3755,
    "\u2581\u13a2\u13b8": 3756,
    "\u13c2\u13f4": 3757,
    "\u2581\u13a0\u13c2\u13d4\u13b5\u13ad": 3758,
    "\u2581\u13be\u13d5\u13d8\u13f4": 3759,
    "\u2581\u13a0\u13a6\u13d9": 3760,
    "\u13e5\u13b6\u13cf": 3761,
    "\u13b5\u13d3": 3762,
    "\u13cf\u13d7": 3763,
    "\u13b6\u13cf": 3764,
    "\u2581\u13a4\u13c2\u13b7\u13e4\u13b8": 3765,
    "\u13d8\u13c3\u13ae\u13b8\u13a9": 3766,
    "\u13d3\u13c5\u13d6\u13b4": 3767,
    "\u13d3\u13c1\u13ae\u13cd\u13d7": 3768,
    "\u2581\u13a4\u13ec\u13c2\u13af\u13cd\u13d7": 3769,
    "\u13be\u13b5": 3770,
    "\u2581\u13af\u13c1\u13b8": 3771,
    "\u2581\u13d9\u13c9": 3772,
    "\u2581\u13a0\u13a9\u13f0\u13b8\u13c5": 3773,
    "\u13cd\u13d3\u13c1": 3774,
    "\u13e5\u13c3\u13ae\u13cd\u13a9": 3775,
    "\u13da\u13ac": 3776,
    "\u2581\u13a0\u13cd": 3777,
    "\u13d7\u13cd\u13d4\u13c1": 3778,
    "\u13be\u13e9": 3779,
    "\u2581\u13f2\u13e5": 3780,
    "\u13e6\u13e2\u13d9\u13d7": 3781,
    "\u13cf\u13be\u13cc\u13c2": 3782,
    "\u13ec\u13c2\u13cd\u13ac": 3783,
    "\u13cd\u13db\u13a2": 3784,
    "\u13b5\u13b9": 3785,
    "\u2581\u13a4\u13ea\u13c5\u13ce\u13c3": 3786,
    "\u2581\u13a8\u13a2": 3787,
    "\u2581\u13a8\u13a9": 3788,
    "\u13af\u13f3\u13b2\u13cd\u13a6": 3789,
    "\u13b4\u13c3": 3790,
    "\u2581\u13e5\u13d5\u13a6": 3791,
    "\u2581\u13a0\u13cc": 3792,
    "\u13b5\u13cd\u13d9": 3793,
    "\u2581\u13a0\u13a6\u13d4\u13ae": 3794,
    "\u2581\u13ac\u13d2": 3795,
    "\u2581\u13a0\u13c1\u13b6\u13af": 3796,
    "\u2581\u13a4\u13c5\u13e3": 3797,
    "\u13aa\u13b2": 3798,
    "\u2581\u13a0\u13e5\u13f0": 3799,
    "\u2581\u13ac\u13e9\u13aa\u13e9\u13db": 3800,
    "\u2581\u13a4\u13a9\u13cd\u13d7": 3801,
    "\u2581\u13d7\u13c5": 3802,
    "\u13a9\u13cd\u13d9\u13d7": 3803,
    "\u13b3\u13d7\u13cd\u13d7": 3804,
    "\u13f0\u13b8\u13b2": 3805,
    "\u2581\u13d1\u13be\u13b4\u13c9": 3806,
    "\u13b5\u13e8": 3807,
    "\u2581\u13e7\u13c4\u13ec": 3808,
    "\u2581\u13d3\u13c2\u13b8": 3809,
    "\u2581\u13f3\u13d3": 3810,
    "\u2581\u13da\u13c3": 3811,
    "\u13a2\u13cd\u13d4\u13c2": 3812,
    "\u2581\u13d7\u13a7": 3813,
    "\u2581\u13a4\u13ed": 3814,
    "\u13cf\u13f3": 3815,
    "\u13f0\u13b8\u13d7": 3816,
    "\u2581\u13a2\u13e3\u13b5\u13ae\u13b5": 3817,
    "\u2581\u13f3\u13ea": 3818,
    "\u2581\u13c4\u13ec": 3819,
    "\u2581\u13a2\u13aa": 3820,
    "\u2581\u13d7\u13a9\u13a6": 3821,
    "\u13e3\u13c5\u13a9": 3822,
    "\u2581\u13e5\u13f3\u13aa": 3823,
    "\u13d3\u13f1": 3824,
    "\u2581\u13a2\u13d7\u13a6\u13d8": 3825,
    "\u13cf\u13b3": 3826,
    "\u13cd\u13a6\u13c3\u13b3": 3827,
    "\u13be\u13c4\u13aa\u13e9": 3828,
    "\u13c5\u13aa\u13a2\u13cd\u13d7": 3829,
    "\u13e5\u13aa\u13e9\u13db\u13d7\u13f1": 3830,
    "\u13b7\u13e4\u13b8": 3831,
    "\u2581\u13d3\u13ac\u13a9": 3832,
    "\u13f4\u13b5\u13b8": 3833,
    "\u2581\u13a0\u13d8": 3834,
    "\u13c5\u13d3\u13d7\u13cd\u13d7": 3835,
    "\u2581\u13d7\u13a9\u13f2\u13af": 3836,
    "\u2581\u13af\u13cd\u13a9\u13a6\u13da": 3837,
    "\u2581\u13da\u13aa": 3838,
    "\u2581\u13a6\u13d9\u13a6": 3839,
    "\u2581\u13f1\u13e3\u13d3": 3840,
    "\u13d1\u13f0\u13d2": 3841,
    "\u2581\u13e6\u13a6": 3842,
    "\u13be\u13c4\u13aa\u13eb\u13ce\u13b8": 3843,
    "\u13c1\u13c9\u13e5": 3844,
    "\u2581\u13a4\u13e9\u13d2\u13cd\u13a9\u13c2": 3845,
    "\u13c1\u13df\u13f4\u13be": 3846,
    "\u13b3\u13db": 3847,
    "\u13eb\u13ce\u13b4\u13a2": 3848,
    "\u13b7\u13af\u13cd\u13d7": 3849,
    "\u13d5\u13b6\u13c6\u13cd\u13d7": 3850,
    "\u2581\u13a4\u13c2\u13b6\u13d2": 3851,
    "\u2581\u13a4\u13c3\u13b8": 3852,
    "\u13d3\u13c1\u13ae": 3853,
    "\u2581\u13e5\u13a6\u13d4\u13b2": 3854,
    "\u13a4\u13cd\u13d7": 3855,
    "\u2581\u13a4\u13cd\u13c6\u13c2\u13aa\u13d9\u13d7": 3856,
    "\u2581\u13a4\u13c1\u13c5": 3857,
    "\u13a1\u13b8": 3858,
    "\u2581\u13eb\u13e8\u13f2\u13ea\u13b3": 3859,
    "\u2581\u13e5\u13c2\u13ac": 3860,
    "\u2581\u13d5\u13c5": 3861,
    "\u13d8\u13c3\u13b8": 3862,
    "\u13f2\u13cd\u13d9\u13d7": 3863,
    "\u2581\u13c2\u13a6\u13a5\u13a9": 3864,
    "\u2581\u13f1\u13d3\u13a9": 3865,
    "\u13b7\u13e8": 3866,
    "\u13f0\u13b8\u13ad": 3867,
    "\u2581\u13d4\u13b5\u13da": 3868,
    "\u2581\u13e3\u13da\u13b5\u13cd\u13ac": 3869,
    "\u2581\u13a6\u13ec\u13c2": 3870,
    "\u2581\u13a4\u13f0": 3871,
    "\u2581\u13d7\u13a8\u13a6": 3872,
    "\u2581\u13a4\u13a7": 3873,
    "\u2581\u13e7\u13a6": 3874,
    "\u2581\u13d3\u13a8\u13e3": 3875,
    "\u13a9\u13ef": 3876,
    "\u13aa\u13e9\u13db": 3877,
    "\u2581\u13a4\u13c3\u13f4": 3878,
    "\u13ef\u13c2\u13cd\u13ac": 3879,
    "\u13e4\u13ad": 3880,
    "\u2581\u13c8\u13b5": 3881,
    "\u13b5\u13d9\u13b4": 3882,
    "\u13b6\u13af\u13cd\u13d7": 3883,
    "\u2581\u13da\u13c2\u13a7\u13b5": 3884,
    "\u13bc": 3885,
    "\u2581\u13e5\u13da\u13c2": 3886,
    "\u13aa\u13db": 3887,
    "\u2581\u13a4\u13c3\u13ae\u13b8": 3888,
    "\u2581\u13a6\u13c3": 3889,
    "\u13cd\u13a6\u13c3\u13b5": 3890,
    "\u2581\u13a4\u13b5\u13ae\u13b5\u13e8": 3891,
    "\u13b4\u13a3": 3892,
    "\u2581\u13c2\u13e3\u13db\u13c1\u13b2": 3893,
    "\u2581\u13a4\u13c2\u13d9": 3894,
    "\u2581\u13d5\u13a6\u13b3\u13c5\u13db": 3895,
    "\u2581\u13da\u13be\u13c4\u13aa\u13eb\u13ce\u13b4": 3896,
    "\u2581\u13a0\u13d0\u13f4": 3897,
    "\u2581\u13a6\u13a6\u13b6": 3898,
    "\u2581\u13d3\u13c2\u13d9\u13a8": 3899,
    "d": 3900,
    "\u13c2\u13d9\u13b8": 3901,
    "\u2581\u13d5\u13a6\u13b6\u13a8\u13d2": 3902,
    "\u13e7\u13cd\u13c6\u13f4\u13cd\u13d7": 3903,
    "\u2581\u13a4\u13e6\u13f1\u13b4": 3904,
    "\u13d7\u13a6\u13b5\u13a0\u13c5\u13af\u13db": 3905,
    "\u2581\u13ed\u13c2\u13b6\u13ce": 3906,
    "\u2581\u13e4\u13b2": 3907,
    "\u2581\u13a4\u13cc\u13af\u13b8": 3908,
    "\u2581\u13d5\u13e3\u13d3\u13c5\u13db": 3909,
    "\u13d1\u13be\u13b4": 3910,
    "\u2581\u13a0\u13cd\u13c6\u13b5\u13cd\u13ac": 3911,
    "\u13ac\u13c2\u13a8": 3912,
    "\u2581\u13a7\u13c1\u13cc": 3913,
    "\u2581\u13a4\u13d3\u13d1\u13f4": 3914,
    "\u2581\u13a4\u13be\u13c4\u13aa\u13eb\u13ce\u13b4": 3915,
    "\u2581\u13c2\u13a8\u13ce": 3916,
    "\u2581\u13c4\u13be\u13db\u13c1\u13b4": 3917,
    "\u13b8\u13cd\u13d4\u13c5": 3918,
    "\u2581\u13a0\u13c2\u13cd\u13a6\u13a2\u13b2": 3919,
    "\u2581\u13a0\u13e9\u13db\u13d7": 3920,
    "\u13d3\u13b4\u13c2\u13cd\u13ac": 3921,
    "\u13cd\u13c8\u13ef": 3922,
    "\u13b3\u13c1": 3923,
    "\u2581\u13ec\u13a9\u13b7\u13e8": 3924,
    "\u2581\u13c2\u13a6\u13c5\u13af\u13d2": 3925,
    "\u2581\u13c4\u13be\u13b5\u13cd\u13d4\u13c1": 3926,
    "\u2581\u13da\u13b8": 3927,
    "\u2581\u13a0\u13c6\u13e3": 3928,
    "\u2581\u13a4\u13c2\u13f4\u13ae": 3929,
    "\u2581\u13be\u13ef\u13db\u13a5": 3930,
    "\u13c6\u13cf": 3931,
    "\u2581\u13d3\u13a9\u13b8\u13eb\u13cd\u13d3\u13c1\u13b2": 3932,
    "\u2581\u13a2\u13e5\u13e0": 3933,
    "\u2581\u13da\u13e9\u13c2\u13a6\u13b8": 3934,
    "\u2581\u13a4\u13c1\u13dd\u13c5": 3935,
    "\u2581\u13d7\u13d8\u13f2\u13af": 3936,
    "\u13b5\u13cd\u13d3\u13f4\u13d9\u13d7": 3937,
    "\u2581\u13e7\u13ed\u13aa\u13d9\u13d7": 3938,
    "\u2581\u13c2\u13a6\u13b5\u13cd\u13d4\u13c5": 3939,
    "\u2581\u13d1\u13df\u13b6": 3940,
    "\u2581\u13a4\u13c1\u13a2\u13cd\u13d4\u13c5": 3941,
    "\u2581\u13a4\u13ea\u13d3\u13cd\u13d7": 3942,
    "\u2581\u13c2\u13a6\u13db\u13c1\u13b2": 3943,
    "\u2581\u13a4\u13be\u13c2\u13a9\u13d2": 3944,
    "\u2581\u13a5\u13de": 3945,
    "\u13a2\u13cd\u13d9\u13d7": 3946,
    "\u13cd\u13c6\u13c2\u13aa\u13d4\u13c2": 3947,
    "\u2581\u13a4\u13be\u13db\u13aa\u13d7": 3948,
    "\u2581\u13ed\u13e9": 3949,
    "\u13a6\u13d8\u13d5\u13af": 3950,
    "\u13eb\u13db\u13b2": 3951,
    "\u2581\u13a7\u13c3\u13ae": 3952,
    "\u2581\u13a0\u13e9\u13be\u13a6\u13b3": 3953,
    "\u2581\u13a4\u13c1\u13c9\u13e8": 3954,
    "\u2581\u13aa\u13b5\u13cd\u13d7": 3955,
    "\u13a6\u13b5\u13b7\u13a8\u13cd\u13d7": 3956,
    "\u2581\u13e5\u13a6\u13d8\u13cf": 3957,
    "\u2581\u13a0\u13b5\u13cf\u13be\u13af\u13cd\u13d4\u13c5\u13af": 3958,
    "\u2581\u13a0\u13f2\u13d3\u13cc\u13b2": 3959,
    "\u2581\u13a4\u13be\u13d7\u13cd\u13a6\u13df": 3960,
    "\u2581\u13a4\u13e9\u13ad\u13c2\u13b4": 3961,
    "\u2581\u13c2\u13a9\u13ea\u13ce\u13b8\u13ad": 3962,
    "\u2581\u13c5\u13db\u13c6\u13d3\u13b4\u13c5\u13af": 3963,
    "\u2581\u13c5\u13e7\u13d3\u13b4\u13c5\u13b2\u13be": 3964,
    "\u2581\u13e6\u13d1\u13eb": 3965,
    "\u2581\u13a0\u13d3\u13c5\u13d6\u13cd\u13aa": 3966,
    "\u2581\u13a4\u13c2\u13a9\u13b5\u13f2\u13a2\u13cd\u13d7": 3967,
    "\u2581\u13a8\u13b4\u13cf\u13f1": 3968,
    "\u2581\u13d7\u13e6\u13ea\u13b5\u13cd\u13a9": 3969,
    "\u2581\u13da\u13a8\u13d3\u13b5\u13f4": 3970,
    "\u2581\u13a0\u13d0\u13a5\u13cd\u13d9\u13d7": 3971,
    "\u2581\u13c5\u13e5\u13ea\u13ce\u13b8\u13a9": 3972,
    "\u2581\u13cf\u13b5\u13c6": 3973,
    "\u2581\u13a0\u13be\u13d3\u13cd\u13a6\u13b6\u13a9": 3974,
    "\u2581\u13a4\u13da\u13d3\u13b4\u13db": 3975,
    "\u2581\u13a4\u13aa\u13b5\u13f0\u13a5": 3976,
    "\u2581\u13c4\u13be\u13d3\u13a1\u13cd\u13d7": 3977,
    "\u2581\u13e3\u13d3\u13f2\u13c1\u13b8\u13a9": 3978,
    "\u2581\u13a0\u13d3\u13ea\u13af": 3979,
    "\u2581\u13a4\u13db\u13b4\u13ae": 3980,
    "\u2581\u13a4\u13ea\u13d0\u13c5\u13f4": 3981,
    "\u2581\u13a0\u13c2\u13f0\u13aa\u13a9": 3982,
    "\u2581\u13a2\u13e3\u13db\u13d3\u13cd\u13d3": 3983,
    "\u2581\u13d5\u13a6\u13c5\u13d9\u13ac": 3984,
    "\u2581\u13a2\u13b3\u13a9\u13f3": 3985,
    "\u2581\u13e4\u13c6\u13b3\u13c2": 3986,
    "\u2581\u13a7\u13c4\u13a6\u13df": 3987,
    "\u2581\u13a0\u13aa\u13d5\u13cd\u13a9": 3988,
    "\u2581\u13a2\u13aa\u13ea\u13b3": 3989,
    "\u2581\u13a0\u13cd\u13a9\u13d3\u13cd\u13ac": 3990,
    "\u2581\u13a4\u13ed\u13e2\u13d4\u13c5\u13a9": 3991,
    "\u2581\u13a6\u13d7\u13a8\u13c2": 3992,
    "\u2581\u13a4\u13b5\u13cf\u13c2\u13d5\u13c5": 3993,
    "\u2581\u13e7\u13c1\u13b5\u13c1": 3994,
    "\u2581\u13a4\u13b5\u13f2\u13d7": 3995,
    "\u2581\u13b6\u13bb": 3996,
    "\u2581\u13d5\u13e5\u13c3\u13a9\u13cd\u13a8\u13cd\u13d7": 3997,
    "\u2581\u13be\u13a8\u13a2\u13f4": 3998,
    "\u2581\u13a0\u13be\u13d3\u13cd\u13d3\u13e9\u13d7\u13d9\u13af": 3999,
    "\u2581\u13e9\u13a9\u13b7\u13e3": 4000,
    "\u2581\u13d3\u13f2\u13e4\u13cf": 4001,
    "\u2581\u13ad\u13f0\u13b5\u13cd\u13d7": 4002,
    "\u2581\u13a0\u13be\u13b5\u13cd\u13d5\u13b5\u13cd\u13a9": 4003,
    "\u2581\u13c2\u13a9\u13ea\u13cf": 4004,
    "\u2581\u13a0\u13be\u13d3\u13e4\u13b5": 4005,
    "\u2581\u13f1\u13c2\u13ac\u13c1\u13ad": 4006,
    "\u2581\u13d5\u13e5\u13a7\u13bf\u13e9\u13d7\u13d9\u13ae\u13cd\u13d7": 4007,
    "\u2581\u13eb\u13d7\u13b6\u13af": 4008,
    "\u2581\u13d4\u13d8\u13c4\u13a6": 4009,
    "\u2581\u13a0\u13e6\u13b3\u13c5": 4010,
    "\u2581\u13da\u13ad\u13c4\u13ee": 4011,
    "\u2581\u13d7\u13a7\u13c3\u13a9\u13cd\u13d9\u13d7": 4012,
    "\u2581\u13d7\u13a6\u13b6\u13d4\u13c5": 4013,
    "\u2581\u13a0\u13d3\u13f2\u13c1\u13ae\u13cd\u13d7": 4014,
    "\u2581\u13da\u13cd\u13d3\u13a6\u13b8": 4015,
    "\u2581\u13d5\u13aa\u13ea\u13b4\u13cd\u13d7": 4016,
    "\u2581\u13a2\u13e6\u13af\u13f3\u13d7\u13f1": 4017,
    "\u2581\u13a4\u13db\u13a6\u13cd\u13d5": 4018,
    "\u2581\u13d3\u13a6\u13db\u13c1\u13b5": 4019,
    "\u2581\u13e7\u13c2\u13c1\u13df\u13f4\u13cd\u13d7": 4020,
    "\u13d8\u13ef\u13cd\u13d3\u13c1": 4021,
    "\u2581\u13c4\u13ea\u13b2\u13be": 4022,
    "\u2581\u13d3\u13f1\u13be": 4023,
    "\u2581\u13e7\u13be\u13ac\u13e9\u13b6\u13d7": 4024,
    "\u2581\u13d7\u13e3\u13b4\u13b2\u13a6": 4025,
    "\u2581\u13a1\u13e5\u13c5\u13cf\u13d3\u13cd\u13d7": 4026,
    "\u2581\u13e5\u13da\u13f3\u13aa\u13d7": 4027,
    "\u2581\u13a2\u13ac\u13db\u13c1\u13d7": 4028,
    "\u2581\u13d7\u13be\u13a2\u13d2": 4029,
    "\u2581\u13e7\u13c2\u13b6\u13b8\u13d7": 4030,
    "\u2581\u13a6\u13c2\u13a9\u13b8": 4031,
    "\u2581\u13a0\u13ab\u13e9\u13cc": 4032,
    "\u2581\u13a0\u13c2\u13aa\u13b2\u13ad": 4033,
    "\u2581\u13a8\u13e5\u13cd\u13d5\u13b8\u13d7": 4034,
    "\u2581\u13a4\u13ac\u13a5\u13cd\u13a9": 4035,
    "\u2581\u13a2\u13ef\u13e5\u13b8\u13c9\u13d7": 4036,
    "\u2581\u13d7\u13aa\u13e2\u13c5\u13af": 4037,
    "\u2581\u13ac\u13ec\u13af\u13f3\u13c5\u13a9": 4038,
    "\u2581\u13a3\u13a6\u13da\u13b5\u13ad": 4039,
    "\u2581\u13a2\u13f3\u13ea\u13ce\u13b8\u13af": 4040,
    "\u2581\u13cd\u13a9\u13cd\u13d3\u13e9\u13da\u13a6": 4041,
    "\u2581\u13a4\u13c2\u13aa\u13e9\u13db\u13d7\u13f1": 4042,
    "\u2581\u13a0\u13cd\u13d5\u13ef\u13d3": 4043,
    "\u2581\u13aa\u13b0\u13cd": 4044,
    "\u2581\u13af\u13b8\u13c9\u13d3": 4045,
    "\u2581\u13e3\u13a6\u13e8\u13cd": 4046,
    "\u2581\u13a0\u13c2\u13a8\u13f3\u13e3": 4047,
    "\u13cd\u13d3\u13f1": 4048,
    "\u2581\u13e5\u13e3\u13db\u13a9\u13ad": 4049,
    "\u2581\u13c2\u13e3\u13db\u13bf\u13d5\u13ac\u13a2": 4050,
    "\u2581\u13a2\u13e5\u13ef\u13a1\u13cd\u13d7": 4051,
    "\u2581\u13a2\u13e3\u13da\u13b5\u13cd\u13a8\u13cd\u13d7": 4052,
    "\u2581\u13d3\u13ad\u13cf": 4053,
    "\u2581\u13af\u13cd\u13aa\u13b5": 4054,
    "\u2581\u13ad\u13d3\u13c5\u13be": 4055,
    "\u2581\u13a0\u13cd\u13a9\u13d7\u13cd\u13a8\u13a2": 4056,
    "\u2581\u13e3\u13d9\u13b3\u13c5\u13cd\u13d7": 4057,
    "\u2581\u13cd\u13c8\u13cd\u13d4": 4058,
    "\u2581\u13d7\u13a6\u13b6\u13a9\u13cd\u13a9": 4059,
    "\u2581\u13d7\u13e3\u13a7\u13c5\u13a6": 4060,
    "\u2581\u13a0\u13e0\u13d7\u13f1": 4061,
    "\u2581\u13a2\u13e3\u13b5\u13ae\u13b5\u13a8\u13cd\u13d7": 4062,
    "\u2581\u13c2\u13f4\u13c1\u13b8": 4063,
    "\u2581\u13a8\u13e5\u13c5\u13d2\u13af": 4064,
    "\u2581\u13c7\u13d7\u13c2\u13f1": 4065,
    "\u2581\u13d7\u13a9\u13b8\u13eb\u13cd\u13d3\u13c1\u13d7\u13f1": 4066,
    "\u2581\u13eb\u13e5\u13b7\u13e8\u13ad": 4067,
    "\u2581\u13a4\u13b6\u13d7\u13e2": 4068,
    "\u2581\u13a4\u13be\u13db\u13c5\u13a9": 4069,
    "\u13f2\u13d2\u13a9": 4070,
    "\u13d2\u13d7": 4071,
    "\u2581\u13d1\u13d3\u13b5\u13cd\u13aa\u13af": 4072,
    "\u2581\u13ed\u13d5\u13b5\u13e8": 4073,
    "\u2581\u13dd\u13ec\u13da": 4074,
    "\u2581\u13e7\u13c2\u13b8\u13eb\u13cd\u13d3\u13c1\u13d7": 4075,
    "\u2581\u13a0\u13c2\u13a6\u13f2\u13df": 4076,
    "\u2581\u13a2\u13ef\u13d3\u13c5\u13d6\u13d7": 4077,
    "\u2581\u13a1\u13e5\u13ef\u13c5\u13db": 4078,
    "\u2581\u13ce\u13d8": 4079,
    "\u2581\u13f0\u13d9\u13ad": 4080,
    "\u2581\u13d7\u13e3\u13d3\u13b4\u13c5\u13db": 4081,
    "\u2581\u13e7\u13b7\u13eb\u13cd\u13d4\u13c1\u13d7": 4082,
    "\u2581\u13c8\u13b5\u13cf": 4083,
    "\u2581\u13a0\u13a9\u13b5\u13a8\u13c2": 4084,
    "\u2581\u13cd\u13aa\u13c1": 4085,
    "\u2581\u13a6\u13c3\u13d9\u13d7\u13f1": 4086,
    "\u2581\u13a4\u13be\u13d3\u13d9\u13b5\u13cd\u13d3\u13c1\u13b8\u13a9": 4087,
    "\u2581\u13a4\u13bf\u13b7\u13d2\u13a9": 4088,
    "\u2581\u13da\u13ef\u13ea\u13a8": 4089,
    "\u2581\u13aa\u13af\u13a2\u13f4": 4090,
    "\u13a7\u13c1\u13b8": 4091,
    "\u13c4\u13cd\u13d7": 4092,
    "\u2581\u13a2\u13a6\u13b5\u13cd\u13d9\u13d7\u13f1": 4093,
    "\u2581\u13a2\u13e8\u13c3\u13ae\u13ae\u13b8": 4094,
    "\u2581\u13c3\u13a9\u13ea\u13ce\u13b8": 4095,
    "\u2581\u13da\u13c3\u13b8": 4096,
    "\u13df\u13cc\u13c2": 4097,
    "\u2581\u13a4\u13d3\u13d9\u13b5\u13e3\u13db": 4098,
    "\u2581\u13f1\u13c5": 4099,
    "\u2581\u13a4\u13a6\u13d4\u13d4\u13c5\u13af": 4100,
    "\u2581\u13d3\u13be\u13d5\u13f2\u13b2\u13cd\u13ac": 4101,
    "\u13a1\u13b2": 4102,
    "\u2581\u13b9\u13a6": 4103,
    "\u13f2\u13cd\u13d4\u13c2": 4104,
    "\u2581\u13c4\u13e9\u13c1\u13b0": 4105,
    "\u2581\u13a4\u13c3\u13af\u13f3\u13c5\u13af": 4106,
    "\u2581\u13a0\u13d3\u13c1\u13e3\u13cd\u13da\u13b6\u13a9\u13af": 4107,
    "\u2581\u13ef\u13c2\u13a6\u13d4\u13ae": 4108,
    "\u2581\u13a0\u13cd\u13ab\u13d5\u13cd\u13d7\u13f1": 4109,
    "\u13d7\u13d4\u13af": 4110,
    "\u2581\u13a4\u13db\u13d2\u13af": 4111,
    "\u2581\u13a2\u13a6\u13a6\u13d3": 4112,
    "\u2581\u13b2\u13d3": 4113,
    "\u2581\u13a2\u13cd\u13d5\u13be": 4114,
    "\u2581\u13a0\u13a6\u13d4\u13af\u13f3": 4115,
    "\u2581\u13ac\u13e9\u13db\u13d7": 4116,
    "\u2581\u13a4\u13b3\u13cf\u13d5\u13c2": 4117,
    "\u2581\u13a4\u13d3\u13f4\u13ce\u13a2": 4118,
    "\u2581\u13e5\u13c1\u13a6": 4119,
    "\u2581\u13d3\u13a7\u13c5": 4120,
    "\u2581\u13a4\u13c1\u13c9\u13e8\u13af": 4121,
    "\u2581\u13aa\u13ea\u13b4": 4122,
    "\u2581\u13a4\u13c1\u13dd\u13c5\u13af": 4123,
    "\u2581\u13a4\u13ea\u13a7\u13c1\u13a2": 4124,
    "\u2581\u13a4\u13c3\u13af\u13f3\u13c5\u13a9": 4125,
    "\u2581\u13a4\u13be\u13c4\u13aa\u13a2\u13cd\u13d7": 4126,
    "\u2581\u13af\u13f2\u13b5": 4127,
    "\u2581\u13a9\u13b3\u13af\u13f3": 4128,
    "\u2581\u13d3\u13e8\u13c1\u13b5": 4129,
    "\u2581\u13c4\u13be\u13b5\u13cd\u13d4\u13c5": 4130,
    "\u2581\u13a2\u13ab\u13e9": 4131,
    "\u2581\u13e5\u13d9\u13a6": 4132,
    "\u2581\u13a0\u13c2\u13c3\u13ae\u13ad": 4133,
    "\u2581\u13c7\u13b5\u13a9": 4134,
    "\u13e8\u13d7": 4135,
    "\u2581\u13a4\u13e6\u13cd\u13d7": 4136,
    "\u2581\u13a4\u13be\u13db\u13aa\u13d7\u13f1": 4137,
    "\u13cd\u13d7\u13cd\u13a8": 4138,
    "\u2581\u13a2\u13f3\u13d2\u13af": 4139,
    "\u2581\u13a4\u13ea\u13cd\u13a9\u13b8\u13a2": 4140,
    "\u2581\u13eb\u13e5\u13a6\u13db\u13a2": 4141,
    "\u2581\u13a4\u13aa\u13e9\u13db\u13d7\u13f1": 4142,
    "\u2581\u13d7\u13a6\u13e5": 4143,
    "\u13c5\u13c3": 4144,
    "\u2581\u13d7\u13aa\u13e9\u13db\u13d7": 4145,
    "\u13e9\u13d4": 4146,
    "\u2581\u13e5\u13ef\u13b5\u13a1\u13b5\u13e4": 4147,
    "\u2581\u13c2\u13da\u13e9\u13c1\u13b4\u13a2": 4148,
    "\u2581\u13a8\u13b5\u13cd\u13a9": 4149,
    "\u2581\u13e7\u13d3\u13b5\u13a2": 4150,
    "\u2581\u13e5\u13aa\u13e9\u13d8\u13cd\u13ac": 4151,
    "\u2581\u13bb\u13b3": 4152,
    "\u2581\u13a1\u13d3\u13cd\u13d7": 4153,
    "\u2581\u13be\u13ef\u13db\u13a5\u13a9": 4154,
    "\u2581\u13a4\u13a9\u13d2\u13a9": 4155,
    "\u2581\u13a4\u13be\u13c2\u13a9\u13d2\u13a9": 4156,
    "\u13c5\u13ec\u13d7\u13f1": 4157,
    "\u2581\u13a4\u13d3\u13d9\u13b5\u13cd\u13d4\u13c1\u13a2": 4158,
    "\u2581\u13d7\u13be\u13d3\u13aa\u13be\u13d7\u13cd\u13ac\u13a2": 4159,
    "\u2581\u13a4\u13cd\u13c6\u13c2\u13aa\u13db": 4160,
    "\u2581\u13a0\u13be\u13d3\u13aa\u13be\u13d7\u13cd\u13ac\u13a2": 4161,
    "\u2581\u13a6\u13d3\u13d9\u13b5\u13cd\u13d7\u13cd\u13ac\u13a2": 4162,
    "\u13db\u13c1\u13b8": 4163,
    "\u2581\u13a4\u13be\u13d3\u13c5\u13d6\u13b4": 4164,
    "\u2581\u13a4\u13c1\u13af": 4165,
    "\u13e3\u13b5\u13cd\u13d9": 4166,
    "\u2581\u13a2\u13a6\u13b5\u13a2": 4167,
    "\u2581\u13e5\u13ac\u13e9": 4168,
    "\u2581\u13a4\u13be\u13d5\u13d7": 4169,
    "\u2581\u13a0\u13a6\u13cd\u13a9": 4170,
    "\u2581\u13a4\u13e9\u13d4\u13c5\u13a9": 4171,
    "\u2581\u13a4\u13be\u13c2\u13a9\u13ce\u13a2": 4172,
    "\u2581\u13a4\u13c7\u13d3\u13b5\u13c9": 4173,
    "\u2581\u13e5\u13f0\u13b8\u13a2": 4174,
    "\u13b4\u13c5\u13b2": 4175,
    "\u2581\u13a4\u13c2\u13e3\u13d6\u13cd\u13d7": 4176,
    "\u2581\u13a0\u13aa\u13be": 4177,
    "\u2581\u13a4\u13be\u13d3\u13c5\u13d6\u13b8": 4178,
    "\u2581\u13e5\u13c4\u13cd\u13d5": 4179,
    "\u2581\u13da\u13e9\u13c2\u13a6\u13b8\u13a2": 4180,
    "\u2581\u13a4\u13e6\u13f1\u13b4\u13a2": 4181,
    "\u13d3\u13db\u13cd\u13a9": 4182,
    "\u2581\u13a6\u13ef\u13b8": 4183,
    "\u13d3\u13c1\u13af": 4184,
    "\u2581\u13a4\u13a9\u13ce\u13a2": 4185,
    "\u13b6\u13b8\u13d7": 4186,
    "\u2581\u13a0\u13a2\u13d2\u13a9": 4187,
    "\u2581\u13a6\u13df": 4188,
    "\u13b2\u13ce": 4189,
    "\u2581\u13a4\u13d7\u13db\u13ae\u13a2": 4190,
    "\u2581\u13a3\u13a9\u13be\u13b5\u13aa": 4191,
    "\u2581\u13a4\u13f2\u13a2\u13f4": 4192,
    "\u2581\u13a3\u13b5\u13e9\u13f2": 4193,
    "\u13c2\u13a6": 4194,
    "\u13f4\u13ae\u13a2": 4195,
    "\u13cf\u13d4\u13db": 4196,
    "\u2581\u13ed\u13c2\u13b7\u13e8\u13a9": 4197,
    "\u2581\u13a6\u13f2\u13df\u13a8": 4198,
    "\u2581\u13a0\u13df\u13cd\u13d7": 4199,
    "\u2581\u13a4\u13ea\u13f4\u13a2": 4200,
    "\u13b5\u13cd\u13aa\u13b8\u13d3\u13c1\u13d7\u13f1": 4201,
    "\u13cd\u13a6\u13ce\u13d7": 4202,
    "\u2581\u13eb\u13a6\u13b7\u13ac": 4203,
    "\u2581\u13a2\u13e3\u13d3\u13c5\u13d6\u13cd\u13ac": 4204,
    "\u13d7\u13c2\u13cd\u13aa\u13c2\u13af": 4205,
    "\u13da\u13a2\u13cd\u13d3\u13c1\u13b4": 4206,
    "\u2581\u13e6\u13a8": 4207,
    "\u13d5\u13b6\u13b0\u13cc": 4208,
    "\u2581\u13e7\u13c1\u13a6": 4209,
    "\u2581\u13a4\u13a9\u13d2": 4210,
    "\u2581\u13a2\u13d7\u13ac\u13c1": 4211,
    "\u2581\u13e3\u13d7\u13ad": 4212,
    "\u2581\u13ae\u13b5": 4213,
    "\u2581\u13d5\u13a6\u13a7\u13b2": 4214,
    "\u2581\u13e5\u13eb": 4215,
    "\u13a4\u13e9\u13c2\u13a6\u13b8": 4216,
    "\u2581\u13a4\u13cd\u13aa\u13d2": 4217,
    "\u2581\u13a2\u13e8\u13d7\u13cd\u13ac": 4218,
    "\u2581\u13a0\u13a9\u13c1\u13e8\u13a2": 4219,
    "\u13c3\u13af\u13ce\u13b4": 4220,
    "\u2581\u13a4\u13c2\u13be\u13eb": 4221,
    "\u2581\u13ab\u13a6": 4222,
    "\u2581\u13d7\u13d0\u13f4": 4223,
    "\u2581\u13c2\u13d5\u13ac\u13c1\u13b2": 4224,
    "\u2581\u13dc": 4225,
    "\u2581\u13eb\u13da\u13ef\u13c5\u13ae\u13a2": 4226,
    "\u2581\u13a0\u13e5\u13be": 4227,
    "\u2581\u13af\u13a6\u13d4\u13b2": 4228,
    "\u2581\u13a4\u13c4\u13aa\u13e4\u13a2": 4229,
    "\u2581\u13a4\u13c5\u13ce\u13a2": 4230,
    "\u2581\u13a2\u13d4": 4231,
    "\u2581\u13a0\u13be\u13b5\u13ae\u13b5\u13a8": 4232,
    "\u2581\u13be\u13db\u13c1\u13b2\u13a2": 4233,
    "\u2581\u13a0\u13c1\u13ae\u13cd\u13d7": 4234,
    "\u2581\u13a4\u13c1\u13cd\u13a9\u13b8": 4235,
    "\u2581\u13a4\u13c1\u13cd\u13d4": 4236,
    "\u2581\u13a4\u13b7\u13e4\u13b4\u13a2": 4237,
    "\u2581\u13a4\u13e9\u13d4\u13c1": 4238,
    "\u13e3\u13d7": 4239,
    "\u2581\u13da\u13d9\u13cd\u13db": 4240,
    "\u2581\u13e5\u13d5\u13e3": 4241,
    "\u2581\u13e7\u13c1\u13d7\u13f1": 4242,
    "\u13d9\u13ad": 4243,
    "\u13c8\u13f1": 4244,
    "\u2581\u13a4\u13ec\u13e8": 4245,
    "\u2581\u13a1\u13be\u13a2": 4246,
    "\u13c2\u13d3\u13cd\u13d7": 4247,
    "\u13d4\u13c1\u13cd\u13d7": 4248,
    "\u13db\u13a6\u13c5": 4249,
    "\u2581\u13c2\u13e5\u13ea\u13ce\u13b8": 4250,
    "\u2581\u13a4\u13ea\u13ad": 4251,
    "\u2581\u13c4\u13e9\u13c1\u13b8\u13a9": 4252,
    "\u13e7\u13c2\u13f2\u13af\u13cd\u13d7\u13f1": 4253,
    "\u2581\u13a4\u13ec\u13c2\u13ce": 4254,
    "\u13a8\u13ce\u13a2": 4255,
    "\u2581\u13e7\u13c1\u13e4\u13b4": 4256,
    "\u13aa\u13b5\u13ef": 4257,
    "\u13d9\u13b5\u13a6": 4258,
    "\u2581\u13f1\u13e5\u13f0\u13b8": 4259,
    "\u13cc\u13db\u13d7": 4260,
    "\u2581\u13e7\u13be\u13e6": 4261,
    "\u2581\u13a4\u13c2\u13aa\u13b2\u13a9": 4262,
    "\u2581\u13a4\u13d5\u13b8": 4263,
    "\u2581\u13d7\u13a9\u13a6\u13f4\u13b5\u13a8\u13a2": 4264,
    "\u2581\u13a4\u13e9\u13c2\u13b8": 4265,
    "\u2581\u13a2\u13a9\u13c1\u13b8": 4266,
    "\u13d0\u13d7": 4267,
    "\u2581\u13c3\u13f3": 4268,
    "\u13c4\u13aa\u13eb\u13cf": 4269,
    "\u13e0\u13d2": 4270,
    "\u2581\u13be\u13cf": 4271,
    "\u2581\u13da\u13c2\u13b8": 4272,
    "\u2581\u13e7\u13ea\u13c5\u13d2\u13a2": 4273,
    "\u2581\u13a0\u13e6\u13f4\u13a2": 4274,
    "\u2581\u13a4\u13cd\u13a6\u13c5\u13e8\u13a2": 4275,
    "\u2581\u13a2\u13e3\u13d3\u13c5\u13d6": 4276,
    "\u2581\u13a4\u13cd\u13d3\u13f1\u13d5": 4277,
    "\u2581\u13d8\u13c5": 4278,
    "\u2581\u13a4\u13d3\u13c5\u13d9\u13a9": 4279,
    "\u13cf\u13d0\u13d7": 4280,
    "\u13e2\u13be\u13c1\u13d7": 4281,
    "\u2581\u13e7\u13f2": 4282,
    "\u2581\u13a4\u13c3\u13e2\u13c5": 4283,
    "\u13a6\u13c5\u13a6": 4284,
    "\u2581\u13d5\u13e3\u13d9\u13a5\u13a2": 4285,
    "\u2581\u13c3\u13a9": 4286,
    "\u2581\u13a4\u13cd\u13d7\u13c9": 4287,
    "\u13d6\u13b5": 4288,
    "\u13f2\u13cd\u13d7\u13cd\u13ac": 4289,
    "\u2581\u13a4\u13a7\u13b5\u13b8": 4290,
    "\u2581\u13c3\u13d2": 4291,
    "\u13aa\u13b3": 4292,
    "\u13df\u13b6": 4293,
    "\u2581\u13a4\u13b5\u13cd\u13c6\u13d5": 4294,
    "\u13c5\u13a6\u13b8\u13db": 4295,
    "\u2581\u13a2\u13e8\u13f2\u13ea\u13b3": 4296,
    "\u13a7\u13be": 4297,
    "\u13d7\u13ef": 4298,
    "\u13c5\u13d7\u13cd\u13a8\u13cd\u13d7": 4299,
    "\u2581\u13e5\u13d7": 4300,
    "\u13c9\u13af": 4301,
    "\u13c1\u13a2\u13cd\u13d3\u13c1\u13d7": 4302,
    "\u2581\u13be\u13e5": 4303,
    "\u2581\u13a0\u13c3\u13b5": 4304,
    "\u2581\u13c2\u13ac\u13c1\u13b8": 4305,
    "\u2581\u13a0\u13c5": 4306,
    "\u13f2\u13a6": 4307,
    "\u2581\u13ea\u13d9": 4308,
    "\u13f2\u13af\u13b2": 4309,
    "\u2581\u13d7\u13cd\u13c6": 4310,
    "\u2581\u13a3\u13cd": 4311,
    "\u2581\u13c4\u13ea\u13ce\u13b8\u13a2": 4312,
    "\u2581\u13a4\u13c1\u13c5\u13cd\u13d7": 4313,
    "\u2581\u13a4\u13d3\u13c5\u13d2": 4314,
    "\u2581\u13a4\u13c1\u13c5\u13ce\u13c3": 4315,
    "\u13cc\u13b3\u13d3\u13c1": 4316,
    "\u2581\u13a2\u13f2": 4317,
    "\u2581\u13a6\u13d8": 4318,
    "\u2581\u13e7\u13d3\u13b4": 4319,
    "\u2581\u13a4\u13d9\u13af\u13f3\u13ad": 4320,
    "\u13c2\u13cc\u13c2": 4321,
    "\u13c2\u13ac\u13a6": 4322,
    "\u2581\u13a0\u13c9\u13e2": 4323,
    "\u13a6\u13d9\u13a5\u13ce": 4324,
    "\u2581\u13af\u13c3": 4325,
    "\u2581\u13a0\u13c2\u13b8\u13c9\u13d7\u13cd\u13a8": 4326,
    "\u2581\u13d5\u13a0": 4327,
    "\u13e5\u13c1\u13b8": 4328,
    "\u2581\u13d7\u13ac\u13e9\u13be": 4329,
    "\u13c1\u13cd\u13a8": 4330,
    "\u2581\u13a4\u13a7\u13b5": 4331,
    "\u2581\u13e4\u13b3\u13d7": 4332,
    "\u2581\u13e6\u13cf": 4333,
    "\u13b5\u13cd\u13d3\u13f4\u13d7": 4334,
    "\u13f0\u13b2": 4335,
    "\u13cd\u13a6\u13a2\u13ae\u13cd\u13d7": 4336,
    "\u13a4\u13cd\u13d3\u13a6\u13f4\u13af\u13d3": 4337,
    "\u2581\u13e6\u13d2": 4338,
    "\u2581\u13a4\u13c1\u13e4\u13a2": 4339,
    "\u2581\u13a0\u13f0\u13b5\u13d2": 4340,
    "\u13df\u13ef": 4341,
    "\u2581\u13be\u13c2\u13a5\u13a9": 4342,
    "\u2581\u13a4\u13c1\u13e4\u13b4\u13a2": 4343,
    "\u13b8\u13c2": 4344,
    "\u13ab\u13f4": 4345,
    "s": 4346,
    "\u13aa\u13b5\u13c2\u13d7": 4347,
    "\u2581\u13a4\u13d9\u13af": 4348,
    "\u2581\u13ac\u13e9\u13db\u13db": 4349,
    "\u2581\u13a2\u13a4": 4350,
    "\u2581\u13ad\u13d7\u13d4": 4351,
    "\u2581\u13a8\u13cd": 4352,
    "\u13d3\u13c2\u13b8\u13a9": 4353,
    "\u2581\u13a4\u13b3": 4354,
    "\u13e1\u13d7\u13cd\u13a9": 4355,
    "\u2581\u13d3\u13d4\u13b4\u13d2\u13a2": 4356,
    "\u2581\u13a0\u13e3": 4357,
    "\u13d3\u13c1\u13d7\u13f1": 4358,
    "\u13d5\u13ad": 4359,
    "\u2581\u13a6\u13f2\u13a6": 4360,
    "\u2581\u13a2\u13f3\u13c2": 4361,
    "\u2581\u13da\u13c1\u13e4\u13b4\u13c3": 4362,
    "\u13db\u13aa\u13d7": 4363,
    "\u13b6\u13d3": 4364,
    "\u13cd\u13d3\u13e9\u13d5\u13a9": 4365,
    "\u2581\u13eb\u13c2": 4366,
    "\u2581\u13a4\u13bf\u13b8": 4367,
    "\u2581\u13a2\u13ac\u13f1\u13f1\u13c9": 4368,
    "\u2581\u13d3\u13e5\u13f2": 4369,
    "\u2581\u13a1\u13cd\u13d7": 4370,
    "\u13c2\u13cd\u13d9\u13d7": 4371,
    "\u2581\u13a2\u13f3\u13cd\u13a9\u13c2\u13c3": 4372,
    "\u13b4\u13d2": 4373,
    "\u13a7\u13b8": 4374,
    "\u2581\u13a0\u13a9\u13cd\u13a6\u13c5\u13e8": 4375,
    "\u2581\u13be\u13d3": 4376,
    "\u13d7\u13d4\u13cd\u13ac": 4377,
    "\u13a6\u13db\u13a6": 4378,
    "\u2581\u13a0\u13b9\u13c2": 4379,
    "\u13ef\u13d9": 4380,
    "\u13aa\u13d5\u13cd\u13d7": 4381,
    "\u13e5\u13e7\u13e3": 4382,
    "\u13e9\u13db\u13af": 4383,
    "\u2581\u13ef\u13d3\u13c5\u13d6": 4384,
    "\u2581\u13a4\u13c2\u13f4\u13b8": 4385,
    "\u2581\u13a0\u13a9\u13b2": 4386,
    "\u13aa\u13c5": 4387,
    "\u13a8\u13f3\u13ad": 4388,
    "\u2581\u13a0\u13ab\u13f4\u13d7": 4389,
    "\u2581\u13a0\u13be\u13d7\u13cd\u13a8": 4390,
    "\u2581\u13f0\u13e3": 4391,
    "\u2581\u13da\u13c1": 4392,
    "\u13cd\u13d7\u13cd\u13a8\u13a2": 4393,
    "\u2581\u13be\u13af\u13f3\u13a2": 4394,
    "\u13a9\u13cc": 4395,
    "\u2581\u13a4\u13cd\u13db": 4396,
    "\u13c2\u13c6\u13d8\u13af": 4397,
    "\u2581\u13a0\u13d3\u13c5": 4398,
    "\u2581\u13f0\u13b5\u13a6": 4399,
    "\u2581\u13a4\u13c2\u13c4\u13aa\u13e8": 4400,
    "\u2581\u13d9\u13e3": 4401,
    "\u2581\u13e5\u13f2": 4402,
    "\u13ea\u13ce\u13b4\u13a2": 4403,
    "\u2581\u13a6\u13be\u13c4\u13aa": 4404,
    "\u13b7\u13e5": 4405,
    "\u2581\u13ea\u13e3": 4406,
    "\u2581\u13e5\u13a6\u13d4": 4407,
    "\u2581\u13a4\u13c2\u13cf\u13d7": 4408,
    "\u13d3\u13c5\u13af\u13d3": 4409,
    "\u2581\u13ef\u13db\u13c5": 4410,
    "\u13b8\u13ae": 4411,
    "\u2581\u13a4\u13e3\u13c5": 4412,
    "\u2581\u13a4\u13b5\u13cd\u13c6\u13b8\u13d7\u13c3": 4413,
    "\u13c1\u13c5": 4414,
    "\u2581\u13a4\u13ea\u13f0": 4415,
    "\u13a6\u13ce\u13cd\u13d5\u13cd\u13d7": 4416,
    "\u2581\u13d3\u13cd\u13a9": 4417,
    "\u13cd\u13c6\u13b5": 4418,
    "\u13c2\u13a9\u13cd\u13ac": 4419,
    "\u2581\u13a0\u13a9\u13c1": 4420,
    "\u13e1\u13d7\u13cd\u13ac\u13a2": 4421,
    "\u2581\u13a4\u13c3\u13f4\u13b5": 4422,
    "\u2581\u13ac\u13be\u13ec": 4423,
    "\u13a6\u13cd\u13aa": 4424,
    "\u13f0\u13db": 4425,
    "\u2581\u13d7\u13e3\u13c1\u13b6": 4426,
    "\u13d4\u13b5": 4427,
    "\u2581\u13f1\u13e3\u13d3\u13c5\u13d6": 4428,
    "\u13d8\u13be\u13eb\u13db\u13b2\u13a9": 4429,
    "\u13b3\u13d7\u13cd\u13ac": 4430,
    "\u13cc\u13d5": 4431,
    "\u2581\u13a0\u13cd\u13a9": 4432,
    "\u13e2\u13d7\u13f1": 4433,
    "\u13a6\u13c1\u13b6\u13d7": 4434,
    "\u2581\u13da\u13f2\u13ce": 4435,
    "\u13be\u13d4": 4436,
    "\u2581\u13d7\u13a6\u13b4\u13c5": 4437,
    "\u2581\u13a0\u13e9\u13db": 4438,
    "\u2581\u13a9\u13ef": 4439,
    "al": 4440,
    "\u13cd\u13d3\u13e9\u13db\u13d2\u13a9": 4441,
    "\u13c5\u13d7\u13f1": 4442,
    "\u2581\u13a6\u13b5\u13e6": 4443,
    "\u13b5\u13f3": 4444,
    "\u13d3\u13c1\u13b2": 4445,
    "\u13e5\u13c6": 4446,
    "\u13c7\u13d3": 4447,
    "\u13d8\u13cd\u13d7\u13cd\u13a9": 4448,
    "\u2581\u13a4\u13b5\u13cf": 4449,
    "\u2581\u13a6\u13ac": 4450,
    "\u2581\u13a0\u13c2\u13c1\u13b8": 4451,
    "\u2581\u13e7\u13c1": 4452,
    "\u13c5\u13c1": 4453,
    "\u2581\u13c2\u13a9": 4454,
    "\u2581\u13a5\u13e5": 4455,
    "\u13b3\u13d1\u13e2": 4456,
    "\u13c2\u13cd\u13d7": 4457,
    "\u2581\u13c4\u13cd\u13db\u13a9": 4458,
    "\u13e5\u13a9": 4459,
    "\u2581\u13a0\u13cd\u13c6\u13c2\u13aa\u13d9\u13d7": 4460,
    "\u2581\u13a0\u13c6\u13d3": 4461,
    "\u2581\u13a0\u13b5\u13f0\u13a2\u13b5": 4462,
    "\u13d3\u13d1\u13f0\u13cd\u13d7": 4463,
    "\u13a6\u13d3": 4464,
    "\u2581\u13af\u13f4": 4465,
    "\u13c1\u13b8\u13ad": 4466,
    "\u13a6\u13d8\u13f4": 4467,
    "\u2581\u13d9\u13db\u13c2": 4468,
    "\u13f4\u13cd\u13d7": 4469,
    "\u13ce\u13ae": 4470,
    "\u13f0\u13d7": 4471,
    "\u13db\u13c3\u13af": 4472,
    "\u13d3\u13ce\u13aa\u13a9\u13cd": 4473,
    "\u2581\u13d3\u13f3\u13c2": 4474,
    "\u2581\u13d5\u13a6\u13c5": 4475,
    "\u2581\u13c2\u13a6\u13a5\u13a2": 4476,
    "\u2581\u13d3\u13cc": 4477,
    "\u2581\u13a0\u13e5\u13b8\u13f3": 4478,
    "\u13cd\u13a6\u13e8\u13af": 4479,
    "\u2581\u13d4\u13ef": 4480,
    "\u13d8\u13c3\u13af\u13cd\u13d7\u13f1": 4481,
    "\u13cd\u13d5\u13b8\u13d7\u13f1": 4482,
    "\u2581\u13a4\u13c5\u13c1": 4483,
    "\u2581\u13c5\u13d3\u13ac\u13e9": 4484,
    "\u2581\u13d7\u13a9\u13cd\u13d7": 4485,
    "\u2581\u13e7\u13ac\u13e9": 4486,
    "\u13cd\u13d3\u13e9\u13d7\u13d2": 4487,
    "\u2581\u13f1\u13a8\u13e5": 4488,
    "\u13e8\u13be": 4489,
    "\u13c5\u13db": 4490,
    "\u2581\u13e3\u13db": 4491,
    "\u13e3\u13db": 4492,
    "\u2581\u13da\u13f3": 4493,
    "\u2581\u13c2\u13ef": 4494,
    "\u13a7\u13af\u13ef\u13cd\u13d7": 4495,
    "\u13f2\u13cf": 4496,
    "\u2581\u13a4\u13c2\u13cd\u13c6\u13c2\u13aa\u13ce": 4497,
    "\u2581\u13ac\u13f0\u13b8": 4498,
    "\u13d9\u13b2\u13a2": 4499,
    "\u2581\u13a4\u13c2\u13c5": 4500,
    "\u13e5\u13cd\u13a6\u13ef": 4501,
    "\u2581\u13a4\u13be\u13db\u13c1": 4502,
    "\u2581\u13c2\u13d5\u13a6": 4503,
    "\u13c2\u13aa\u13b2": 4504,
    "\u2581\u13f3\u13ec\u13af\u13f3": 4505,
    "\u13e9\u13d5\u13ac": 4506,
    "\u2581\u13a8\u13cd\u13d7\u13d7": 4507,
    "\u13b4\u13d9\u13d7": 4508,
    "\u13cd\u13a6\u13b3\u13c1\u13b8": 4509,
    "\u2581\u13a4\u13cd\u13c6\u13b8\u13af\u13d7": 4510,
    "\u13bf\u13a5\u13a2": 4511,
    "\u2581\u13a2\u13cd\u13db": 4512,
    "\u13ec\u13a2": 4513,
    "\u2581\u13cd\u13a6": 4514,
    "\u13cf\u13c2": 4515,
    "\u13b3\u13c2": 4516,
    "\u2581\u13a4\u13c4\u13ea": 4517,
    "\u2581\u13a4\u13c2\u13c3": 4518,
    "\u2581\u13c4\u13c2\u13ea\u13ce": 4519,
    "\u2581\u13a0\u13da\u13d3\u13b4\u13cd\u13d7": 4520,
    "\u13ac\u13c1\u13b5": 4521,
    "\u13d3\u13c2\u13b8\u13e4\u13a2": 4522,
    "\u13d9\u13a0": 4523,
    "\u2581\u13e7\u13c1\u13e8": 4524,
    "\u13ea\u13b6\u13d7": 4525,
    "\u13e2\u13db": 4526,
    "\u2581\u13d5\u13a6\u13c4\u13aa\u13eb\u13cd": 4527,
    "\u13c2\u13b4": 4528,
    "\u13be\u13db\u13a6": 4529,
    "\u2581\u13a4\u13c1\u13b7\u13ac": 4530,
    "\u13ce\u13ae\u13cd\u13d7": 4531,
    "\u13db\u13c3": 4532,
    "\u2581\u13d9\u13d3\u13e5": 4533,
    "\u13be\u13d7": 4534,
    "\u13cd\u13c6\u13b3": 4535,
    "\u13aa\u13b5\u13f0\u13a5\u13af": 4536,
    "\u13ac\u13c5": 4537,
    "\u2581\u13e3\u13a6": 4538,
    "\u2581\u13eb\u13a6\u13b6\u13af": 4539,
    "\u2581\u13c4\u13db\u13c1": 4540,
    "\u2581\u13f1\u13ac\u13a9": 4541,
    "\u13c2\u13d9\u13b2": 4542,
    "\u13b5\u13cd\u13d3\u13f4": 4543,
    "\u2581\u13a2\u13a9\u13f0\u13b8": 4544,
    "\u2581\u13d5\u13a6\u13c4\u13aa\u13ac": 4545,
    "\u13d8\u13c4\u13a6": 4546,
    "\u2581\u13a0\u13c2\u13cd\u13a6": 4547,
    "\u2581\u13a4\u13cd\u13c6\u13c2\u13aa\u13ce": 4548,
    "\u2581\u13a0\u13cd\u13aa": 4549,
    "\u2581\u13a0\u13d3\u13ea\u13b5\u13a9\u13cd\u13ac": 4550,
    "\u2581\u13a3\u13a6\u13db\u13a6\u13c5": 4551,
    "\u2581\u13a0\u13a9\u13c7\u13d3\u13b8": 4552,
    "\u2581\u13a2\u13e3\u13d3\u13d9\u13b5\u13cd\u13d7\u13cd\u13ac": 4553,
    "\u2581\u13d5\u13a6\u13cd\u13a9\u13b8": 4554,
    "\u13d7\u13a6\u13db\u13af": 4555,
    "\u2581\u13a4\u13be\u13c2\u13a9\u13ce": 4556,
    "\u2581\u13a4\u13b5\u13f0\u13d4\u13c1": 4557,
    "\u13eb\u13b5\u13bb": 4558,
    "\u2581\u13d9\u13e7\u13be\u13d3\u13c5\u13db": 4559,
    "\u13d3\u13d9\u13b5\u13cd\u13d7\u13cd\u13ac": 4560,
    "\u13c4\u13d3\u13b4": 4561,
    "\u2581\u13a4\u13b6\u13a8\u13d2": 4562,
    "\u2581\u13f1\u13e5\u13a6\u13d4\u13ae": 4563,
    "\u2581\u13c2\u13a6\u13b5\u13cd\u13d7\u13cd\u13aa": 4564,
    "\u2581\u13c4\u13c2\u13ea\u13ce\u13b4": 4565,
    "\u2581\u13a2\u13e3\u13b5\u13ae\u13b5\u13ac": 4566,
    "\u2581\u13a6\u13c1\u13e5": 4567,
    "\u2581\u13da\u13d3\u13d8\u13be\u13a5": 4568,
    "\u2581\u13a4\u13ec\u13af\u13f3\u13d2": 4569,
    "\u2581\u13f1\u13c4\u13cd\u13d5": 4570,
    "\u2581\u13c8\u13ac": 4571,
    "\u2581\u13a4\u13c4\u13e9\u13a5": 4572,
    "\u2581\u13d7\u13a6\u13d8": 4573,
    "\u2581\u13a0\u13c7\u13c5\u13d2": 4574,
    "\u13f2\u13cd\u13d3": 4575,
    "\u2581\u13d7\u13a6\u13c1\u13b8": 4576,
    "\u2581\u13a4\u13ee\u13d4\u13c5": 4577,
    "\u13be\u13c4\u13aa\u13eb\u13ce": 4578,
    "\u2581\u13d5\u13a6\u13ec\u13c1\u13d7\u13cd\u13ac": 4579,
    "\u2581\u13f1\u13ac\u13c6": 4580,
    "\u2581\u13ac\u13e9\u13be\u13d5": 4581,
    "\u13af\u13cd\u13d4\u13c2": 4582,
    "\u2581\u13be\u13a9\u13ea\u13ce\u13b8": 4583,
    "\u2581\u13ed\u13ef\u13c5\u13b2": 4584,
    "\u13aa\u13b2\u13cd\u13d9\u13d7": 4585,
    "\u2581\u13a0\u13a9\u13e9\u13db\u13b2": 4586,
    "\u2581\u13c4\u13c5\u13c1\u13b8": 4587,
    "\u2581\u13a5\u13a9\u13d9": 4588,
    "\u2581\u13e5\u13f0\u13b8": 4589,
    "\u13f0\u13b3\u13cd\u13d7": 4590,
    "\u13b4\u13cf": 4591,
    "\u2581\u13a0\u13f4\u13a9": 4592,
    "\u13a4\u13b7\u13e8": 4593,
    "\u2581\u13d5\u13d7": 4594,
    "\u2581\u13a4\u13b5\u13e6\u13db": 4595,
    "\u2581\u13a0\u13c2\u13aa\u13e9\u13d8\u13cd\u13ac": 4596,
    "\u13ec\u13d7\u13a8": 4597,
    "\u2581\u13c7\u13d3\u13c1\u13b3\u13bb": 4598,
    "\u13d7\u13a6\u13b5\u13cd\u13d9\u13d7": 4599,
    "\u13e6": 4600,
    "\u2581\u13e7\u13c2\u13a7\u13bf\u13e9\u13db\u13cd\u13d7": 4601,
    "\u2581\u13d7\u13ab\u13cd\u13d9\u13cd\u13d7": 4602,
    "\u2581\u13a0\u13cd\u13ab\u13d5\u13cd\u13d7": 4603,
    "\u2581\u13c2\u13d5\u13a6\u13ea\u13ce\u13b2": 4604,
    "\u13f2\u13b1\u13af\u13ce\u13b8\u13af": 4605,
    "\u13b0\u13e9": 4606,
    "\u2581\u13a4\u13ec\u13af\u13f3\u13c5": 4607,
    "\u2581\u13ed\u13b7\u13e4\u13b4": 4608,
    "\u2581\u13d7\u13a8\u13ab\u13aa\u13d3\u13c1\u13d7": 4609,
    "\u13cf\u13d4\u13d7\u13cd\u13d7": 4610,
    "\u2581\u13ed\u13b6\u13af\u13cd\u13d7": 4611,
    "\u2581\u13a0\u13e5\u13c1\u13d7": 4612,
    "\u13d9\u13a1\u13cd\u13d7": 4613,
    "\u2581\u13a4\u13b7": 4614,
    "\u2581\u13d7\u13e3\u13b8\u13eb\u13cd\u13d3\u13c1\u13d7": 4615,
    "\u2581\u13a0\u13c7\u13d3\u13cd\u13d7": 4616,
    "\u13db\u13c1\u13b2\u13a2": 4617,
    "\u13a3\u13cf": 4618,
    "\u13cd\u13d7\u13ad": 4619,
    "\u2581\u13a4\u13be\u13d7\u13d4\u13cd\u13d7": 4620,
    "\u2581\u13a0\u13be\u13b3\u13cd\u13a6\u13b5\u13cd\u13a9": 4621,
    "\u2581\u13a0\u13be\u13d3\u13ad\u13f2\u13af": 4622,
    "\u2581\u13a0\u13c2\u13e5\u13ca\u13cf": 4623,
    "\u2581\u13a0\u13ec\u13ad\u13b5": 4624,
    "\u2581\u13a2\u13a8\u13ac\u13c1\u13b8\u13af": 4625,
    "\u2581\u13a2\u13b5\u13a1\u13cc": 4626,
    "\u2581\u13a4\u13cd\u13d4\u13f2\u13d2": 4627,
    "\u2581\u13a4\u13d6\u13b8\u13b3\u13db": 4628,
    "\u2581\u13a7\u13be\u13e5\u13cd\u13d5\u13e5": 4629,
    "\u2581\u13ab\u13eb\u13cd\u13ab\u13eb": 4630,
    "\u2581\u13ac\u13ec\u13af\u13f3\u13b2\u13cd\u13a9": 4631,
    "\u2581\u13ac\u13f2\u13ce\u13ad": 4632,
    "\u2581\u13b0\u13e2\u13d4\u13c5\u13ad": 4633,
    "\u2581\u13b4\u13a3\u13d7\u13cf\u13ef": 4634,
    "\u2581\u13bb\u13da\u13cf\u13b3": 4635,
    "\u2581\u13c2\u13e6\u13b5\u13ac\u13be": 4636,
    "\u2581\u13c7\u13e3\u13b5\u13b5": 4637,
    "\u2581\u13cd\u13d5\u13f1\u13d3": 4638,
    "\u2581\u13d3\u13c7\u13aa\u13d4\u13c5": 4639,
    "\u2581\u13d7\u13be\u13d9\u13b4\u13c6\u13cd\u13a9": 4640,
    "\u2581\u13d7\u13d3\u13b4\u13c5\u13d7\u13cd\u13a9": 4641,
    "\u2581\u13e3\u13a6\u13d1\u13b2\u13a2": 4642,
    "\u2581\u13e7\u13c2\u13e6\u13ef\u13cd\u13d7": 4643,
    "\u2581\u13a5\u13c6\u13b8\u13a2\u13db": 4644,
    "\u2581\u13af\u13cc\u13b3\u13db\u13a6": 4645,
    "\u2581\u13d7\u13ac\u13e9\u13a9\u13e8\u13d7": 4646,
    "\u2581\u13e5\u13c8\u13a3\u13c2": 4647,
    "\u2581\u13a4\u13c2\u13b5\u13c5\u13e8\u13af": 4648,
    "\u2581\u13d3\u13d7\u13b6\u13c2": 4649,
    "\u2581\u13a2\u13ef\u13db\u13c1\u13b5\u13d3\u13cd\u13d7": 4650,
    "\u2581\u13a4\u13b5\u13c3\u13af\u13f4\u13af": 4651,
    "\u2581\u13d7\u13e5\u13a8\u13eb": 4652,
    "\u2581\u13e5\u13c2\u13e8\u13ea\u13ce\u13b8\u13a9": 4653,
    "\u2581\u13e7\u13be\u13d7\u13a9\u13d3": 4654,
    "\u2581\u13a2\u13e5\u13c7\u13d3\u13b8": 4655,
    "\u2581\u13a2\u13f3\u13e9\u13ac\u13d7": 4656,
    "\u2581\u13a0\u13b5\u13cf\u13be\u13af\u13cd\u13d9\u13d7": 4657,
    "\u2581\u13a0\u13c2\u13aa\u13d7\u13f3": 4658,
    "\u2581\u13a4\u13ea\u13ef\u13b8\u13e4\u13a2": 4659,
    "\u2581\u13da\u13d5\u13f2\u13c1": 4660,
    "\u2581\u13a0\u13c6\u13d7\u13d4\u13cd\u13d7": 4661,
    "\u2581\u13cd\u13aa\u13c2\u13d7\u13e2": 4662,
    "\u2581\u13a0\u13be\u13b5\u13d6\u13b8\u13b2\u13cd\u13a9": 4663,
    "\u2581\u13d7\u13a8\u13d8\u13c2\u13d3\u13cd\u13d7": 4664,
    "\u2581\u13a4\u13b5\u13cd\u13db\u13e7\u13c1": 4665,
    "\u2581\u13b9\u13ba\u13b5": 4666,
    "\u2581\u13aa\u13af\u13f3\u13b2\u13cd\u13a8\u13cd\u13d7": 4667,
    "\u2581\u13a0\u13c2\u13b6\u13cd\u13a9": 4668,
    "\u2581\u13a4\u13e6\u13a0\u13ce\u13d7": 4669,
    "\u2581\u13a0\u13aa\u13b2\u13cd\u13d4\u13c5\u13af": 4670,
    "\u2581\u13a0\u13df\u13b6\u13a5": 4671,
    "\u2581\u13a4\u13e2\u13d3\u13b8": 4672,
    "\u2581\u13a4\u13a6\u13db\u13be\u13e8\u13af": 4673,
    "\u2581\u13e7\u13cf\u13e9": 4674,
    "\u2581\u13a6\u13b6\u13e3\u13d7": 4675,
    "\u2581\u13a0\u13c1\u13b8\u13d7\u13cd\u13a8\u13a2": 4676,
    "\u2581\u13a2\u13aa\u13c2\u13ef": 4677,
    "\u2581\u13a4\u13d9\u13b3\u13c5\u13cd\u13d7": 4678,
    "\u2581\u13d5\u13e5\u13c2\u13f4\u13ce\u13cd\u13d7": 4679,
    "\u13be\u13cc\u13be\u13a9": 4680,
    "\u2581\u13a2\u13e5\u13c1\u13ab": 4681,
    "\u2581\u13d3\u13f2\u13e3\u13db\u13c1\u13b5": 4682,
    "\u2581\u13d7\u13a9\u13f2\u13b1\u13d2\u13af": 4683,
    "\u2581\u13c5\u13d3\u13f3\u13be\u13d3\u13b4\u13c5\u13af": 4684,
    "\u2581\u13be\u13c2\u13cd\u13a6\u13c5\u13be": 4685,
    "\u2581\u13c6\u13cf\u13b9": 4686,
    "\u2581\u13be\u13c3\u13af\u13f3\u13b2\u13cd\u13ac\u13be": 4687,
    "\u2581\u13a0\u13d9\u13b4\u13b0\u13d2\u13af": 4688,
    "\u2581\u13ac\u13e9\u13d5\u13f1\u13db": 4689,
    "\u2581\u13d7\u13c2\u13c3\u13a8\u13c2": 4690,
    "\u2581\u13e7\u13ac\u13e9\u13b3\u13c5\u13af": 4691,
    "\u2581\u13e7\u13c8\u13ef": 4692,
    "\u13a9\u13cf\u13d5\u13a9": 4693,
    "\u2581\u13c4\u13be\u13db\u13c1\u13b5\u13d9\u13b8": 4694,
    "\u2581\u13a2\u13ac\u13c6\u13db\u13c1\u13d7": 4695,
    "\u2581\u13d6\u13b9": 4696,
    "\u13eb\u13c2\u13d7\u13e2": 4697,
    "\u2581\u13ed\u13d5\u13b5\u13e4": 4698,
    "\u2581\u13d7\u13c2\u13d0\u13af": 4699,
    "\u2581\u13f1\u13e5\u13aa\u13b5\u13f0\u13a3": 4700,
    "\u13d9\u13b4\u13cb": 4701,
    "\u2581\u13a4\u13f4\u13b5\u13b4": 4702,
    "\u2581\u13a2\u13f3\u13be\u13d3\u13b3": 4703,
    "\u2581\u13a4\u13a6\u13c3\u13ee": 4704,
    "\u2581\u13d3\u13d3\u13db\u13c2": 4705,
    "\u2581\u13c1\u13c6\u13b8": 4706,
    "\u2581\u13d3\u13a6\u13e5\u13c1\u13b5": 4707,
    "\u2581\u13d8\u13a6\u13d9\u13b5": 4708,
    "\u2581\u13d7\u13ac\u13e9\u13c2\u13f0\u13af": 4709,
    "\u2581\u13da\u13ea\u13a7\u13c5\u13a9": 4710,
    "\u2581\u13a4\u13c6\u13db\u13a9": 4711,
    "\u2581\u13e7\u13ec\u13e2\u13c5\u13af": 4712,
    "\u2581\u13b6\u13e9\u13c2": 4713,
    "\u2581\u13d7\u13a6\u13be\u13cc\u13a2": 4714,
    "\u2581\u13da\u13ed\u13e2\u13d4\u13c5\u13a9": 4715,
    "\u2581\u13e7\u13b5\u13ac\u13e9\u13df": 4716,
    "\u2581\u13a0\u13c6\u13df\u13c2\u13ac\u13c1\u13b8": 4717,
    "\u2581\u13a0\u13c2\u13b1\u13e3": 4718,
    "\u2581\u13e7\u13be\u13aa\u13c5\u13cd\u13d3\u13b5": 4719,
    "\u2581\u13e9\u13e5\u13b3": 4720,
    "\u2581\u13a5\u13c3\u13e5": 4721,
    "\u13d0\u13ad\u13db": 4722,
    "\u2581\u13f3\u13f2\u13b1\u13d2": 4723,
    "\u2581\u13a2\u13ef\u13d3\u13db\u13c1\u13af": 4724,
    "\u2581\u13d7\u13d5\u13f2\u13b2\u13cd\u13a9": 4725,
    "\u2581\u13eb\u13e5\u13f2\u13b5\u13a6": 4726,
    "\u2581\u13a0\u13c2\u13c3\u13ae\u13cd\u13a8": 4727,
    "\u2581\u13c5\u13c1\u13b8\u13ad": 4728,
    "\u2581\u13a2\u13ef\u13c6\u13b5\u13cd\u13d9\u13d7\u13f1": 4729,
    "\u2581\u13a4\u13be\u13da\u13b5\u13cd\u13a9": 4730,
    "\u2581\u13a6\u13e5\u13ef\u13c1\u13b3\u13c5\u13af": 4731,
    "\u2581\u13aa\u13a2\u13f3\u13b2\u13cd\u13a6": 4732,
    "\u2581\u13ad\u13db\u13d3\u13cd\u13d3": 4733,
    "\u2581\u13c5\u13d3\u13f3\u13c5\u13cf\u13db": 4734,
    "\u2581\u13a0\u13c2\u13a9\u13a6\u13a8": 4735,
    "\u2581\u13d7\u13a9\u13f4\u13eb": 4736,
    "\u2581\u13e5\u13cd\u13a6\u13a2\u13b2": 4737,
    "\u2581\u13b1\u13b7\u13e3": 4738,
    "\u2581\u13a4\u13be\u13d9\u13b4\u13b0\u13af\u13cd\u13d9\u13d7": 4739,
    "\u2581\u13a0\u13c2\u13be\u13f0\u13cd\u13a9": 4740,
    "\u2581\u13eb\u13c4\u13ea\u13ce\u13a2": 4741,
    "\u2581\u13d5\u13c5\u13d9\u13a5": 4742,
    "\u2581\u13a1\u13e5\u13f2\u13b5\u13b8\u13ad": 4743,
    "\u2581\u13d5\u13a6\u13f0\u13cc\u13db": 4744,
    "\u2581\u13c2\u13e3\u13d3\u13c5\u13db\u13be": 4745,
    "\u2581\u13a4\u13c3\u13af\u13f3\u13af": 4746,
    "\u2581\u13a2\u13e5\u13a8\u13f4": 4747,
    "\u2581\u13da\u13ec\u13c1\u13d4\u13c5\u13a9": 4748,
    "\u2581\u13d7\u13cd\u13a9\u13a7\u13c1": 4749,
    "\u2581\u13a2\u13d7\u13dc": 4750,
    "\u2581\u13a2\u13e4\u13b5\u13ad": 4751,
    "\u2581\u13f1\u13e5\u13cf\u13be": 4752,
    "\u2581\u13c4\u13d3\u13d1\u13f4\u13be": 4753,
    "\u2581\u13d7\u13e5\u13b8\u13eb\u13cd\u13d3\u13c1\u13af": 4754,
    "\u2581\u13d7\u13c2\u13b4\u13c2": 4755,
    "\u2581\u13a0\u13c2\u13a1\u13bc\u13b5": 4756,
    "\u2581\u13a4\u13c2\u13c6\u13d8\u13cd\u13d7": 4757,
    "\u2581\u13a0\u13c6\u13d5\u13b6\u13b0\u13d2": 4758,
    "\u2581\u13a4\u13b8\u13c9\u13d4\u13c1": 4759,
    "\u2581\u13d7\u13e3\u13b3\u13cf": 4760,
    "\u2581\u13c5\u13d3\u13cd\u13c6": 4761,
    "\u2581\u13a0\u13b1\u13b5": 4762,
    "\u2581\u13eb\u13c2\u13ea\u13cf": 4763,
    "\u2581\u13c1\u13b3\u13da": 4764,
    "\u2581\u13d7\u13ad\u13be\u13ec": 4765,
    "\u2581\u13a2\u13e7\u13d6": 4766,
    "\u2581\u13d3\u13d3\u13c2\u13b8\u13a8\u13cd\u13d7": 4767,
    "\u2581\u13a4\u13a7\u13b5\u13e8": 4768,
    "\u2581\u13e4\u13b5\u13aa": 4769,
    "\u2581\u13da\u13c4\u13cc\u13db": 4770,
    "\u2581\u13a2\u13ac\u13be\u13d5\u13c5": 4771,
    "\u2581\u13a0\u13ef\u13c4\u13b5": 4772,
    "\u2581\u13a4\u13d3\u13d1\u13f0\u13db": 4773,
    "\u2581\u13eb\u13e5\u13a6\u13d8": 4774,
    "\u2581\u13da\u13bf\u13cd\u13d5\u13e2": 4775,
    "\u2581\u13d7\u13c1\u13cd\u13a8\u13cd\u13a9": 4776,
    "\u2581\u13a2\u13e4\u13c5\u13cd\u13d7\u13f1": 4777,
    "\u2581\u13d7\u13a6\u13aa\u13d9\u13d7": 4778,
    "\u13e1\u13d4\u13c2": 4779,
    "\u2581\u13e6\u13a8\u13e5": 4780,
    "\u2581\u13ac\u13d4\u13f2\u13ce\u13ad": 4781,
    "\u13f2\u13b5\u13cd\u13d7\u13f1": 4782,
    "\u2581\u13a1\u13bf\u13a2": 4783,
    "\u2581\u13e3\u13d3\u13c5\u13db\u13a2": 4784,
    "\u2581\u13aa\u13d2\u13c5": 4785,
    "\u2581\u13a0\u13c4\u13ec\u13a9\u13af": 4786,
    "\u2581\u13d3\u13c2\u13f4\u13ac\u13a2": 4787,
    "\u13b5\u13d6\u13b8\u13c2\u13cd\u13d7": 4788,
    "\u2581\u13a2\u13e8\u13f2\u13ea\u13b3\u13c1\u13ad": 4789,
    "\u2581\u13d3\u13c2\u13f4\u13a8\u13cd\u13d7": 4790,
    "\u2581\u13e3\u13d3\u13b8\u13a9": 4791,
    "\u2581\u13ed\u13a9\u13b6\u13eb\u13ce": 4792,
    "\u2581\u13d3\u13c2\u13c4\u13d9\u13ac\u13a2": 4793,
    "\u2581\u13da\u13da\u13d3\u13db\u13a2": 4794,
    "\u2581\u13d7\u13e3\u13b3\u13cf\u13d5\u13c2": 4795,
    "\u2581\u13e5\u13a6\u13da\u13ad": 4796,
    "\u2581\u13ed\u13b3\u13a9\u13d2": 4797,
    "\u2581\u13a0\u13c8\u13b7": 4798,
    "\u2581\u13e7\u13f2\u13af\u13cd\u13d7\u13f1": 4799,
    "\u2581\u13a4\u13d3\u13c5\u13a6\u13b8\u13d3": 4800,
    "\u2581\u13c2\u13e5\u13ea\u13cd\u13ac": 4801,
    "\u2581\u13a1\u13c8\u13b3": 4802,
    "\u2581\u13a7\u13c1\u13cd\u13ac": 4803,
    "\u2581\u13e7\u13b8\u13eb\u13cd\u13d3\u13c1\u13b8\u13af": 4804,
    "\u2581\u13d3\u13e5\u13c1\u13b5": 4805,
    "\u2581\u13a4\u13ec\u13d2\u13c5": 4806,
    "\u2581\u13d3\u13be\u13e0\u13f1\u13b2": 4807,
    "\u2581\u13a6\u13db\u13a9\u13a0": 4808,
    "\u2581\u13c5\u13db\u13db\u13c1\u13b5": 4809,
    "\u2581\u13ac\u13ef\u13b5\u13a1\u13b5\u13e4": 4810,
    "\u2581\u13e7\u13ec\u13ea\u13b3\u13c5": 4811,
    "\u2581\u13d2\u13af\u13f0\u13f1": 4812,
    "\u2581\u13c7\u13b5\u13cf": 4813,
    "\u2581\u13a1\u13da\u13e5": 4814,
    "\u2581\u13a4\u13c5\u13ea": 4815,
    "\u2581\u13d5\u13af\u13a7\u13c5": 4816,
    "\u2581\u13a4\u13f2\u13b1\u13ce\u13ae\u13cd\u13d7": 4817,
    "\u2581\u13a0\u13f4\u13d3\u13c6\u13b6\u13cd\u13a9": 4818,
    "\u2581\u13da\u13d8\u13c3\u13ae\u13b4\u13a2": 4819,
    "\u2581\u13e3\u13d4\u13b3\u13ec\u13af\u13cd\u13d7": 4820,
    "\u2581\u13e7\u13a7\u13ad\u13f2": 4821,
    "\u2581\u13d7\u13a6\u13c1\u13b2": 4822,
    "\u2581\u13a6\u13d3\u13b7\u13aa\u13d7": 4823,
    "\u2581\u13f1\u13c2\u13a6\u13b5\u13cd\u13d7\u13ad": 4824,
    "\u2581\u13a1\u13cd\u13a6\u13c2\u13f3": 4825,
    "\u2581\u13a4\u13b5\u13e6\u13af\u13db": 4826,
    "\u2581\u13a2\u13e3\u13b5\u13cd\u13d3\u13f4\u13d7\u13f1": 4827,
[...]
